WIDTH=16;
DEPTH=24576;

ADDRESS_RADIX=DEC;
DATA_RADIX=HEX;

CONTENT BEGIN
    0 : 0403;
    1 : FBE4;
    2 : 0494;
    3 : F8DD;
    4 : 0EBB;
    5 : F276;
    6 : 027D;
    7 : FE69;
    8 : FED5;
    9 : FB2B;
    10 : 0013;
    11 : F888;
    12 : FE09;
    13 : 0705;
    14 : 03BA;
    15 : FD33;
    16 : 0245;
    17 : 01F7;
    18 : 0718;
    19 : 0339;
    20 : 07AD;
    21 : F73B;
    22 : 150D;
    23 : F3D7;
    24 : FD04;
    25 : FE9D;
    26 : 0347;
    27 : 00B5;
    28 : F864;
    29 : FD83;
    30 : FC03;
    31 : 0113;
    32 : 0136;
    33 : F94D;
    34 : FD04;
    35 : FDC2;
    36 : FF80;
    37 : FDC3;
    38 : 0088;
    39 : F9F3;
    40 : 0408;
    41 : 0080;
    42 : FC04;
    43 : 0660;
    44 : 0207;
    45 : 00E2;
    46 : 06BF;
    47 : F807;
    48 : FE02;
    49 : 124B;
    50 : FEFA;
    51 : 03F4;
    52 : FA8D;
    53 : 06F9;
    54 : 0000;
    55 : 0181;
    56 : 043C;
    57 : FAB0;
    58 : 1089;
    59 : FCF1;
    60 : FEFF;
    61 : 124C;
    62 : FDBC;
    63 : 076E;
    64 : F80A;
    65 : 0908;
    66 : 01CA;
    67 : FAD5;
    68 : 019A;
    69 : FCCD;
    70 : 0704;
    71 : FAB2;
    72 : FE82;
    73 : 0B6B;
    74 : 0049;
    75 : F92F;
    76 : 0423;
    77 : FC84;
    78 : FF49;
    79 : 03D9;
    80 : FE1D;
    81 : 0700;
    82 : FF95;
    83 : 025E;
    84 : FC84;
    85 : 0148;
    86 : FDE8;
    87 : 0385;
    88 : 0DF1;
    89 : 037C;
    90 : FCC2;
    91 : FC3D;
    92 : 007B;
    93 : 02B3;
    94 : 046E;
    95 : FF21;
    96 : 01F9;
    97 : FCF4;
    98 : 0859;
    99 : F5A4;
    100 : 10B6;
    101 : F4A7;
    102 : 0693;
    103 : FC3B;
    104 : 01A2;
    105 : FCBA;
    106 : 05FC;
    107 : F7F0;
    108 : FA4C;
    109 : 1AC9;
    110 : FCB4;
    111 : 076C;
    112 : F720;
    113 : 0C26;
    114 : FD05;
    115 : 0AB4;
    116 : 01FE;
    117 : FEEE;
    118 : 04DD;
    119 : 01FC;
    120 : 0100;
    121 : 01AF;
    122 : FF1D;
    123 : F9CF;
    124 : 0C40;
    125 : F7FF;
    126 : FC00;
    127 : 04B1;
    128 : FA6A;
    129 : 098A;
    130 : F386;
    131 : 0681;
    132 : 02F8;
    133 : F649;
    134 : 05E3;
    135 : F720;
    136 : 0C84;
    137 : F814;
    138 : 06F4;
    139 : FAC3;
    140 : 0455;
    141 : F669;
    142 : 0F56;
    143 : F415;
    144 : FF06;
    145 : FF8A;
    146 : 01E6;
    147 : FD15;
    148 : 085B;
    149 : 05DF;
    150 : FF41;
    151 : F7E4;
    152 : 0181;
    153 : FAFB;
    154 : 02A4;
    155 : FBC3;
    156 : F987;
    157 : 09C7;
    158 : FEF2;
    159 : 0377;
    160 : FD5C;
    161 : 00FF;
    162 : FD04;
    163 : 05AB;
    164 : F6F7;
    165 : 09FD;
    166 : F2D1;
    167 : 0AF2;
    168 : FBE3;
    169 : FEFD;
    170 : 0317;
    171 : 029D;
    172 : 088B;
    173 : FCC2;
    174 : 047E;
    175 : FA0B;
    176 : 0100;
    177 : FA7A;
    178 : 035E;
    179 : 017F;
    180 : 040A;
    181 : 0366;
    182 : 0326;
    183 : F9AE;
    184 : 111C;
    185 : FEFE;
    186 : 0479;
    187 : 09DC;
    188 : FE97;
    189 : FEE3;
    190 : 0392;
    191 : FB87;
    192 : 0475;
    193 : FCC8;
    194 : FE0D;
    195 : FFEE;
    196 : 01A1;
    197 : 0573;
    198 : FC23;
    199 : 068A;
    200 : FB79;
    201 : 0837;
    202 : F1F0;
    203 : 079B;
    204 : FFE0;
    205 : 030C;
    206 : FE93;
    207 : 004A;
    208 : 02E5;
    209 : 007E;
    210 : 01FE;
    211 : FB48;
    212 : 01ED;
    213 : F812;
    214 : 0994;
    215 : F40B;
    216 : 0577;
    217 : 1027;
    218 : FD91;
    219 : 01C4;
    220 : 00A7;
    221 : 0361;
    222 : FF05;
    223 : FF20;
    224 : 0547;
    225 : F9B2;
    226 : 0A31;
    227 : FA9D;
    228 : 0000;
    229 : FDCD;
    230 : 036B;
    231 : FC4E;
    232 : 0AE0;
    233 : F740;
    234 : 05FC;
    235 : FF8F;
    236 : 0299;
    237 : FDDC;
    238 : F423;
    239 : FD02;
    240 : 037A;
    241 : F64B;
    242 : FE1B;
    243 : FF63;
    244 : FF3C;
    245 : 027C;
    246 : F8FD;
    247 : 0861;
    248 : FC59;
    249 : 081B;
    250 : FF6E;
    251 : 0E87;
    252 : 0400;
    253 : FD94;
    254 : 011D;
    255 : F9DD;
    256 : 0C02;
    257 : F0FE;
    258 : FF09;
    259 : 006E;
    260 : 00EF;
    261 : FF07;
    262 : 0496;
    263 : F74F;
    264 : 02FE;
    265 : FDD1;
    266 : 0204;
    267 : FAF8;
    268 : 0049;
    269 : 02FE;
    270 : 03FE;
    271 : 0C54;
    272 : 00F1;
    273 : 03FD;
    274 : FF8F;
    275 : 01FF;
    276 : 0100;
    277 : 09A8;
    278 : FCDC;
    279 : FA1C;
    280 : 00F3;
    281 : FD01;
    282 : 04FB;
    283 : 017F;
    284 : 001F;
    285 : FDC8;
    286 : 06D6;
    287 : 027E;
    288 : 0000;
    289 : 0286;
    290 : FF44;
    291 : F9AD;
    292 : 0BDC;
    293 : F8FB;
    294 : FBC4;
    295 : 026E;
    296 : 02C1;
    297 : 002E;
    298 : EFC1;
    299 : 0040;
    300 : FC8A;
    301 : 056F;
    302 : 0315;
    303 : F9A7;
    304 : 0B86;
    305 : 0000;
    306 : F3F6;
    307 : 0AC1;
    308 : FBCB;
    309 : 0827;
    310 : F5E1;
    311 : 0605;
    312 : 0482;
    313 : EA36;
    314 : 0220;
    315 : F85E;
    316 : 0335;
    317 : FDFF;
    318 : 0000;
    319 : 05F9;
    320 : 03E6;
    321 : F810;
    322 : 115B;
    323 : F30E;
    324 : FD9F;
    325 : 0365;
    326 : FD49;
    327 : 02AB;
    328 : F80E;
    329 : 04C2;
    330 : 0050;
    331 : 0B77;
    332 : 00A4;
    333 : FA67;
    334 : 175D;
    335 : FD7F;
    336 : 0200;
    337 : 0302;
    338 : FF0D;
    339 : F9E8;
    340 : 03C8;
    341 : 04FF;
    342 : FF00;
    343 : 021C;
    344 : FF31;
    345 : 0542;
    346 : F6E9;
    347 : 043E;
    348 : 0000;
    349 : 0CFB;
    350 : F9B1;
    351 : 0430;
    352 : FD75;
    353 : 0207;
    354 : 0161;
    355 : FDBA;
    356 : 05F5;
    357 : FA96;
    358 : 0C33;
    359 : F7BB;
    360 : FC2B;
    361 : FA78;
    362 : 01DE;
    363 : FD9E;
    364 : 0813;
    365 : FABB;
    366 : 017B;
    367 : FBD6;
    368 : 0264;
    369 : FB9B;
    370 : 0442;
    371 : FB10;
    372 : 0ABE;
    373 : FD42;
    374 : 04DD;
    375 : FA27;
    376 : F7CF;
    377 : FB1E;
    378 : FC02;
    379 : 0729;
    380 : 040B;
    381 : FEE2;
    382 : 0541;
    383 : FC02;
    384 : 02E3;
    385 : 04C3;
    386 : 0014;
    387 : 0059;
    388 : 0786;
    389 : F84D;
    390 : 00F1;
    391 : FCA0;
    392 : 070B;
    393 : F776;
    394 : 1B4B;
    395 : F87A;
    396 : 0426;
    397 : FD66;
    398 : 02F2;
    399 : FC30;
    400 : 0BCE;
    401 : F9C7;
    402 : 01E1;
    403 : 07E5;
    404 : 023E;
    405 : 01D6;
    406 : E333;
    407 : FDFF;
    408 : 026E;
    409 : 05CC;
    410 : FF96;
    411 : FC52;
    412 : 150A;
    413 : F6C4;
    414 : FA7A;
    415 : 1144;
    416 : FC57;
    417 : 02BD;
    418 : 10DB;
    419 : FEE5;
    420 : 03B8;
    421 : FD40;
    422 : FEBE;
    423 : 0146;
    424 : FA53;
    425 : 06F9;
    426 : FA8B;
    427 : 0988;
    428 : 0036;
    429 : FDCF;
    430 : F6D7;
    431 : 007F;
    432 : 0620;
    433 : 1142;
    434 : 0157;
    435 : FE3D;
    436 : 006D;
    437 : 0310;
    438 : FBD3;
    439 : 0CC3;
    440 : 03B7;
    441 : FCC9;
    442 : F884;
    443 : 042D;
    444 : FE07;
    445 : FB95;
    446 : FC26;
    447 : 017C;
    448 : 032C;
    449 : 06E6;
    450 : 074E;
    451 : 0A5A;
    452 : 0708;
    453 : FA3F;
    454 : 10AE;
    455 : F8B2;
    456 : F70F;
    457 : 0331;
    458 : FD1E;
    459 : 0158;
    460 : 04EC;
    461 : 01FD;
    462 : FB85;
    463 : F03E;
    464 : 00D3;
    465 : FB34;
    466 : FA72;
    467 : FE82;
    468 : FEFA;
    469 : DC4F;
    470 : 01E6;
    471 : FDCD;
    472 : 1522;
    473 : 020C;
    474 : FC91;
    475 : 064B;
    476 : FF47;
    477 : FF36;
    478 : 0728;
    479 : FD8C;
    480 : 056A;
    481 : FB58;
    482 : 0407;
    483 : F80C;
    484 : FA1B;
    485 : F820;
    486 : 04CC;
    487 : EBB8;
    488 : 0682;
    489 : F714;
    490 : 0BE2;
    491 : FB34;
    492 : 0426;
    493 : 0A52;
    494 : 01C0;
    495 : FCDC;
    496 : E1C3;
    497 : 0085;
    498 : FE0A;
    499 : 0BDC;
    500 : FD66;
    501 : 0506;
    502 : E4CE;
    503 : 0620;
    504 : FE3E;
    505 : 08F2;
    506 : FEF4;
    507 : 0155;
    508 : DBBD;
    509 : 0646;
    510 : FE7C;
    511 : 0368;
    512 : FDAA;
    513 : 007F;
    514 : 0C94;
    515 : FE7C;
    516 : FB2E;
    517 : 0C85;
    518 : F967;
    519 : 0B9C;
    520 : F820;
    521 : 0C6C;
    522 : FC01;
    523 : 021B;
    524 : 0103;
    525 : 01EB;
    526 : 00B5;
    527 : 04FF;
    528 : FBBA;
    529 : 028F;
    530 : FFAF;
    531 : 023B;
    532 : 0379;
    533 : 02E4;
    534 : F823;
    535 : 0570;
    536 : FEDB;
    537 : 0585;
    538 : FCEA;
    539 : 01F7;
    540 : FA45;
    541 : 01A1;
    542 : FA6B;
    543 : 0946;
    544 : FAF2;
    545 : 0AB6;
    546 : 0238;
    547 : F3CA;
    548 : 0012;
    549 : FC55;
    550 : 0437;
    551 : 0335;
    552 : 0182;
    553 : 06AD;
    554 : 0124;
    555 : FBAC;
    556 : 11D7;
    557 : FE7E;
    558 : 03FB;
    559 : 20CB;
    560 : FF8F;
    561 : FDFD;
    562 : 0539;
    563 : F50D;
    564 : FBCD;
    565 : 0F60;
    566 : FBD2;
    567 : 06DF;
    568 : DEA1;
    569 : 0FBF;
    570 : F92C;
    571 : F93D;
    572 : FE28;
    573 : 06E7;
    574 : E48A;
    575 : 0858;
    576 : 0201;
    577 : 18FC;
    578 : 0076;
    579 : FEAD;
    580 : FF82;
    581 : FFC0;
    582 : 07ED;
    583 : FCB5;
    584 : FFE1;
    585 : FC93;
    586 : 115D;
    587 : 04F4;
    588 : 00FF;
    589 : FE38;
    590 : 0355;
    591 : F629;
    592 : 0773;
    593 : EF0B;
    594 : 0000;
    595 : 03AD;
    596 : 0206;
    597 : FF6C;
    598 : 0A34;
    599 : FD0A;
    600 : 0000;
    601 : D29A;
    602 : 0346;
    603 : F83E;
    604 : 12DF;
    605 : F3E2;
    606 : FAF5;
    607 : 0D74;
    608 : FD75;
    609 : 03F4;
    610 : FE83;
    611 : 0388;
    612 : 0402;
    613 : 13D9;
    614 : FE49;
    615 : FC77;
    616 : 0984;
    617 : 0381;
    618 : 078D;
    619 : F8DC;
    620 : 0B37;
    621 : F260;
    622 : 1C20;
    623 : F0E6;
    624 : 0000;
    625 : 1BF8;
    626 : 05CF;
    627 : F687;
    628 : 0602;
    629 : FBE9;
    630 : FF7E;
    631 : F90D;
    632 : FBFC;
    633 : 081C;
    634 : 03A8;
    635 : 040F;
    636 : F8FA;
    637 : 100C;
    638 : FFD4;
    639 : 003D;
    640 : 0725;
    641 : 04EA;
    642 : FE12;
    643 : 0BB1;
    644 : 0609;
    645 : FA7B;
    646 : 072B;
    647 : F963;
    648 : 0000;
    649 : 0281;
    650 : FDC2;
    651 : 02BF;
    652 : F3D3;
    653 : 00F0;
    654 : F92C;
    655 : 0115;
    656 : FE78;
    657 : 0109;
    658 : FB4B;
    659 : 00FA;
    660 : F857;
    661 : 0BFC;
    662 : FAB7;
    663 : 09FB;
    664 : FF29;
    665 : 0B3C;
    666 : FFBF;
    667 : 1203;
    668 : FDC3;
    669 : 02AE;
    670 : E503;
    671 : 0712;
    672 : 032C;
    673 : 011A;
    674 : 0322;
    675 : FD4C;
    676 : F7E6;
    677 : FCF3;
    678 : FDE5;
    679 : 049B;
    680 : 015C;
    681 : 0092;
    682 : 17DD;
    683 : FF02;
    684 : FE07;
    685 : F142;
    686 : 02EC;
    687 : F7F3;
    688 : 16C5;
    689 : F9D5;
    690 : 0545;
    691 : 00A4;
    692 : FB5C;
    693 : 046C;
    694 : 0BBC;
    695 : 097D;
    696 : 0298;
    697 : 1A26;
    698 : FE94;
    699 : 02CC;
    700 : 0212;
    701 : 047A;
    702 : F8B0;
    703 : E5FF;
    704 : FD3E;
    705 : 07FF;
    706 : FE18;
    707 : 0892;
    708 : 01F4;
    709 : 0186;
    710 : FF02;
    711 : 0076;
    712 : F85B;
    713 : 065A;
    714 : 02B5;
    715 : FF75;
    716 : 05E3;
    717 : F7B5;
    718 : E033;
    719 : F39D;
    720 : 0000;
    721 : 0829;
    722 : FF3F;
    723 : FE86;
    724 : FD7D;
    725 : 01FD;
    726 : F9B3;
    727 : 08EE;
    728 : FD2C;
    729 : 0415;
    730 : 18DA;
    731 : FDE6;
    732 : F90A;
    733 : FB5E;
    734 : 0035;
    735 : FD3F;
    736 : 07FB;
    737 : FE03;
    738 : 0192;
    739 : 0452;
    740 : 088F;
    741 : F722;
    742 : FFA5;
    743 : F3B5;
    744 : 0211;
    745 : 0FA2;
    746 : 0374;
    747 : FAF2;
    748 : 1503;
    749 : F4A2;
    750 : FD96;
    751 : 0775;
    752 : FFB8;
    753 : 00B6;
    754 : FF34;
    755 : 0834;
    756 : 04B4;
    757 : 01D8;
    758 : FC27;
    759 : 03A6;
    760 : 1E02;
    761 : 08D2;
    762 : 0000;
    763 : 0248;
    764 : FF99;
    765 : 01C3;
    766 : F9B3;
    767 : FB23;
    768 : 0495;
    769 : FF0A;
    770 : FF5F;
    771 : FD45;
    772 : FFA7;
    773 : 0187;
    774 : 01B9;
    775 : 0079;
    776 : FAE0;
    777 : 05CF;
    778 : FDB3;
    779 : 046F;
    780 : F89C;
    781 : 0335;
    782 : FA5A;
    783 : 0850;
    784 : F7C4;
    785 : 0764;
    786 : 003E;
    787 : 030E;
    788 : FADA;
    789 : 0539;
    790 : F19B;
    791 : 06D0;
    792 : 0194;
    793 : 01EB;
    794 : F79E;
    795 : 0703;
    796 : FDAA;
    797 : 0BB7;
    798 : FC0E;
    799 : 054D;
    800 : FBC6;
    801 : 06E3;
    802 : F9E7;
    803 : 0FC9;
    804 : FF05;
    805 : FFA4;
    806 : FFF3;
    807 : 04AF;
    808 : F6A0;
    809 : 09D0;
    810 : FE10;
    811 : 04E9;
    812 : F82E;
    813 : 0692;
    814 : F269;
    815 : 08B8;
    816 : FEFA;
    817 : 0FE0;
    818 : 0016;
    819 : F778;
    820 : 01B1;
    821 : F8D9;
    822 : 05FF;
    823 : F812;
    824 : 0712;
    825 : F355;
    826 : 064B;
    827 : F03B;
    828 : FD4C;
    829 : F8F6;
    830 : F972;
    831 : 0937;
    832 : F3DD;
    833 : 0995;
    834 : 0722;
    835 : FFA4;
    836 : FFE4;
    837 : FBB7;
    838 : 038C;
    839 : 0105;
    840 : 0179;
    841 : FBE7;
    842 : FF4F;
    843 : 054E;
    844 : F9A8;
    845 : 0568;
    846 : 0AAC;
    847 : F1B5;
    848 : 021C;
    849 : F905;
    850 : 05A8;
    851 : F699;
    852 : FD0C;
    853 : F226;
    854 : FF3C;
    855 : 03F6;
    856 : 06DC;
    857 : FE08;
    858 : 038A;
    859 : FB41;
    860 : 01F5;
    861 : F8F0;
    862 : 095C;
    863 : F769;
    864 : 02C8;
    865 : FF1D;
    866 : FC59;
    867 : 0115;
    868 : F7D7;
    869 : 0206;
    870 : 00FF;
    871 : FD8B;
    872 : FBDB;
    873 : 01DE;
    874 : FEA1;
    875 : FD04;
    876 : 0056;
    877 : 0AE9;
    878 : FE4F;
    879 : 0223;
    880 : F2C3;
    881 : 00D3;
    882 : FBF5;
    883 : 063C;
    884 : FF72;
    885 : FE3E;
    886 : FC1D;
    887 : FCF7;
    888 : 0000;
    889 : 000D;
    890 : 0112;
    891 : FB87;
    892 : F596;
    893 : 0632;
    894 : FFF0;
    895 : FD60;
    896 : 027D;
    897 : F77C;
    898 : 0D1F;
    899 : F8D4;
    900 : 0288;
    901 : F965;
    902 : FFBF;
    903 : F986;
    904 : 0606;
    905 : FDB9;
    906 : FC70;
    907 : 0437;
    908 : F9CA;
    909 : FBBE;
    910 : 0076;
    911 : 0105;
    912 : 02F1;
    913 : FC73;
    914 : 00B8;
    915 : FEFD;
    916 : 03FA;
    917 : 02F1;
    918 : FCF6;
    919 : 03D4;
    920 : F9D8;
    921 : 01D0;
    922 : FD23;
    923 : 0207;
    924 : 0517;
    925 : FC7A;
    926 : FE47;
    927 : FB0E;
    928 : 04C0;
    929 : FF7E;
    930 : 023C;
    931 : FAAD;
    932 : FB65;
    933 : FFBA;
    934 : FA49;
    935 : 07B8;
    936 : 0000;
    937 : FEE2;
    938 : 02D8;
    939 : FBE0;
    940 : 06EB;
    941 : FD0B;
    942 : 0105;
    943 : 0B12;
    944 : FFD9;
    945 : F93C;
    946 : 02EB;
    947 : 0105;
    948 : 0566;
    949 : FFC0;
    950 : FD73;
    951 : 0439;
    952 : F407;
    953 : 01F6;
    954 : F9A0;
    955 : 0170;
    956 : F9FC;
    957 : 04C0;
    958 : F019;
    959 : 075B;
    960 : FF05;
    961 : 04F9;
    962 : FDEC;
    963 : 03C0;
    964 : FD1C;
    965 : FD0E;
    966 : FAEA;
    967 : FE3F;
    968 : 01D9;
    969 : F7BF;
    970 : 1309;
    971 : F2C8;
    972 : FF05;
    973 : 010C;
    974 : FE70;
    975 : 004B;
    976 : FB6A;
    977 : 0565;
    978 : 013A;
    979 : FFC0;
    980 : FC6E;
    981 : 0387;
    982 : F96C;
    983 : 0661;
    984 : 00FC;
    985 : E707;
    986 : FD7D;
    987 : 0622;
    988 : FC5C;
    989 : FF82;
    990 : FF16;
    991 : 0055;
    992 : FBE2;
    993 : 0159;
    994 : F986;
    995 : 069E;
    996 : FD6F;
    997 : 0E61;
    998 : 006E;
    999 : FD34;
    1000 : 0328;
    1001 : F953;
    1002 : 020B;
    1003 : FBE9;
    1004 : FE1A;
    1005 : F8E7;
    1006 : 04CA;
    1007 : F857;
    1008 : 0000;
    1009 : 08EA;
    1010 : 0609;
    1011 : F590;
    1012 : 08CD;
    1013 : F6CC;
    1014 : 0104;
    1015 : F8BD;
    1016 : FD41;
    1017 : FAD6;
    1018 : 0671;
    1019 : FF7E;
    1020 : FB67;
    1021 : 0CDD;
    1022 : 0003;
    1023 : F805;
    1024 : 03E7;
    1025 : FB67;
    1026 : FF83;
    1027 : 04B6;
    1028 : FE08;
    1029 : 01AF;
    1030 : FBE4;
    1031 : 036C;
    1032 : FA9C;
    1033 : 0462;
    1034 : FC79;
    1035 : 033F;
    1036 : FAC2;
    1037 : 0273;
    1038 : 03F1;
    1039 : 0126;
    1040 : 06CF;
    1041 : FAE0;
    1042 : 04F9;
    1043 : FB13;
    1044 : FD44;
    1045 : 000C;
    1046 : 03BA;
    1047 : FA37;
    1048 : 0B9B;
    1049 : F88C;
    1050 : 02BD;
    1051 : FED5;
    1052 : 046D;
    1053 : F90D;
    1054 : FEE7;
    1055 : F24E;
    1056 : FAB0;
    1057 : 00EF;
    1058 : 02FE;
    1059 : FA72;
    1060 : FC36;
    1061 : FB55;
    1062 : F777;
    1063 : 05C0;
    1064 : F63F;
    1065 : 0976;
    1066 : 043B;
    1067 : 0C8D;
    1068 : FDF8;
    1069 : FC62;
    1070 : FFB9;
    1071 : F8E3;
    1072 : 0C0E;
    1073 : F6DD;
    1074 : 04EA;
    1075 : FE64;
    1076 : FECF;
    1077 : 02DA;
    1078 : 02C6;
    1079 : FE87;
    1080 : 007B;
    1081 : 12EF;
    1082 : FA57;
    1083 : 0411;
    1084 : F695;
    1085 : 082D;
    1086 : 036C;
    1087 : F2B2;
    1088 : 021A;
    1089 : F8B6;
    1090 : 08E6;
    1091 : F8E6;
    1092 : FF05;
    1093 : 0101;
    1094 : FEE5;
    1095 : 0441;
    1096 : FB9B;
    1097 : 03ED;
    1098 : 0179;
    1099 : FFC4;
    1100 : FF68;
    1101 : 01C7;
    1102 : EAF0;
    1103 : 0370;
    1104 : 00BC;
    1105 : 0569;
    1106 : FB88;
    1107 : 061E;
    1108 : F79F;
    1109 : 0522;
    1110 : 0000;
    1111 : FAB7;
    1112 : FE72;
    1113 : FCAA;
    1114 : 08AC;
    1115 : 0041;
    1116 : FDE6;
    1117 : F8D1;
    1118 : FCA7;
    1119 : 030D;
    1120 : F72D;
    1121 : 0812;
    1122 : 0083;
    1123 : 0578;
    1124 : 00EF;
    1125 : F758;
    1126 : 0397;
    1127 : FC4D;
    1128 : FBE9;
    1129 : 0727;
    1130 : FFF6;
    1131 : FCAC;
    1132 : 0396;
    1133 : FDF5;
    1134 : 030E;
    1135 : 0057;
    1136 : FFD9;
    1137 : FBC8;
    1138 : 03A0;
    1139 : 0000;
    1140 : F789;
    1141 : 0594;
    1142 : F9B5;
    1143 : 06FE;
    1144 : 065B;
    1145 : 057A;
    1146 : 0350;
    1147 : FE33;
    1148 : FFE7;
    1149 : FB15;
    1150 : FF11;
    1151 : FAE7;
    1152 : FB0C;
    1153 : 03D2;
    1154 : FB4E;
    1155 : 08DE;
    1156 : E734;
    1157 : 04F4;
    1158 : FA8D;
    1159 : 0443;
    1160 : FA97;
    1161 : 065B;
    1162 : FCBB;
    1163 : 09E8;
    1164 : F614;
    1165 : F5F9;
    1166 : FC24;
    1167 : 041F;
    1168 : F746;
    1169 : 04F6;
    1170 : 0000;
    1171 : FE40;
    1172 : 0250;
    1173 : FFE0;
    1174 : F009;
    1175 : 03FF;
    1176 : 03FC;
    1177 : FE04;
    1178 : 010E;
    1179 : FA2A;
    1180 : 10CF;
    1181 : F50C;
    1182 : 06EF;
    1183 : FDFE;
    1184 : 018C;
    1185 : 009D;
    1186 : 0371;
    1187 : FCC8;
    1188 : FC80;
    1189 : 051D;
    1190 : FD8D;
    1191 : 0721;
    1192 : F70B;
    1193 : 0B7F;
    1194 : 04FE;
    1195 : F7A8;
    1196 : 023C;
    1197 : 00F9;
    1198 : FAC1;
    1199 : 0000;
    1200 : 056F;
    1201 : 0A50;
    1202 : 0386;
    1203 : FEA1;
    1204 : FFE2;
    1205 : FB0F;
    1206 : FC01;
    1207 : 0043;
    1208 : 03B7;
    1209 : FB06;
    1210 : F6E5;
    1211 : F901;
    1212 : 0103;
    1213 : E0F4;
    1214 : 009D;
    1215 : 0233;
    1216 : FAC9;
    1217 : 0611;
    1218 : 02BE;
    1219 : FB9A;
    1220 : 01E6;
    1221 : 0208;
    1222 : 0182;
    1223 : FB03;
    1224 : 0030;
    1225 : EB81;
    1226 : 0125;
    1227 : FE19;
    1228 : 00D5;
    1229 : FE83;
    1230 : 00BC;
    1231 : F76E;
    1232 : 0108;
    1233 : FF2A;
    1234 : FE8C;
    1235 : FE0C;
    1236 : 0038;
    1237 : 0072;
    1238 : 0142;
    1239 : 02E5;
    1240 : F365;
    1241 : FCD2;
    1242 : FDC6;
    1243 : 083D;
    1244 : FDD0;
    1245 : 0260;
    1246 : 06B7;
    1247 : 07EB;
    1248 : 0575;
    1249 : FD4A;
    1250 : FD2B;
    1251 : 018D;
    1252 : F396;
    1253 : 07F0;
    1254 : FE84;
    1255 : FFA9;
    1256 : 05F7;
    1257 : F7C1;
    1258 : 0A93;
    1259 : F794;
    1260 : 036C;
    1261 : F64C;
    1262 : 0048;
    1263 : 0123;
    1264 : 00FC;
    1265 : 007D;
    1266 : 0414;
    1267 : FCF5;
    1268 : FE45;
    1269 : FFF0;
    1270 : FCB6;
    1271 : 00BB;
    1272 : 0100;
    1273 : FDBD;
    1274 : 0426;
    1275 : 0113;
    1276 : F3D0;
    1277 : FD00;
    1278 : FF01;
    1279 : 02AA;
    1280 : FD00;
    1281 : FC38;
    1282 : 053A;
    1283 : FE02;
    1284 : 01BD;
    1285 : FFF8;
    1286 : FE7D;
    1287 : 00B7;
    1288 : 064A;
    1289 : 012E;
    1290 : FE19;
    1291 : FEA5;
    1292 : 01E2;
    1293 : FEC5;
    1294 : 04BB;
    1295 : F772;
    1296 : FBB0;
    1297 : 0381;
    1298 : 0218;
    1299 : 0436;
    1300 : FCAD;
    1301 : 003C;
    1302 : 0AFA;
    1303 : 00EE;
    1304 : 0427;
    1305 : F90F;
    1306 : 07D6;
    1307 : F804;
    1308 : FB08;
    1309 : F844;
    1310 : F829;
    1311 : 061A;
    1312 : F949;
    1313 : 04F8;
    1314 : 01FE;
    1315 : F66C;
    1316 : 069C;
    1317 : F6A3;
    1318 : 0982;
    1319 : F58A;
    1320 : 023E;
    1321 : FA4B;
    1322 : FC55;
    1323 : 022C;
    1324 : FF45;
    1325 : 027E;
    1326 : FAF7;
    1327 : 0231;
    1328 : F7F3;
    1329 : 093E;
    1330 : F21D;
    1331 : 0C16;
    1332 : FE7F;
    1333 : 003A;
    1334 : 0148;
    1335 : 027E;
    1336 : EB5B;
    1337 : 0281;
    1338 : 0000;
    1339 : F791;
    1340 : FD2E;
    1341 : 020B;
    1342 : F9ED;
    1343 : FF03;
    1344 : FB0A;
    1345 : 03AC;
    1346 : 00F2;
    1347 : FC45;
    1348 : 0316;
    1349 : F90E;
    1350 : FD85;
    1351 : FEFB;
    1352 : FE13;
    1353 : 0125;
    1354 : FD10;
    1355 : 017D;
    1356 : FEE3;
    1357 : FE4C;
    1358 : FDDE;
    1359 : 01D9;
    1360 : F92A;
    1361 : 0573;
    1362 : 01FD;
    1363 : FBBA;
    1364 : 011E;
    1365 : FD1A;
    1366 : 034E;
    1367 : F511;
    1368 : FF62;
    1369 : E2CA;
    1370 : 0424;
    1371 : FA61;
    1372 : 04BA;
    1373 : F9B3;
    1374 : FB42;
    1375 : 03ED;
    1376 : 00C8;
    1377 : 02C4;
    1378 : 0036;
    1379 : 0277;
    1380 : FC0D;
    1381 : 02B0;
    1382 : FBB9;
    1383 : 06F4;
    1384 : F839;
    1385 : 0D56;
    1386 : 04B5;
    1387 : 07E8;
    1388 : 049A;
    1389 : FB52;
    1390 : 0EA8;
    1391 : F716;
    1392 : 033B;
    1393 : F83F;
    1394 : 04CF;
    1395 : F870;
    1396 : 09D9;
    1397 : F2D5;
    1398 : 00DE;
    1399 : F044;
    1400 : 0339;
    1401 : FEDA;
    1402 : 0353;
    1403 : FA0F;
    1404 : FF80;
    1405 : 0A46;
    1406 : FDB4;
    1407 : FE01;
    1408 : FF73;
    1409 : FE02;
    1410 : 05FA;
    1411 : FB92;
    1412 : 0319;
    1413 : F921;
    1414 : 02C7;
    1415 : FE02;
    1416 : FE81;
    1417 : FE8E;
    1418 : 0418;
    1419 : FF15;
    1420 : 023D;
    1421 : FD03;
    1422 : FC02;
    1423 : FB04;
    1424 : 031A;
    1425 : 0112;
    1426 : 04D5;
    1427 : FF01;
    1428 : FF0B;
    1429 : FEE2;
    1430 : 01E1;
    1431 : FF3A;
    1432 : 017B;
    1433 : 03D4;
    1434 : FE10;
    1435 : FFF3;
    1436 : FF55;
    1437 : 01E2;
    1438 : F1B3;
    1439 : 06C7;
    1440 : F9E7;
    1441 : 02CF;
    1442 : F964;
    1443 : 0AF6;
    1444 : E6B6;
    1445 : 071D;
    1446 : 00E0;
    1447 : FF04;
    1448 : 0005;
    1449 : 05A9;
    1450 : FDA1;
    1451 : 0070;
    1452 : 0300;
    1453 : F715;
    1454 : FBF8;
    1455 : 0249;
    1456 : F80D;
    1457 : 0380;
    1458 : FD82;
    1459 : 0011;
    1460 : FE95;
    1461 : FBA5;
    1462 : 04A8;
    1463 : FE81;
    1464 : FB4F;
    1465 : 0F4C;
    1466 : 00DD;
    1467 : FEDB;
    1468 : FD94;
    1469 : 066C;
    1470 : 00BE;
    1471 : F751;
    1472 : FF58;
    1473 : 007C;
    1474 : FD70;
    1475 : 0377;
    1476 : 0081;
    1477 : FFF5;
    1478 : 064C;
    1479 : FCE6;
    1480 : 04A7;
    1481 : F976;
    1482 : 0482;
    1483 : FABF;
    1484 : 024B;
    1485 : F7E5;
    1486 : E868;
    1487 : F7FD;
    1488 : FC89;
    1489 : 044E;
    1490 : FE03;
    1491 : 00EC;
    1492 : FADA;
    1493 : 0A25;
    1494 : 0040;
    1495 : FA92;
    1496 : 02D0;
    1497 : F975;
    1498 : FDD4;
    1499 : FA29;
    1500 : FB96;
    1501 : F74E;
    1502 : FC23;
    1503 : 0782;
    1504 : F9E7;
    1505 : 060D;
    1506 : 01B3;
    1507 : 0311;
    1508 : FFB2;
    1509 : 00B6;
    1510 : FE30;
    1511 : 02AB;
    1512 : FCC7;
    1513 : 0822;
    1514 : 0046;
    1515 : 0491;
    1516 : 127F;
    1517 : 022D;
    1518 : FF02;
    1519 : F331;
    1520 : FE20;
    1521 : 011E;
    1522 : FE98;
    1523 : FA0B;
    1524 : 0080;
    1525 : FCA0;
    1526 : 0639;
    1527 : FFF9;
    1528 : 0602;
    1529 : FC7F;
    1530 : FD02;
    1531 : 068D;
    1532 : 0145;
    1533 : 0562;
    1534 : FBCA;
    1535 : FF80;
    1536 : FE09;
    1537 : 00D2;
    1538 : FB97;
    1539 : 05E2;
    1540 : F6D4;
    1541 : 046C;
    1542 : 0000;
    1543 : 0044;
    1544 : FE76;
    1545 : FA71;
    1546 : 06C1;
    1547 : FB6F;
    1548 : F8EE;
    1549 : 006C;
    1550 : 0150;
    1551 : 0229;
    1552 : FCC3;
    1553 : 01A1;
    1554 : 028A;
    1555 : 0225;
    1556 : FC7D;
    1557 : FB65;
    1558 : FE08;
    1559 : 0186;
    1560 : 0104;
    1561 : 0132;
    1562 : FB5F;
    1563 : FF8F;
    1564 : FE37;
    1565 : 0082;
    1566 : 0920;
    1567 : FD4A;
    1568 : FFF2;
    1569 : F8F6;
    1570 : 0479;
    1571 : FEFC;
    1572 : FAEB;
    1573 : 007F;
    1574 : 0215;
    1575 : F9DE;
    1576 : 033C;
    1577 : FAEB;
    1578 : 00F8;
    1579 : 03EE;
    1580 : FC24;
    1581 : 01EB;
    1582 : F866;
    1583 : 0BA6;
    1584 : FBEC;
    1585 : 0994;
    1586 : 046C;
    1587 : F785;
    1588 : 0797;
    1589 : F58D;
    1590 : 07E7;
    1591 : FBB6;
    1592 : 05F0;
    1593 : F798;
    1594 : 0ABD;
    1595 : F522;
    1596 : FC8F;
    1597 : FCC4;
    1598 : FC8F;
    1599 : 046C;
    1600 : F866;
    1601 : 0AD0;
    1602 : FCF4;
    1603 : FEDD;
    1604 : 0396;
    1605 : F651;
    1606 : 0AD1;
    1607 : F34C;
    1608 : 0000;
    1609 : 0026;
    1610 : FAED;
    1611 : 0002;
    1612 : FD85;
    1613 : 0000;
    1614 : 008A;
    1615 : FC9D;
    1616 : 03B2;
    1617 : F48C;
    1618 : 0D0B;
    1619 : F446;
    1620 : 0103;
    1621 : FCD7;
    1622 : 027B;
    1623 : F8FD;
    1624 : 11C4;
    1625 : F1DB;
    1626 : FB11;
    1627 : 0332;
    1628 : F90B;
    1629 : 08ED;
    1630 : F3FB;
    1631 : 06E8;
    1632 : FCF5;
    1633 : FF09;
    1634 : 02D0;
    1635 : FA27;
    1636 : 03D4;
    1637 : F761;
    1638 : 0289;
    1639 : FC16;
    1640 : 0185;
    1641 : F867;
    1642 : 04C2;
    1643 : FEFC;
    1644 : 0513;
    1645 : 050B;
    1646 : FF91;
    1647 : FC62;
    1648 : 00AD;
    1649 : F8E5;
    1650 : FF06;
    1651 : 0539;
    1652 : FC9E;
    1653 : 0267;
    1654 : FBA4;
    1655 : 007D;
    1656 : FD0D;
    1657 : 0423;
    1658 : 000B;
    1659 : 01EC;
    1660 : FA1F;
    1661 : 07DE;
    1662 : 0407;
    1663 : F922;
    1664 : 023B;
    1665 : FB41;
    1666 : 0648;
    1667 : F5EF;
    1668 : FD89;
    1669 : 0208;
    1670 : FC1A;
    1671 : 073C;
    1672 : F67D;
    1673 : 052E;
    1674 : FE08;
    1675 : FF6D;
    1676 : 01FE;
    1677 : 00F6;
    1678 : FDDD;
    1679 : 02F4;
    1680 : FD0B;
    1681 : FEF0;
    1682 : 00F2;
    1683 : FD16;
    1684 : FF06;
    1685 : 07E2;
    1686 : F8FA;
    1687 : 02AF;
    1688 : F700;
    1689 : 0600;
    1690 : F825;
    1691 : 0806;
    1692 : 07DA;
    1693 : F8E1;
    1694 : 01C2;
    1695 : FA73;
    1696 : 05F5;
    1697 : F45A;
    1698 : 028A;
    1699 : FDD5;
    1700 : F9E4;
    1701 : 0313;
    1702 : FBB8;
    1703 : 0186;
    1704 : FF05;
    1705 : FF48;
    1706 : 02F3;
    1707 : FB16;
    1708 : 04CD;
    1709 : 0000;
    1710 : 017F;
    1711 : 0161;
    1712 : 01FF;
    1713 : FC44;
    1714 : 0326;
    1715 : FB82;
    1716 : FBF6;
    1717 : 0256;
    1718 : 0002;
    1719 : FD78;
    1720 : FBC6;
    1721 : 0307;
    1722 : 038D;
    1723 : 00B3;
    1724 : FAEE;
    1725 : 00C4;
    1726 : F8A5;
    1727 : 06D9;
    1728 : FD0D;
    1729 : 006A;
    1730 : 04E9;
    1731 : FB95;
    1732 : 0445;
    1733 : FB16;
    1734 : 0276;
    1735 : FDC6;
    1736 : FF7B;
    1737 : 03F7;
    1738 : 0095;
    1739 : 02F4;
    1740 : FB93;
    1741 : 0137;
    1742 : 0084;
    1743 : 01F1;
    1744 : FDEF;
    1745 : FD0D;
    1746 : 0000;
    1747 : 018F;
    1748 : FC16;
    1749 : 04E6;
    1750 : FA10;
    1751 : 01F7;
    1752 : 0000;
    1753 : F863;
    1754 : FC07;
    1755 : 07E6;
    1756 : F676;
    1757 : 0EC4;
    1758 : 0450;
    1759 : F9B2;
    1760 : 00C3;
    1761 : F8E7;
    1762 : 02CC;
    1763 : FD77;
    1764 : FF05;
    1765 : 0911;
    1766 : F9E5;
    1767 : 08CD;
    1768 : F6BF;
    1769 : 06A1;
    1770 : 0613;
    1771 : FAAA;
    1772 : FD0F;
    1773 : FEE4;
    1774 : 0605;
    1775 : 0717;
    1776 : F821;
    1777 : 0431;
    1778 : 0100;
    1779 : 01F4;
    1780 : FE5C;
    1781 : FA19;
    1782 : FE7A;
    1783 : FCD7;
    1784 : FF77;
    1785 : F7ED;
    1786 : 0AE7;
    1787 : FE7A;
    1788 : 002F;
    1789 : 03E7;
    1790 : FEB6;
    1791 : 03BF;
    1792 : FCF8;
    1793 : 001F;
    1794 : FE48;
    1795 : 019F;
    1796 : FDD5;
    1797 : 05DA;
    1798 : F83B;
    1799 : 0236;
    1800 : FCF5;
    1801 : FF19;
    1802 : FDFA;
    1803 : FDFA;
    1804 : FEF7;
    1805 : FAEE;
    1806 : FDAB;
    1807 : 0794;
    1808 : FA24;
    1809 : 06B8;
    1810 : F477;
    1811 : 0C25;
    1812 : 017A;
    1813 : 00A3;
    1814 : FFF4;
    1815 : 03F8;
    1816 : 0004;
    1817 : 00FC;
    1818 : 030D;
    1819 : FFEF;
    1820 : 0216;
    1821 : F6CE;
    1822 : 0323;
    1823 : FDF8;
    1824 : 0289;
    1825 : FE5D;
    1826 : 0104;
    1827 : F763;
    1828 : 05F7;
    1829 : F559;
    1830 : 0145;
    1831 : FF52;
    1832 : FBA9;
    1833 : 014E;
    1834 : FFEB;
    1835 : 034C;
    1836 : 03E9;
    1837 : FC60;
    1838 : 00F0;
    1839 : FD99;
    1840 : 0762;
    1841 : FF06;
    1842 : FDF8;
    1843 : FFCD;
    1844 : FBED;
    1845 : FDFD;
    1846 : FD30;
    1847 : 0000;
    1848 : 0515;
    1849 : FDE0;
    1850 : 0317;
    1851 : F9DE;
    1852 : 04EF;
    1853 : FCF3;
    1854 : 00E3;
    1855 : FC36;
    1856 : 027E;
    1857 : F914;
    1858 : 0B0C;
    1859 : F9AC;
    1860 : FB0F;
    1861 : 0242;
    1862 : 0206;
    1863 : FDB3;
    1864 : 011B;
    1865 : FE87;
    1866 : 0388;
    1867 : FF20;
    1868 : FF03;
    1869 : FE78;
    1870 : F4A1;
    1871 : 0409;
    1872 : FCEE;
    1873 : 0159;
    1874 : FD94;
    1875 : 0480;
    1876 : F65B;
    1877 : 04CA;
    1878 : 0207;
    1879 : FEC1;
    1880 : FC28;
    1881 : 010F;
    1882 : FC20;
    1883 : 040F;
    1884 : FE87;
    1885 : FE6D;
    1886 : FD88;
    1887 : 017B;
    1888 : FEAE;
    1889 : 0000;
    1890 : 0207;
    1891 : FFA1;
    1892 : FF05;
    1893 : FD6E;
    1894 : 00F2;
    1895 : F8E8;
    1896 : 01C7;
    1897 : FFB6;
    1898 : FE84;
    1899 : FAA3;
    1900 : 0463;
    1901 : FD35;
    1902 : FE86;
    1903 : FD1E;
    1904 : 0003;
    1905 : 0137;
    1906 : FE45;
    1907 : FF43;
    1908 : FB91;
    1909 : FFCA;
    1910 : FCFC;
    1911 : 0382;
    1912 : F95D;
    1913 : 06E6;
    1914 : FC97;
    1915 : 0353;
    1916 : FC3E;
    1917 : 00DC;
    1918 : F8C7;
    1919 : 06B1;
    1920 : F707;
    1921 : 058D;
    1922 : FA16;
    1923 : 062B;
    1924 : 2E7A;
    1925 : 0695;
    1926 : 01C4;
    1927 : FC53;
    1928 : 00D2;
    1929 : FF5F;
    1930 : FE05;
    1931 : 02A6;
    1932 : FEEE;
    1933 : 308F;
    1934 : 065E;
    1935 : F370;
    1936 : 0ADA;
    1937 : F909;
    1938 : FE74;
    1939 : 0727;
    1940 : FD11;
    1941 : 0705;
    1942 : 2A90;
    1943 : FEF8;
    1944 : 01B3;
    1945 : 0D44;
    1946 : F8ED;
    1947 : 0812;
    1948 : FC66;
    1949 : 0FD9;
    1950 : FB33;
    1951 : 0B5B;
    1952 : FD22;
    1953 : 0330;
    1954 : 1167;
    1955 : 0801;
    1956 : 0135;
    1957 : FB0C;
    1958 : FB4F;
    1959 : 04C7;
    1960 : F481;
    1961 : 0969;
    1962 : 0000;
    1963 : 0104;
    1964 : 034E;
    1965 : F878;
    1966 : 2122;
    1967 : F3A1;
    1968 : 0184;
    1969 : D02F;
    1970 : 0174;
    1971 : FB2D;
    1972 : 046C;
    1973 : 0205;
    1974 : 01E7;
    1975 : 054F;
    1976 : F940;
    1977 : 0570;
    1978 : 2ABD;
    1979 : 093F;
    1980 : FF12;
    1981 : 41AC;
    1982 : 0660;
    1983 : F836;
    1984 : 0F61;
    1985 : F575;
    1986 : FAAC;
    1987 : 16ED;
    1988 : FEEF;
    1989 : 012A;
    1990 : FC92;
    1991 : 0484;
    1992 : 0310;
    1993 : 3289;
    1994 : 0208;
    1995 : 0102;
    1996 : FC96;
    1997 : 0621;
    1998 : 0000;
    1999 : F732;
    2000 : 0755;
    2001 : F3B5;
    2002 : 06B8;
    2003 : F7EE;
    2004 : FD75;
    2005 : 28A4;
    2006 : FC42;
    2007 : 0087;
    2008 : 0D92;
    2009 : 028B;
    2010 : 0000;
    2011 : D4A9;
    2012 : FFEE;
    2013 : FEC4;
    2014 : FA7C;
    2015 : 023F;
    2016 : FE4A;
    2017 : FDF4;
    2018 : 01A1;
    2019 : FB8C;
    2020 : 226D;
    2021 : FBD8;
    2022 : 086B;
    2023 : F185;
    2024 : 07DD;
    2025 : F734;
    2026 : 0150;
    2027 : F688;
    2028 : FC4B;
    2029 : 1B78;
    2030 : FCA5;
    2031 : 052A;
    2032 : 2226;
    2033 : 06E2;
    2034 : FAE1;
    2035 : 0C39;
    2036 : FC09;
    2037 : 04FB;
    2038 : 0F3D;
    2039 : 0625;
    2040 : 0433;
    2041 : 009A;
    2042 : FAA9;
    2043 : FEB7;
    2044 : 34DF;
    2045 : FE6D;
    2046 : 04B2;
    2047 : FD53;
    2048 : 0355;
    2049 : FD7B;
    2050 : 107B;
    2051 : F8D7;
    2052 : 007F;
    2053 : FD41;
    2054 : FE44;
    2055 : 05C4;
    2056 : F13D;
    2057 : 0000;
    2058 : 0205;
    2059 : FFC4;
    2060 : FD84;
    2061 : 04F5;
    2062 : 066B;
    2063 : 058D;
    2064 : 0081;
    2065 : F8ED;
    2066 : 01CF;
    2067 : F9C1;
    2068 : 0675;
    2069 : FAF5;
    2070 : 037B;
    2071 : F396;
    2072 : 0071;
    2073 : F9AF;
    2074 : 08F7;
    2075 : FD84;
    2076 : 015F;
    2077 : 2E29;
    2078 : 09A8;
    2079 : F220;
    2080 : 0DFD;
    2081 : F2B8;
    2082 : 0324;
    2083 : 1FE3;
    2084 : 058B;
    2085 : F5A0;
    2086 : 0B59;
    2087 : F8AB;
    2088 : FBC4;
    2089 : 20E1;
    2090 : 008A;
    2091 : FE26;
    2092 : 074D;
    2093 : F9A6;
    2094 : 0153;
    2095 : DDF0;
    2096 : 0485;
    2097 : 0020;
    2098 : FBD1;
    2099 : FCB7;
    2100 : FABD;
    2101 : 06BE;
    2102 : F8A4;
    2103 : 062A;
    2104 : 3D55;
    2105 : 03F3;
    2106 : 0000;
    2107 : 0375;
    2108 : FCC1;
    2109 : FBDB;
    2110 : 0FCD;
    2111 : FE02;
    2112 : 0291;
    2113 : E2A9;
    2114 : 0178;
    2115 : F9C0;
    2116 : FEA6;
    2117 : F9D6;
    2118 : F3DC;
    2119 : 0669;
    2120 : F838;
    2121 : 0A03;
    2122 : 009C;
    2123 : 09EF;
    2124 : 0544;
    2125 : F828;
    2126 : 067E;
    2127 : F6C8;
    2128 : 0D1A;
    2129 : F578;
    2130 : FC80;
    2131 : FFFC;
    2132 : FD99;
    2133 : 00FF;
    2134 : 0451;
    2135 : 0280;
    2136 : 0359;
    2137 : 2F9E;
    2138 : 09D2;
    2139 : FA32;
    2140 : 08DD;
    2141 : F94F;
    2142 : FF9E;
    2143 : EFBE;
    2144 : 02EA;
    2145 : FE23;
    2146 : 03D2;
    2147 : FA01;
    2148 : FC74;
    2149 : 0FF4;
    2150 : FA31;
    2151 : 05DA;
    2152 : FC8F;
    2153 : 0552;
    2154 : 0367;
    2155 : F97F;
    2156 : FE3B;
    2157 : 0262;
    2158 : EF12;
    2159 : FB23;
    2160 : 0000;
    2161 : 1694;
    2162 : 0530;
    2163 : F7AD;
    2164 : 0403;
    2165 : FEEA;
    2166 : FE22;
    2167 : 2B82;
    2168 : FF38;
    2169 : FF08;
    2170 : 0BAE;
    2171 : 0267;
    2172 : 0000;
    2173 : F6D6;
    2174 : FB88;
    2175 : 04AE;
    2176 : FF06;
    2177 : 0439;
    2178 : 01FD;
    2179 : FC7B;
    2180 : FEE3;
    2181 : FD3C;
    2182 : 08A6;
    2183 : FB09;
    2184 : 0200;
    2185 : 0040;
    2186 : FB7D;
    2187 : FE92;
    2188 : 082D;
    2189 : 0000;
    2190 : 0000;
    2191 : FDF2;
    2192 : 0633;
    2193 : F466;
    2194 : FBF6;
    2195 : EDF6;
    2196 : 0117;
    2197 : 03ED;
    2198 : F8DA;
    2199 : 077E;
    2200 : FD53;
    2201 : 0AE7;
    2202 : FAAA;
    2203 : 0931;
    2204 : FC01;
    2205 : 06DC;
    2206 : 20F2;
    2207 : 0667;
    2208 : 01A5;
    2209 : 0024;
    2210 : 03D2;
    2211 : FFEF;
    2212 : 3958;
    2213 : FB10;
    2214 : 03AA;
    2215 : FD1B;
    2216 : 02FD;
    2217 : FE8F;
    2218 : 1A9F;
    2219 : F9A6;
    2220 : 01C0;
    2221 : 1F44;
    2222 : 00CF;
    2223 : 010A;
    2224 : 07E5;
    2225 : 01C0;
    2226 : FC98;
    2227 : FC8D;
    2228 : 02DD;
    2229 : 0009;
    2230 : 0852;
    2231 : F644;
    2232 : FE0A;
    2233 : FDBC;
    2234 : FC81;
    2235 : 00A0;
    2236 : 0230;
    2237 : 01F6;
    2238 : FCF9;
    2239 : 27D0;
    2240 : 0296;
    2241 : FF78;
    2242 : 05BE;
    2243 : 0081;
    2244 : FA15;
    2245 : 05F4;
    2246 : FFCB;
    2247 : 0141;
    2248 : F794;
    2249 : 0727;
    2250 : 010F;
    2251 : 05D2;
    2252 : F8EA;
    2253 : 04FE;
    2254 : 31B6;
    2255 : 0657;
    2256 : 00EC;
    2257 : 0077;
    2258 : FE6B;
    2259 : 01B3;
    2260 : FEC9;
    2261 : 075E;
    2262 : 06D4;
    2263 : FF6B;
    2264 : FE99;
    2265 : FC1E;
    2266 : 20DD;
    2267 : F96D;
    2268 : 015B;
    2269 : 2C49;
    2270 : FB5D;
    2271 : 04D9;
    2272 : F989;
    2273 : 0907;
    2274 : FB76;
    2275 : 017A;
    2276 : FF0A;
    2277 : 0112;
    2278 : FFF4;
    2279 : 01D1;
    2280 : FE0A;
    2281 : F7B7;
    2282 : F9E7;
    2283 : 0A81;
    2284 : C42D;
    2285 : 0B06;
    2286 : 0434;
    2287 : 20E3;
    2288 : 041C;
    2289 : F8B1;
    2290 : 0929;
    2291 : F1D0;
    2292 : FC25;
    2293 : 0C07;
    2294 : FAED;
    2295 : 06A4;
    2296 : 0080;
    2297 : 076F;
    2298 : FF42;
    2299 : 0139;
    2300 : 02C8;
    2301 : FDC6;
    2302 : 01D7;
    2303 : FD0A;
    2304 : 0722;
    2305 : 022F;
    2306 : 02F9;
    2307 : FEB7;
    2308 : E61A;
    2309 : 020A;
    2310 : FE86;
    2311 : 0904;
    2312 : FDA2;
    2313 : 001B;
    2314 : FCF7;
    2315 : 0000;
    2316 : FF98;
    2317 : E586;
    2318 : FB8C;
    2319 : 055D;
    2320 : FC2D;
    2321 : 074E;
    2322 : 03C1;
    2323 : 01C4;
    2324 : 00E2;
    2325 : FA78;
    2326 : F618;
    2327 : FE1F;
    2328 : 0127;
    2329 : FE03;
    2330 : FF9F;
    2331 : FC3B;
    2332 : FCCA;
    2333 : 01FF;
    2334 : 0101;
    2335 : 046B;
    2336 : 03CB;
    2337 : F7F7;
    2338 : FC14;
    2339 : EFEB;
    2340 : 0631;
    2341 : 028D;
    2342 : FC69;
    2343 : FEC4;
    2344 : 01C5;
    2345 : 02E9;
    2346 : FBAF;
    2347 : 070E;
    2348 : FF7A;
    2349 : 019E;
    2350 : F6F8;
    2351 : 04CC;
    2352 : FCFD;
    2353 : 170B;
    2354 : 0481;
    2355 : FE3A;
    2356 : 017A;
    2357 : F5F6;
    2358 : 0208;
    2359 : 02F4;
    2360 : 0402;
    2361 : FEB2;
    2362 : F07C;
    2363 : FBF0;
    2364 : FE07;
    2365 : D9CC;
    2366 : 0597;
    2367 : FE08;
    2368 : 0705;
    2369 : FD0B;
    2370 : FD99;
    2371 : F8C7;
    2372 : FEB2;
    2373 : 068C;
    2374 : 0804;
    2375 : 01F6;
    2376 : F9A3;
    2377 : E612;
    2378 : FFAE;
    2379 : 0071;
    2380 : 0469;
    2381 : FD8E;
    2382 : FCDD;
    2383 : 0B41;
    2384 : FE22;
    2385 : 05F9;
    2386 : FF32;
    2387 : 0485;
    2388 : FEFB;
    2389 : ECE5;
    2390 : FBD7;
    2391 : 07F8;
    2392 : 0A04;
    2393 : 0105;
    2394 : FB21;
    2395 : 1DDA;
    2396 : FB38;
    2397 : 0695;
    2398 : 0609;
    2399 : 099F;
    2400 : 00FF;
    2401 : FDE7;
    2402 : 0191;
    2403 : FA30;
    2404 : FDA9;
    2405 : F70B;
    2406 : FC1F;
    2407 : 0213;
    2408 : 0271;
    2409 : 0207;
    2410 : 00A4;
    2411 : FFA0;
    2412 : FF7D;
    2413 : 0A02;
    2414 : 02CF;
    2415 : FE69;
    2416 : F455;
    2417 : FB67;
    2418 : FD18;
    2419 : 0934;
    2420 : FB4B;
    2421 : 0750;
    2422 : F96D;
    2423 : 0745;
    2424 : FDFA;
    2425 : 049B;
    2426 : 0403;
    2427 : 00A6;
    2428 : E3C5;
    2429 : 0309;
    2430 : 0080;
    2431 : 01E3;
    2432 : 030F;
    2433 : 0033;
    2434 : FEF3;
    2435 : FEFF;
    2436 : 0629;
    2437 : EC07;
    2438 : FF5D;
    2439 : FF29;
    2440 : 0D9C;
    2441 : FB51;
    2442 : 017D;
    2443 : FB71;
    2444 : 018B;
    2445 : FBC0;
    2446 : FD7B;
    2447 : F98C;
    2448 : FA7D;
    2449 : 0441;
    2450 : 0385;
    2451 : 032A;
    2452 : 08C3;
    2453 : FB7D;
    2454 : 017F;
    2455 : 010F;
    2456 : FCE7;
    2457 : 0651;
    2458 : F7A8;
    2459 : 0A7C;
    2460 : 0000;
    2461 : E94B;
    2462 : FEAF;
    2463 : 057A;
    2464 : 03BB;
    2465 : FC72;
    2466 : 0470;
    2467 : F519;
    2468 : FED7;
    2469 : FC7B;
    2470 : 0439;
    2471 : 01F9;
    2472 : FCD4;
    2473 : F08A;
    2474 : F889;
    2475 : 0A74;
    2476 : 0377;
    2477 : 0657;
    2478 : 03D6;
    2479 : EED0;
    2480 : FA0F;
    2481 : 06D3;
    2482 : FB9E;
    2483 : 0940;
    2484 : 011F;
    2485 : 02F3;
    2486 : 0A43;
    2487 : F0C4;
    2488 : E82A;
    2489 : F828;
    2490 : 0C12;
    2491 : 0172;
    2492 : 05B2;
    2493 : F608;
    2494 : 0984;
    2495 : F6F3;
    2496 : FAF8;
    2497 : FD97;
    2498 : 00B7;
    2499 : 03D9;
    2500 : 03C3;
    2501 : 080C;
    2502 : FE04;
    2503 : 09E1;
    2504 : FFA6;
    2505 : 0300;
    2506 : F526;
    2507 : 08ED;
    2508 : 04F6;
    2509 : FF20;
    2510 : 0180;
    2511 : FBC2;
    2512 : 026B;
    2513 : 02FA;
    2514 : 02FD;
    2515 : 00B8;
    2516 : FE85;
    2517 : 062C;
    2518 : F758;
    2519 : FE81;
    2520 : 04EB;
    2521 : E3A6;
    2522 : 000A;
    2523 : FE01;
    2524 : 093B;
    2525 : F5AC;
    2526 : 077B;
    2527 : 0023;
    2528 : 012C;
    2529 : FD28;
    2530 : 09BF;
    2531 : FA4C;
    2532 : 017A;
    2533 : 0311;
    2534 : 0151;
    2535 : FFE8;
    2536 : 05A6;
    2537 : 00FC;
    2538 : FA1F;
    2539 : 0E52;
    2540 : 0044;
    2541 : 004C;
    2542 : F28E;
    2543 : 0508;
    2544 : F6D9;
    2545 : ED2A;
    2546 : F955;
    2547 : 0BDF;
    2548 : F9D1;
    2549 : 0C33;
    2550 : FAD8;
    2551 : EC97;
    2552 : FAE4;
    2553 : 0801;
    2554 : F396;
    2555 : 0420;
    2556 : 01FC;
    2557 : 09CD;
    2558 : 015D;
    2559 : F969;
    2560 : 0B9B;
    2561 : 01FC;
    2562 : FF02;
    2563 : 0548;
    2564 : FC25;
    2565 : FCA8;
    2566 : FA10;
    2567 : 01FC;
    2568 : 03F9;
    2569 : 047C;
    2570 : 009E;
    2571 : FC2B;
    2572 : 020E;
    2573 : FF02;
    2574 : F9FF;
    2575 : 104E;
    2576 : FEE5;
    2577 : 0553;
    2578 : 02B3;
    2579 : FE80;
    2580 : FD88;
    2581 : 12DE;
    2582 : FC92;
    2583 : 059C;
    2584 : F974;
    2585 : 05EC;
    2586 : 026A;
    2587 : FF99;
    2588 : 0872;
    2589 : F290;
    2590 : 042A;
    2591 : ECF8;
    2592 : 020A;
    2593 : 0576;
    2594 : 001B;
    2595 : 01C1;
    2596 : D9A9;
    2597 : 0827;
    2598 : 0577;
    2599 : 024F;
    2600 : 018B;
    2601 : FBB7;
    2602 : F491;
    2603 : F591;
    2604 : 0083;
    2605 : F733;
    2606 : FE2A;
    2607 : 0396;
    2608 : 01AB;
    2609 : FCEE;
    2610 : FF81;
    2611 : 0A2E;
    2612 : 0101;
    2613 : FC42;
    2614 : 03CC;
    2615 : FA8C;
    2616 : FBFF;
    2617 : 1316;
    2618 : FE76;
    2619 : 084D;
    2620 : EEC8;
    2621 : 1105;
    2622 : FD0D;
    2623 : FBA1;
    2624 : 01E2;
    2625 : F7E6;
    2626 : 0D47;
    2627 : F62C;
    2628 : FF02;
    2629 : 0404;
    2630 : FE0D;
    2631 : 04A2;
    2632 : F9B7;
    2633 : 04F5;
    2634 : 040A;
    2635 : 0690;
    2636 : 02D1;
    2637 : F9CF;
    2638 : F05D;
    2639 : F4E5;
    2640 : 0080;
    2641 : 02EF;
    2642 : FF65;
    2643 : 0651;
    2644 : FD45;
    2645 : 0100;
    2646 : 03FB;
    2647 : 0476;
    2648 : 0124;
    2649 : FB2F;
    2650 : F76D;
    2651 : F78A;
    2652 : FD6E;
    2653 : ECA3;
    2654 : FC36;
    2655 : 08E2;
    2656 : FAFB;
    2657 : 0399;
    2658 : 04FB;
    2659 : FFEF;
    2660 : 0953;
    2661 : F75E;
    2662 : 117F;
    2663 : F38B;
    2664 : 0470;
    2665 : FE7A;
    2666 : 0412;
    2667 : F7B1;
    2668 : 2B3F;
    2669 : FB12;
    2670 : 01E0;
    2671 : EE5B;
    2672 : 03B3;
    2673 : FC09;
    2674 : 0F01;
    2675 : F881;
    2676 : FFC2;
    2677 : 0D87;
    2678 : FFBD;
    2679 : 0074;
    2680 : EE65;
    2681 : 0550;
    2682 : 01F9;
    2683 : 0605;
    2684 : 0172;
    2685 : FD4F;
    2686 : 0382;
    2687 : 02F6;
    2688 : FF82;
    2689 : 00DE;
    2690 : FCD8;
    2691 : 07A5;
    2692 : F678;
    2693 : 095F;
    2694 : 005B;
    2695 : 01DB;
    2696 : F8C6;
    2697 : 05F7;
    2698 : F26D;
    2699 : 0B4F;
    2700 : 048B;
    2701 : FE62;
    2702 : FDBD;
    2703 : FA40;
    2704 : 0224;
    2705 : FB75;
    2706 : 0150;
    2707 : 000C;
    2708 : FABF;
    2709 : 07BB;
    2710 : F6D0;
    2711 : 0766;
    2712 : 0184;
    2713 : FF72;
    2714 : FF6A;
    2715 : FB98;
    2716 : 019C;
    2717 : FBF5;
    2718 : 0104;
    2719 : FBD3;
    2720 : 0475;
    2721 : F70D;
    2722 : 05D4;
    2723 : F8E5;
    2724 : 00FC;
    2725 : FFEB;
    2726 : 0251;
    2727 : FD3F;
    2728 : 0186;
    2729 : 0000;
    2730 : 00FC;
    2731 : 01D0;
    2732 : FFD1;
    2733 : 01B6;
    2734 : FEAE;
    2735 : 03F1;
    2736 : F6A5;
    2737 : 0663;
    2738 : FB62;
    2739 : 0626;
    2740 : F5DE;
    2741 : 0667;
    2742 : 0506;
    2743 : FAD7;
    2744 : 06C9;
    2745 : F4C4;
    2746 : 0D51;
    2747 : F3F2;
    2748 : 06D9;
    2749 : F94D;
    2750 : 033A;
    2751 : FC56;
    2752 : 00EB;
    2753 : FE0B;
    2754 : 0102;
    2755 : FDC4;
    2756 : FEB1;
    2757 : FB56;
    2758 : 00D5;
    2759 : FDFC;
    2760 : FB90;
    2761 : 0206;
    2762 : FECC;
    2763 : 02BB;
    2764 : FA1C;
    2765 : 08E0;
    2766 : 00BF;
    2767 : FED4;
    2768 : 01BF;
    2769 : FC93;
    2770 : 0841;
    2771 : F809;
    2772 : FDFC;
    2773 : 017F;
    2774 : FF40;
    2775 : FC47;
    2776 : 023F;
    2777 : 070F;
    2778 : 025E;
    2779 : F9DD;
    2780 : 0181;
    2781 : FBCA;
    2782 : 0055;
    2783 : FB7C;
    2784 : 01F9;
    2785 : FDD5;
    2786 : 0052;
    2787 : 02AF;
    2788 : FA29;
    2789 : 02F6;
    2790 : 003F;
    2791 : FF2F;
    2792 : 004A;
    2793 : 0433;
    2794 : FF33;
    2795 : FC4C;
    2796 : FF3E;
    2797 : FDD4;
    2798 : 00C7;
    2799 : F97C;
    2800 : 01E3;
    2801 : FEFE;
    2802 : 0204;
    2803 : 00A5;
    2804 : 004E;
    2805 : FC3B;
    2806 : 0677;
    2807 : F76E;
    2808 : FE85;
    2809 : FFC7;
    2810 : 03BF;
    2811 : FE45;
    2812 : 04D7;
    2813 : F7DB;
    2814 : FC18;
    2815 : 004C;
    2816 : FE6C;
    2817 : 0127;
    2818 : FAC1;
    2819 : FE0C;
    2820 : 0102;
    2821 : FD73;
    2822 : FBC1;
    2823 : 0048;
    2824 : FB13;
    2825 : 0204;
    2826 : 028C;
    2827 : FBAD;
    2828 : 0484;
    2829 : F884;
    2830 : 0265;
    2831 : FAE8;
    2832 : FA15;
    2833 : 04C7;
    2834 : F860;
    2835 : 0927;
    2836 : F5E3;
    2837 : 06E8;
    2838 : 03C4;
    2839 : FC41;
    2840 : 0240;
    2841 : FAAD;
    2842 : 06C8;
    2843 : F877;
    2844 : F8F1;
    2845 : 029A;
    2846 : FE28;
    2847 : FD5C;
    2848 : 000E;
    2849 : FEFE;
    2850 : FDFB;
    2851 : FF96;
    2852 : FD3B;
    2853 : F93D;
    2854 : 0185;
    2855 : FBF6;
    2856 : FE46;
    2857 : FFB4;
    2858 : FF84;
    2859 : 043D;
    2860 : FCAD;
    2861 : 003F;
    2862 : FE07;
    2863 : FF58;
    2864 : 0132;
    2865 : 014F;
    2866 : FEE7;
    2867 : 03F2;
    2868 : FB76;
    2869 : 0239;
    2870 : F9C5;
    2871 : 00BF;
    2872 : FBF2;
    2873 : 060D;
    2874 : FEFE;
    2875 : 02AC;
    2876 : F93A;
    2877 : 0451;
    2878 : F79D;
    2879 : 060A;
    2880 : 01C2;
    2881 : FB2D;
    2882 : 04B9;
    2883 : F64F;
    2884 : 0A74;
    2885 : F470;
    2886 : FE95;
    2887 : FFD0;
    2888 : 00CE;
    2889 : 043D;
    2890 : FB84;
    2891 : FF42;
    2892 : F925;
    2893 : 029D;
    2894 : FB6B;
    2895 : 051D;
    2896 : F4C8;
    2897 : 04E6;
    2898 : 007E;
    2899 : 0395;
    2900 : FFDB;
    2901 : 059D;
    2902 : FC24;
    2903 : 03F2;
    2904 : 060D;
    2905 : FC94;
    2906 : 0035;
    2907 : F9C9;
    2908 : 05CA;
    2909 : F9F3;
    2910 : FF07;
    2911 : FBE1;
    2912 : 0781;
    2913 : F382;
    2914 : 0BA9;
    2915 : F0C0;
    2916 : FF03;
    2917 : FDFC;
    2918 : FA4D;
    2919 : 07FA;
    2920 : F44F;
    2921 : 0BDE;
    2922 : FF3E;
    2923 : FC2E;
    2924 : FDB0;
    2925 : FEDC;
    2926 : F990;
    2927 : 04AA;
    2928 : FB10;
    2929 : FFC3;
    2930 : 012A;
    2931 : 0352;
    2932 : FBA1;
    2933 : 04F0;
    2934 : FCF9;
    2935 : 0192;
    2936 : FC44;
    2937 : FD3C;
    2938 : FFF1;
    2939 : FAF4;
    2940 : FF3F;
    2941 : FB8B;
    2942 : 0035;
    2943 : FC57;
    2944 : 002D;
    2945 : 0000;
    2946 : FDCC;
    2947 : 03E3;
    2948 : FD61;
    2949 : FED8;
    2950 : FC77;
    2951 : 0428;
    2952 : 04CA;
    2953 : FCF4;
    2954 : 044D;
    2955 : F677;
    2956 : 0E67;
    2957 : F569;
    2958 : 007E;
    2959 : 021B;
    2960 : 004D;
    2961 : 03B2;
    2962 : FA73;
    2963 : 02F6;
    2964 : 01D6;
    2965 : FA0A;
    2966 : 029D;
    2967 : FB72;
    2968 : 01F6;
    2969 : F877;
    2970 : 02B5;
    2971 : FD2B;
    2972 : 008A;
    2973 : FFA2;
    2974 : FFFF;
    2975 : FB73;
    2976 : FF03;
    2977 : 02D4;
    2978 : FE55;
    2979 : 05AA;
    2980 : FD53;
    2981 : FE85;
    2982 : 0713;
    2983 : F786;
    2984 : 0660;
    2985 : F523;
    2986 : 0224;
    2987 : F460;
    2988 : FC95;
    2989 : 02BF;
    2990 : F870;
    2991 : 0720;
    2992 : F77B;
    2993 : 08CB;
    2994 : FF42;
    2995 : 01C8;
    2996 : FAF1;
    2997 : 02A8;
    2998 : F86C;
    2999 : 06B0;
    3000 : FC8D;
    3001 : FB0E;
    3002 : FDBB;
    3003 : 01D1;
    3004 : FBF5;
    3005 : 017B;
    3006 : FE0E;
    3007 : 000A;
    3008 : FC59;
    3009 : 023D;
    3010 : FCB5;
    3011 : FF07;
    3012 : 0000;
    3013 : FBA4;
    3014 : 022C;
    3015 : F863;
    3016 : 09D1;
    3017 : F2F3;
    3018 : 0409;
    3019 : FD56;
    3020 : FE40;
    3021 : FD48;
    3022 : 0429;
    3023 : F6EC;
    3024 : 00FC;
    3025 : FDA6;
    3026 : 022C;
    3027 : FE62;
    3028 : 03B6;
    3029 : FF04;
    3030 : FDC8;
    3031 : FED8;
    3032 : 024E;
    3033 : FDC0;
    3034 : 0079;
    3035 : FE85;
    3036 : 02F5;
    3037 : 0043;
    3038 : FD47;
    3039 : 02C4;
    3040 : FCE3;
    3041 : 05EB;
    3042 : FAE3;
    3043 : FF35;
    3044 : FFBB;
    3045 : FF5C;
    3046 : FBF4;
    3047 : 0655;
    3048 : FA14;
    3049 : FFFD;
    3050 : 00CA;
    3051 : 03B4;
    3052 : F869;
    3053 : FD0A;
    3054 : 00FC;
    3055 : FF01;
    3056 : 0531;
    3057 : FD52;
    3058 : 0404;
    3059 : FD0B;
    3060 : 04CD;
    3061 : FA0D;
    3062 : 0078;
    3063 : F969;
    3064 : 0516;
    3065 : F7A9;
    3066 : FEFF;
    3067 : FA0B;
    3068 : 0239;
    3069 : F912;
    3070 : 034E;
    3071 : FEBE;
    3072 : FF80;
    3073 : FF92;
    3074 : FE7F;
    3075 : FA8B;
    3076 : 0745;
    3077 : FC02;
    3078 : FD0A;
    3079 : 01A6;
    3080 : 042C;
    3081 : FC13;
    3082 : 020B;
    3083 : FD88;
    3084 : F907;
    3085 : 048B;
    3086 : FF75;
    3087 : FB95;
    3088 : FFEB;
    3089 : FE81;
    3090 : FF01;
    3091 : FD4A;
    3092 : FFFD;
    3093 : F90E;
    3094 : 0DA9;
    3095 : FA04;
    3096 : 037D;
    3097 : F4D6;
    3098 : 0505;
    3099 : F789;
    3100 : 0774;
    3101 : FA06;
    3102 : FF01;
    3103 : FA7E;
    3104 : FC14;
    3105 : FEF8;
    3106 : 0776;
    3107 : FE02;
    3108 : 047D;
    3109 : FE8A;
    3110 : FFE9;
    3111 : 0312;
    3112 : FD10;
    3113 : 04FD;
    3114 : 0316;
    3115 : FB95;
    3116 : FC76;
    3117 : FF2A;
    3118 : 0351;
    3119 : 00DF;
    3120 : 04F8;
    3121 : FF64;
    3122 : 00E7;
    3123 : FB23;
    3124 : 0495;
    3125 : FF02;
    3126 : 01FE;
    3127 : FF47;
    3128 : FC0D;
    3129 : 0AEB;
    3130 : F8F2;
    3131 : 0DF4;
    3132 : 0433;
    3133 : 04ED;
    3134 : FF56;
    3135 : 0265;
    3136 : 0004;
    3137 : FBEC;
    3138 : F903;
    3139 : 0056;
    3140 : 05F4;
    3141 : 028A;
    3142 : FD46;
    3143 : FF00;
    3144 : 01FD;
    3145 : 0149;
    3146 : 00F5;
    3147 : FB95;
    3148 : 0040;
    3149 : FC06;
    3150 : 02FF;
    3151 : 05AE;
    3152 : 050C;
    3153 : F6FB;
    3154 : 095D;
    3155 : FF00;
    3156 : FE81;
    3157 : FE4B;
    3158 : 0007;
    3159 : 0479;
    3160 : F282;
    3161 : 05FC;
    3162 : 02FD;
    3163 : F93A;
    3164 : 0203;
    3165 : 00FA;
    3166 : FBA0;
    3167 : 06FA;
    3168 : 02FA;
    3169 : FE42;
    3170 : FEF4;
    3171 : 0209;
    3172 : 0170;
    3173 : 07F1;
    3174 : FB1A;
    3175 : 0405;
    3176 : FFFF;
    3177 : 0001;
    3178 : 0001;
    3179 : FD0F;
    3180 : 03FB;
    3181 : F018;
    3182 : 02FF;
    3183 : FE86;
    3184 : FD6A;
    3185 : FF01;
    3186 : 00BF;
    3187 : F7B9;
    3188 : 02AD;
    3189 : F921;
    3190 : 09F2;
    3191 : F94B;
    3192 : FC0A;
    3193 : FF13;
    3194 : FF88;
    3195 : 0176;
    3196 : FFE4;
    3197 : 0000;
    3198 : FE21;
    3199 : 0233;
    3200 : 00C1;
    3201 : 053D;
    3202 : FB73;
    3203 : 015F;
    3204 : 017B;
    3205 : FA0B;
    3206 : FE5B;
    3207 : 02A1;
    3208 : 017A;
    3209 : 007E;
    3210 : 0100;
    3211 : FD51;
    3212 : FFEA;
    3213 : 0411;
    3214 : 00F3;
    3215 : FA03;
    3216 : 006C;
    3217 : FD8A;
    3218 : 0208;
    3219 : FDD0;
    3220 : 01E6;
    3221 : FA37;
    3222 : 05D0;
    3223 : 00A9;
    3224 : 026D;
    3225 : FD1C;
    3226 : 0470;
    3227 : FBA4;
    3228 : FE81;
    3229 : 065E;
    3230 : FF8B;
    3231 : FBFF;
    3232 : 0429;
    3233 : FB83;
    3234 : 061A;
    3235 : FE59;
    3236 : 0017;
    3237 : FB33;
    3238 : 037C;
    3239 : FCA4;
    3240 : 03E0;
    3241 : FF51;
    3242 : 02EA;
    3243 : FC24;
    3244 : FAE8;
    3245 : 00F8;
    3246 : 01FE;
    3247 : F2E5;
    3248 : 0381;
    3249 : FEFA;
    3250 : 0112;
    3251 : FE02;
    3252 : F87A;
    3253 : 0113;
    3254 : FDDF;
    3255 : 016D;
    3256 : 041D;
    3257 : 0595;
    3258 : 01FF;
    3259 : 002D;
    3260 : 050B;
    3261 : F6FB;
    3262 : 0DDF;
    3263 : FB02;
    3264 : FB85;
    3265 : FD25;
    3266 : 0210;
    3267 : FFEE;
    3268 : 00E2;
    3269 : 037C;
    3270 : 031F;
    3271 : FB14;
    3272 : 064D;
    3273 : FDCF;
    3274 : 0098;
    3275 : F882;
    3276 : FE01;
    3277 : 0305;
    3278 : FAFB;
    3279 : 000F;
    3280 : 0047;
    3281 : 02FE;
    3282 : 01BA;
    3283 : FD49;
    3284 : 04DC;
    3285 : F836;
    3286 : 0B97;
    3287 : F79E;
    3288 : 041D;
    3289 : 0EB2;
    3290 : FFDE;
    3291 : FF1E;
    3292 : 00F5;
    3293 : FCCF;
    3294 : 023E;
    3295 : FFA7;
    3296 : FBC1;
    3297 : 06BC;
    3298 : F889;
    3299 : 0839;
    3300 : 0180;
    3301 : FE9C;
    3302 : FDBB;
    3303 : 0924;
    3304 : F801;
    3305 : 047F;
    3306 : FDFF;
    3307 : 0947;
    3308 : FCF2;
    3309 : 0614;
    3310 : E53E;
    3311 : 0C04;
    3312 : 037E;
    3313 : FBF2;
    3314 : FF07;
    3315 : FAFF;
    3316 : 05C9;
    3317 : FC02;
    3318 : 025E;
    3319 : FFF8;
    3320 : FA1F;
    3321 : 055A;
    3322 : F0A4;
    3323 : 0969;
    3324 : FC02;
    3325 : 0028;
    3326 : FA7B;
    3327 : FF11;
    3328 : F8DA;
    3329 : 037E;
    3330 : 04C9;
    3331 : F86B;
    3332 : 034D;
    3333 : FC3F;
    3334 : 0610;
    3335 : F6E9;
    3336 : FE01;
    3337 : FF31;
    3338 : 060C;
    3339 : FBF2;
    3340 : 04A1;
    3341 : FE01;
    3342 : 03FC;
    3343 : FAE4;
    3344 : 026B;
    3345 : 008F;
    3346 : 01DE;
    3347 : FF81;
    3348 : 0080;
    3349 : FB4D;
    3350 : 06A9;
    3351 : F463;
    3352 : 0A14;
    3353 : F584;
    3354 : FAC6;
    3355 : FBDE;
    3356 : FD46;
    3357 : 0637;
    3358 : FCB6;
    3359 : 0837;
    3360 : F90D;
    3361 : FF8E;
    3362 : FC2A;
    3363 : 08D0;
    3364 : F54A;
    3365 : 08F0;
    3366 : FD0E;
    3367 : FCA1;
    3368 : 0284;
    3369 : FC86;
    3370 : 0476;
    3371 : F5B2;
    3372 : F98E;
    3373 : 0660;
    3374 : FF08;
    3375 : 01F4;
    3376 : F7CB;
    3377 : 0000;
    3378 : 0000;
    3379 : 00F9;
    3380 : 0177;
    3381 : 0586;
    3382 : F7DF;
    3383 : 057E;
    3384 : 0000;
    3385 : 053A;
    3386 : 0207;
    3387 : 03F9;
    3388 : F90D;
    3389 : 0100;
    3390 : F719;
    3391 : 0E8B;
    3392 : F924;
    3393 : 07DB;
    3394 : F343;
    3395 : 0BDF;
    3396 : F848;
    3397 : 0738;
    3398 : F85B;
    3399 : 07AA;
    3400 : F55E;
    3401 : 0A9D;
    3402 : FC43;
    3403 : FD7F;
    3404 : 0239;
    3405 : 0184;
    3406 : 132E;
    3407 : FB04;
    3408 : FD06;
    3409 : FFF8;
    3410 : FEF9;
    3411 : 0207;
    3412 : F9D6;
    3413 : 09EB;
    3414 : FF03;
    3415 : FCEE;
    3416 : FF0C;
    3417 : FF80;
    3418 : 0076;
    3419 : FD88;
    3420 : 00FD;
    3421 : 0691;
    3422 : 02EA;
    3423 : FB1F;
    3424 : 05C6;
    3425 : FD08;
    3426 : 04FD;
    3427 : FC9E;
    3428 : FD82;
    3429 : FA8A;
    3430 : 0B41;
    3431 : 0000;
    3432 : 08F3;
    3433 : F9E7;
    3434 : 0001;
    3435 : FD0A;
    3436 : FCEA;
    3437 : 01FD;
    3438 : 06F4;
    3439 : 0249;
    3440 : 036F;
    3441 : F91B;
    3442 : 08EF;
    3443 : FC86;
    3444 : 0040;
    3445 : F8BC;
    3446 : FC16;
    3447 : 00B6;
    3448 : FD57;
    3449 : 0538;
    3450 : 00FF;
    3451 : FEF1;
    3452 : 0276;
    3453 : 0207;
    3454 : 037C;
    3455 : FF80;
    3456 : FB16;
    3457 : 02BB;
    3458 : FF2C;
    3459 : 0561;
    3460 : 05D2;
    3461 : FF04;
    3462 : FAF5;
    3463 : 02D6;
    3464 : 02F8;
    3465 : FE46;
    3466 : F69B;
    3467 : FD0A;
    3468 : FC16;
    3469 : 05FB;
    3470 : 05D3;
    3471 : FC43;
    3472 : 057D;
    3473 : FD10;
    3474 : FEC5;
    3475 : FE84;
    3476 : 028E;
    3477 : FCDA;
    3478 : 1572;
    3479 : F91B;
    3480 : FDF4;
    3481 : FD3B;
    3482 : 02D9;
    3483 : F8B7;
    3484 : FA32;
    3485 : 0083;
    3486 : F8E4;
    3487 : 0106;
    3488 : FECE;
    3489 : 03CF;
    3490 : F4EA;
    3491 : 0660;
    3492 : FFC5;
    3493 : FF2D;
    3494 : 0062;
    3495 : FF55;
    3496 : FDD4;
    3497 : FDA9;
    3498 : 007D;
    3499 : FFAF;
    3500 : FDFC;
    3501 : 0227;
    3502 : 03A1;
    3503 : 0000;
    3504 : 007E;
    3505 : 03ED;
    3506 : 0495;
    3507 : FE8B;
    3508 : FD39;
    3509 : FC0F;
    3510 : 01FE;
    3511 : FD71;
    3512 : FF20;
    3513 : FF0A;
    3514 : 06DC;
    3515 : 08F9;
    3516 : FE21;
    3517 : 17BE;
    3518 : FDA0;
    3519 : 0114;
    3520 : FCB9;
    3521 : 049F;
    3522 : 02C5;
    3523 : FA30;
    3524 : 03FC;
    3525 : F628;
    3526 : 0C27;
    3527 : F771;
    3528 : 0914;
    3529 : 0714;
    3530 : 060D;
    3531 : F60E;
    3532 : 0BE4;
    3533 : F6EC;
    3534 : 0184;
    3535 : 0183;
    3536 : 069A;
    3537 : F381;
    3538 : 1285;
    3539 : F667;
    3540 : 058A;
    3541 : F6E9;
    3542 : 0077;
    3543 : FBB5;
    3544 : 0379;
    3545 : 0081;
    3546 : FBD1;
    3547 : F479;
    3548 : 00DE;
    3549 : 0241;
    3550 : F9E0;
    3551 : 017A;
    3552 : 0229;
    3553 : 01C0;
    3554 : 01D5;
    3555 : FBCA;
    3556 : 16A8;
    3557 : F7BE;
    3558 : 01F8;
    3559 : 0390;
    3560 : FE2F;
    3561 : 07E2;
    3562 : F7D3;
    3563 : 0CCA;
    3564 : FC03;
    3565 : 06BD;
    3566 : FA3D;
    3567 : 02F3;
    3568 : F801;
    3569 : 08F9;
    3570 : 0186;
    3571 : 005A;
    3572 : 01AB;
    3573 : F7E7;
    3574 : 0E4C;
    3575 : FD76;
    3576 : FC92;
    3577 : 01FE;
    3578 : FDB7;
    3579 : 03DE;
    3580 : 089C;
    3581 : 007D;
    3582 : 02F9;
    3583 : FA2F;
    3584 : 0436;
    3585 : FCF5;
    3586 : FBAB;
    3587 : FE05;
    3588 : FEFD;
    3589 : F56D;
    3590 : FC0C;
    3591 : FC08;
    3592 : 0361;
    3593 : 0185;
    3594 : FF05;
    3595 : 015F;
    3596 : FECC;
    3597 : 025B;
    3598 : FA40;
    3599 : 0273;
    3600 : 0000;
    3601 : FE76;
    3602 : 0203;
    3603 : FD2B;
    3604 : 03C2;
    3605 : 00FA;
    3606 : FF80;
    3607 : FB46;
    3608 : 0282;
    3609 : FB2D;
    3610 : 052E;
    3611 : F684;
    3612 : 02F0;
    3613 : 0923;
    3614 : 03CB;
    3615 : FE44;
    3616 : 088A;
    3617 : FC15;
    3618 : 0000;
    3619 : 04CF;
    3620 : FDF9;
    3621 : FA14;
    3622 : 05E5;
    3623 : F7E6;
    3624 : FA76;
    3625 : 011E;
    3626 : 0096;
    3627 : 022A;
    3628 : FE13;
    3629 : FC7E;
    3630 : FEFE;
    3631 : E9D0;
    3632 : 0001;
    3633 : FD1D;
    3634 : 049E;
    3635 : F6EA;
    3636 : F9EA;
    3637 : 03A0;
    3638 : FAA1;
    3639 : 04F9;
    3640 : 0860;
    3641 : 086D;
    3642 : 028A;
    3643 : 0249;
    3644 : 02B0;
    3645 : F5DC;
    3646 : 114D;
    3647 : F146;
    3648 : 044F;
    3649 : F4D5;
    3650 : FBB6;
    3651 : FB50;
    3652 : 055E;
    3653 : 0000;
    3654 : FE08;
    3655 : 0154;
    3656 : 0216;
    3657 : 03F9;
    3658 : F6E4;
    3659 : 04EC;
    3660 : 029E;
    3661 : 002F;
    3662 : FE49;
    3663 : FFE4;
    3664 : FE79;
    3665 : 04DC;
    3666 : 030B;
    3667 : FEA9;
    3668 : FF2B;
    3669 : F9E4;
    3670 : 043A;
    3671 : F7E2;
    3672 : 07D1;
    3673 : 1951;
    3674 : 010A;
    3675 : FA37;
    3676 : 08A5;
    3677 : F5C9;
    3678 : F8A7;
    3679 : 009B;
    3680 : FACD;
    3681 : 06D9;
    3682 : F34F;
    3683 : 07D7;
    3684 : FEFD;
    3685 : FC5F;
    3686 : FEFE;
    3687 : FC1E;
    3688 : 007C;
    3689 : F8EC;
    3690 : 0084;
    3691 : 00E8;
    3692 : FAD3;
    3693 : 0351;
    3694 : E369;
    3695 : 06B7;
    3696 : FEAC;
    3697 : F54A;
    3698 : 0085;
    3699 : FA1F;
    3700 : 0728;
    3701 : FDD9;
    3702 : 0508;
    3703 : FEA3;
    3704 : 068C;
    3705 : F398;
    3706 : 041E;
    3707 : F46E;
    3708 : FE06;
    3709 : F93B;
    3710 : FB8F;
    3711 : 051B;
    3712 : F739;
    3713 : 02F7;
    3714 : FE09;
    3715 : 0287;
    3716 : FEA8;
    3717 : 0377;
    3718 : F8B4;
    3719 : 0664;
    3720 : 05E9;
    3721 : FF6C;
    3722 : 0109;
    3723 : 030E;
    3724 : 019E;
    3725 : 01F8;
    3726 : 0082;
    3727 : 078D;
    3728 : 0126;
    3729 : F86F;
    3730 : 0119;
    3731 : F9EA;
    3732 : 007D;
    3733 : 03CA;
    3734 : F95E;
    3735 : 06D1;
    3736 : F22D;
    3737 : 07CB;
    3738 : 0081;
    3739 : 02E0;
    3740 : FBB4;
    3741 : FF59;
    3742 : 099A;
    3743 : 0712;
    3744 : 021A;
    3745 : FDC6;
    3746 : FF96;
    3747 : F894;
    3748 : 0C01;
    3749 : FE58;
    3750 : 0000;
    3751 : 026D;
    3752 : FA1B;
    3753 : 0207;
    3754 : F3DB;
    3755 : 0409;
    3756 : FA1F;
    3757 : 096E;
    3758 : FFF6;
    3759 : FF34;
    3760 : 02B1;
    3761 : F924;
    3762 : 0512;
    3763 : 020A;
    3764 : FE25;
    3765 : F8E8;
    3766 : FB8F;
    3767 : 030B;
    3768 : FE06;
    3769 : FA3E;
    3770 : FCFF;
    3771 : 03A6;
    3772 : F420;
    3773 : 09E2;
    3774 : 050E;
    3775 : 0B02;
    3776 : 00FF;
    3777 : F916;
    3778 : 0B7B;
    3779 : F0D5;
    3780 : 02FE;
    3781 : FBB6;
    3782 : 01F9;
    3783 : FB3A;
    3784 : 0538;
    3785 : FF01;
    3786 : 0207;
    3787 : 00D1;
    3788 : 0122;
    3789 : FAF7;
    3790 : 235D;
    3791 : 0207;
    3792 : 0124;
    3793 : FCF1;
    3794 : FB83;
    3795 : FF1D;
    3796 : FBBA;
    3797 : 0522;
    3798 : FE0A;
    3799 : 0171;
    3800 : FD42;
    3801 : 05D5;
    3802 : F5A2;
    3803 : 0A4B;
    3804 : FD09;
    3805 : 0CD6;
    3806 : FCED;
    3807 : 061E;
    3808 : F6FF;
    3809 : 0ADF;
    3810 : F91A;
    3811 : FDF9;
    3812 : FD94;
    3813 : 0395;
    3814 : FB0D;
    3815 : 007E;
    3816 : 04E8;
    3817 : F3D0;
    3818 : FE31;
    3819 : 01FB;
    3820 : F2AC;
    3821 : 03ED;
    3822 : FE85;
    3823 : 09FC;
    3824 : FC15;
    3825 : 0800;
    3826 : FA24;
    3827 : 0A5A;
    3828 : 0615;
    3829 : FB90;
    3830 : FE26;
    3831 : FAED;
    3832 : F7D9;
    3833 : 030B;
    3834 : 0409;
    3835 : FB47;
    3836 : FF03;
    3837 : FE25;
    3838 : FD3D;
    3839 : 0811;
    3840 : 00E6;
    3841 : 0340;
    3842 : 0000;
    3843 : 033E;
    3844 : 0390;
    3845 : FDCD;
    3846 : F95B;
    3847 : 0728;
    3848 : FC01;
    3849 : 050B;
    3850 : 039E;
    3851 : 07AB;
    3852 : 02C3;
    3853 : FA50;
    3854 : FEBD;
    3855 : 0462;
    3856 : FA35;
    3857 : 0303;
    3858 : FFD9;
    3859 : 09D4;
    3860 : FDFA;
    3861 : 0690;
    3862 : E33D;
    3863 : 0A47;
    3864 : FD4A;
    3865 : F9FC;
    3866 : FC68;
    3867 : 0694;
    3868 : 05EA;
    3869 : 0633;
    3870 : F8CC;
    3871 : F4BD;
    3872 : FC36;
    3873 : 05CC;
    3874 : 0707;
    3875 : 0107;
    3876 : 055C;
    3877 : F9FF;
    3878 : 0642;
    3879 : F877;
    3880 : 0697;
    3881 : F527;
    3882 : FB4F;
    3883 : 0853;
    3884 : FE65;
    3885 : 05C0;
    3886 : F446;
    3887 : 0729;
    3888 : FF7C;
    3889 : 13C2;
    3890 : 0309;
    3891 : FC28;
    3892 : 00EE;
    3893 : F5A6;
    3894 : 0000;
    3895 : 0303;
    3896 : FC84;
    3897 : 0936;
    3898 : ECA7;
    3899 : 06E2;
    3900 : 03E4;
    3901 : F061;
    3902 : 0488;
    3903 : F8A7;
    3904 : 0DB9;
    3905 : F931;
    3906 : F7A6;
    3907 : 0CC8;
    3908 : FCDF;
    3909 : 0783;
    3910 : F283;
    3911 : 0956;
    3912 : 0082;
    3913 : FF5B;
    3914 : FCAA;
    3915 : 04E8;
    3916 : FB10;
    3917 : 091F;
    3918 : FFBC;
    3919 : FF7E;
    3920 : 0039;
    3921 : 0744;
    3922 : FACA;
    3923 : 0212;
    3924 : 0000;
    3925 : DD7E;
    3926 : FF6E;
    3927 : 0160;
    3928 : 1017;
    3929 : 029E;
    3930 : 0393;
    3931 : 0581;
    3932 : FCF3;
    3933 : 0831;
    3934 : 03E7;
    3935 : 02CF;
    3936 : FB0D;
    3937 : 07C3;
    3938 : F837;
    3939 : 0CC9;
    3940 : EC00;
    3941 : 0BE0;
    3942 : 006F;
    3943 : F6C8;
    3944 : 0154;
    3945 : FC18;
    3946 : 07B6;
    3947 : FB9C;
    3948 : FA90;
    3949 : 08FE;
    3950 : 0414;
    3951 : FB3F;
    3952 : DE8E;
    3953 : F979;
    3954 : 0643;
    3955 : 096C;
    3956 : FFFF;
    3957 : FB17;
    3958 : F98D;
    3959 : FBFE;
    3960 : 04B1;
    3961 : FE40;
    3962 : 093B;
    3963 : F6EE;
    3964 : E7A9;
    3965 : F7CA;
    3966 : 0109;
    3967 : 00CC;
    3968 : F7A0;
    3969 : 05B9;
    3970 : 0158;
    3971 : 08D0;
    3972 : FF86;
    3973 : F6D8;
    3974 : 03EE;
    3975 : F775;
    3976 : 0C58;
    3977 : FB3E;
    3978 : 029D;
    3979 : 000A;
    3980 : 01F5;
    3981 : FA88;
    3982 : 036A;
    3983 : FDA3;
    3984 : F8C3;
    3985 : 028F;
    3986 : F939;
    3987 : 09E1;
    3988 : FB11;
    3989 : 0845;
    3990 : FD0A;
    3991 : 0506;
    3992 : 028A;
    3993 : FB57;
    3994 : 0298;
    3995 : FC99;
    3996 : FF81;
    3997 : FF7C;
    3998 : FE56;
    3999 : FD48;
    4000 : 0415;
    4001 : FC85;
    4002 : 07AB;
    4003 : F29F;
    4004 : 0205;
    4005 : FCB6;
    4006 : 0818;
    4007 : F8CF;
    4008 : 01FC;
    4009 : FF49;
    4010 : 0515;
    4011 : F9FA;
    4012 : FC58;
    4013 : F90F;
    4014 : 017E;
    4015 : 12B9;
    4016 : 0389;
    4017 : FA8E;
    4018 : 0A23;
    4019 : FA09;
    4020 : FC47;
    4021 : 078E;
    4022 : 0059;
    4023 : 0452;
    4024 : EF55;
    4025 : 00DE;
    4026 : 04B3;
    4027 : 01C7;
    4028 : FB84;
    4029 : 02B9;
    4030 : F079;
    4031 : 072C;
    4032 : FF0A;
    4033 : 08D7;
    4034 : 0112;
    4035 : FEFE;
    4036 : 00EC;
    4037 : FA3B;
    4038 : FF07;
    4039 : FEA8;
    4040 : 02B4;
    4041 : FBE6;
    4042 : 14EA;
    4043 : FF07;
    4044 : F97B;
    4045 : 0AF9;
    4046 : FC90;
    4047 : 0768;
    4048 : F29B;
    4049 : 0B11;
    4050 : FB04;
    4051 : 011B;
    4052 : FF02;
    4053 : 0588;
    4054 : FB5B;
    4055 : 01FE;
    4056 : 0243;
    4057 : DAAC;
    4058 : 010B;
    4059 : 009E;
    4060 : 0427;
    4061 : FB5A;
    4062 : 00A6;
    4063 : 0747;
    4064 : 040B;
    4065 : FC4C;
    4066 : 0BF4;
    4067 : F6F8;
    4068 : 090B;
    4069 : 0F11;
    4070 : 0001;
    4071 : FAF6;
    4072 : FE86;
    4073 : FEFF;
    4074 : F78E;
    4075 : 013B;
    4076 : 033C;
    4077 : 0343;
    4078 : F499;
    4079 : FE82;
    4080 : FB6D;
    4081 : 14C3;
    4082 : 045B;
    4083 : FCAF;
    4084 : 05A2;
    4085 : F6DA;
    4086 : F872;
    4087 : F217;
    4088 : FF61;
    4089 : 0615;
    4090 : 03D5;
    4091 : 0910;
    4092 : 06E9;
    4093 : 060D;
    4094 : 0977;
    4095 : F2D8;
    4096 : 075F;
    4097 : F44F;
    4098 : FFA1;
    4099 : 0890;
    4100 : 0179;
    4101 : 041B;
    4102 : F920;
    4103 : FDE4;
    4104 : 007E;
    4105 : FE64;
    4106 : FE3E;
    4107 : 0063;
    4108 : F627;
    4109 : 09DB;
    4110 : 0510;
    4111 : 0623;
    4112 : 0367;
    4113 : FBAF;
    4114 : 04E2;
    4115 : FDF9;
    4116 : FCF7;
    4117 : FAF1;
    4118 : FD51;
    4119 : 0590;
    4120 : 03A2;
    4121 : 0103;
    4122 : 04BE;
    4123 : 065B;
    4124 : 0AA2;
    4125 : F055;
    4126 : FCF0;
    4127 : F140;
    4128 : FDDF;
    4129 : FA5F;
    4130 : 01A5;
    4131 : F9B7;
    4132 : F3F2;
    4133 : FE1F;
    4134 : FD9F;
    4135 : FE67;
    4136 : FDFC;
    4137 : 048D;
    4138 : 1287;
    4139 : 0428;
    4140 : 03EF;
    4141 : F5FC;
    4142 : 0002;
    4143 : FDB8;
    4144 : 0E6D;
    4145 : 0000;
    4146 : 0409;
    4147 : 0097;
    4148 : FC93;
    4149 : 076B;
    4150 : 04C1;
    4151 : 0812;
    4152 : 062A;
    4153 : 0D28;
    4154 : 0335;
    4155 : FBE2;
    4156 : 043A;
    4157 : F8CF;
    4158 : 01ED;
    4159 : EB2D;
    4160 : 0468;
    4161 : F9B7;
    4162 : 1029;
    4163 : F84A;
    4164 : FD2F;
    4165 : 03E3;
    4166 : FD72;
    4167 : 029D;
    4168 : FBB8;
    4169 : 03C1;
    4170 : 0618;
    4171 : 0357;
    4172 : 026B;
    4173 : FC9A;
    4174 : E315;
    4175 : 0000;
    4176 : FEFF;
    4177 : 095E;
    4178 : FE8C;
    4179 : FA5F;
    4180 : 0297;
    4181 : FCFE;
    4182 : FCE7;
    4183 : FF26;
    4184 : F53C;
    4185 : 0CC8;
    4186 : 025C;
    4187 : 0A55;
    4188 : FBF2;
    4189 : FE4D;
    4190 : FC10;
    4191 : 0703;
    4192 : FBB7;
    4193 : 0594;
    4194 : FCFD;
    4195 : 0A06;
    4196 : 0376;
    4197 : FF6D;
    4198 : 0D1B;
    4199 : 0101;
    4200 : FE82;
    4201 : 0649;
    4202 : 01EA;
    4203 : 0298;
    4204 : 0649;
    4205 : 007F;
    4206 : 0478;
    4207 : 03EB;
    4208 : FFFA;
    4209 : FD1F;
    4210 : 02A9;
    4211 : F80F;
    4212 : 0104;
    4213 : F1F6;
    4214 : FE4F;
    4215 : 06CA;
    4216 : 10F0;
    4217 : FDF8;
    4218 : F6D0;
    4219 : 0967;
    4220 : FDFB;
    4221 : 03F4;
    4222 : F943;
    4223 : 04D6;
    4224 : FF80;
    4225 : 0296;
    4226 : FE19;
    4227 : 057B;
    4228 : F914;
    4229 : 0880;
    4230 : FD81;
    4231 : 03C5;
    4232 : 019F;
    4233 : FF5F;
    4234 : F44E;
    4235 : 03FE;
    4236 : FC08;
    4237 : 09BB;
    4238 : 0116;
    4239 : 0174;
    4240 : 047E;
    4241 : F90F;
    4242 : 0773;
    4243 : F821;
    4244 : 0147;
    4245 : FE66;
    4246 : 1A61;
    4247 : FCBE;
    4248 : FD5A;
    4249 : 07D9;
    4250 : FF60;
    4251 : 0202;
    4252 : FA09;
    4253 : FD97;
    4254 : 0507;
    4255 : 08E9;
    4256 : 0023;
    4257 : FC60;
    4258 : FDFB;
    4259 : 0507;
    4260 : 017D;
    4261 : FDF5;
    4262 : 081C;
    4263 : F380;
    4264 : 0FC7;
    4265 : F21B;
    4266 : 0202;
    4267 : F99E;
    4268 : FD94;
    4269 : 0107;
    4270 : 050E;
    4271 : FBFC;
    4272 : FC42;
    4273 : F408;
    4274 : 014A;
    4275 : FE4E;
    4276 : 0B16;
    4277 : F794;
    4278 : FBFB;
    4279 : 00E3;
    4280 : FE57;
    4281 : 004C;
    4282 : 11D7;
    4283 : F8F7;
    4284 : FC02;
    4285 : 1155;
    4286 : 03CA;
    4287 : 015A;
    4288 : 0052;
    4289 : FA83;
    4290 : FB83;
    4291 : 001E;
    4292 : FD2C;
    4293 : 05A1;
    4294 : FDDC;
    4295 : 0939;
    4296 : FF7E;
    4297 : 060C;
    4298 : 055F;
    4299 : F73B;
    4300 : 08AA;
    4301 : FB6A;
    4302 : FF80;
    4303 : F688;
    4304 : FCB7;
    4305 : FE59;
    4306 : FE2A;
    4307 : 0201;
    4308 : 020A;
    4309 : 2598;
    4310 : 033E;
    4311 : F72C;
    4312 : F954;
    4313 : FB69;
    4314 : FC96;
    4315 : FD41;
    4316 : 0076;
    4317 : FF3D;
    4318 : F88C;
    4319 : 005E;
    4320 : 00AE;
    4321 : FDE8;
    4322 : FFFB;
    4323 : FF59;
    4324 : 038E;
    4325 : 00E5;
    4326 : FECE;
    4327 : 06AF;
    4328 : 0073;
    4329 : 00D4;
    4330 : FDE8;
    4331 : 004D;
    4332 : 0103;
    4333 : EE23;
    4334 : 0020;
    4335 : 0172;
    4336 : 1DD9;
    4337 : 038A;
    4338 : 02F2;
    4339 : F5C4;
    4340 : 027B;
    4341 : FB2D;
    4342 : 0D22;
    4343 : 00FB;
    4344 : 016D;
    4345 : FF1F;
    4346 : 02A8;
    4347 : FB93;
    4348 : 24A5;
    4349 : FCAD;
    4350 : F989;
    4351 : 0097;
    4352 : 029F;
    4353 : 01F0;
    4354 : FA52;
    4355 : FC05;
    4356 : 02E4;
    4357 : 03AA;
    4358 : FB76;
    4359 : 0780;
    4360 : FAD6;
    4361 : 02E4;
    4362 : FBA5;
    4363 : 015C;
    4364 : 049D;
    4365 : 00CA;
    4366 : 018C;
    4367 : FBC5;
    4368 : 0102;
    4369 : FF31;
    4370 : 041C;
    4371 : FD81;
    4372 : FD6C;
    4373 : 0102;
    4374 : FF7F;
    4375 : 0349;
    4376 : FB0F;
    4377 : 0782;
    4378 : F78B;
    4379 : 0D12;
    4380 : 026C;
    4381 : 039F;
    4382 : FB23;
    4383 : 0478;
    4384 : F99C;
    4385 : 0AA9;
    4386 : FB9B;
    4387 : 11E7;
    4388 : F94A;
    4389 : 0AAC;
    4390 : F42D;
    4391 : 101E;
    4392 : F9CA;
    4393 : 09C7;
    4394 : 0000;
    4395 : 016C;
    4396 : 0672;
    4397 : 04C2;
    4398 : 05C1;
    4399 : E9A1;
    4400 : FF89;
    4401 : FD49;
    4402 : 0379;
    4403 : FEC0;
    4404 : 017F;
    4405 : 000C;
    4406 : 0160;
    4407 : 02CC;
    4408 : 12AF;
    4409 : 0000;
    4410 : 03E8;
    4411 : F725;
    4412 : 02A9;
    4413 : FDE3;
    4414 : 04B9;
    4415 : 00FA;
    4416 : FB01;
    4417 : FB6D;
    4418 : FBC7;
    4419 : 00CB;
    4420 : FFBB;
    4421 : 04FF;
    4422 : 02F9;
    4423 : FFD4;
    4424 : 0354;
    4425 : FC3C;
    4426 : FC9A;
    4427 : F618;
    4428 : FCC3;
    4429 : 047E;
    4430 : FC00;
    4431 : 088B;
    4432 : FA0A;
    4433 : 0AB5;
    4434 : FC84;
    4435 : 00F9;
    4436 : 0290;
    4437 : FBC4;
    4438 : 04BD;
    4439 : FA86;
    4440 : 0000;
    4441 : 208E;
    4442 : FA28;
    4443 : 0086;
    4444 : FB30;
    4445 : 02FE;
    4446 : FDFC;
    4447 : FCDD;
    4448 : 0296;
    4449 : FA06;
    4450 : 016A;
    4451 : F8F2;
    4452 : 00FF;
    4453 : EEB8;
    4454 : 0072;
    4455 : FB2F;
    4456 : 08A6;
    4457 : F908;
    4458 : FEDB;
    4459 : 0267;
    4460 : FE5E;
    4461 : 0380;
    4462 : 03CB;
    4463 : 024A;
    4464 : F61D;
    4465 : EE61;
    4466 : FDAE;
    4467 : 01DD;
    4468 : FC6B;
    4469 : 02F7;
    4470 : FF89;
    4471 : 10B1;
    4472 : FE3F;
    4473 : 01C5;
    4474 : F24B;
    4475 : 0166;
    4476 : F838;
    4477 : FAF0;
    4478 : F975;
    4479 : 08AD;
    4480 : F839;
    4481 : 0A5F;
    4482 : FB39;
    4483 : FDB0;
    4484 : 008D;
    4485 : FF0F;
    4486 : 05D9;
    4487 : F950;
    4488 : 02FA;
    4489 : 00C2;
    4490 : FE9E;
    4491 : 00F2;
    4492 : 05FE;
    4493 : 06F3;
    4494 : 0100;
    4495 : F8A6;
    4496 : FCAC;
    4497 : FFE7;
    4498 : 00F0;
    4499 : FDFF;
    4500 : FEFE;
    4501 : 0604;
    4502 : 01A8;
    4503 : FC77;
    4504 : FE1F;
    4505 : F76F;
    4506 : FCFC;
    4507 : FD49;
    4508 : 0027;
    4509 : 0591;
    4510 : 130B;
    4511 : FC7B;
    4512 : 03EC;
    4513 : FFDA;
    4514 : 044D;
    4515 : FD25;
    4516 : 17FF;
    4517 : FD0F;
    4518 : FE05;
    4519 : 015E;
    4520 : 01E1;
    4521 : FEA9;
    4522 : FC5C;
    4523 : F519;
    4524 : 0103;
    4525 : 0B1B;
    4526 : 032D;
    4527 : F75D;
    4528 : 04BC;
    4529 : FBF4;
    4530 : FE01;
    4531 : 0651;
    4532 : FF14;
    4533 : FF02;
    4534 : F4BB;
    4535 : 057D;
    4536 : F65E;
    4537 : FC23;
    4538 : FA37;
    4539 : 0A5A;
    4540 : F6BD;
    4541 : 0C2B;
    4542 : 019C;
    4543 : 124D;
    4544 : FEFE;
    4545 : 0694;
    4546 : F667;
    4547 : 0299;
    4548 : F9E2;
    4549 : FA0D;
    4550 : FC73;
    4551 : 0426;
    4552 : F7ED;
    4553 : 020A;
    4554 : 00FE;
    4555 : FB53;
    4556 : 0184;
    4557 : F92E;
    4558 : 2EAD;
    4559 : F613;
    4560 : 02FA;
    4561 : F834;
    4562 : 006F;
    4563 : FB45;
    4564 : 0581;
    4565 : 00FE;
    4566 : FD9F;
    4567 : 0485;
    4568 : FFAF;
    4569 : FCC4;
    4570 : FD72;
    4571 : 0161;
    4572 : FF03;
    4573 : 08EC;
    4574 : 00C4;
    4575 : 01E8;
    4576 : FE4E;
    4577 : 0474;
    4578 : 0505;
    4579 : F652;
    4580 : FE7F;
    4581 : 0529;
    4582 : F48F;
    4583 : 0808;
    4584 : F9FD;
    4585 : 0832;
    4586 : F8A3;
    4587 : 0AEB;
    4588 : F44C;
    4589 : 0684;
    4590 : F916;
    4591 : 06AC;
    4592 : FD0F;
    4593 : 07F4;
    4594 : F9F7;
    4595 : 056F;
    4596 : 0321;
    4597 : 0AE5;
    4598 : 093D;
    4599 : F34B;
    4600 : 0A06;
    4601 : EFEE;
    4602 : FD38;
    4603 : F987;
    4604 : FC5D;
    4605 : 052F;
    4606 : F4A1;
    4607 : 08DA;
    4608 : FD8C;
    4609 : 001B;
    4610 : FB6A;
    4611 : 0815;
    4612 : FB09;
    4613 : 05E4;
    4614 : FF04;
    4615 : 02E1;
    4616 : 003A;
    4617 : 030C;
    4618 : F4BB;
    4619 : 08DA;
    4620 : FB95;
    4621 : 020C;
    4622 : 0119;
    4623 : FFF7;
    4624 : F961;
    4625 : FFC1;
    4626 : 0791;
    4627 : F1FE;
    4628 : 02B1;
    4629 : F7DD;
    4630 : 1894;
    4631 : F322;
    4632 : 00C4;
    4633 : F113;
    4634 : 01C1;
    4635 : F924;
    4636 : 03A5;
    4637 : FC8E;
    4638 : FD11;
    4639 : EFCE;
    4640 : FE6F;
    4641 : 02E5;
    4642 : F796;
    4643 : 0CB8;
    4644 : 03EA;
    4645 : FE81;
    4646 : 0210;
    4647 : FE3E;
    4648 : FEB2;
    4649 : 01F5;
    4650 : FF83;
    4651 : FB68;
    4652 : FEC1;
    4653 : 0015;
    4654 : 06DB;
    4655 : FAA4;
    4656 : FD89;
    4657 : FF61;
    4658 : 000D;
    4659 : 03F4;
    4660 : F6B9;
    4661 : 0000;
    4662 : 0000;
    4663 : F646;
    4664 : FF2C;
    4665 : FAA1;
    4666 : 051D;
    4667 : FE7C;
    4668 : 07A6;
    4669 : FCE3;
    4670 : 0482;
    4671 : F5D4;
    4672 : 03C4;
    4673 : F1B4;
    4674 : 01FA;
    4675 : FD2E;
    4676 : F9B4;
    4677 : 04F2;
    4678 : EEDE;
    4679 : 0B9A;
    4680 : FB88;
    4681 : 0642;
    4682 : FDFC;
    4683 : 004E;
    4684 : F520;
    4685 : 0647;
    4686 : FE09;
    4687 : 0F55;
    4688 : FCB1;
    4689 : 0498;
    4690 : FDEA;
    4691 : 02F3;
    4692 : F9F0;
    4693 : 0120;
    4694 : F896;
    4695 : FF34;
    4696 : EEC9;
    4697 : 0308;
    4698 : FD0E;
    4699 : FC5D;
    4700 : 03A7;
    4701 : FC2C;
    4702 : 0265;
    4703 : FF05;
    4704 : FD19;
    4705 : 033A;
    4706 : F969;
    4707 : 05E9;
    4708 : 029A;
    4709 : 0932;
    4710 : F9D2;
    4711 : 0DE2;
    4712 : FB62;
    4713 : 04AC;
    4714 : F6EB;
    4715 : 0B83;
    4716 : 056D;
    4717 : EF62;
    4718 : FC73;
    4719 : FE4B;
    4720 : FB35;
    4721 : 01A4;
    4722 : FC7A;
    4723 : F8B3;
    4724 : FFA1;
    4725 : FB10;
    4726 : 0AC0;
    4727 : 0020;
    4728 : 0143;
    4729 : FBA1;
    4730 : FC67;
    4731 : FDE9;
    4732 : 05FD;
    4733 : 058C;
    4734 : 01C1;
    4735 : FBC9;
    4736 : FFC1;
    4737 : FD1E;
    4738 : FE63;
    4739 : 0000;
    4740 : FC2E;
    4741 : F3E6;
    4742 : 03FE;
    4743 : 0081;
    4744 : 0719;
    4745 : FB71;
    4746 : 0102;
    4747 : 0095;
    4748 : 0039;
    4749 : FB9C;
    4750 : 02C6;
    4751 : FF7F;
    4752 : 0237;
    4753 : FD03;
    4754 : 016A;
    4755 : FC74;
    4756 : 0101;
    4757 : FD4B;
    4758 : FE85;
    4759 : 0406;
    4760 : FD5C;
    4761 : 07A1;
    4762 : F542;
    4763 : 02F6;
    4764 : F998;
    4765 : 0778;
    4766 : FD60;
    4767 : 03AF;
    4768 : F41E;
    4769 : 05EA;
    4770 : 0177;
    4771 : FEDF;
    4772 : 02CD;
    4773 : FCA6;
    4774 : 01A4;
    4775 : FA24;
    4776 : FC87;
    4777 : FF40;
    4778 : FDD1;
    4779 : 04D1;
    4780 : E4A3;
    4781 : 055A;
    4782 : 0292;
    4783 : E9CA;
    4784 : FE8D;
    4785 : FEF7;
    4786 : 04B1;
    4787 : FBD7;
    4788 : FC8F;
    4789 : F6CB;
    4790 : 0065;
    4791 : 035E;
    4792 : 08F2;
    4793 : 0371;
    4794 : FD0C;
    4795 : 0131;
    4796 : 02B4;
    4797 : 010B;
    4798 : 0587;
    4799 : FE08;
    4800 : FDFC;
    4801 : F74F;
    4802 : FE27;
    4803 : FD26;
    4804 : 0653;
    4805 : FAF6;
    4806 : 0081;
    4807 : FD98;
    4808 : FCB1;
    4809 : FF24;
    4810 : F64A;
    4811 : 0304;
    4812 : 00BC;
    4813 : FD16;
    4814 : 02E0;
    4815 : FC34;
    4816 : 08A1;
    4817 : F7AD;
    4818 : FF7F;
    4819 : FC0C;
    4820 : 02AB;
    4821 : F6A2;
    4822 : 0521;
    4823 : FC79;
    4824 : 0183;
    4825 : 176B;
    4826 : FFFC;
    4827 : F8CE;
    4828 : 0195;
    4829 : F66F;
    4830 : 036F;
    4831 : FF11;
    4832 : FA9A;
    4833 : 08A9;
    4834 : F60A;
    4835 : 04A9;
    4836 : FA0A;
    4837 : FE8F;
    4838 : FAB6;
    4839 : 02B0;
    4840 : EE47;
    4841 : 0675;
    4842 : 00FF;
    4843 : 07BE;
    4844 : 01EC;
    4845 : F978;
    4846 : F2F4;
    4847 : F110;
    4848 : FE86;
    4849 : F431;
    4850 : FE31;
    4851 : 058D;
    4852 : FB69;
    4853 : 046D;
    4854 : FED7;
    4855 : FD54;
    4856 : FFE1;
    4857 : FF57;
    4858 : F9E2;
    4859 : FD9F;
    4860 : 0493;
    4861 : F9B4;
    4862 : FE9B;
    4863 : FC34;
    4864 : F6E4;
    4865 : FDD1;
    4866 : FE0D;
    4867 : FE14;
    4868 : FD33;
    4869 : 012A;
    4870 : FBCA;
    4871 : FC1A;
    4872 : FB93;
    4873 : 027A;
    4874 : F7C9;
    4875 : 097F;
    4876 : F211;
    4877 : 0EBF;
    4878 : 0303;
    4879 : 00D4;
    4880 : FE2A;
    4881 : FE2B;
    4882 : 006A;
    4883 : 0303;
    4884 : F91E;
    4885 : F98E;
    4886 : FF41;
    4887 : 0311;
    4888 : FA0F;
    4889 : FC11;
    4890 : 00FA;
    4891 : F33A;
    4892 : FC66;
    4893 : 04E9;
    4894 : 032B;
    4895 : 00FA;
    4896 : FE09;
    4897 : F7EB;
    4898 : FBE0;
    4899 : 08E6;
    4900 : FC21;
    4901 : 00FB;
    4902 : 0308;
    4903 : F66B;
    4904 : 0243;
    4905 : F90C;
    4906 : 069F;
    4907 : F565;
    4908 : FEFE;
    4909 : 04F4;
    4910 : FE1B;
    4911 : FCB3;
    4912 : F36D;
    4913 : FCFA;
    4914 : 02C7;
    4915 : FE3F;
    4916 : FF63;
    4917 : F844;
    4918 : 00BF;
    4919 : FB74;
    4920 : 01FB;
    4921 : 022D;
    4922 : 008F;
    4923 : FCD1;
    4924 : FCF9;
    4925 : F991;
    4926 : 06E3;
    4927 : 0787;
    4928 : 070B;
    4929 : FD35;
    4930 : FBC4;
    4931 : FD0C;
    4932 : FDE9;
    4933 : FE6A;
    4934 : FDB4;
    4935 : 06AB;
    4936 : FA51;
    4937 : 054A;
    4938 : 04DA;
    4939 : F6C5;
    4940 : 031A;
    4941 : FA51;
    4942 : 202C;
    4943 : FD17;
    4944 : FA18;
    4945 : FEB0;
    4946 : FB2B;
    4947 : 04AD;
    4948 : F603;
    4949 : 08DC;
    4950 : 03F0;
    4951 : F778;
    4952 : 013E;
    4953 : 0403;
    4954 : FC35;
    4955 : 02F4;
    4956 : FE7D;
    4957 : 05CA;
    4958 : 0295;
    4959 : F7BB;
    4960 : 02C2;
    4961 : F66A;
    4962 : 016A;
    4963 : FEF8;
    4964 : FA11;
    4965 : 08C6;
    4966 : 0611;
    4967 : 07DD;
    4968 : FC12;
    4969 : FE0F;
    4970 : 031D;
    4971 : FE2F;
    4972 : FCE2;
    4973 : 0000;
    4974 : FE0B;
    4975 : 0337;
    4976 : FD7B;
    4977 : 002C;
    4978 : F934;
    4979 : 032E;
    4980 : FB6C;
    4981 : F9C8;
    4982 : FC1D;
    4983 : 01E0;
    4984 : FC3F;
    4985 : 06ED;
    4986 : 02B2;
    4987 : FBA5;
    4988 : FEE7;
    4989 : 012A;
    4990 : 0202;
    4991 : 0178;
    4992 : 02FD;
    4993 : FD93;
    4994 : 0004;
    4995 : 0210;
    4996 : F2F0;
    4997 : F906;
    4998 : F9D9;
    4999 : 0089;
    5000 : FCC5;
    5001 : 0768;
    5002 : 016A;
    5003 : 0313;
    5004 : 05FC;
    5005 : EB98;
    5006 : 0826;
    5007 : F7FA;
    5008 : 08DB;
    5009 : F408;
    5010 : 0ADC;
    5011 : FD28;
    5012 : 0314;
    5013 : FCFC;
    5014 : F4E9;
    5015 : FE07;
    5016 : 0101;
    5017 : 0313;
    5018 : 07E3;
    5019 : FC23;
    5020 : 1414;
    5021 : F9F7;
    5022 : 051C;
    5023 : 01C0;
    5024 : 04B9;
    5025 : F9B9;
    5026 : 12C9;
    5027 : F358;
    5028 : 04E5;
    5029 : FD21;
    5030 : 0455;
    5031 : F946;
    5032 : 0C0B;
    5033 : F8A9;
    5034 : FC16;
    5035 : FE22;
    5036 : 026B;
    5037 : FF20;
    5038 : FA55;
    5039 : 03EA;
    5040 : 0104;
    5041 : 0926;
    5042 : FED9;
    5043 : 0334;
    5044 : FF32;
    5045 : 0A26;
    5046 : 00FC;
    5047 : FE29;
    5048 : 010C;
    5049 : FE0E;
    5050 : F232;
    5051 : F824;
    5052 : F8DF;
    5053 : E1C1;
    5054 : FF1A;
    5055 : 0936;
    5056 : FC51;
    5057 : 0105;
    5058 : 04EC;
    5059 : 011F;
    5060 : FFAB;
    5061 : FB78;
    5062 : 019C;
    5063 : 0237;
    5064 : 0000;
    5065 : EF5A;
    5066 : FB26;
    5067 : 02FD;
    5068 : FD1D;
    5069 : 01F7;
    5070 : 013B;
    5071 : FA68;
    5072 : 0191;
    5073 : FC4A;
    5074 : FC9E;
    5075 : FF82;
    5076 : FF83;
    5077 : 0242;
    5078 : FE1E;
    5079 : 026C;
    5080 : F219;
    5081 : 0177;
    5082 : 0593;
    5083 : 07F0;
    5084 : 00FA;
    5085 : 0319;
    5086 : 0DF4;
    5087 : FE7B;
    5088 : F8E1;
    5089 : FDA8;
    5090 : FF6C;
    5091 : 07C4;
    5092 : F0A9;
    5093 : 038F;
    5094 : F983;
    5095 : 01C0;
    5096 : FEB2;
    5097 : 0318;
    5098 : FCE8;
    5099 : 03FE;
    5100 : 03ED;
    5101 : FB2A;
    5102 : FD51;
    5103 : 0187;
    5104 : 01A9;
    5105 : 0661;
    5106 : F9EA;
    5107 : 00C5;
    5108 : FEC0;
    5109 : 06E3;
    5110 : F51F;
    5111 : 0594;
    5112 : FEFC;
    5113 : 011E;
    5114 : 0109;
    5115 : 083C;
    5116 : E9CA;
    5117 : 0823;
    5118 : FAED;
    5119 : 02BD;
    5120 : 001F;
    5121 : 03F5;
    5122 : 005D;
    5123 : 038E;
    5124 : 03EC;
    5125 : 0910;
    5126 : FE15;
    5127 : 01F5;
    5128 : 0506;
    5129 : F924;
    5130 : 0103;
    5131 : FD35;
    5132 : 01D0;
    5133 : 0245;
    5134 : FC41;
    5135 : 091E;
    5136 : FBF2;
    5137 : 0709;
    5138 : FD01;
    5139 : 0922;
    5140 : F9CF;
    5141 : 0000;
    5142 : FE18;
    5143 : 0949;
    5144 : FA5D;
    5145 : 06A0;
    5146 : FB15;
    5147 : 06AD;
    5148 : FFC7;
    5149 : F218;
    5150 : FD9E;
    5151 : 0650;
    5152 : F7E4;
    5153 : 0616;
    5154 : FBF6;
    5155 : FAF5;
    5156 : FA15;
    5157 : 0C0F;
    5158 : F00A;
    5159 : 0C1E;
    5160 : FB18;
    5161 : FEDA;
    5162 : FD1B;
    5163 : 01FD;
    5164 : FCCC;
    5165 : 03ED;
    5166 : F969;
    5167 : 0626;
    5168 : FF94;
    5169 : 05D3;
    5170 : FA4C;
    5171 : 0512;
    5172 : FF05;
    5173 : FEE3;
    5174 : 0101;
    5175 : FB46;
    5176 : EFF7;
    5177 : FC13;
    5178 : FE88;
    5179 : F607;
    5180 : 026B;
    5181 : FB36;
    5182 : FED9;
    5183 : FA9C;
    5184 : 03F5;
    5185 : 04D8;
    5186 : FD80;
    5187 : 0386;
    5188 : F8E0;
    5189 : 0965;
    5190 : FA7A;
    5191 : 02EA;
    5192 : FE3F;
    5193 : 00D9;
    5194 : 02CB;
    5195 : 03EE;
    5196 : 0274;
    5197 : FCD8;
    5198 : 0073;
    5199 : FB36;
    5200 : 053C;
    5201 : FB95;
    5202 : FEFD;
    5203 : 00EB;
    5204 : FEF5;
    5205 : 0423;
    5206 : FF6C;
    5207 : FDF9;
    5208 : FC6E;
    5209 : DBB4;
    5210 : 08F1;
    5211 : 027B;
    5212 : FE35;
    5213 : FDF6;
    5214 : FDF7;
    5215 : 01E1;
    5216 : 00CC;
    5217 : 0651;
    5218 : FF19;
    5219 : FBEE;
    5220 : 007E;
    5221 : FE45;
    5222 : 028D;
    5223 : F99C;
    5224 : 09F3;
    5225 : FB93;
    5226 : 0B0A;
    5227 : 0432;
    5228 : 0718;
    5229 : F8EA;
    5230 : 1FEB;
    5231 : F5F7;
    5232 : FC13;
    5233 : 058D;
    5234 : 0301;
    5235 : FB20;
    5236 : 056F;
    5237 : F630;
    5238 : 00FB;
    5239 : F19C;
    5240 : 00F3;
    5241 : F9FE;
    5242 : 09B6;
    5243 : FCCF;
    5244 : FCF5;
    5245 : 0A9E;
    5246 : 0223;
    5247 : 03F6;
    5248 : 061E;
    5249 : FCF5;
    5250 : 00F8;
    5251 : FB94;
    5252 : 02D3;
    5253 : FE32;
    5254 : 036B;
    5255 : 02E7;
    5256 : FEC7;
    5257 : FDCA;
    5258 : 06A5;
    5259 : F9C7;
    5260 : 057C;
    5261 : F5F6;
    5262 : F8E7;
    5263 : FB5A;
    5264 : 0308;
    5265 : 0298;
    5266 : 0542;
    5267 : FB70;
    5268 : FF04;
    5269 : 0202;
    5270 : FCF1;
    5271 : 0218;
    5272 : 03CD;
    5273 : 0000;
    5274 : FC16;
    5275 : FD6A;
    5276 : 04E7;
    5277 : F754;
    5278 : FCBB;
    5279 : F441;
    5280 : 0000;
    5281 : FC5F;
    5282 : FDC5;
    5283 : 0592;
    5284 : E6A6;
    5285 : FBD2;
    5286 : 0182;
    5287 : FE6B;
    5288 : 03BC;
    5289 : FED4;
    5290 : 0907;
    5291 : FDBC;
    5292 : FF04;
    5293 : F9F2;
    5294 : FE25;
    5295 : FC0E;
    5296 : 0124;
    5297 : FC11;
    5298 : 0000;
    5299 : 02E0;
    5300 : FFEF;
    5301 : FC30;
    5302 : 0B09;
    5303 : FE09;
    5304 : FF05;
    5305 : 0852;
    5306 : 0208;
    5307 : FC12;
    5308 : 06AE;
    5309 : FA1B;
    5310 : FDF9;
    5311 : F2B3;
    5312 : 051D;
    5313 : 010A;
    5314 : 0249;
    5315 : FEFC;
    5316 : FC10;
    5317 : 0320;
    5318 : 0522;
    5319 : 0160;
    5320 : FFC9;
    5321 : FEFC;
    5322 : 08B2;
    5323 : F709;
    5324 : 0813;
    5325 : F5C2;
    5326 : EB4F;
    5327 : EF9B;
    5328 : FF05;
    5329 : 06E9;
    5330 : FE2F;
    5331 : 00DA;
    5332 : FF04;
    5333 : 0273;
    5334 : FA6D;
    5335 : 042A;
    5336 : 000C;
    5337 : 0498;
    5338 : F812;
    5339 : 09A1;
    5340 : 0418;
    5341 : EC1B;
    5342 : 065A;
    5343 : FDE7;
    5344 : 0441;
    5345 : FBE8;
    5346 : 0467;
    5347 : 032A;
    5348 : 010C;
    5349 : FFF5;
    5350 : 055D;
    5351 : FF83;
    5352 : FEC6;
    5353 : 111E;
    5354 : FFE3;
    5355 : FE6D;
    5356 : 19B0;
    5357 : FB16;
    5358 : FB6E;
    5359 : F498;
    5360 : FE7F;
    5361 : 09B6;
    5362 : F396;
    5363 : 0D35;
    5364 : 0207;
    5365 : 02D9;
    5366 : 0111;
    5367 : 0713;
    5368 : 062C;
    5369 : 0512;
    5370 : 0373;
    5371 : 035F;
    5372 : 01A4;
    5373 : FBF1;
    5374 : 052A;
    5375 : 0000;
    5376 : 0312;
    5377 : F9FD;
    5378 : FE95;
    5379 : 04DA;
    5380 : 075C;
    5381 : FED9;
    5382 : 0567;
    5383 : F5FD;
    5384 : 02BA;
    5385 : F877;
    5386 : 22A8;
    5387 : F3BA;
    5388 : 056A;
    5389 : FEA9;
    5390 : 0329;
    5391 : FBFF;
    5392 : 0010;
    5393 : F928;
    5394 : F89B;
    5395 : 0659;
    5396 : FD28;
    5397 : 0868;
    5398 : D66E;
    5399 : 0D84;
    5400 : FF52;
    5401 : FFDF;
    5402 : 0509;
    5403 : F819;
    5404 : 1B79;
    5405 : F799;
    5406 : 05FA;
    5407 : FDEE;
    5408 : 02A0;
    5409 : F9BE;
    5410 : 1C05;
    5411 : F5B9;
    5412 : FDBB;
    5413 : 0935;
    5414 : 0368;
    5415 : FEC3;
    5416 : 02BD;
    5417 : FCB8;
    5418 : FAC6;
    5419 : FFB3;
    5420 : 0476;
    5421 : FD97;
    5422 : FE57;
    5423 : F58D;
    5424 : 0000;
    5425 : 1554;
    5426 : 01FF;
    5427 : FBBC;
    5428 : FFE6;
    5429 : 0404;
    5430 : FE47;
    5431 : 00E5;
    5432 : 030D;
    5433 : FD20;
    5434 : FE51;
    5435 : FE47;
    5436 : 05D9;
    5437 : FCF4;
    5438 : 07FE;
    5439 : F58D;
    5440 : 0A08;
    5441 : F6F6;
    5442 : FC75;
    5443 : 130F;
    5444 : 00D7;
    5445 : FE23;
    5446 : FDD2;
    5447 : 00C2;
    5448 : F844;
    5449 : 084D;
    5450 : 018F;
    5451 : 03D9;
    5452 : FCEB;
    5453 : 0000;
    5454 : FFC0;
    5455 : FE14;
    5456 : FDFE;
    5457 : FCF8;
    5458 : F1D9;
    5459 : 037A;
    5460 : 031C;
    5461 : D294;
    5462 : 025F;
    5463 : 0076;
    5464 : 0578;
    5465 : 0425;
    5466 : FEFD;
    5467 : 07F9;
    5468 : FFBA;
    5469 : 04E8;
    5470 : 0CB3;
    5471 : FBF5;
    5472 : 0189;
    5473 : F3E1;
    5474 : FCD1;
    5475 : 06AD;
    5476 : E9DD;
    5477 : 0312;
    5478 : FE09;
    5479 : F2F8;
    5480 : FD85;
    5481 : 05D6;
    5482 : F7E6;
    5483 : 0573;
    5484 : FF9E;
    5485 : F2DE;
    5486 : 074B;
    5487 : FAA7;
    5488 : DF02;
    5489 : F4A1;
    5490 : 0558;
    5491 : FA65;
    5492 : 0096;
    5493 : FE4F;
    5494 : F08B;
    5495 : FBD3;
    5496 : FAD7;
    5497 : 0704;
    5498 : FED9;
    5499 : 0482;
    5500 : D802;
    5501 : 0108;
    5502 : FA66;
    5503 : 04C1;
    5504 : FD8E;
    5505 : 06F6;
    5506 : 0A78;
    5507 : 0413;
    5508 : FE0C;
    5509 : 037E;
    5510 : 009D;
    5511 : FA36;
    5512 : 0FBD;
    5513 : F92A;
    5514 : FBFE;
    5515 : 017D;
    5516 : 01FF;
    5517 : 029C;
    5518 : FF11;
    5519 : 0603;
    5520 : FCFE;
    5521 : 029C;
    5522 : 0053;
    5523 : 055A;
    5524 : F647;
    5525 : 0A08;
    5526 : 0105;
    5527 : 0100;
    5528 : 03B1;
    5529 : FD75;
    5530 : 0655;
    5531 : F757;
    5532 : 0000;
    5533 : 016A;
    5534 : 05F9;
    5535 : F9B0;
    5536 : 03BA;
    5537 : FC3D;
    5538 : FE84;
    5539 : F7F7;
    5540 : 00DB;
    5541 : 004D;
    5542 : 0094;
    5543 : 0279;
    5544 : 032B;
    5545 : 0E5E;
    5546 : 04DE;
    5547 : FC9B;
    5548 : 0D6A;
    5549 : FA31;
    5550 : F858;
    5551 : 2996;
    5552 : FB20;
    5553 : 068A;
    5554 : EFF6;
    5555 : 0A0D;
    5556 : FF5A;
    5557 : 004E;
    5558 : F610;
    5559 : 0C56;
    5560 : E0FC;
    5561 : 0EEE;
    5562 : 07D3;
    5563 : EFC1;
    5564 : 01B1;
    5565 : F827;
    5566 : F697;
    5567 : FF06;
    5568 : FCA8;
    5569 : 1D0D;
    5570 : FD37;
    5571 : 046C;
    5572 : F18F;
    5573 : 089A;
    5574 : 02F9;
    5575 : F98E;
    5576 : 0111;
    5577 : FA1E;
    5578 : 1D28;
    5579 : F716;
    5580 : 03F8;
    5581 : F824;
    5582 : FF3D;
    5583 : FA7B;
    5584 : 01BF;
    5585 : 02FA;
    5586 : 0897;
    5587 : FB90;
    5588 : 05CF;
    5589 : F8EB;
    5590 : 0DE8;
    5591 : FA46;
    5592 : 0D2C;
    5593 : C529;
    5594 : 0655;
    5595 : F89E;
    5596 : 0E1E;
    5597 : F96A;
    5598 : 04FE;
    5599 : 0823;
    5600 : 01A3;
    5601 : FD13;
    5602 : FA44;
    5603 : 06FD;
    5604 : 0207;
    5605 : 100F;
    5606 : 07D2;
    5607 : FDD1;
    5608 : 0946;
    5609 : FAED;
    5610 : 097B;
    5611 : 01D0;
    5612 : 0398;
    5613 : FADE;
    5614 : 12C1;
    5615 : FBC9;
    5616 : 0414;
    5617 : 1C7F;
    5618 : 03F5;
    5619 : F897;
    5620 : 007F;
    5621 : F6D2;
    5622 : 04FB;
    5623 : FF4A;
    5624 : 01E8;
    5625 : 059B;
    5626 : FED6;
    5627 : 01FE;
    5628 : 046F;
    5629 : 11DC;
    5630 : 07B5;
    5631 : F8E9;
    5632 : 0B32;
    5633 : F606;
    5634 : 0292;
    5635 : 0F5B;
    5636 : 0556;
    5637 : F982;
    5638 : 0850;
    5639 : F84A;
    5640 : 02FE;
    5641 : FB01;
    5642 : 0192;
    5643 : FF97;
    5644 : F4BD;
    5645 : 0000;
    5646 : FF02;
    5647 : F533;
    5648 : 0345;
    5649 : F76F;
    5650 : 0C64;
    5651 : FC08;
    5652 : F851;
    5653 : 0663;
    5654 : F9A2;
    5655 : 09E4;
    5656 : 0467;
    5657 : 0B45;
    5658 : FF7F;
    5659 : 01E7;
    5660 : 01C3;
    5661 : 001D;
    5662 : E1FE;
    5663 : 0205;
    5664 : 0000;
    5665 : FEDB;
    5666 : FEF7;
    5667 : 069F;
    5668 : F9EA;
    5669 : 089E;
    5670 : 03D9;
    5671 : 009D;
    5672 : FE2E;
    5673 : FE60;
    5674 : 1A4F;
    5675 : FD05;
    5676 : FF88;
    5677 : F4C4;
    5678 : FBBF;
    5679 : 0507;
    5680 : FB9B;
    5681 : 09E1;
    5682 : FDFB;
    5683 : F871;
    5684 : FAE1;
    5685 : 066E;
    5686 : 08D1;
    5687 : 0A85;
    5688 : 055E;
    5689 : 08D6;
    5690 : 0724;
    5691 : F7ED;
    5692 : 0909;
    5693 : FA18;
    5694 : FFBE;
    5695 : DA93;
    5696 : 0424;
    5697 : FDE0;
    5698 : 0324;
    5699 : FBE3;
    5700 : 056D;
    5701 : FAB5;
    5702 : 06AA;
    5703 : F50D;
    5704 : 0BC9;
    5705 : F32C;
    5706 : 035D;
    5707 : F7F4;
    5708 : 0213;
    5709 : FB5A;
    5710 : DF42;
    5711 : FA3C;
    5712 : 0806;
    5713 : 0401;
    5714 : 038F;
    5715 : F903;
    5716 : 07DD;
    5717 : FCFE;
    5718 : FD21;
    5719 : 0315;
    5720 : FE36;
    5721 : 03F2;
    5722 : 18AF;
    5723 : 0355;
    5724 : FE4F;
    5725 : FBC4;
    5726 : FC68;
    5727 : 0738;
    5728 : F704;
    5729 : 08DF;
    5730 : FC45;
    5731 : 0649;
    5732 : FCBA;
    5733 : 04C7;
    5734 : F999;
    5735 : 0687;
    5736 : 0594;
    5737 : 1199;
    5738 : 0566;
    5739 : FB3F;
    5740 : 10AF;
    5741 : FCA7;
    5742 : 00FD;
    5743 : 0DAC;
    5744 : FF93;
    5745 : FF90;
    5746 : FE39;
    5747 : FD09;
    5748 : FE8A;
    5749 : F3C0;
    5750 : 0074;
    5751 : FC2A;
    5752 : 1D02;
    5753 : F92C;
    5754 : 03F7;
    5755 : FD84;
    5756 : 003E;
    5757 : FA78;
    5758 : 08D1;
    5759 : F41B;
    5760 : FF82;
    5761 : 006D;
    5762 : FC2D;
    5763 : 0454;
    5764 : FA33;
    5765 : 07A2;
    5766 : FC19;
    5767 : 000C;
    5768 : FECA;
    5769 : 0463;
    5770 : FC65;
    5771 : FE89;
    5772 : FE58;
    5773 : 008D;
    5774 : 009A;
    5775 : FB99;
    5776 : 02DE;
    5777 : FCF2;
    5778 : 02EC;
    5779 : FC0E;
    5780 : 027D;
    5781 : FCCE;
    5782 : 0877;
    5783 : FE0D;
    5784 : FE55;
    5785 : FBAD;
    5786 : 03C3;
    5787 : F4AD;
    5788 : 09F1;
    5789 : F61E;
    5790 : 0101;
    5791 : F874;
    5792 : 01CA;
    5793 : FBFA;
    5794 : 00AD;
    5795 : 0000;
    5796 : 059D;
    5797 : FB58;
    5798 : 022A;
    5799 : F6F5;
    5800 : 08A6;
    5801 : F8DB;
    5802 : 038D;
    5803 : FB52;
    5804 : 01A8;
    5805 : F885;
    5806 : 0678;
    5807 : FCF4;
    5808 : FDF5;
    5809 : FF50;
    5810 : FB73;
    5811 : FF31;
    5812 : FE0D;
    5813 : 020B;
    5814 : FE40;
    5815 : FB4A;
    5816 : 051D;
    5817 : F7E7;
    5818 : 09DA;
    5819 : F3BF;
    5820 : 046F;
    5821 : FF18;
    5822 : 018B;
    5823 : FE9E;
    5824 : 0017;
    5825 : FE08;
    5826 : 01C5;
    5827 : FCDF;
    5828 : 0146;
    5829 : FAF7;
    5830 : 02D1;
    5831 : FBB3;
    5832 : 01F5;
    5833 : FFAB;
    5834 : FF25;
    5835 : 0005;
    5836 : FE53;
    5837 : FF83;
    5838 : 0000;
    5839 : 03FC;
    5840 : FA8B;
    5841 : FF9A;
    5842 : FE6B;
    5843 : 0000;
    5844 : 00FA;
    5845 : FFDD;
    5846 : FCC4;
    5847 : 018C;
    5848 : F5E1;
    5849 : 08C7;
    5850 : FC9E;
    5851 : 0396;
    5852 : F88A;
    5853 : 08AE;
    5854 : F2CA;
    5855 : 08B4;
    5856 : 00FA;
    5857 : FD90;
    5858 : 0195;
    5859 : FCB8;
    5860 : 061C;
    5861 : FE88;
    5862 : 0105;
    5863 : FF20;
    5864 : FFA7;
    5865 : FD8F;
    5866 : FCC4;
    5867 : 0391;
    5868 : 069E;
    5869 : F172;
    5870 : FF13;
    5871 : 00F3;
    5872 : FEDF;
    5873 : FDCB;
    5874 : 0041;
    5875 : FB4E;
    5876 : FE4A;
    5877 : FBFD;
    5878 : 04CF;
    5879 : FCAF;
    5880 : FEFC;
    5881 : 000C;
    5882 : F90C;
    5883 : 040E;
    5884 : F5E0;
    5885 : 0923;
    5886 : 0188;
    5887 : FFDA;
    5888 : FE3F;
    5889 : FD74;
    5890 : 0041;
    5891 : 0105;
    5892 : 0138;
    5893 : FC59;
    5894 : FD0E;
    5895 : 02F4;
    5896 : FB67;
    5897 : 0138;
    5898 : FC17;
    5899 : FEB6;
    5900 : FFB3;
    5901 : 0302;
    5902 : FBD2;
    5903 : FE0B;
    5904 : 03E1;
    5905 : FEA9;
    5906 : FA6C;
    5907 : 02C8;
    5908 : F78E;
    5909 : 0551;
    5910 : FF3C;
    5911 : FEA7;
    5912 : 025E;
    5913 : F726;
    5914 : 0658;
    5915 : F8FF;
    5916 : FF03;
    5917 : 0360;
    5918 : F90D;
    5919 : 059C;
    5920 : F5F9;
    5921 : 05EB;
    5922 : FC12;
    5923 : 02B3;
    5924 : 00F9;
    5925 : FDB3;
    5926 : FE95;
    5927 : 03EE;
    5928 : FA9C;
    5929 : 003D;
    5930 : FDA7;
    5931 : 01A1;
    5932 : F6E2;
    5933 : 007D;
    5934 : 020A;
    5935 : F8F6;
    5936 : 021D;
    5937 : F5F9;
    5938 : 0B92;
    5939 : F2BD;
    5940 : 0104;
    5941 : FE77;
    5942 : F88A;
