WIDTH=16;
DEPTH=385;

ADDRESS_RADIX=DEC;
DATA_RADIX=HEX;

CONTENT BEGIN
    0 : FC20;
    1 : FA80;
    2 : F9C2;
    3 : FA9E;
    4 : 17C1;
    5 : F9A1;
    6 : F723;
    7 : F902;
    8 : 0194;
    9 : FA2F;
    10 : FD81;
    11 : FEC7;
    12 : F2E6;
    13 : F969;
    14 : FE57;
    15 : F923;
    16 : 075A;
    17 : FA79;
    18 : F9E7;
    19 : 1121;
    20 : FEE3;
    21 : F51B;
    22 : F634;
    23 : F5D3;
    24 : F98C;
    25 : F208;
    26 : F906;
    27 : FC97;
    28 : 0F7D;
    29 : 002E;
    30 : FDC5;
    31 : FECF;
    32 : F84F;
    33 : FF27;
    34 : 0FEC;
    35 : F67B;
    36 : 09E5;
    37 : 0E01;
    38 : FF20;
    39 : 01A1;
    40 : F639;
    41 : 09B2;
    42 : 07C5;
    43 : F8E2;
    44 : F8A7;
    45 : FE87;
    46 : 01A1;
    47 : 02E1;
    48 : 0364;
    49 : 0B8C;
    50 : FCEA;
    51 : F680;
    52 : F7F3;
    53 : 04B7;
    54 : 1150;
    55 : F285;
    56 : 0029;
    57 : 0414;
    58 : 028F;
    59 : 0FA3;
    60 : 077F;
    61 : F547;
    62 : F708;
    63 : 0823;
    64 : 07BC;
    65 : FDB4;
    66 : F529;
    67 : 0E2A;
    68 : 092B;
    69 : FD10;
    70 : F9A9;
    71 : FECB;
    72 : FD5B;
    73 : F189;
    74 : F7AB;
    75 : 00BB;
    76 : 04E8;
    77 : FC5C;
    78 : FD78;
    79 : 15EF;
    80 : 008E;
    81 : F2BF;
    82 : F9BD;
    83 : 0426;
    84 : 0135;
    85 : F705;
    86 : 0320;
    87 : FEAF;
    88 : FF8E;
    89 : 0753;
    90 : 0454;
    91 : 002A;
    92 : 026A;
    93 : FC61;
    94 : F0BC;
    95 : 0C20;
    96 : 0717;
    97 : EAFE;
    98 : FEA7;
    99 : FEAC;
    100 : 009E;
    101 : 0B88;
    102 : F85F;
    103 : 01C5;
    104 : FEF8;
    105 : FE66;
    106 : 01BB;
    107 : F782;
    108 : 008D;
    109 : F1B2;
    110 : FAD8;
    111 : 0259;
    112 : 0D89;
    113 : 0522;
    114 : F7E7;
    115 : 080A;
    116 : FB5E;
    117 : FAC2;
    118 : 106B;
    119 : F9E1;
    120 : FAF1;
    121 : FBE6;
    122 : 0038;
    123 : FF5A;
    124 : FFDD;
    125 : FCD2;
    126 : 010F;
    127 : FDBD;
    128 : 0230;
    129 : 037B;
    130 : 04E8;
    131 : 012C;
    132 : 05FA;
    133 : F54E;
    134 : F835;
    135 : 0599;
    136 : 0B1A;
    137 : FF3C;
    138 : 0165;
    139 : F61E;
    140 : F97E;
    141 : 06CE;
    142 : 077A;
    143 : F6BD;
    144 : F9A0;
    145 : F3D6;
    146 : F880;
    147 : 02D6;
    148 : 0E9E;
    149 : FAE8;
    150 : 036F;
    151 : 0E67;
    152 : FCEC;
    153 : FD5F;
    154 : FAF6;
    155 : 012C;
    156 : FB89;
    157 : 16FD;
    158 : FFA3;
    159 : F734;
    160 : F81B;
    161 : F88B;
    162 : 0216;
    163 : F392;
    164 : F4C3;
    165 : 000E;
    166 : 0A54;
    167 : FFCF;
    168 : FFDC;
    169 : 042B;
    170 : FE65;
    171 : F96D;
    172 : F61A;
    173 : 066F;
    174 : FEAC;
    175 : 09AD;
    176 : FEE9;
    177 : FED9;
    178 : F8C5;
    179 : 0454;
    180 : F809;
    181 : 0412;
    182 : 062B;
    183 : F70D;
    184 : F606;
    185 : 0012;
    186 : F6AB;
    187 : 0ACB;
    188 : FDCB;
    189 : F5D4;
    190 : 2012;
    191 : FFF1;
    192 : F8CB;
    193 : 0B95;
    194 : 0799;
    195 : F7AD;
    196 : F433;
    197 : 0565;
    198 : FE23;
    199 : 02B3;
    200 : FED2;
    201 : 01CF;
    202 : F8B5;
    203 : FECE;
    204 : 003A;
    205 : F715;
    206 : FB38;
    207 : FD91;
    208 : 06D2;
    209 : FD3B;
    210 : F81A;
    211 : FD7C;
    212 : F945;
    213 : FC7D;
    214 : 15B0;
    215 : FAA7;
    216 : 0514;
    217 : 0884;
    218 : FA94;
    219 : FF22;
    220 : FC56;
    221 : FE87;
    222 : 0D16;
    223 : ECA3;
    224 : F9DF;
    225 : 0650;
    226 : 0319;
    227 : 093A;
    228 : 0B08;
    229 : 01D9;
    230 : FFD6;
    231 : 0612;
    232 : F272;
    233 : 03B3;
    234 : 08CD;
    235 : 0D1D;
    236 : 0816;
    237 : F71F;
    238 : F028;
    239 : 0CFF;
    240 : 032A;
    241 : F8A8;
    242 : F423;
    243 : FFC8;
    244 : 0911;
    245 : F9C2;
    246 : 0D49;
    247 : EAC7;
    248 : FAD6;
    249 : 03B5;
    250 : 002E;
    251 : 0983;
    252 : FC36;
    253 : 12E9;
    254 : 02F2;
    255 : F40F;
    256 : F0A4;
    257 : FBCA;
    258 : FED1;
    259 : 05C4;
    260 : F86A;
    261 : 0091;
    262 : 0EA0;
    263 : FDFE;
    264 : F4BA;
    265 : 0E01;
    266 : 07C6;
    267 : F636;
    268 : FA5B;
    269 : 0312;
    270 : 0294;
    271 : 0C2A;
    272 : FE8B;
    273 : 0014;
    274 : F952;
    275 : 0440;
    276 : F1E8;
    277 : FAA8;
    278 : F97E;
    279 : F9B5;
    280 : 1245;
    281 : F85C;
    282 : FF4C;
    283 : FD6E;
    284 : 0868;
    285 : FC1B;
    286 : EDA9;
    287 : 0651;
    288 : FF74;
    289 : 035B;
    290 : 095C;
    291 : FB09;
    292 : EAD2;
    293 : 022C;
    294 : F2F5;
    295 : F84A;
    296 : F916;
    297 : 02C7;
    298 : 164F;
    299 : F220;
    300 : F859;
    301 : F86D;
    302 : FF81;
    303 : FF0B;
    304 : 04DF;
    305 : FA33;
    306 : 03ED;
    307 : FE49;
    308 : 051B;
    309 : 00ED;
    310 : F23E;
    311 : 09CD;
    312 : 023D;
    313 : 0720;
    314 : 0452;
    315 : 015E;
    316 : F53D;
    317 : 0326;
    318 : 032C;
    319 : FB5F;
    320 : 0450;
    321 : FD3F;
    322 : FFD9;
    323 : 0358;
    324 : 03EC;
    325 : 09C5;
    326 : 0773;
    327 : FB50;
    328 : EAF2;
    329 : 001D;
    330 : F819;
    331 : FCE3;
    332 : 0114;
    333 : 01E7;
    334 : F36F;
    335 : FA0E;
    336 : FF54;
    337 : 00E9;
    338 : 0627;
    339 : F98E;
    340 : F1DB;
    341 : 0C8C;
    342 : FC4B;
    343 : 08AE;
    344 : FCFA;
    345 : FDD1;
    346 : FD03;
    347 : FA45;
    348 : FAA6;
    349 : FE60;
    350 : FD34;
    351 : FB4A;
    352 : 08D8;
    353 : 00F7;
    354 : 0881;
    355 : F79F;
    356 : F746;
    357 : FBC5;
    358 : FF03;
    359 : 00BA;
    360 : 09D7;
    361 : F098;
    362 : F961;
    363 : FE8A;
    364 : FF54;
    365 : 095C;
    366 : 019E;
    367 : FC66;
    368 : F764;
    369 : FE27;
    370 : 101D;
    371 : 003E;
    372 : 04BA;
    373 : EC8D;
    374 : F8CF;
    375 : 00AE;
    376 : 0AA8;
    377 : 0388;
    378 : 030A;
    379 : 0B40;
    380 : 0228;
    381 : FF2F;
    382 : F787;
    383 : 0281;
    384 : 0080;
END;
