WIDTH=16;
DEPTH=385;

ADDRESS_RADIX=DEC;
DATA_RADIX=HEX;

CONTENT BEGIN
    0 : 01B2;
    1 : 0642;
    2 : FFE1;
    3 : FE24;
    4 : FDED;
    5 : 02A5;
    6 : 01C9;
    7 : FC80;
    8 : 022C;
    9 : FB80;
    10 : 01F1;
    11 : 0B4D;
    12 : F664;
    13 : 0C26;
    14 : FD31;
    15 : F833;
    16 : 005F;
    17 : FC82;
    18 : F8F4;
    19 : FBB2;
    20 : FAA9;
    21 : FAA4;
    22 : 0C22;
    23 : FD99;
    24 : F6EE;
    25 : 018A;
    26 : 07C0;
    27 : F45C;
    28 : FA23;
    29 : 08B9;
    30 : FA7F;
    31 : 08C1;
    32 : 0026;
    33 : FD48;
    34 : 004B;
    35 : FF02;
    36 : 0086;
    37 : F828;
    38 : 0125;
    39 : 0129;
    40 : 0431;
    41 : 01CF;
    42 : 09E5;
    43 : F993;
    44 : FD58;
    45 : 0876;
    46 : FC6B;
    47 : FE13;
    48 : FD04;
    49 : F9A6;
    50 : 00F4;
    51 : 009D;
    52 : 02DE;
    53 : FDC8;
    54 : F9E5;
    55 : 0410;
    56 : FEC7;
    57 : FD35;
    58 : 0439;
    59 : F9F8;
    60 : F917;
    61 : 1019;
    62 : 00F5;
    63 : FCF6;
    64 : 012B;
    65 : FBA5;
    66 : 00F0;
    67 : F70C;
    68 : FACA;
    69 : 050F;
    70 : 07AE;
    71 : FE6F;
    72 : 0300;
    73 : 04AE;
    74 : 0522;
    75 : FF16;
    76 : F026;
    77 : 0084;
    78 : 045A;
    79 : F380;
    80 : 05B9;
    81 : FFB3;
    82 : FEA6;
    83 : 0A99;
    84 : 08B8;
    85 : 02BF;
    86 : FCB0;
    87 : 0491;
    88 : FF0B;
    89 : 051C;
    90 : FEB5;
    91 : FB97;
    92 : 03A2;
    93 : 023D;
    94 : 065C;
    95 : 0005;
    96 : 04D0;
    97 : 0674;
    98 : F5EF;
    99 : FFB8;
    100 : 01FF;
    101 : F739;
    102 : 0CBF;
    103 : FC50;
    104 : 004D;
    105 : 03F5;
    106 : F6A0;
    107 : 068F;
    108 : FCE1;
    109 : 0527;
    110 : 047F;
    111 : FD8A;
    112 : 002D;
    113 : 03ED;
    114 : 0604;
    115 : F653;
    116 : 0033;
    117 : 0301;
    118 : F071;
    119 : 0039;
    120 : 0968;
    121 : FC1A;
    122 : FD9F;
    123 : 0721;
    124 : 00EC;
    125 : FEC2;
    126 : 0224;
    127 : 06A7;
    128 : 02F6;
    129 : F765;
    130 : FB51;
    131 : 0864;
    132 : 01A0;
    133 : 00DD;
    134 : 040E;
    135 : FDA4;
    136 : EE75;
    137 : 0105;
    138 : 0245;
    139 : 1243;
    140 : 03FA;
    141 : FCE0;
    142 : F730;
    143 : 00FB;
    144 : FCF6;
    145 : 07A4;
    146 : 03CA;
    147 : F5CB;
    148 : F813;
    149 : 0806;
    150 : 0061;
    151 : F062;
    152 : 0224;
    153 : FF31;
    154 : 02DF;
    155 : 09DA;
    156 : 004E;
    157 : 0080;
    158 : FEDF;
    159 : F97A;
    160 : 0146;
    161 : FE03;
    162 : 02E9;
    163 : 0E76;
    164 : 034C;
    165 : FBDC;
    166 : F672;
    167 : FECF;
    168 : 07EC;
    169 : F15F;
    170 : 0494;
    171 : 01B8;
    172 : 1485;
    173 : 0B3D;
    174 : FBF8;
    175 : 055D;
    176 : FCF8;
    177 : FF2C;
    178 : 0059;
    179 : F6D4;
    180 : F8F1;
    181 : FFC9;
    182 : FEA8;
    183 : FB6A;
    184 : 1048;
    185 : FFE2;
    186 : 0AB6;
    187 : FB9B;
    188 : FA18;
    189 : 0635;
    190 : FCF2;
    191 : FEE5;
    192 : FC5C;
    193 : FA0F;
    194 : FB33;
    195 : FC59;
    196 : FF6B;
    197 : FC84;
    198 : 01FD;
    199 : F29A;
    200 : FB86;
    201 : 06F6;
    202 : 0414;
    203 : FC12;
    204 : 02E3;
    205 : 008E;
    206 : FAEF;
    207 : FC4D;
    208 : F6AF;
    209 : FD83;
    210 : 0380;
    211 : 0834;
    212 : F959;
    213 : 0234;
    214 : FCA9;
    215 : F9D0;
    216 : 01CB;
    217 : 000B;
    218 : FD2A;
    219 : 03E7;
    220 : 01B6;
    221 : FD59;
    222 : 0105;
    223 : 0A80;
    224 : 0107;
    225 : 005D;
    226 : F781;
    227 : F94A;
    228 : F7EA;
    229 : 07D8;
    230 : 024F;
    231 : F8FF;
    232 : 0528;
    233 : FDDF;
    234 : 0B0D;
    235 : F0D0;
    236 : FD31;
    237 : 0618;
    238 : 0415;
    239 : 0A27;
    240 : FEB7;
    241 : 031C;
    242 : 0158;
    243 : FB5D;
    244 : F85E;
    245 : 05EC;
    246 : 01C9;
    247 : 06B6;
    248 : 0560;
    249 : FCCE;
    250 : F702;
    251 : 03C6;
    252 : FDF2;
    253 : F414;
    254 : FCE9;
    255 : 001C;
    256 : 00AB;
    257 : FDB4;
    258 : 0DD9;
    259 : F22B;
    260 : 022A;
    261 : 043E;
    262 : F220;
    263 : 0981;
    264 : 0862;
    265 : F586;
    266 : F7A1;
    267 : 033D;
    268 : 096F;
    269 : 0448;
    270 : F9F2;
    271 : F989;
    272 : FBB0;
    273 : FC53;
    274 : 0968;
    275 : FE0D;
    276 : F5A0;
    277 : 06A5;
    278 : 036D;
    279 : F51A;
    280 : FD55;
    281 : 0100;
    282 : 0D87;
    283 : F06E;
    284 : FC93;
    285 : 02EC;
    286 : FD3E;
    287 : 0857;
    288 : 0372;
    289 : F267;
    290 : FA3C;
    291 : 047F;
    292 : 07FE;
    293 : 02E8;
    294 : 0654;
    295 : FDBD;
    296 : 00E2;
    297 : 055E;
    298 : F511;
    299 : 03C2;
    300 : FFEE;
    301 : 08E9;
    302 : 0564;
    303 : FE2F;
    304 : F6DB;
    305 : 01B8;
    306 : 0296;
    307 : FC70;
    308 : F6E8;
    309 : FE9C;
    310 : 0795;
    311 : FEAF;
    312 : 061B;
    313 : F711;
    314 : FEEA;
    315 : 0142;
    316 : 0300;
    317 : 055D;
    318 : F38F;
    319 : 0782;
    320 : FEB3;
    321 : F835;
    322 : 01F4;
    323 : FF44;
    324 : 015C;
    325 : FBF5;
    326 : FFE4;
    327 : FDF4;
    328 : 0344;
    329 : FFC4;
    330 : F931;
    331 : FF5F;
    332 : 0263;
    333 : F678;
    334 : 22E7;
    335 : 05A3;
    336 : F220;
    337 : 0282;
    338 : FC6B;
    339 : F9B0;
    340 : 0D2F;
    341 : F790;
    342 : 073F;
    343 : FC16;
    344 : FF14;
    345 : 071B;
    346 : FFA5;
    347 : FF97;
    348 : 05C7;
    349 : 05F9;
    350 : FFC8;
    351 : FD01;
    352 : F5FE;
    353 : 0285;
    354 : 01B3;
    355 : 0302;
    356 : 04B4;
    357 : FD28;
    358 : 0223;
    359 : 0963;
    360 : 074D;
    361 : 086D;
    362 : 00FA;
    363 : 044F;
    364 : FB51;
    365 : FF24;
    366 : 0A60;
    367 : 0587;
    368 : F963;
    369 : 010F;
    370 : F63B;
    371 : FF63;
    372 : 0A65;
    373 : 00F0;
    374 : FDB5;
    375 : 0230;
    376 : F482;
    377 : 03FB;
    378 : F632;
    379 : F9FF;
    380 : FFE2;
    381 : F6A3;
    382 : 09FC;
    383 : 0320;
    384 : 0080;
END;
