WIDTH=16;
DEPTH=385;

ADDRESS_RADIX=DEC;
DATA_RADIX=HEX;

CONTENT BEGIN
    0 : FC8E;
    1 : FD71;
    2 : 06BD;
    3 : FEF0;
    4 : EA84;
    5 : FEB1;
    6 : 007F;
    7 : 0447;
    8 : 0258;
    9 : FE0A;
    10 : 0513;
    11 : 0717;
    12 : F41B;
    13 : 08CB;
    14 : 0135;
    15 : F8BD;
    16 : 07F2;
    17 : FD6A;
    18 : 03A6;
    19 : FDF4;
    20 : 00DF;
    21 : 0915;
    22 : 0030;
    23 : FC43;
    24 : 0D43;
    25 : F5E2;
    26 : 0375;
    27 : 00FD;
    28 : F0D8;
    29 : 0F0D;
    30 : FC20;
    31 : FA9E;
    32 : 07F2;
    33 : FB38;
    34 : F606;
    35 : 088D;
    36 : 0AED;
    37 : E935;
    38 : 020A;
    39 : 007F;
    40 : F5CB;
    41 : 0A52;
    42 : F1F8;
    43 : FF8E;
    44 : FBF5;
    45 : FE61;
    46 : 0904;
    47 : F33A;
    48 : FF9A;
    49 : FFA1;
    50 : 0173;
    51 : FB8A;
    52 : 0174;
    53 : 052C;
    54 : 0A14;
    55 : F83C;
    56 : 017B;
    57 : 0131;
    58 : F0B4;
    59 : 05B6;
    60 : F741;
    61 : 0D35;
    62 : 00FE;
    63 : FF13;
    64 : 0C50;
    65 : F955;
    66 : FA47;
    67 : F968;
    68 : 06A6;
    69 : FD5C;
    70 : F956;
    71 : 01F7;
    72 : 0667;
    73 : F9B8;
    74 : 0247;
    75 : 02E7;
    76 : FD88;
    77 : 0B9C;
    78 : F26B;
    79 : 003D;
    80 : 0150;
    81 : F747;
    82 : 076B;
    83 : FE61;
    84 : 006A;
    85 : 02E0;
    86 : 005B;
    87 : FF35;
    88 : FC29;
    89 : FCFB;
    90 : FF37;
    91 : FE63;
    92 : 02B4;
    93 : FCE0;
    94 : 007D;
    95 : 02AB;
    96 : F719;
    97 : 04F0;
    98 : 00EF;
    99 : FCFA;
    100 : 031A;
    101 : FBE8;
    102 : FD1C;
    103 : FD31;
    104 : FCE9;
    105 : 018D;
    106 : 056C;
    107 : 022E;
    108 : FFFF;
    109 : 007E;
    110 : 0798;
    111 : FD8E;
    112 : FA74;
    113 : 06E7;
    114 : 007A;
    115 : F8D6;
    116 : 04A8;
    117 : 0113;
    118 : F16F;
    119 : 0276;
    120 : 05C3;
    121 : FD33;
    122 : F998;
    123 : 0069;
    124 : FE4E;
    125 : FBAA;
    126 : FF95;
    127 : FF3B;
    128 : FD44;
    129 : 0498;
    130 : 0192;
    131 : FDC1;
    132 : 055D;
    133 : FE2C;
    134 : FFEE;
    135 : 07D8;
    136 : FA05;
    137 : FE37;
    138 : 087D;
    139 : 099E;
    140 : 01C2;
    141 : 0386;
    142 : FC50;
    143 : 06CC;
    144 : FA0A;
    145 : 06CB;
    146 : FF6D;
    147 : FC4B;
    148 : 0179;
    149 : FB1C;
    150 : 0054;
    151 : 0284;
    152 : FE81;
    153 : FA6D;
    154 : 079C;
    155 : 0169;
    156 : F0F9;
    157 : 0039;
    158 : FEAE;
    159 : FC29;
    160 : 0933;
    161 : F706;
    162 : F8C3;
    163 : 0A6E;
    164 : FE87;
    165 : FAFD;
    166 : 0788;
    167 : FC09;
    168 : F8E7;
    169 : 01E5;
    170 : FF57;
    171 : 02FC;
    172 : 1646;
    173 : F516;
    174 : FEE2;
    175 : F700;
    176 : 00C7;
    177 : 0674;
    178 : FA39;
    179 : FF81;
    180 : FDB3;
    181 : FECE;
    182 : 01BC;
    183 : 01AB;
    184 : 0138;
    185 : FDED;
    186 : FE1D;
    187 : FCF6;
    188 : FD47;
    189 : FBD2;
    190 : F492;
    191 : FB4C;
    192 : FDA8;
    193 : FD11;
    194 : FB74;
    195 : FF4A;
    196 : FF94;
    197 : F8D1;
    198 : FA8F;
    199 : 003D;
    200 : 093F;
    201 : 011F;
    202 : FDD3;
    203 : FC92;
    204 : F8E4;
    205 : FE6B;
    206 : FB6D;
    207 : FED2;
    208 : 04DE;
    209 : FDD6;
    210 : FD57;
    211 : FDEA;
    212 : 037C;
    213 : FE5F;
    214 : F68B;
    215 : 001D;
    216 : FB81;
    217 : F813;
    218 : 00D9;
    219 : 0483;
    220 : 0370;
    221 : 02FF;
    222 : FBBC;
    223 : 0530;
    224 : 008D;
    225 : 019F;
    226 : 02CF;
    227 : F9C7;
    228 : 02B9;
    229 : FFA1;
    230 : 00D5;
    231 : 01EB;
    232 : FB69;
    233 : FFD5;
    234 : 0656;
    235 : FE92;
    236 : FBB1;
    237 : 0895;
    238 : 0172;
    239 : F905;
    240 : F801;
    241 : 0975;
    242 : 0292;
    243 : F832;
    244 : 048B;
    245 : 0146;
    246 : FD4F;
    247 : 001A;
    248 : 035F;
    249 : FD5F;
    250 : FB17;
    251 : 0197;
    252 : 08A9;
    253 : F758;
    254 : FF2D;
    255 : 0458;
    256 : F7B1;
    257 : FFD9;
    258 : FEA3;
    259 : FBCB;
    260 : FB96;
    261 : 0143;
    262 : F94F;
    263 : F838;
    264 : 0401;
    265 : F81D;
    266 : FC57;
    267 : 00DE;
    268 : FC27;
    269 : FE6C;
    270 : EF28;
    271 : 0003;
    272 : FB83;
    273 : FD38;
    274 : 09EB;
    275 : EE5D;
    276 : 0C0A;
    277 : F505;
    278 : 0059;
    279 : 02EB;
    280 : F55D;
    281 : 06CD;
    282 : 0010;
    283 : F965;
    284 : 0472;
    285 : 03A7;
    286 : FC05;
    287 : 03DC;
    288 : 0002;
    289 : 0257;
    290 : FFBE;
    291 : 04D4;
    292 : 07A9;
    293 : FCD5;
    294 : FEB4;
    295 : FD4C;
    296 : FE16;
    297 : 04F9;
    298 : FCEA;
    299 : FE02;
    300 : 0454;
    301 : 0542;
    302 : 0147;
    303 : 0309;
    304 : 02B6;
    305 : 029A;
    306 : F55F;
    307 : 05DA;
    308 : 026A;
    309 : 0369;
    310 : 0923;
    311 : F39E;
    312 : 0107;
    313 : FD8A;
    314 : 003E;
    315 : FF8A;
    316 : FB4F;
    317 : FB2B;
    318 : FA51;
    319 : 0704;
    320 : 04FE;
    321 : 001E;
    322 : 04D6;
    323 : 01A7;
    324 : FAB1;
    325 : FDE0;
    326 : 0913;
    327 : FCA9;
    328 : FF76;
    329 : 061B;
    330 : 0968;
    331 : 0463;
    332 : FFAC;
    333 : 0241;
    334 : 0DDB;
    335 : 029E;
    336 : 04A8;
    337 : F469;
    338 : 02D0;
    339 : FF12;
    340 : FC24;
    341 : 0D57;
    342 : 0411;
    343 : FE13;
    344 : F81D;
    345 : 0210;
    346 : 0203;
    347 : FB32;
    348 : 0EB9;
    349 : FE33;
    350 : FFD6;
    351 : 04AF;
    352 : FBDB;
    353 : 0679;
    354 : FE03;
    355 : 0603;
    356 : 0514;
    357 : FF55;
    358 : FB6F;
    359 : FD5E;
    360 : 0E3B;
    361 : FC5F;
    362 : 030F;
    363 : 06BF;
    364 : F826;
    365 : 08E1;
    366 : FB75;
    367 : 061E;
    368 : F98E;
    369 : 0239;
    370 : 03B2;
    371 : F38B;
    372 : 02CF;
    373 : 02EC;
    374 : 0637;
    375 : FFA3;
    376 : F195;
    377 : 01BC;
    378 : FB32;
    379 : 0303;
    380 : 024B;
    381 : FF78;
    382 : 06CB;
    383 : FDB9;
    384 : 0080;
END;
