WIDTH=16;
DEPTH=385;

ADDRESS_RADIX=DEC;
DATA_RADIX=HEX;

CONTENT BEGIN
    0 : F891;
    1 : 0875;
    2 : FD3A;
    3 : FCF9;
    4 : F974;
    5 : F3D3;
    6 : F9F9;
    7 : 0F4F;
    8 : FE61;
    9 : FD2A;
    10 : 086A;
    11 : FC90;
    12 : F7A5;
    13 : 037D;
    14 : 027B;
    15 : FE79;
    16 : 06C5;
    17 : FE86;
    18 : F790;
    19 : 0673;
    20 : FD94;
    21 : FE6E;
    22 : 082F;
    23 : F94F;
    24 : FA69;
    25 : FC98;
    26 : 04FB;
    27 : FBB0;
    28 : F7AA;
    29 : FE61;
    30 : 0073;
    31 : 00DA;
    32 : 03A2;
    33 : FE4B;
    34 : F88B;
    35 : FFA2;
    36 : 0111;
    37 : F284;
    38 : 0349;
    39 : FFE2;
    40 : FABC;
    41 : 0537;
    42 : 0128;
    43 : 0007;
    44 : 00CB;
    45 : 019A;
    46 : F5A1;
    47 : FA3E;
    48 : 01BD;
    49 : 071A;
    50 : FACE;
    51 : 009B;
    52 : 018D;
    53 : F783;
    54 : F9B3;
    55 : 0054;
    56 : 01B0;
    57 : 0443;
    58 : 0024;
    59 : F648;
    60 : 01F6;
    61 : 02EF;
    62 : FF8E;
    63 : FDC6;
    64 : 0332;
    65 : 03FD;
    66 : FF8A;
    67 : F5D7;
    68 : 0022;
    69 : 0900;
    70 : FBD4;
    71 : FC5D;
    72 : 030F;
    73 : FDB0;
    74 : FC45;
    75 : FD75;
    76 : FF91;
    77 : 01C1;
    78 : F0AC;
    79 : 0478;
    80 : 0185;
    81 : FC25;
    82 : 04F1;
    83 : F4CB;
    84 : 06FF;
    85 : 0229;
    86 : FE41;
    87 : 060E;
    88 : FF3B;
    89 : FC12;
    90 : F4BC;
    91 : 05A8;
    92 : FF16;
    93 : FEE5;
    94 : 0B35;
    95 : F9CC;
    96 : F22D;
    97 : 1289;
    98 : 0077;
    99 : F63F;
    100 : 0C32;
    101 : FB11;
    102 : F5F6;
    103 : 0971;
    104 : FE3C;
    105 : FA7E;
    106 : 03F3;
    107 : F9E6;
    108 : 0441;
    109 : FA0F;
    110 : FE13;
    111 : FA11;
    112 : FB3F;
    113 : 09DF;
    114 : 06CA;
    115 : FC31;
    116 : FA6C;
    117 : 0830;
    118 : FBDF;
    119 : FD26;
    120 : FEB2;
    121 : FD2B;
    122 : 02E2;
    123 : 0052;
    124 : 01C2;
    125 : 0130;
    126 : 0210;
    127 : FD46;
    128 : 01CC;
    129 : 0574;
    130 : FD4D;
    131 : 0069;
    132 : 063F;
    133 : 017F;
    134 : 0160;
    135 : FDE2;
    136 : F9E3;
    137 : 043C;
    138 : F68D;
    139 : 0B22;
    140 : 0184;
    141 : 02DA;
    142 : 023D;
    143 : F9AD;
    144 : 00D4;
    145 : 0111;
    146 : 0655;
    147 : 0034;
    148 : FC3B;
    149 : 02B3;
    150 : FDAB;
    151 : F6FE;
    152 : FD3E;
    153 : FD16;
    154 : FC00;
    155 : FEBA;
    156 : F620;
    157 : 03B2;
    158 : FEB7;
    159 : F8BF;
    160 : 051E;
    161 : F9E2;
    162 : 0317;
    163 : FACC;
    164 : FFC0;
    165 : 0525;
    166 : FD47;
    167 : 01AE;
    168 : FA3C;
    169 : FE50;
    170 : FCA9;
    171 : FE42;
    172 : 2519;
    173 : 00E4;
    174 : F8A1;
    175 : F665;
    176 : 033C;
    177 : F7C6;
    178 : FB06;
    179 : FE0B;
    180 : FBD7;
    181 : 01C1;
    182 : 066D;
    183 : 0127;
    184 : FF8E;
    185 : 00D3;
    186 : 0748;
    187 : FCF1;
    188 : 0114;
    189 : FDB4;
    190 : F558;
    191 : 06B4;
    192 : F73C;
    193 : 0324;
    194 : 009A;
    195 : F834;
    196 : FFC8;
    197 : FB76;
    198 : FB79;
    199 : FE6C;
    200 : 0087;
    201 : 0392;
    202 : 0275;
    203 : FA37;
    204 : FADE;
    205 : 0143;
    206 : 03A1;
    207 : 0384;
    208 : 03D0;
    209 : FC94;
    210 : FAF4;
    211 : FFF3;
    212 : 0067;
    213 : FBDC;
    214 : 0155;
    215 : 0309;
    216 : FB22;
    217 : 0AE1;
    218 : FCEF;
    219 : FE1E;
    220 : 05AD;
    221 : F90A;
    222 : F50D;
    223 : 05D6;
    224 : 0075;
    225 : F6ED;
    226 : 039D;
    227 : FBCA;
    228 : F819;
    229 : 0A91;
    230 : FC1F;
    231 : 011C;
    232 : 0C88;
    233 : F2C4;
    234 : FE50;
    235 : FD54;
    236 : 03B7;
    237 : FFE4;
    238 : FC02;
    239 : FF7B;
    240 : FDFA;
    241 : 08EF;
    242 : FC41;
    243 : 0055;
    244 : 06DB;
    245 : FA95;
    246 : FC99;
    247 : 0201;
    248 : 0011;
    249 : FA0F;
    250 : FFC1;
    251 : 0015;
    252 : 080D;
    253 : FBE7;
    254 : 036E;
    255 : 0658;
    256 : FCD2;
    257 : 046E;
    258 : 0BAC;
    259 : F8DB;
    260 : 0181;
    261 : 030E;
    262 : F426;
    263 : 0366;
    264 : FA16;
    265 : 027C;
    266 : FF03;
    267 : FD91;
    268 : 0224;
    269 : F8C9;
    270 : F47F;
    271 : 04A7;
    272 : F96D;
    273 : FE19;
    274 : 072F;
    275 : F206;
    276 : FB1A;
    277 : FB8F;
    278 : F996;
    279 : 01B4;
    280 : 056F;
    281 : FA91;
    282 : 065A;
    283 : 057A;
    284 : 02D6;
    285 : 0046;
    286 : 02B6;
    287 : 0770;
    288 : F9A7;
    289 : 0330;
    290 : FC08;
    291 : FB71;
    292 : 0379;
    293 : F958;
    294 : FF20;
    295 : 07AB;
    296 : 00E2;
    297 : FC57;
    298 : 0042;
    299 : FF95;
    300 : FEFC;
    301 : FE21;
    302 : FCEE;
    303 : 0447;
    304 : 0615;
    305 : FEA0;
    306 : 0054;
    307 : FEAC;
    308 : 0700;
    309 : 0023;
    310 : 0047;
    311 : 07BA;
    312 : 001E;
    313 : FFD1;
    314 : FAA9;
    315 : 05C7;
    316 : 034E;
    317 : F6EA;
    318 : F5D4;
    319 : 0410;
    320 : 051B;
    321 : FBA3;
    322 : 04C4;
    323 : 018B;
    324 : 0336;
    325 : FF16;
    326 : 075E;
    327 : FEF7;
    328 : F80B;
    329 : 0501;
    330 : 05F7;
    331 : 0B9D;
    332 : 03E7;
    333 : FD95;
    334 : 1B39;
    335 : 04BB;
    336 : F520;
    337 : 0477;
    338 : 00A2;
    339 : FF9C;
    340 : 0555;
    341 : FA4A;
    342 : FD49;
    343 : 048D;
    344 : 0316;
    345 : FB8C;
    346 : FB36;
    347 : FC06;
    348 : 005B;
    349 : 010E;
    350 : FAEA;
    351 : FF5E;
    352 : 0C3B;
    353 : 0371;
    354 : F892;
    355 : 066D;
    356 : 0316;
    357 : FFA0;
    358 : 0800;
    359 : FE62;
    360 : 0799;
    361 : FD96;
    362 : 0337;
    363 : 0466;
    364 : FF15;
    365 : 027A;
    366 : 0B5E;
    367 : FA28;
    368 : 0420;
    369 : 0479;
    370 : F739;
    371 : 08DE;
    372 : FDA6;
    373 : FEB8;
    374 : 09DB;
    375 : FFFB;
    376 : F333;
    377 : 0180;
    378 : FFC6;
    379 : F98D;
    380 : FFB4;
    381 : FE7C;
    382 : F822;
    383 : FF81;
    384 : 0080;
END;
