WIDTH=16;
DEPTH=385;

ADDRESS_RADIX=DEC;
DATA_RADIX=HEX;

CONTENT BEGIN
    0 : 0A44;
    1 : 01B6;
    2 : 013A;
    3 : 0441;
    4 : EEE7;
    5 : 00FC;
    6 : FF8F;
    7 : 1071;
    8 : FCAA;
    9 : FCAD;
    10 : 0967;
    11 : F8BD;
    12 : 031E;
    13 : 0EA3;
    14 : 011D;
    15 : FE03;
    16 : FC06;
    17 : 0474;
    18 : 0930;
    19 : F41D;
    20 : FFDF;
    21 : 0786;
    22 : 058B;
    23 : 028A;
    24 : 0C82;
    25 : FF51;
    26 : 0492;
    27 : FE2E;
    28 : F566;
    29 : 0FC8;
    30 : 0340;
    31 : 066B;
    32 : FEF4;
    33 : FE30;
    34 : F874;
    35 : 03F3;
    36 : F9E6;
    37 : FBF8;
    38 : FC2B;
    39 : 0111;
    40 : 0789;
    41 : F562;
    42 : F498;
    43 : 012B;
    44 : F944;
    45 : FD89;
    46 : 078D;
    47 : F289;
    48 : FD77;
    49 : FE29;
    50 : 0168;
    51 : FADE;
    52 : 0B12;
    53 : 030A;
    54 : F578;
    55 : 02CA;
    56 : 02B0;
    57 : F600;
    58 : FF1F;
    59 : FDCB;
    60 : FF1E;
    61 : 0C9A;
    62 : FECF;
    63 : FA9C;
    64 : F85B;
    65 : 0056;
    66 : FB70;
    67 : F511;
    68 : 0128;
    69 : 0129;
    70 : 0441;
    71 : FD3B;
    72 : 0445;
    73 : 09F3;
    74 : F975;
    75 : FE81;
    76 : FDC1;
    77 : 02F0;
    78 : FD56;
    79 : F9FD;
    80 : F90E;
    81 : 0032;
    82 : 0E83;
    83 : FA6D;
    84 : 017E;
    85 : 0588;
    86 : 00AD;
    87 : 0233;
    88 : 02A4;
    89 : FD07;
    90 : 048F;
    91 : FBB0;
    92 : FCEA;
    93 : 0532;
    94 : 0CE8;
    95 : FC9A;
    96 : 08CF;
    97 : 04C0;
    98 : FF44;
    99 : 0355;
    100 : F944;
    101 : 030F;
    102 : F89F;
    103 : 0BAC;
    104 : FE9A;
    105 : F725;
    106 : FE9F;
    107 : F9D0;
    108 : F3E3;
    109 : 0B87;
    110 : 03F8;
    111 : 008E;
    112 : FDAD;
    113 : F638;
    114 : FC89;
    115 : F937;
    116 : 00BF;
    117 : 033E;
    118 : FCB0;
    119 : FF00;
    120 : 0990;
    121 : F985;
    122 : F9D7;
    123 : 00EA;
    124 : 0000;
    125 : 00E4;
    126 : 088A;
    127 : 01BD;
    128 : FA8C;
    129 : 0105;
    130 : F994;
    131 : 00EA;
    132 : F4C3;
    133 : 1219;
    134 : 04C2;
    135 : F7DD;
    136 : F9E8;
    137 : F998;
    138 : 0AC1;
    139 : 0742;
    140 : FF93;
    141 : 06D3;
    142 : F732;
    143 : 046D;
    144 : F8CD;
    145 : 0FC4;
    146 : 00C7;
    147 : FC24;
    148 : F98C;
    149 : F88D;
    150 : FA05;
    151 : F696;
    152 : 006A;
    153 : F775;
    154 : 08BB;
    155 : 0642;
    156 : F622;
    157 : F976;
    158 : FE17;
    159 : 0030;
    160 : 0E62;
    161 : FB3B;
    162 : 093E;
    163 : FFDB;
    164 : 03F5;
    165 : 0460;
    166 : ECE5;
    167 : 0593;
    168 : F732;
    169 : 013A;
    170 : FF51;
    171 : F76D;
    172 : 0DDA;
    173 : FA7C;
    174 : 08B4;
    175 : FC45;
    176 : FF68;
    177 : 078B;
    178 : F8FA;
    179 : FFB0;
    180 : 0945;
    181 : F13F;
    182 : FF3D;
    183 : 010D;
    184 : 003E;
    185 : 085A;
    186 : F559;
    187 : 0637;
    188 : 00A8;
    189 : FD5F;
    190 : 053E;
    191 : FD1D;
    192 : 02CF;
    193 : FE2D;
    194 : 0049;
    195 : 07DC;
    196 : 0601;
    197 : FAC5;
    198 : FA15;
    199 : F93A;
    200 : 0540;
    201 : FCEC;
    202 : 08F1;
    203 : 019A;
    204 : 0A74;
    205 : 05CC;
    206 : FFE5;
    207 : 010E;
    208 : F75E;
    209 : 0695;
    210 : F982;
    211 : 0CFE;
    212 : F82B;
    213 : FF28;
    214 : FD78;
    215 : F233;
    216 : 005E;
    217 : 02FB;
    218 : 0062;
    219 : FF04;
    220 : FB22;
    221 : FCE2;
    222 : 03C3;
    223 : 04F8;
    224 : 02D3;
    225 : 030F;
    226 : F30C;
    227 : 0080;
    228 : FD06;
    229 : 0093;
    230 : F9FC;
    231 : FE38;
    232 : 0EBC;
    233 : FFFE;
    234 : 01B6;
    235 : F112;
    236 : FD84;
    237 : 0415;
    238 : 0C73;
    239 : 0681;
    240 : FE91;
    241 : 0527;
    242 : FF3D;
    243 : 02F0;
    244 : FA56;
    245 : FF19;
    246 : 0B5B;
    247 : 049A;
    248 : 01BA;
    249 : 038B;
    250 : F5C6;
    251 : 0876;
    252 : 0808;
    253 : F785;
    254 : F60C;
    255 : 006A;
    256 : 0CD6;
    257 : 0518;
    258 : F6DB;
    259 : F870;
    260 : F68A;
    261 : 015C;
    262 : 05EA;
    263 : F3EE;
    264 : 0718;
    265 : F719;
    266 : F38E;
    267 : 02F7;
    268 : 0D56;
    269 : FD49;
    270 : FCDC;
    271 : FE8E;
    272 : F8B5;
    273 : FCE8;
    274 : 0DE4;
    275 : FAE2;
    276 : FEA1;
    277 : 10B7;
    278 : 0079;
    279 : F7F5;
    280 : F756;
    281 : F9D8;
    282 : F3E2;
    283 : 0127;
    284 : FC4E;
    285 : F975;
    286 : 1605;
    287 : FCEF;
    288 : F59D;
    289 : FE41;
    290 : FB2D;
    291 : 01BC;
    292 : 146E;
    293 : F644;
    294 : F35A;
    295 : 0DCD;
    296 : 03E9;
    297 : FAC0;
    298 : F579;
    299 : F655;
    300 : F7B4;
    301 : 0ADC;
    302 : FD9B;
    303 : FAE6;
    304 : FE3E;
    305 : FF69;
    306 : 0305;
    307 : FAFC;
    308 : FBB9;
    309 : 02DE;
    310 : 0C5F;
    311 : FE45;
    312 : F718;
    313 : FC97;
    314 : FBBA;
    315 : FA72;
    316 : 0C64;
    317 : F920;
    318 : F96F;
    319 : 048D;
    320 : 0270;
    321 : FECD;
    322 : F81B;
    323 : F98D;
    324 : F3C9;
    325 : FCA6;
    326 : FFD2;
    327 : F986;
    328 : 0F89;
    329 : FD72;
    330 : 01EF;
    331 : F62E;
    332 : 0295;
    333 : FEFB;
    334 : 1024;
    335 : 0942;
    336 : FFEE;
    337 : F286;
    338 : FC75;
    339 : 086E;
    340 : 03A7;
    341 : FA54;
    342 : 00EB;
    343 : FD3E;
    344 : F640;
    345 : 02A2;
    346 : 0098;
    347 : F5E8;
    348 : F169;
    349 : 1086;
    350 : 010F;
    351 : F899;
    352 : 046B;
    353 : FA1F;
    354 : 016D;
    355 : 0B21;
    356 : 0052;
    357 : 01E3;
    358 : 0196;
    359 : FC0E;
    360 : 0B7F;
    361 : 03F0;
    362 : FDA0;
    363 : 09E5;
    364 : FBD4;
    365 : 0407;
    366 : FEEF;
    367 : 0BE2;
    368 : FD35;
    369 : FEF2;
    370 : FAD4;
    371 : FC0F;
    372 : 0550;
    373 : 0925;
    374 : FBF1;
    375 : FB70;
    376 : F66B;
    377 : 026A;
    378 : FBA3;
    379 : F3CC;
    380 : FBFE;
    381 : 04FB;
    382 : 1065;
    383 : FD4D;
    384 : 0080;
END;
