WIDTH=16;
DEPTH=385;

ADDRESS_RADIX=DEC;
DATA_RADIX=HEX;

CONTENT BEGIN
    0 : 05B7;
    1 : 00F6;
    2 : 0155;
    3 : 0752;
    4 : 0EAF;
    5 : FAC0;
    6 : FE77;
    7 : F3F9;
    8 : FAA6;
    9 : 0516;
    10 : FEB2;
    11 : F9F1;
    12 : 000B;
    13 : F9B0;
    14 : FCFB;
    15 : 0577;
    16 : 04C7;
    17 : FA99;
    18 : 06DB;
    19 : F96A;
    20 : 0314;
    21 : 0271;
    22 : F1F7;
    23 : 0874;
    24 : 0373;
    25 : F4F9;
    26 : FDEF;
    27 : FD82;
    28 : 01ED;
    29 : 08B0;
    30 : FAFE;
    31 : FAAE;
    32 : F6E6;
    33 : FF64;
    34 : 0A26;
    35 : F652;
    36 : F2A4;
    37 : 1E87;
    38 : FFFF;
    39 : F7D9;
    40 : 08EA;
    41 : F81D;
    42 : 07DA;
    43 : 0073;
    44 : FE4C;
    45 : 053D;
    46 : FCB7;
    47 : 02FF;
    48 : 0075;
    49 : 0C1B;
    50 : FDFF;
    51 : 00AA;
    52 : FC28;
    53 : F5BF;
    54 : F1D0;
    55 : 0ADD;
    56 : 026B;
    57 : F86F;
    58 : 086F;
    59 : F98A;
    60 : 01F2;
    61 : F9A3;
    62 : 0177;
    63 : 015D;
    64 : FF0E;
    65 : FFB4;
    66 : FFEF;
    67 : 065B;
    68 : 03E0;
    69 : FB2B;
    70 : F90B;
    71 : 0610;
    72 : 01E6;
    73 : F0F0;
    74 : 0028;
    75 : 0544;
    76 : FBEB;
    77 : 000C;
    78 : 0393;
    79 : 0C88;
    80 : FFA0;
    81 : 04C3;
    82 : FCA6;
    83 : FC6A;
    84 : 0151;
    85 : F8FE;
    86 : 02E8;
    87 : 01BD;
    88 : 0066;
    89 : 031D;
    90 : F28B;
    91 : 0F2E;
    92 : FCB0;
    93 : F9DA;
    94 : 065A;
    95 : F76A;
    96 : F9C0;
    97 : FB3A;
    98 : FED3;
    99 : 0060;
    100 : 07E0;
    101 : FA5D;
    102 : FF54;
    103 : F8E4;
    104 : FAAC;
    105 : 037B;
    106 : 037B;
    107 : F91C;
    108 : 0851;
    109 : FA88;
    110 : 03C8;
    111 : 035C;
    112 : FAAF;
    113 : 03DE;
    114 : F3B5;
    115 : 0AB9;
    116 : FB85;
    117 : 001B;
    118 : 0E61;
    119 : F10C;
    120 : FDF1;
    121 : 0B49;
    122 : 00EF;
    123 : F96F;
    124 : 00F8;
    125 : 02B3;
    126 : F72F;
    127 : FD6A;
    128 : 02C6;
    129 : 01F7;
    130 : 09FA;
    131 : FD47;
    132 : 08A1;
    133 : F733;
    134 : 0087;
    135 : 058D;
    136 : 027F;
    137 : 051F;
    138 : 04C2;
    139 : F90D;
    140 : 0000;
    141 : 00AE;
    142 : 04E1;
    143 : 05F0;
    144 : 0762;
    145 : F8BF;
    146 : 0437;
    147 : FEA2;
    148 : 0012;
    149 : 0ABD;
    150 : FAFC;
    151 : 05C6;
    152 : FD28;
    153 : FDAB;
    154 : 0224;
    155 : 014F;
    156 : FD1E;
    157 : 09F3;
    158 : 040A;
    159 : F8CF;
    160 : FAFD;
    161 : 0310;
    162 : F148;
    163 : FF6C;
    164 : 0222;
    165 : F57D;
    166 : 0AD4;
    167 : 00E1;
    168 : 088D;
    169 : 04A0;
    170 : 01BE;
    171 : 076A;
    172 : F914;
    173 : 000D;
    174 : FCC8;
    175 : 05E9;
    176 : FF24;
    177 : FE3D;
    178 : 026B;
    179 : F842;
    180 : 06A4;
    181 : FFD2;
    182 : FB86;
    183 : 0145;
    184 : FA86;
    185 : FFDE;
    186 : 02C3;
    187 : F8E3;
    188 : FFD3;
    189 : 052D;
    190 : 0ADC;
    191 : 0586;
    192 : 0C8A;
    193 : FF37;
    194 : FE20;
    195 : 0102;
    196 : F5FC;
    197 : 076A;
    198 : FCE3;
    199 : 0AF4;
    200 : 0234;
    201 : FBE6;
    202 : FD16;
    203 : FE9F;
    204 : F0F7;
    205 : 0601;
    206 : FE0B;
    207 : F8C3;
    208 : 0C96;
    209 : F3E9;
    210 : 0067;
    211 : FEE9;
    212 : 00F8;
    213 : FC5B;
    214 : 039B;
    215 : 005D;
    216 : 03D2;
    217 : F96D;
    218 : 00CF;
    219 : 0499;
    220 : 01A4;
    221 : 0761;
    222 : FFFF;
    223 : F8CB;
    224 : 04F8;
    225 : 035C;
    226 : 0139;
    227 : 0152;
    228 : FA98;
    229 : 036E;
    230 : 0336;
    231 : F8E8;
    232 : F94A;
    233 : 023F;
    234 : 0908;
    235 : 0655;
    236 : FDA3;
    237 : FD3F;
    238 : F80C;
    239 : 05DD;
    240 : 01A7;
    241 : F7FB;
    242 : FDB0;
    243 : FF79;
    244 : 01CE;
    245 : 00D8;
    246 : 0B65;
    247 : EEC8;
    248 : 03BE;
    249 : 041C;
    250 : FC33;
    251 : 0D9B;
    252 : 0756;
    253 : 08A3;
    254 : 020B;
    255 : 00FB;
    256 : F6D4;
    257 : 01A1;
    258 : 02BD;
    259 : 016C;
    260 : 01AA;
    261 : 01AF;
    262 : FEDA;
    263 : 0415;
    264 : FFF3;
    265 : 07CB;
    266 : F694;
    267 : 01F9;
    268 : FF17;
    269 : F6AC;
    270 : 05DC;
    271 : 0716;
    272 : 0496;
    273 : 0238;
    274 : FC61;
    275 : 0C25;
    276 : F8E9;
    277 : FB12;
    278 : FA20;
    279 : 0218;
    280 : 06EB;
    281 : F8C8;
    282 : FBAA;
    283 : 0404;
    284 : 08D3;
    285 : FFBF;
    286 : F593;
    287 : FCCA;
    288 : F7AD;
    289 : 0733;
    290 : FACA;
    291 : FF09;
    292 : FE28;
    293 : F322;
    294 : 0292;
    295 : F31F;
    296 : 0657;
    297 : 0123;
    298 : 0053;
    299 : 06FC;
    300 : EE90;
    301 : 0407;
    302 : FE26;
    303 : FF42;
    304 : 0A8C;
    305 : EE15;
    306 : FEDE;
    307 : FF91;
    308 : 0191;
    309 : FFF1;
    310 : F7CE;
    311 : FF47;
    312 : FDC3;
    313 : 00B9;
    314 : 01CC;
    315 : 0367;
    316 : F617;
    317 : FC21;
    318 : 00D4;
    319 : 0467;
    320 : F647;
    321 : 001C;
    322 : 0A40;
    323 : FA26;
    324 : FF43;
    325 : 0549;
    326 : 0480;
    327 : FA95;
    328 : FAE4;
    329 : 062D;
    330 : 0651;
    331 : FA89;
    332 : FC5F;
    333 : FF04;
    334 : F793;
    335 : 03EE;
    336 : FE22;
    337 : 071C;
    338 : 029C;
    339 : FBC0;
    340 : 0024;
    341 : 0319;
    342 : FDC5;
    343 : 014C;
    344 : FA89;
    345 : FEEF;
    346 : 02C6;
    347 : FC6F;
    348 : FD71;
    349 : FEA4;
    350 : FA98;
    351 : FD98;
    352 : 00F1;
    353 : FB93;
    354 : FE6C;
    355 : 023C;
    356 : FA43;
    357 : FD84;
    358 : 0037;
    359 : F81D;
    360 : FFD1;
    361 : FB87;
    362 : 00B6;
    363 : 0114;
    364 : FC8B;
    365 : 0095;
    366 : F7B8;
    367 : FB0A;
    368 : 00CC;
    369 : FDD1;
    370 : 0877;
    371 : FE66;
    372 : FE2E;
    373 : F9E5;
    374 : FC9C;
    375 : 027A;
    376 : 0E67;
    377 : FCDB;
    378 : 03A2;
    379 : 03D9;
    380 : 01C3;
    381 : 058A;
    382 : FF01;
    383 : 036D;
    384 : 0080;
END;
