WIDTH=16;
DEPTH=385;

ADDRESS_RADIX=DEC;
DATA_RADIX=HEX;

CONTENT BEGIN
    0 : 054C;
    1 : F60E;
    2 : 026C;
    3 : 0655;
    4 : 054A;
    5 : FFD0;
    6 : 046E;
    7 : FA01;
    8 : 059A;
    9 : FE13;
    10 : F451;
    11 : 047D;
    12 : F9CC;
    13 : F379;
    14 : 029C;
    15 : 00DC;
    16 : 02AF;
    17 : FD48;
    18 : 0037;
    19 : 06BB;
    20 : 0709;
    21 : FB01;
    22 : F570;
    23 : 0964;
    24 : FCE6;
    25 : 0312;
    26 : F60F;
    27 : 0120;
    28 : 0C8E;
    29 : F0ED;
    30 : 095A;
    31 : F683;
    32 : F5EE;
    33 : 0967;
    34 : 0F0F;
    35 : 003E;
    36 : 066D;
    37 : 09AE;
    38 : 0861;
    39 : 008B;
    40 : F65E;
    41 : 0AF7;
    42 : 034A;
    43 : F8D5;
    44 : FDB4;
    45 : 03DC;
    46 : 0271;
    47 : 052F;
    48 : 00DB;
    49 : 0648;
    50 : FFE8;
    51 : 0166;
    52 : FBD4;
    53 : 0167;
    54 : F202;
    55 : 03C4;
    56 : 0131;
    57 : FD0F;
    58 : 08C6;
    59 : F705;
    60 : 0549;
    61 : EBDD;
    62 : FE86;
    63 : 050F;
    64 : 03FF;
    65 : 0946;
    66 : 0363;
    67 : 0938;
    68 : FFCF;
    69 : 03ED;
    70 : F914;
    71 : FC45;
    72 : FCCB;
    73 : F692;
    74 : FD14;
    75 : 014C;
    76 : 0974;
    77 : FF03;
    78 : FE56;
    79 : 04B4;
    80 : 00A5;
    81 : FFDE;
    82 : F657;
    83 : FF79;
    84 : FFF6;
    85 : FA9C;
    86 : FF47;
    87 : 057B;
    88 : 01A6;
    89 : FD75;
    90 : 027C;
    91 : 0669;
    92 : 068C;
    93 : FB7A;
    94 : F090;
    95 : 075A;
    96 : 0D78;
    97 : F04D;
    98 : FCA8;
    99 : 01F7;
    100 : FEC5;
    101 : 0B8C;
    102 : F161;
    103 : 0392;
    104 : 0013;
    105 : FA75;
    106 : 0BB2;
    107 : FB39;
    108 : 05C7;
    109 : FA17;
    110 : FD00;
    111 : 03CD;
    112 : 0945;
    113 : 0355;
    114 : 0899;
    115 : 06A1;
    116 : FBD3;
    117 : 0116;
    118 : 05DB;
    119 : 0253;
    120 : FE4A;
    121 : 02BA;
    122 : 0148;
    123 : 01DC;
    124 : 016D;
    125 : 0189;
    126 : FD5C;
    127 : 0775;
    128 : FCEE;
    129 : FA9D;
    130 : 055D;
    131 : F74A;
    132 : 0472;
    133 : F64E;
    134 : FAC1;
    135 : 0463;
    136 : 09B6;
    137 : 007A;
    138 : FA3D;
    139 : F5BD;
    140 : FCE8;
    141 : 046D;
    142 : 0B99;
    143 : F4C2;
    144 : FAF2;
    145 : F68D;
    146 : 0380;
    147 : 05AC;
    148 : 0B5B;
    149 : FEC9;
    150 : 04A1;
    151 : 0E9D;
    152 : FBE0;
    153 : FDE6;
    154 : FE28;
    155 : 00D4;
    156 : 045E;
    157 : 0FC1;
    158 : 03DE;
    159 : FE10;
    160 : F277;
    161 : FB0E;
    162 : F3CA;
    163 : FAE3;
    164 : FA2E;
    165 : FF7D;
    166 : 138D;
    167 : F9A6;
    168 : 0906;
    169 : 01E8;
    170 : FD06;
    171 : 019C;
    172 : F114;
    173 : 01BF;
    174 : 070F;
    175 : F723;
    176 : 0236;
    177 : 0314;
    178 : EFBA;
    179 : 03EB;
    180 : FE9A;
    181 : 0A75;
    182 : 05F3;
    183 : FD74;
    184 : FB26;
    185 : 036D;
    186 : 047E;
    187 : F913;
    188 : FB8F;
    189 : 051B;
    190 : 05EC;
    191 : FC48;
    192 : F3F0;
    193 : 0E67;
    194 : 0236;
    195 : F9DC;
    196 : FB4C;
    197 : F431;
    198 : FF83;
    199 : 07AA;
    200 : 0220;
    201 : FDCA;
    202 : F39F;
    203 : FD6A;
    204 : 0126;
    205 : EFB1;
    206 : FF26;
    207 : 020A;
    208 : 020F;
    209 : 0470;
    210 : FAD3;
    211 : F65F;
    212 : F63F;
    213 : 0572;
    214 : 0EED;
    215 : F483;
    216 : F5F9;
    217 : 01E7;
    218 : FF9D;
    219 : FCC7;
    220 : 0412;
    221 : FB5B;
    222 : FCE1;
    223 : F8DD;
    224 : 022A;
    225 : 034B;
    226 : 0A29;
    227 : 0038;
    228 : 05D9;
    229 : 0305;
    230 : 0783;
    231 : FCE2;
    232 : F278;
    233 : 0A24;
    234 : FE45;
    235 : 0C7F;
    236 : FE0B;
    237 : FE92;
    238 : FDC5;
    239 : FBE0;
    240 : F7C3;
    241 : FEE4;
    242 : F75F;
    243 : 028D;
    244 : 13F2;
    245 : F3E9;
    246 : FB14;
    247 : F1BB;
    248 : FABE;
    249 : 0773;
    250 : 0E16;
    251 : FCB2;
    252 : FFDD;
    253 : 0D0F;
    254 : FF70;
    255 : FB8C;
    256 : F607;
    257 : FAC2;
    258 : 011C;
    259 : 04BB;
    260 : FC9C;
    261 : FB3B;
    262 : 03C7;
    263 : 06D3;
    264 : FAB9;
    265 : 0E3E;
    266 : 06EE;
    267 : FD58;
    268 : FB84;
    269 : FFAC;
    270 : F912;
    271 : 0E8F;
    272 : 04D5;
    273 : FF71;
    274 : FF33;
    275 : 001C;
    276 : FE76;
    277 : F4CE;
    278 : 0282;
    279 : FE13;
    280 : 06F2;
    281 : 0823;
    282 : 020E;
    283 : 089B;
    284 : 0804;
    285 : F97A;
    286 : F2C9;
    287 : 080B;
    288 : 0461;
    289 : 0A74;
    290 : 082C;
    291 : 0026;
    292 : F078;
    293 : FF14;
    294 : 046A;
    295 : ED88;
    296 : FD8D;
    297 : 0A69;
    298 : 08D5;
    299 : 030D;
    300 : 0782;
    301 : EF4E;
    302 : FA8D;
    303 : 04EC;
    304 : 02FF;
    305 : 00B5;
    306 : F7D8;
    307 : 09D0;
    308 : 028E;
    309 : F6D9;
    310 : F50F;
    311 : FAD7;
    312 : FA4D;
    313 : 0829;
    314 : 0988;
    315 : F62F;
    316 : F22D;
    317 : 067E;
    318 : 0382;
    319 : FBBE;
    320 : FFFF;
    321 : FF24;
    322 : 067E;
    323 : 0346;
    324 : F51C;
    325 : 0A77;
    326 : 03E0;
    327 : FDBD;
    328 : FBDF;
    329 : FCE0;
    330 : FB2B;
    331 : 0265;
    332 : F959;
    333 : FD32;
    334 : EA83;
    335 : F7F7;
    336 : 012B;
    337 : FDB0;
    338 : 04D9;
    339 : FCB5;
    340 : F123;
    341 : 0A6D;
    342 : F846;
    343 : 052E;
    344 : FE02;
    345 : FCAA;
    346 : 01BE;
    347 : FC75;
    348 : 0509;
    349 : FED5;
    350 : 02C1;
    351 : 0372;
    352 : 05BC;
    353 : 0209;
    354 : 048F;
    355 : F832;
    356 : FF6F;
    357 : 0101;
    358 : FF55;
    359 : 04B3;
    360 : FF15;
    361 : F090;
    362 : 0250;
    363 : 04CD;
    364 : 02AB;
    365 : 00EC;
    366 : FC62;
    367 : F249;
    368 : F86E;
    369 : 06F7;
    370 : 0A88;
    371 : F77F;
    372 : FD13;
    373 : F6F7;
    374 : FF28;
    375 : 065C;
    376 : 10CD;
    377 : FFEC;
    378 : FEBD;
    379 : 0BDC;
    380 : 069D;
    381 : 023B;
    382 : F874;
    383 : 007B;
    384 : 0080;
END;
