WIDTH=16;
DEPTH=385;

ADDRESS_RADIX=DEC;
DATA_RADIX=HEX;

CONTENT BEGIN
    0 : F99D;
    1 : FF4C;
    2 : FA92;
    3 : 01F6;
    4 : 1D6D;
    5 : F477;
    6 : 0156;
    7 : FA39;
    8 : FFDD;
    9 : 013E;
    10 : FC17;
    11 : F97C;
    12 : FCAA;
    13 : F42C;
    14 : 003B;
    15 : 082C;
    16 : 022F;
    17 : FA81;
    18 : 0359;
    19 : 0230;
    20 : 0081;
    21 : 00ED;
    22 : FB39;
    23 : 058B;
    24 : FBE7;
    25 : F54E;
    26 : FA95;
    27 : 043A;
    28 : 1116;
    29 : FEF1;
    30 : 0079;
    31 : F432;
    32 : 00DF;
    33 : 0528;
    34 : 0B3D;
    35 : 04DD;
    36 : EF15;
    37 : 1DF4;
    38 : FF58;
    39 : FB17;
    40 : 0A0A;
    41 : F3BA;
    42 : 0627;
    43 : FD7E;
    44 : 038F;
    45 : 049D;
    46 : FFE9;
    47 : FF40;
    48 : 07B1;
    49 : 05CF;
    50 : 00F7;
    51 : 00BE;
    52 : F46F;
    53 : 0041;
    54 : F650;
    55 : FF7D;
    56 : 0166;
    57 : F8F1;
    58 : 088B;
    59 : FE96;
    60 : 013E;
    61 : 01C8;
    62 : FD8A;
    63 : FAD3;
    64 : 06F3;
    65 : 02F0;
    66 : F9D3;
    67 : 0F8B;
    68 : 0014;
    69 : 0073;
    70 : FAC6;
    71 : F328;
    72 : F6E0;
    73 : FDDE;
    74 : FBED;
    75 : FAF3;
    76 : 0813;
    77 : FCC1;
    78 : FA7A;
    79 : 09E6;
    80 : 0171;
    81 : FEE4;
    82 : F644;
    83 : F96D;
    84 : FAEC;
    85 : FB40;
    86 : 01DE;
    87 : F7F7;
    88 : 0051;
    89 : 0504;
    90 : 04AF;
    91 : FC2D;
    92 : 0332;
    93 : 03DC;
    94 : F0D9;
    95 : 058C;
    96 : F2DB;
    97 : FCD2;
    98 : FD08;
    99 : F890;
    100 : 0D4B;
    101 : F67A;
    102 : 0217;
    103 : F7A0;
    104 : 01B7;
    105 : 02D2;
    106 : FE98;
    107 : 041C;
    108 : 02DB;
    109 : 034D;
    110 : 00A6;
    111 : 028F;
    112 : 0843;
    113 : FC73;
    114 : F98C;
    115 : 0648;
    116 : FDB0;
    117 : 029B;
    118 : 101B;
    119 : FBC2;
    120 : F58D;
    121 : 0D0A;
    122 : FAEA;
    123 : FB83;
    124 : 0A09;
    125 : F0B8;
    126 : 0403;
    127 : FD7E;
    128 : F887;
    129 : FD16;
    130 : 0254;
    131 : FEDB;
    132 : FCCF;
    133 : 00D2;
    134 : FA36;
    135 : 00AA;
    136 : 0F48;
    137 : F964;
    138 : FA87;
    139 : F5A3;
    140 : FD86;
    141 : FC91;
    142 : 0932;
    143 : 01AA;
    144 : F818;
    145 : F763;
    146 : 0210;
    147 : FDD0;
    148 : 094B;
    149 : 03F6;
    150 : 00B3;
    151 : 0CC1;
    152 : 06A7;
    153 : 00BB;
    154 : FC25;
    155 : 0273;
    156 : 02E5;
    157 : 0FF2;
    158 : 0129;
    159 : F562;
    160 : F79C;
    161 : 06DB;
    162 : FA99;
    163 : FA81;
    164 : FD3F;
    165 : FFB4;
    166 : 0BC3;
    167 : 00B1;
    168 : FB04;
    169 : 0F26;
    170 : FC29;
    171 : F9AF;
    172 : 0131;
    173 : F617;
    174 : FDED;
    175 : 1761;
    176 : FF74;
    177 : FC28;
    178 : F9F6;
    179 : F834;
    180 : FD0F;
    181 : 030B;
    182 : FE22;
    183 : FE55;
    184 : 06AE;
    185 : 0124;
    186 : 0717;
    187 : 0061;
    188 : 04D4;
    189 : 036C;
    190 : 1960;
    191 : 0955;
    192 : F65B;
    193 : 122A;
    194 : 0064;
    195 : F739;
    196 : FBD2;
    197 : F916;
    198 : F71C;
    199 : 0C0D;
    200 : 0439;
    201 : F859;
    202 : F8F7;
    203 : FA95;
    204 : 02A2;
    205 : F222;
    206 : F863;
    207 : 0281;
    208 : 07B5;
    209 : 00D3;
    210 : 0625;
    211 : F5F4;
    212 : F66C;
    213 : 02DB;
    214 : 09E7;
    215 : FE7B;
    216 : 0404;
    217 : 08AA;
    218 : 0315;
    219 : 0242;
    220 : FC3C;
    221 : 01E1;
    222 : FBB9;
    223 : F475;
    224 : FC0C;
    225 : 0284;
    226 : 0641;
    227 : FC52;
    228 : 04E2;
    229 : 05FB;
    230 : FECA;
    231 : 0225;
    232 : FA6A;
    233 : 0345;
    234 : FE58;
    235 : 061C;
    236 : 053A;
    237 : F725;
    238 : F437;
    239 : 0778;
    240 : 009F;
    241 : F6F3;
    242 : FF4C;
    243 : 0515;
    244 : 07D5;
    245 : 0185;
    246 : 06AB;
    247 : ECCA;
    248 : FEA2;
    249 : 09F3;
    250 : 02FD;
    251 : 0510;
    252 : F99C;
    253 : 0BE9;
    254 : 0542;
    255 : 0275;
    256 : F7FD;
    257 : F632;
    258 : FB13;
    259 : 050B;
    260 : F9D6;
    261 : FDFB;
    262 : 0A76;
    263 : F9E2;
    264 : FC83;
    265 : 0E7E;
    266 : FEA3;
    267 : F6D1;
    268 : FA51;
    269 : FC5C;
    270 : 07CF;
    271 : 0462;
    272 : 0784;
    273 : 0064;
    274 : F475;
    275 : 0FBC;
    276 : 01DD;
    277 : F899;
    278 : 03CC;
    279 : FF9B;
    280 : 05AC;
    281 : 0619;
    282 : 0756;
    283 : FC5A;
    284 : 029F;
    285 : FB4A;
    286 : F0DD;
    287 : 09E1;
    288 : FDE2;
    289 : 0B7F;
    290 : 01A1;
    291 : FE9D;
    292 : F9F9;
    293 : F8AF;
    294 : FEA3;
    295 : F2C4;
    296 : FB3B;
    297 : FFCF;
    298 : 0EA4;
    299 : 0516;
    300 : FD16;
    301 : 0254;
    302 : FA7C;
    303 : 0427;
    304 : 092A;
    305 : F1C9;
    306 : 0A9F;
    307 : 02E1;
    308 : FD9B;
    309 : FCF6;
    310 : F2E9;
    311 : 049A;
    312 : 0B0B;
    313 : 0587;
    314 : FFDE;
    315 : 01AA;
    316 : F57E;
    317 : 0633;
    318 : 0116;
    319 : 042B;
    320 : FC5B;
    321 : 0434;
    322 : 07A2;
    323 : F647;
    324 : 0AEE;
    325 : 02A2;
    326 : 02E7;
    327 : FDEE;
    328 : F215;
    329 : 0B83;
    330 : 083A;
    331 : F388;
    332 : FE95;
    333 : 02AE;
    334 : F151;
    335 : 0794;
    336 : F8D9;
    337 : 06CB;
    338 : 02FE;
    339 : FE4B;
    340 : FF1F;
    341 : FF99;
    342 : FFF0;
    343 : 0566;
    344 : F6F7;
    345 : FF07;
    346 : 01E2;
    347 : F84A;
    348 : 0757;
    349 : FA89;
    350 : FBF0;
    351 : 05F9;
    352 : 02F9;
    353 : 0686;
    354 : F973;
    355 : 0459;
    356 : FF78;
    357 : 00B5;
    358 : 0860;
    359 : F6AF;
    360 : F914;
    361 : F878;
    362 : 0163;
    363 : FD27;
    364 : 0219;
    365 : 02A7;
    366 : FB43;
    367 : F652;
    368 : FD28;
    369 : FD77;
    370 : 0616;
    371 : 0036;
    372 : 0FBF;
    373 : EE44;
    374 : FF16;
    375 : 06ED;
    376 : 0470;
    377 : 0B5A;
    378 : FE91;
    379 : 0AC5;
    380 : 02EA;
    381 : 00F9;
    382 : FB10;
    383 : FDEF;
    384 : 0080;
END;
