WIDTH=16;
DEPTH=385;

ADDRESS_RADIX=DEC;
DATA_RADIX=HEX;

CONTENT BEGIN
    0 : 0D13;
    1 : FAF4;
    2 : 025E;
    3 : 0481;
    4 : F11C;
    5 : 0AE3;
    6 : 0E90;
    7 : F6F9;
    8 : 0034;
    9 : 023F;
    10 : F3B9;
    11 : 09E8;
    12 : 00A4;
    13 : 0137;
    14 : F8B4;
    15 : FD83;
    16 : 0209;
    17 : FAC9;
    18 : 0E65;
    19 : FBE8;
    20 : FFCF;
    21 : 0675;
    22 : FBFA;
    23 : 06EA;
    24 : FEB4;
    25 : 0782;
    26 : FCDC;
    27 : FB87;
    28 : 05DC;
    29 : FC25;
    30 : F6DF;
    31 : 07E6;
    32 : FF56;
    33 : FA3C;
    34 : 06B1;
    35 : FCC1;
    36 : FE40;
    37 : F981;
    38 : 009F;
    39 : FF2D;
    40 : 080A;
    41 : 0502;
    42 : 052D;
    43 : 0866;
    44 : 01B0;
    45 : 001F;
    46 : FCBB;
    47 : 0495;
    48 : F9C3;
    49 : FD31;
    50 : 073F;
    51 : FF07;
    52 : FB9C;
    53 : FDC1;
    54 : F795;
    55 : 0CE2;
    56 : FB1D;
    57 : FB77;
    58 : 00A5;
    59 : FB08;
    60 : 02D0;
    61 : FA25;
    62 : FC88;
    63 : 01FE;
    64 : 050B;
    65 : 05B0;
    66 : FD8D;
    67 : FED2;
    68 : FC81;
    69 : FC27;
    70 : 0102;
    71 : FC56;
    72 : FE9C;
    73 : 01AD;
    74 : 084D;
    75 : FC6D;
    76 : FFEE;
    77 : 0902;
    78 : FDB9;
    79 : 04DB;
    80 : FD19;
    81 : 0119;
    82 : 062A;
    83 : F80F;
    84 : FE1F;
    85 : 0080;
    86 : 042C;
    87 : F77B;
    88 : 0667;
    89 : 0775;
    90 : FD1F;
    91 : FD3D;
    92 : FD77;
    93 : FF7D;
    94 : 022C;
    95 : FE4F;
    96 : 0486;
    97 : F4AD;
    98 : FFF1;
    99 : 04E0;
    100 : 0275;
    101 : 0716;
    102 : 00AF;
    103 : FBFF;
    104 : FF67;
    105 : 06BE;
    106 : 076B;
    107 : FC3A;
    108 : F8E1;
    109 : 0936;
    110 : 00F0;
    111 : F913;
    112 : FB70;
    113 : 0051;
    114 : FEC0;
    115 : 0E76;
    116 : FAD9;
    117 : 0065;
    118 : 0308;
    119 : F4A2;
    120 : F8B9;
    121 : 0CC5;
    122 : 0137;
    123 : 019F;
    124 : 0217;
    125 : F6B8;
    126 : FD2B;
    127 : FC60;
    128 : FF4D;
    129 : 0137;
    130 : 01E8;
    131 : F9AE;
    132 : 03DB;
    133 : FB2E;
    134 : FC99;
    135 : FF87;
    136 : FA6F;
    137 : 002C;
    138 : FA3B;
    139 : FD26;
    140 : FE58;
    141 : FD0A;
    142 : 02C7;
    143 : 01D5;
    144 : 066F;
    145 : 003E;
    146 : 0345;
    147 : 0529;
    148 : F991;
    149 : FECD;
    150 : FE77;
    151 : 054A;
    152 : FBD0;
    153 : FF89;
    154 : 0363;
    155 : FA95;
    156 : F5D3;
    157 : 0103;
    158 : 0147;
    159 : FA81;
    160 : 01BE;
    161 : F80F;
    162 : F736;
    163 : FFBC;
    164 : FC19;
    165 : F9C5;
    166 : 0046;
    167 : F7B6;
    168 : 0266;
    169 : 0624;
    170 : 01A9;
    171 : 0398;
    172 : 016D;
    173 : FF74;
    174 : FE4B;
    175 : FC22;
    176 : 058F;
    177 : FE4E;
    178 : 0549;
    179 : 0620;
    180 : 024C;
    181 : 092F;
    182 : 013C;
    183 : FAE2;
    184 : 0024;
    185 : FE94;
    186 : 0738;
    187 : F854;
    188 : FE39;
    189 : 00F0;
    190 : F260;
    191 : 00E5;
    192 : F3C3;
    193 : FEEB;
    194 : FC95;
    195 : FB1F;
    196 : 0A9F;
    197 : F87F;
    198 : FFA1;
    199 : FC04;
    200 : 0198;
    201 : 05C0;
    202 : 0048;
    203 : FE3F;
    204 : 00B5;
    205 : FA13;
    206 : 02EB;
    207 : 03AB;
    208 : F16D;
    209 : FED5;
    210 : 0647;
    211 : 0319;
    212 : 04C0;
    213 : 03D9;
    214 : FF06;
    215 : 05A2;
    216 : 01E0;
    217 : FF2D;
    218 : F7F4;
    219 : FE51;
    220 : 033D;
    221 : F998;
    222 : EF7A;
    223 : 0D0D;
    224 : FD4D;
    225 : FA86;
    226 : 0CF5;
    227 : F436;
    228 : 0C36;
    229 : FD67;
    230 : 038F;
    231 : 01F9;
    232 : F4CF;
    233 : 0AD1;
    234 : 0021;
    235 : F996;
    236 : 0160;
    237 : FCE7;
    238 : FD21;
    239 : 0646;
    240 : FAE6;
    241 : FA5C;
    242 : 07B3;
    243 : FFD4;
    244 : FFB4;
    245 : 0707;
    246 : FA60;
    247 : 0478;
    248 : FDEB;
    249 : FD09;
    250 : FCE4;
    251 : F698;
    252 : FD1F;
    253 : 01CB;
    254 : 00D7;
    255 : FB4E;
    256 : 010A;
    257 : 00E1;
    258 : FF77;
    259 : 068D;
    260 : 0246;
    261 : FA88;
    262 : FA0E;
    263 : 01DA;
    264 : FC9C;
    265 : 0B5C;
    266 : FB5F;
    267 : FBA5;
    268 : 0928;
    269 : F9E7;
    270 : 0354;
    271 : F780;
    272 : 016A;
    273 : 04A6;
    274 : 01CA;
    275 : 05D0;
    276 : FC34;
    277 : 01F3;
    278 : FB69;
    279 : 0229;
    280 : 01A6;
    281 : FA2A;
    282 : 014B;
    283 : 0131;
    284 : FCBC;
    285 : 0453;
    286 : 018B;
    287 : FE4B;
    288 : 015C;
    289 : 06BD;
    290 : 029C;
    291 : 05CB;
    292 : FF98;
    293 : F935;
    294 : F8D8;
    295 : 0010;
    296 : F94E;
    297 : FDED;
    298 : 0355;
    299 : FCC6;
    300 : 0887;
    301 : 0099;
    302 : 028C;
    303 : 0056;
    304 : F8C5;
    305 : 0299;
    306 : 0825;
    307 : F714;
    308 : 0062;
    309 : FF71;
    310 : F804;
    311 : 0409;
    312 : FF57;
    313 : FC28;
    314 : 00C9;
    315 : 0147;
    316 : FD4A;
    317 : FDC8;
    318 : 0227;
    319 : 067D;
    320 : FE1E;
    321 : 0384;
    322 : FEA6;
    323 : FAAF;
    324 : F487;
    325 : 062B;
    326 : FA80;
    327 : FEA9;
    328 : 0A02;
    329 : F0D6;
    330 : 0247;
    331 : 075E;
    332 : F88E;
    333 : 020F;
    334 : 0366;
    335 : F4F8;
    336 : FF4E;
    337 : 090F;
    338 : 01EA;
    339 : FC71;
    340 : 089A;
    341 : 033B;
    342 : FA58;
    343 : FF21;
    344 : 033C;
    345 : FDD7;
    346 : 0655;
    347 : FF12;
    348 : 086F;
    349 : 015B;
    350 : 00C5;
    351 : FFD5;
    352 : FF58;
    353 : 0764;
    354 : F8EF;
    355 : 00A7;
    356 : 0663;
    357 : F8E8;
    358 : F763;
    359 : 049A;
    360 : F85F;
    361 : 02C9;
    362 : 0326;
    363 : 04B2;
    364 : FED0;
    365 : F999;
    366 : FC97;
    367 : 02EA;
    368 : 0179;
    369 : FE47;
    370 : 06F9;
    371 : 02B5;
    372 : FFBC;
    373 : 0683;
    374 : F92C;
    375 : FE7F;
    376 : 02A8;
    377 : F8E2;
    378 : F818;
    379 : FEA9;
    380 : 005B;
    381 : F9A9;
    382 : 0371;
    383 : 00DA;
    384 : 0080;
END;
