WIDTH=16;
DEPTH=385;

ADDRESS_RADIX=DEC;
DATA_RADIX=HEX;

CONTENT BEGIN
    0 : FDCD;
    1 : 08E3;
    2 : 0357;
    3 : FE08;
    4 : F01C;
    5 : FE76;
    6 : 08E7;
    7 : 04A2;
    8 : 0129;
    9 : 013F;
    10 : FBA3;
    11 : 02B0;
    12 : F97B;
    13 : 0B5C;
    14 : 04D5;
    15 : F75A;
    16 : F84A;
    17 : 0131;
    18 : 012B;
    19 : FC8A;
    20 : FDE8;
    21 : 067A;
    22 : 0C8E;
    23 : FA67;
    24 : FBF3;
    25 : 060F;
    26 : 0053;
    27 : FEDA;
    28 : FDCC;
    29 : 0063;
    30 : 0124;
    31 : 0D58;
    32 : 0293;
    33 : F68B;
    34 : F5F5;
    35 : 058D;
    36 : FC4D;
    37 : F4F0;
    38 : F82F;
    39 : 0006;
    40 : 0AAB;
    41 : F2CE;
    42 : 02C7;
    43 : F8AA;
    44 : 0469;
    45 : 01C5;
    46 : F398;
    47 : 0188;
    48 : 0509;
    49 : FE0C;
    50 : FB62;
    51 : FC73;
    52 : 089F;
    53 : 01E5;
    54 : FE16;
    55 : 01C3;
    56 : F897;
    57 : 00D2;
    58 : FDD4;
    59 : F8B7;
    60 : F811;
    61 : 0A7D;
    62 : 02A0;
    63 : F570;
    64 : F95E;
    65 : 0022;
    66 : 0EBD;
    67 : F05F;
    68 : FB8E;
    69 : 073E;
    70 : 0797;
    71 : 0B52;
    72 : 0BF1;
    73 : FF26;
    74 : 04DA;
    75 : 0193;
    76 : F29B;
    77 : 0EA8;
    78 : 0CB0;
    79 : F172;
    80 : FA55;
    81 : FD3D;
    82 : 04F3;
    83 : 0C19;
    84 : FE60;
    85 : 0572;
    86 : FD8E;
    87 : FA2B;
    88 : FC32;
    89 : FC65;
    90 : 0890;
    91 : EB15;
    92 : 007F;
    93 : 038F;
    94 : 0090;
    95 : 0B74;
    96 : 063A;
    97 : 081B;
    98 : 0485;
    99 : 0169;
    100 : FD90;
    101 : 0904;
    102 : 0701;
    103 : FC30;
    104 : 019D;
    105 : FDC7;
    106 : FC27;
    107 : 0CD6;
    108 : FEBF;
    109 : 06A9;
    110 : 000B;
    111 : FA85;
    112 : F337;
    113 : FB64;
    114 : FF9B;
    115 : FFBF;
    116 : FE6C;
    117 : F9A5;
    118 : F6BB;
    119 : FF91;
    120 : 0649;
    121 : FDF3;
    122 : 00DB;
    123 : FEAE;
    124 : FFF0;
    125 : 0801;
    126 : 05A9;
    127 : 03C0;
    128 : 004E;
    129 : F8B8;
    130 : F916;
    131 : 07ED;
    132 : FB68;
    133 : 0FA2;
    134 : FCDA;
    135 : FC36;
    136 : FEF8;
    137 : F9A0;
    138 : FFF5;
    139 : 0901;
    140 : FFB6;
    141 : FE7B;
    142 : F87C;
    143 : 0472;
    144 : 0487;
    145 : 0B08;
    146 : 01E7;
    147 : FDB0;
    148 : F142;
    149 : FDC4;
    150 : F650;
    151 : FF87;
    152 : F8B8;
    153 : FE66;
    154 : 12D1;
    155 : F411;
    156 : 0707;
    157 : F5DB;
    158 : FFC9;
    159 : 02F1;
    160 : 04A3;
    161 : 0471;
    162 : 050B;
    163 : FE7B;
    164 : 047D;
    165 : FF25;
    166 : F032;
    167 : 09A2;
    168 : 09AE;
    169 : F81D;
    170 : 0575;
    171 : 01B8;
    172 : 1CC9;
    173 : 0AA3;
    174 : 06A8;
    175 : FAD0;
    176 : FD00;
    177 : 03D6;
    178 : 0453;
    179 : 0130;
    180 : 0325;
    181 : F7F2;
    182 : FD86;
    183 : FF35;
    184 : 0402;
    185 : 033D;
    186 : 0166;
    187 : F732;
    188 : 039D;
    189 : FD3B;
    190 : EE5A;
    191 : 052D;
    192 : 03E0;
    193 : F0CE;
    194 : FDF4;
    195 : 0790;
    196 : 022F;
    197 : FF69;
    198 : 0753;
    199 : FA71;
    200 : 01C1;
    201 : 050C;
    202 : 05DE;
    203 : 0231;
    204 : FFB0;
    205 : 0A8C;
    206 : 0339;
    207 : FA93;
    208 : F383;
    209 : FDBE;
    210 : F4B9;
    211 : 107A;
    212 : 02E6;
    213 : F653;
    214 : F7EC;
    215 : F87B;
    216 : FB60;
    217 : 043E;
    218 : 0502;
    219 : 01B7;
    220 : FF42;
    221 : FA6B;
    222 : F762;
    223 : 149C;
    224 : FF56;
    225 : FA06;
    226 : FD9E;
    227 : F449;
    228 : FAEF;
    229 : FA9D;
    230 : F9BA;
    231 : FCC0;
    232 : 0CE9;
    233 : 0211;
    234 : FAD5;
    235 : FF59;
    236 : F995;
    237 : 01CB;
    238 : 0F3B;
    239 : F30C;
    240 : F8A6;
    241 : 14EE;
    242 : FDA5;
    243 : FA67;
    244 : 0321;
    245 : F76C;
    246 : 0647;
    247 : 0BD9;
    248 : 06FA;
    249 : FDE2;
    250 : EECA;
    251 : 00D0;
    252 : EFA1;
    253 : FFFE;
    254 : FA3C;
    255 : FBD0;
    256 : 1233;
    257 : F0D1;
    258 : 01F1;
    259 : FAE4;
    260 : FE6A;
    261 : FE87;
    262 : F85F;
    263 : FDFA;
    264 : FDEB;
    265 : EF73;
    266 : FD67;
    267 : 0AC7;
    268 : 071E;
    269 : F8D0;
    270 : 09F2;
    271 : EA09;
    272 : 0409;
    273 : 0425;
    274 : FD60;
    275 : 077B;
    276 : FCF2;
    277 : 0303;
    278 : FED5;
    279 : FCE4;
    280 : FE07;
    281 : 05B2;
    282 : 02D6;
    283 : F5CD;
    284 : 0297;
    285 : 0109;
    286 : 03A9;
    287 : 06F9;
    288 : F797;
    289 : FECB;
    290 : F8A4;
    291 : 02C0;
    292 : 113D;
    293 : F25B;
    294 : F89A;
    295 : 08EA;
    296 : F93F;
    297 : FDCB;
    298 : F80B;
    299 : F475;
    300 : FB10;
    301 : 1617;
    302 : FAEE;
    303 : FCCF;
    304 : 0025;
    305 : EFA0;
    306 : 0FB1;
    307 : F2CB;
    308 : FF06;
    309 : 03F3;
    310 : 0167;
    311 : 0D91;
    312 : 004E;
    313 : FE54;
    314 : FA49;
    315 : 0201;
    316 : 1166;
    317 : FC68;
    318 : F4B9;
    319 : 0A8B;
    320 : 025D;
    321 : FD40;
    322 : 011C;
    323 : FE89;
    324 : FE18;
    325 : F5F3;
    326 : FE65;
    327 : 0021;
    328 : 0C6A;
    329 : 051A;
    330 : 0196;
    331 : FA83;
    332 : FC90;
    333 : 062E;
    334 : 1C8F;
    335 : FA10;
    336 : 0071;
    337 : F82A;
    338 : 023D;
    339 : 01DA;
    340 : 0228;
    341 : FC66;
    342 : 03E7;
    343 : F8AB;
    344 : FE75;
    345 : 03CD;
    346 : 0151;
    347 : 00EB;
    348 : FCD8;
    349 : 002D;
    350 : 07A4;
    351 : FDF4;
    352 : F74D;
    353 : 041D;
    354 : 018C;
    355 : 018E;
    356 : FED9;
    357 : 0409;
    358 : F848;
    359 : FC87;
    360 : F4AF;
    361 : 12B8;
    362 : FDAB;
    363 : F893;
    364 : 0A38;
    365 : FAC2;
    366 : FA21;
    367 : 05E4;
    368 : 0B33;
    369 : FC67;
    370 : F06E;
    371 : 01CD;
    372 : FDD6;
    373 : 0CA4;
    374 : FBBF;
    375 : FD5D;
    376 : F845;
    377 : FA5D;
    378 : F9A8;
    379 : F552;
    380 : 0550;
    381 : 02D0;
    382 : 0795;
    383 : FF29;
    384 : 0080;
END;
