WIDTH=16;
DEPTH=385;

ADDRESS_RADIX=DEC;
DATA_RADIX=HEX;

CONTENT BEGIN
    0 : 08EC;
    1 : FC9D;
    2 : 0370;
    3 : 05CA;
    4 : F673;
    5 : 033C;
    6 : 04E6;
    7 : 018D;
    8 : 05DD;
    9 : 000C;
    10 : FC79;
    11 : 0971;
    12 : F936;
    13 : 024A;
    14 : 03AA;
    15 : 0072;
    16 : 06E6;
    17 : FEB9;
    18 : FF60;
    19 : 0799;
    20 : F6F8;
    21 : FFE1;
    22 : 0682;
    23 : F71E;
    24 : FA82;
    25 : FAD6;
    26 : FE6D;
    27 : FC7B;
    28 : FDF2;
    29 : 0037;
    30 : 0480;
    31 : F82E;
    32 : 0689;
    33 : FDC9;
    34 : FACF;
    35 : 0EF7;
    36 : 01FA;
    37 : F806;
    38 : 0031;
    39 : 001D;
    40 : FDC0;
    41 : 090B;
    42 : 0053;
    43 : 00A4;
    44 : FD74;
    45 : 0453;
    46 : FF40;
    47 : F806;
    48 : 0059;
    49 : F866;
    50 : 01A8;
    51 : 076E;
    52 : FBEE;
    53 : 004C;
    54 : FBCD;
    55 : FE1F;
    56 : 0020;
    57 : FBBF;
    58 : F9C7;
    59 : FEAE;
    60 : F8A3;
    61 : FEC5;
    62 : F719;
    63 : 0113;
    64 : 0953;
    65 : F741;
    66 : 0C43;
    67 : F7E1;
    68 : 00CD;
    69 : FF59;
    70 : F570;
    71 : 0BEF;
    72 : FDD2;
    73 : FED4;
    74 : 04F2;
    75 : FC71;
    76 : FEC5;
    77 : 04BA;
    78 : 0239;
    79 : FABA;
    80 : 0132;
    81 : 0428;
    82 : FA21;
    83 : FF98;
    84 : FF13;
    85 : 0728;
    86 : FF87;
    87 : FAB4;
    88 : FD9D;
    89 : FB11;
    90 : F6A8;
    91 : 022E;
    92 : 04F1;
    93 : FBAA;
    94 : 0342;
    95 : 018F;
    96 : 073F;
    97 : FDCE;
    98 : 0237;
    99 : 00B4;
    100 : F710;
    101 : 034F;
    102 : 0060;
    103 : FD4B;
    104 : 07F6;
    105 : FCC8;
    106 : FA34;
    107 : 072E;
    108 : 0889;
    109 : FF9E;
    110 : FC2B;
    111 : FFCA;
    112 : FA32;
    113 : 0334;
    114 : F8F9;
    115 : 05B4;
    116 : 0283;
    117 : F931;
    118 : 02AB;
    119 : FF2E;
    120 : 059E;
    121 : FED0;
    122 : FF46;
    123 : FB01;
    124 : F92A;
    125 : 0598;
    126 : 0032;
    127 : 005A;
    128 : FED3;
    129 : FDD3;
    130 : 0098;
    131 : 0201;
    132 : F7E1;
    133 : 007B;
    134 : 0294;
    135 : 0473;
    136 : 063D;
    137 : FA5C;
    138 : FFA4;
    139 : 0B4D;
    140 : 00CB;
    141 : FB88;
    142 : 0294;
    143 : 0023;
    144 : FE6F;
    145 : FE6E;
    146 : FD8C;
    147 : 007C;
    148 : 047B;
    149 : 0032;
    150 : 0474;
    151 : FB9F;
    152 : 00F8;
    153 : 077F;
    154 : FC81;
    155 : FFA5;
    156 : FB91;
    157 : FB33;
    158 : 06A8;
    159 : FF12;
    160 : FA1C;
    161 : 0258;
    162 : FCC3;
    163 : 0076;
    164 : FD47;
    165 : 0229;
    166 : 0760;
    167 : FC97;
    168 : 01E8;
    169 : FC29;
    170 : 0464;
    171 : 0235;
    172 : 0409;
    173 : 040B;
    174 : 0320;
    175 : FD24;
    176 : FBF3;
    177 : 02F5;
    178 : FE00;
    179 : FBC8;
    180 : FD05;
    181 : FD53;
    182 : 047E;
    183 : 026A;
    184 : FF7E;
    185 : 03B4;
    186 : FAD0;
    187 : FBF8;
    188 : 043F;
    189 : 0359;
    190 : 02B4;
    191 : 00A9;
    192 : FBBD;
    193 : 0312;
    194 : FD47;
    195 : FE78;
    196 : FF6D;
    197 : F5C7;
    198 : 00EE;
    199 : F8F2;
    200 : FF05;
    201 : FD9F;
    202 : F76F;
    203 : 0117;
    204 : FA15;
    205 : FD20;
    206 : FC40;
    207 : 02CF;
    208 : 02C4;
    209 : F9FC;
    210 : F6A8;
    211 : 0116;
    212 : 0015;
    213 : F8B8;
    214 : 04BB;
    215 : 0047;
    216 : F989;
    217 : 0828;
    218 : FAE9;
    219 : FD73;
    220 : 02AE;
    221 : F486;
    222 : 1025;
    223 : F8F5;
    224 : FC8A;
    225 : 0B83;
    226 : FC54;
    227 : 0380;
    228 : 0294;
    229 : 001E;
    230 : 03FE;
    231 : FDC1;
    232 : F92A;
    233 : 02BB;
    234 : F76E;
    235 : 0FB7;
    236 : FB3A;
    237 : FF45;
    238 : 08C2;
    239 : ED6C;
    240 : 0288;
    241 : F4B1;
    242 : 02B1;
    243 : 054B;
    244 : FDF7;
    245 : 0849;
    246 : FDE3;
    247 : 0097;
    248 : FF7C;
    249 : 01B6;
    250 : 02D7;
    251 : FD21;
    252 : 03DB;
    253 : 0346;
    254 : FBD8;
    255 : FE6E;
    256 : FF3E;
    257 : FEEB;
    258 : FEB5;
    259 : 0196;
    260 : FDEE;
    261 : 0429;
    262 : FF82;
    263 : F74A;
    264 : 08E0;
    265 : F47D;
    266 : 0506;
    267 : 035E;
    268 : F1B2;
    269 : 08EF;
    270 : 0505;
    271 : 0099;
    272 : FEFD;
    273 : FD90;
    274 : FE4E;
    275 : 050B;
    276 : F9B1;
    277 : FF20;
    278 : 010C;
    279 : 05C2;
    280 : 01C4;
    281 : F6A2;
    282 : 0695;
    283 : FCA6;
    284 : FE19;
    285 : 06D7;
    286 : F918;
    287 : FDB8;
    288 : 07A5;
    289 : 01D3;
    290 : FF58;
    291 : 08DA;
    292 : FE33;
    293 : FC87;
    294 : FD63;
    295 : 062E;
    296 : F8EF;
    297 : 00D7;
    298 : 069D;
    299 : F5E3;
    300 : FC17;
    301 : 002C;
    302 : FDCE;
    303 : FEEE;
    304 : 0291;
    305 : FA37;
    306 : FB81;
    307 : 000A;
    308 : FC92;
    309 : FABC;
    310 : 0117;
    311 : FE56;
    312 : FDA8;
    313 : 0221;
    314 : FC34;
    315 : 00AE;
    316 : 0153;
    317 : F9B3;
    318 : FFBF;
    319 : F894;
    320 : FF2D;
    321 : 04D6;
    322 : 04AA;
    323 : 0607;
    324 : 0572;
    325 : FBDF;
    326 : 0319;
    327 : 0588;
    328 : FD05;
    329 : 0469;
    330 : FE8A;
    331 : 00B6;
    332 : FD2B;
    333 : FEF9;
    334 : 0A63;
    335 : 049D;
    336 : 00B1;
    337 : F9CB;
    338 : 0611;
    339 : FF57;
    340 : FA6E;
    341 : 048F;
    342 : 0B89;
    343 : FC40;
    344 : FFA3;
    345 : 05F6;
    346 : FE15;
    347 : 08B7;
    348 : F456;
    349 : 0649;
    350 : FD9A;
    351 : FC65;
    352 : 0830;
    353 : F4F6;
    354 : 0DDC;
    355 : F66C;
    356 : 0028;
    357 : 07E9;
    358 : F4D3;
    359 : 061B;
    360 : F77D;
    361 : 04E0;
    362 : 055E;
    363 : FDC0;
    364 : 0746;
    365 : 010A;
    366 : 0010;
    367 : FA68;
    368 : FF4B;
    369 : 0003;
    370 : FE54;
    371 : 017F;
    372 : 005F;
    373 : 0023;
    374 : 0446;
    375 : FC28;
    376 : FA8E;
    377 : 038D;
    378 : 04D1;
    379 : FCE3;
    380 : FF58;
    381 : 0292;
    382 : FDD4;
    383 : 038F;
    384 : 0080;
END;
