WIDTH=16;
DEPTH=385;

ADDRESS_RADIX=DEC;
DATA_RADIX=HEX;

CONTENT BEGIN
    0 : 03A2;
    1 : 049E;
    2 : 0005;
    3 : F767;
    4 : FBE9;
    5 : 0AA7;
    6 : 0A3F;
    7 : FBCD;
    8 : 00E2;
    9 : 0214;
    10 : 019B;
    11 : 0AEA;
    12 : 0A42;
    13 : 064D;
    14 : FDD4;
    15 : 0262;
    16 : F536;
    17 : 0485;
    18 : 0432;
    19 : F492;
    20 : F78E;
    21 : 002B;
    22 : 0F03;
    23 : 0535;
    24 : 068D;
    25 : 0819;
    26 : FD21;
    27 : FBB7;
    28 : FEED;
    29 : 04E7;
    30 : FA3F;
    31 : 07EC;
    32 : 0D55;
    33 : FAD2;
    34 : F639;
    35 : 0822;
    36 : 0437;
    37 : ECA9;
    38 : 0368;
    39 : 030B;
    40 : F862;
    41 : 07C5;
    42 : 0122;
    43 : 00DA;
    44 : FD51;
    45 : FF7E;
    46 : FFE4;
    47 : FD43;
    48 : F897;
    49 : 01E8;
    50 : FB4C;
    51 : FBA5;
    52 : 0F83;
    53 : F68E;
    54 : F5DA;
    55 : 0AAC;
    56 : FF7B;
    57 : F8F3;
    58 : 0801;
    59 : F5CC;
    60 : 00D0;
    61 : 013E;
    62 : 0816;
    63 : FFCF;
    64 : E9B1;
    65 : 02CF;
    66 : F865;
    67 : F81B;
    68 : FBEA;
    69 : 07BC;
    70 : 0DF9;
    71 : F502;
    72 : 01EF;
    73 : 0772;
    74 : 0195;
    75 : FD7A;
    76 : EF15;
    77 : FDC0;
    78 : 04C5;
    79 : F057;
    80 : FB29;
    81 : 0509;
    82 : 0BBD;
    83 : 0702;
    84 : F66E;
    85 : 0891;
    86 : 02E0;
    87 : 0339;
    88 : 08E4;
    89 : F6BA;
    90 : FC99;
    91 : FA37;
    92 : F8D2;
    93 : FF63;
    94 : 0E7C;
    95 : FA2C;
    96 : F9D0;
    97 : 0655;
    98 : FBBF;
    99 : FDA7;
    100 : 000C;
    101 : F7DC;
    102 : FC54;
    103 : 01C6;
    104 : FFB1;
    105 : 07B1;
    106 : 00EE;
    107 : F6D7;
    108 : 0032;
    109 : 06F1;
    110 : 0134;
    111 : FA84;
    112 : FA9B;
    113 : 055C;
    114 : F151;
    115 : 04D1;
    116 : FD54;
    117 : FCFE;
    118 : 0869;
    119 : F3AE;
    120 : F48A;
    121 : 044E;
    122 : FFCE;
    123 : F80C;
    124 : 0741;
    125 : F764;
    126 : FC03;
    127 : 07CE;
    128 : FD42;
    129 : 0024;
    130 : FE4E;
    131 : F582;
    132 : FA2B;
    133 : 0EB5;
    134 : 0597;
    135 : FE05;
    136 : F5D1;
    137 : F708;
    138 : FC23;
    139 : 123C;
    140 : 070C;
    141 : FDC5;
    142 : F3F1;
    143 : FE76;
    144 : FE63;
    145 : 0E96;
    146 : FB5E;
    147 : FE04;
    148 : FB4F;
    149 : F94B;
    150 : 0419;
    151 : F3A1;
    152 : FB6B;
    153 : 0513;
    154 : 0FEA;
    155 : 0597;
    156 : 04ED;
    157 : F643;
    158 : F8F4;
    159 : 02D1;
    160 : 06BD;
    161 : FEB7;
    162 : 0110;
    163 : 0415;
    164 : 049A;
    165 : 02F4;
    166 : F368;
    167 : 015D;
    168 : FEC2;
    169 : 00B5;
    170 : F7D7;
    171 : FE21;
    172 : 157F;
    173 : F760;
    174 : F915;
    175 : 0E18;
    176 : F8EE;
    177 : FC99;
    178 : 092E;
    179 : F3D4;
    180 : 0013;
    181 : FB71;
    182 : FEE4;
    183 : F9BC;
    184 : 08B9;
    185 : 03C7;
    186 : 06D0;
    187 : 0176;
    188 : 0055;
    189 : FDD8;
    190 : FD76;
    191 : 0ADE;
    192 : 0494;
    193 : FFD2;
    194 : 067D;
    195 : 0154;
    196 : 027B;
    197 : 06D4;
    198 : F546;
    199 : FC3E;
    200 : FAC0;
    201 : 04DB;
    202 : 134F;
    203 : F150;
    204 : FFEE;
    205 : 0A72;
    206 : 037D;
    207 : FD22;
    208 : FC69;
    209 : 0366;
    210 : 071A;
    211 : 0A4F;
    212 : 012C;
    213 : FE51;
    214 : F7A8;
    215 : 05B3;
    216 : F5E3;
    217 : 0B2B;
    218 : 0195;
    219 : FD11;
    220 : 08BB;
    221 : FB1F;
    222 : EE5F;
    223 : 1535;
    224 : FEF2;
    225 : F8B2;
    226 : 0258;
    227 : F0D0;
    228 : 023B;
    229 : 005A;
    230 : 008E;
    231 : FC9E;
    232 : 04A9;
    233 : 04A6;
    234 : FE97;
    235 : F087;
    236 : FC7C;
    237 : 05A3;
    238 : 0648;
    239 : FC42;
    240 : F8C6;
    241 : 0BE0;
    242 : 011F;
    243 : FAB2;
    244 : FB27;
    245 : FD7A;
    246 : 0757;
    247 : 0A15;
    248 : 024E;
    249 : F8A3;
    250 : F60C;
    251 : 0AF6;
    252 : 0CE5;
    253 : F114;
    254 : FA60;
    255 : 079C;
    256 : 04E5;
    257 : 0644;
    258 : 030A;
    259 : EF89;
    260 : 00A6;
    261 : FF80;
    262 : FB8F;
    263 : 0820;
    264 : FCCD;
    265 : FADE;
    266 : F3DE;
    267 : 0693;
    268 : 1182;
    269 : F137;
    270 : FE7B;
    271 : FA9F;
    272 : 01AB;
    273 : 0117;
    274 : 09DD;
    275 : 0171;
    276 : FF01;
    277 : 08BF;
    278 : 0113;
    279 : 061C;
    280 : F8D3;
    281 : F805;
    282 : 0398;
    283 : F312;
    284 : F729;
    285 : 04A0;
    286 : 0F1D;
    287 : 0181;
    288 : 0090;
    289 : F0D1;
    290 : FAC5;
    291 : 0849;
    292 : 0B5B;
    293 : FEAF;
    294 : F738;
    295 : 1281;
    296 : 00E6;
    297 : F6D6;
    298 : 0014;
    299 : FCC0;
    300 : F06C;
    301 : 16BE;
    302 : FED2;
    303 : F8F9;
    304 : 0170;
    305 : F4CE;
    306 : 0AE9;
    307 : F22A;
    308 : FC9F;
    309 : 0578;
    310 : 02D9;
    311 : 0637;
    312 : 0ADA;
    313 : EDD8;
    314 : FECC;
    315 : 066D;
    316 : 01B8;
    317 : 093D;
    318 : 051D;
    319 : 0147;
    320 : 02F4;
    321 : 0237;
    322 : EFA9;
    323 : 019F;
    324 : 0926;
    325 : F16F;
    326 : F7FF;
    327 : 0B3D;
    328 : 0F68;
    329 : 008A;
    330 : 0058;
    331 : F76B;
    332 : FCDE;
    333 : 0070;
    334 : 1F8F;
    335 : FE42;
    336 : F7E5;
    337 : 05CE;
    338 : F96A;
    339 : FD9A;
    340 : 1155;
    341 : EF10;
    342 : 0B18;
    343 : F4EC;
    344 : 000A;
    345 : 050B;
    346 : FE44;
    347 : 0AEA;
    348 : 03CE;
    349 : 099E;
    350 : FF50;
    351 : FA6C;
    352 : F601;
    353 : 01A3;
    354 : FC8A;
    355 : 0AEB;
    356 : 0003;
    357 : 003F;
    358 : 04E8;
    359 : F86B;
    360 : 05FD;
    361 : 0991;
    362 : 0051;
    363 : 065F;
    364 : F810;
    365 : 000A;
    366 : 0767;
    367 : 0040;
    368 : 0BB9;
    369 : FCDC;
    370 : EC71;
    371 : 1258;
    372 : 042B;
    373 : 0651;
    374 : 0625;
    375 : FC75;
    376 : F512;
    377 : 0911;
    378 : FB4D;
    379 : F641;
    380 : 0108;
    381 : 05D6;
    382 : 0D0C;
    383 : FAC4;
    384 : 0080;
END;
