WIDTH=16;
DEPTH=385;

ADDRESS_RADIX=DEC;
DATA_RADIX=HEX;

CONTENT BEGIN
    0 : F78C;
    1 : 0A65;
    2 : 0250;
    3 : F88B;
    4 : FA6E;
    5 : F85E;
    6 : 02D9;
    7 : FBF0;
    8 : FB42;
    9 : 022C;
    10 : 07A1;
    11 : FE55;
    12 : F642;
    13 : 15FF;
    14 : FE1E;
    15 : F9D6;
    16 : 064F;
    17 : F3DB;
    18 : 04A4;
    19 : F6EC;
    20 : FFB8;
    21 : 085B;
    22 : 055A;
    23 : 0262;
    24 : F0F0;
    25 : 0443;
    26 : FED9;
    27 : FA34;
    28 : 0C6C;
    29 : FB94;
    30 : FF3B;
    31 : 09DF;
    32 : 0363;
    33 : FAFD;
    34 : F8D3;
    35 : FB50;
    36 : 0E38;
    37 : F360;
    38 : FEC0;
    39 : 0A75;
    40 : FEEC;
    41 : 04EA;
    42 : FB88;
    43 : FE9F;
    44 : 002C;
    45 : 083B;
    46 : F93E;
    47 : F6A1;
    48 : 0AD6;
    49 : F7ED;
    50 : FA46;
    51 : FE55;
    52 : 0430;
    53 : 09D8;
    54 : 0471;
    55 : FDF1;
    56 : 04BA;
    57 : 05B8;
    58 : FB9A;
    59 : 07E8;
    60 : FE35;
    61 : 10CD;
    62 : FC71;
    63 : FF60;
    64 : FE8B;
    65 : F313;
    66 : 0236;
    67 : 0012;
    68 : FB3B;
    69 : 0007;
    70 : 01CC;
    71 : FAF9;
    72 : 0E8F;
    73 : FFC3;
    74 : 038D;
    75 : 0037;
    76 : F20E;
    77 : 0F3A;
    78 : 017D;
    79 : F5CF;
    80 : FD23;
    81 : 0BA6;
    82 : 02C1;
    83 : F9C2;
    84 : FF0A;
    85 : 00A6;
    86 : 041C;
    87 : FCF1;
    88 : 040E;
    89 : 020A;
    90 : FC91;
    91 : 0626;
    92 : F967;
    93 : FE3A;
    94 : 122C;
    95 : FAB2;
    96 : 07A7;
    97 : FC97;
    98 : FF22;
    99 : 06BF;
    100 : 095C;
    101 : 0493;
    102 : FD62;
    103 : FEF7;
    104 : 02D9;
    105 : FC94;
    106 : 0323;
    107 : 00AD;
    108 : 07CA;
    109 : 0216;
    110 : 0069;
    111 : FB28;
    112 : F5AE;
    113 : 0B90;
    114 : 0533;
    115 : F9D1;
    116 : 0392;
    117 : 04E9;
    118 : FA26;
    119 : 054A;
    120 : F34E;
    121 : 05EC;
    122 : 02FB;
    123 : FC36;
    124 : 0510;
    125 : FA8E;
    126 : FFB1;
    127 : F7DA;
    128 : F951;
    129 : FF0B;
    130 : 0462;
    131 : FCAC;
    132 : FB35;
    133 : 1079;
    134 : 00FA;
    135 : FB20;
    136 : 0360;
    137 : FAD4;
    138 : 0E4B;
    139 : 0F50;
    140 : 042B;
    141 : 0281;
    142 : F086;
    143 : 0956;
    144 : F2B8;
    145 : 0E49;
    146 : 0256;
    147 : F74B;
    148 : FC14;
    149 : F47D;
    150 : F77C;
    151 : 01D6;
    152 : 008C;
    153 : FA62;
    154 : 064D;
    155 : FAAB;
    156 : FE75;
    157 : F468;
    158 : FA80;
    159 : 0873;
    160 : 045D;
    161 : F969;
    162 : FEEE;
    163 : 09DA;
    164 : 01C3;
    165 : F989;
    166 : F601;
    167 : FB22;
    168 : 019C;
    169 : 052E;
    170 : FB58;
    171 : FD7A;
    172 : 36FA;
    173 : 00B0;
    174 : FD98;
    175 : F80A;
    176 : 035F;
    177 : 02AC;
    178 : FF3B;
    179 : 01A3;
    180 : FDC1;
    181 : FAAC;
    182 : F369;
    183 : 0533;
    184 : 1212;
    185 : F6D4;
    186 : FE99;
    187 : 082B;
    188 : FE1A;
    189 : 052C;
    190 : 0943;
    191 : F8F7;
    192 : F944;
    193 : F764;
    194 : FA8D;
    195 : 0251;
    196 : 0735;
    197 : FB51;
    198 : FFB5;
    199 : FD77;
    200 : 0027;
    201 : 00E1;
    202 : 0454;
    203 : FC13;
    204 : 03AD;
    205 : 00CF;
    206 : FFBE;
    207 : FE6D;
    208 : F86D;
    209 : 0391;
    210 : 0227;
    211 : 08F0;
    212 : 0062;
    213 : F991;
    214 : F543;
    215 : FB56;
    216 : 0A10;
    217 : FD8F;
    218 : 07DC;
    219 : 012D;
    220 : F709;
    221 : 0AE0;
    222 : F84C;
    223 : 0774;
    224 : 092C;
    225 : F681;
    226 : FAC1;
    227 : 054F;
    228 : 05B5;
    229 : 06CB;
    230 : 0407;
    231 : 019A;
    232 : FAB9;
    233 : 04B2;
    234 : FC2F;
    235 : 0259;
    236 : F992;
    237 : 0718;
    238 : 0C00;
    239 : F167;
    240 : 0626;
    241 : 09E3;
    242 : 066C;
    243 : FB95;
    244 : F207;
    245 : 0225;
    246 : F1F7;
    247 : 0F93;
    248 : 0209;
    249 : F80F;
    250 : 047D;
    251 : F876;
    252 : FFDF;
    253 : F7A6;
    254 : FDF8;
    255 : FEDA;
    256 : 0257;
    257 : 0681;
    258 : FF57;
    259 : FD24;
    260 : 05DC;
    261 : FD69;
    262 : FD58;
    263 : 0310;
    264 : F44B;
    265 : 00BD;
    266 : FF40;
    267 : F8F7;
    268 : 0976;
    269 : FBD6;
    270 : 0792;
    271 : F8E1;
    272 : F8CB;
    273 : FFD8;
    274 : 03ED;
    275 : 022F;
    276 : 0C62;
    277 : FE66;
    278 : FF07;
    279 : 050A;
    280 : F256;
    281 : FEF1;
    282 : 096D;
    283 : F687;
    284 : F896;
    285 : 0801;
    286 : 01FE;
    287 : FE26;
    288 : FC77;
    289 : FC78;
    290 : F8EC;
    291 : 03BC;
    292 : 0FF6;
    293 : FDA5;
    294 : 0430;
    295 : FF62;
    296 : 00E6;
    297 : FA18;
    298 : F655;
    299 : 0903;
    300 : 01C1;
    301 : 06D6;
    302 : 033B;
    303 : FF94;
    304 : FADC;
    305 : 05B2;
    306 : F3AC;
    307 : FE59;
    308 : 00BD;
    309 : FF43;
    310 : 101B;
    311 : FCA2;
    312 : F9CE;
    313 : FA6C;
    314 : 04EA;
    315 : 0581;
    316 : 01A1;
    317 : FADE;
    318 : 027F;
    319 : 0F9B;
    320 : 0471;
    321 : FF3C;
    322 : F380;
    323 : FEBE;
    324 : 0515;
    325 : FADA;
    326 : F429;
    327 : 072F;
    328 : 08AE;
    329 : F74B;
    330 : F6AD;
    331 : FF91;
    332 : 04A9;
    333 : 01AA;
    334 : 4463;
    335 : FDFD;
    336 : 06E9;
    337 : FB1C;
    338 : FEA6;
    339 : 00B3;
    340 : 04BB;
    341 : 06D6;
    342 : 01BE;
    343 : FC88;
    344 : 0203;
    345 : FE96;
    346 : 0488;
    347 : 007F;
    348 : FC4D;
    349 : 0C0C;
    350 : 06D6;
    351 : 0388;
    352 : FC05;
    353 : FC0B;
    354 : 0981;
    355 : 067E;
    356 : FF90;
    357 : 08B1;
    358 : FD01;
    359 : FEDF;
    360 : 0184;
    361 : 01A0;
    362 : 009B;
    363 : 00AB;
    364 : F563;
    365 : 04D1;
    366 : 0042;
    367 : 01BE;
    368 : 055E;
    369 : FD31;
    370 : F903;
    371 : 07F2;
    372 : FF95;
    373 : 0B82;
    374 : 02A5;
    375 : FCD4;
    376 : 013C;
    377 : 0094;
    378 : F5F4;
    379 : FA6B;
    380 : F85A;
    381 : 0542;
    382 : 0C3B;
    383 : F24E;
    384 : 0080;
END;
