WIDTH=16;
DEPTH=385;

ADDRESS_RADIX=DEC;
DATA_RADIX=HEX;

CONTENT BEGIN
    0 : 09DC;
    1 : F99C;
    2 : F76A;
    3 : 00CF;
    4 : 172A;
    5 : 06BF;
    6 : F70C;
    7 : F9A7;
    8 : 0302;
    9 : FF3C;
    10 : 0018;
    11 : FFB5;
    12 : 0B60;
    13 : ECCB;
    14 : F90A;
    15 : 0D23;
    16 : 03DC;
    17 : FF13;
    18 : 0089;
    19 : 095F;
    20 : 0397;
    21 : 03C9;
    22 : F525;
    23 : FA78;
    24 : F095;
    25 : 033E;
    26 : FB0C;
    27 : FA93;
    28 : 13A4;
    29 : F69A;
    30 : F624;
    31 : FA07;
    32 : FAFC;
    33 : FBAD;
    34 : 140C;
    35 : 005E;
    36 : 02BE;
    37 : 0E23;
    38 : 070D;
    39 : FBEB;
    40 : F94E;
    41 : 0C31;
    42 : 0182;
    43 : 04B5;
    44 : 01CC;
    45 : F7A8;
    46 : 016E;
    47 : 0649;
    48 : 026B;
    49 : 0A27;
    50 : 00FA;
    51 : 029E;
    52 : F740;
    53 : FBA8;
    54 : F282;
    55 : 04F4;
    56 : FF7E;
    57 : F6AA;
    58 : 0BDF;
    59 : FA95;
    60 : 0CC9;
    61 : E9F1;
    62 : FFAF;
    63 : 07D0;
    64 : FC8A;
    65 : 0824;
    66 : FD6C;
    67 : 0C58;
    68 : 032B;
    69 : FB61;
    70 : FA93;
    71 : 029E;
    72 : 07EE;
    73 : ECDD;
    74 : F995;
    75 : 03BC;
    76 : 03C2;
    77 : 0575;
    78 : FA94;
    79 : 09F6;
    80 : 008C;
    81 : FDAE;
    82 : FAEB;
    83 : FF06;
    84 : FF65;
    85 : FF87;
    86 : FFEC;
    87 : FAFF;
    88 : 0421;
    89 : 03F0;
    90 : FAFA;
    91 : 0D2C;
    92 : 056F;
    93 : FB74;
    94 : F7E3;
    95 : 00C7;
    96 : FFEF;
    97 : F883;
    98 : FF7A;
    99 : FF61;
    100 : 00C6;
    101 : FDBF;
    102 : 0002;
    103 : FFDA;
    104 : FCF8;
    105 : 0197;
    106 : 0070;
    107 : F9F7;
    108 : 003A;
    109 : F332;
    110 : FD44;
    111 : 0AAD;
    112 : 08DB;
    113 : FA3B;
    114 : 04B2;
    115 : 07E0;
    116 : FF86;
    117 : 0664;
    118 : 0C5C;
    119 : FC83;
    120 : 0071;
    121 : 00B9;
    122 : 03ED;
    123 : 0159;
    124 : FF4B;
    125 : 0377;
    126 : F900;
    127 : FD02;
    128 : FF12;
    129 : F6A2;
    130 : 04CD;
    131 : 03DE;
    132 : FC64;
    133 : F258;
    134 : FEA7;
    135 : FE5C;
    136 : 04C9;
    137 : 00C0;
    138 : 06AD;
    139 : E66B;
    140 : F701;
    141 : 01D9;
    142 : 0B54;
    143 : 03E3;
    144 : 0282;
    145 : F772;
    146 : F54E;
    147 : FFE6;
    148 : 0E22;
    149 : FDD1;
    150 : FBD0;
    151 : 0C5E;
    152 : 0533;
    153 : F7EF;
    154 : F791;
    155 : 0773;
    156 : 07F5;
    157 : 0F12;
    158 : 0526;
    159 : FB36;
    160 : F056;
    161 : 0491;
    162 : 032F;
    163 : F544;
    164 : 03D2;
    165 : 02E9;
    166 : 0334;
    167 : 0401;
    168 : 0B3B;
    169 : FE2B;
    170 : FEA9;
    171 : 0797;
    172 : E239;
    173 : 0531;
    174 : 0964;
    175 : 0937;
    176 : 0061;
    177 : FAE1;
    178 : FB12;
    179 : 0B09;
    180 : 08DB;
    181 : FF0F;
    182 : 05D6;
    183 : FD99;
    184 : ED7D;
    185 : 0D17;
    186 : FEC9;
    187 : FCC7;
    188 : 002C;
    189 : FEA0;
    190 : 0776;
    191 : 0036;
    192 : FA58;
    193 : 139E;
    194 : F9BB;
    195 : FB78;
    196 : FE8B;
    197 : F124;
    198 : 0362;
    199 : 046B;
    200 : 0092;
    201 : 050A;
    202 : F2EF;
    203 : FDA5;
    204 : 036F;
    205 : F4EB;
    206 : F9BB;
    207 : 048D;
    208 : 091C;
    209 : FE1E;
    210 : FBBB;
    211 : FDAD;
    212 : F6E7;
    213 : 000C;
    214 : 1679;
    215 : F9E4;
    216 : 020B;
    217 : 04D1;
    218 : FA66;
    219 : 023D;
    220 : 02B9;
    221 : FC7F;
    222 : 0322;
    223 : F510;
    224 : F5CD;
    225 : 0015;
    226 : 0A0F;
    227 : FF99;
    228 : F7A4;
    229 : FDF6;
    230 : 00C7;
    231 : 006B;
    232 : F6E3;
    233 : F7C8;
    234 : F5B0;
    235 : 106C;
    236 : 02FE;
    237 : F470;
    238 : FBA0;
    239 : FF31;
    240 : F793;
    241 : F96C;
    242 : FEBD;
    243 : FFCC;
    244 : 09F3;
    245 : F8E2;
    246 : 0662;
    247 : EF68;
    248 : FC0A;
    249 : 0C55;
    250 : 06A3;
    251 : FE9E;
    252 : 0717;
    253 : 0683;
    254 : 047E;
    255 : FF60;
    256 : EC88;
    257 : 00D9;
    258 : FC40;
    259 : 0E1F;
    260 : 0206;
    261 : F8B5;
    262 : 079B;
    263 : FE95;
    264 : 0EE0;
    265 : 0255;
    266 : 0055;
    267 : FED0;
    268 : EB97;
    269 : 08C0;
    270 : 0497;
    271 : 0E39;
    272 : FCE5;
    273 : FAC9;
    274 : FAD6;
    275 : 043F;
    276 : F685;
    277 : F947;
    278 : FF70;
    279 : 0025;
    280 : 091E;
    281 : F87B;
    282 : 0804;
    283 : FCB6;
    284 : 01CF;
    285 : 0402;
    286 : F291;
    287 : 0720;
    288 : 0393;
    289 : 05A4;
    290 : FEDF;
    291 : FD70;
    292 : F145;
    293 : FDDA;
    294 : FE31;
    295 : FC7F;
    296 : FB5C;
    297 : 010A;
    298 : 0FFE;
    299 : F8EB;
    300 : FC76;
    301 : F05D;
    302 : 0286;
    303 : FD2B;
    304 : 05C7;
    305 : 07B9;
    306 : 04BC;
    307 : 051C;
    308 : FD33;
    309 : FC1C;
    310 : F1CA;
    311 : 00E6;
    312 : F294;
    313 : 1435;
    314 : 027F;
    315 : F3DA;
    316 : FD88;
    317 : FAB1;
    318 : FC33;
    319 : F8B5;
    320 : 0293;
    321 : F8A1;
    322 : 04E2;
    323 : 07F8;
    324 : 04DC;
    325 : 0321;
    326 : 02A0;
    327 : 039B;
    328 : F396;
    329 : 054D;
    330 : F441;
    331 : 0099;
    332 : FD0F;
    333 : FED2;
    334 : D842;
    335 : F270;
    336 : FEBA;
    337 : 023A;
    338 : FCF4;
    339 : F98F;
    340 : F68B;
    341 : 03F1;
    342 : 00BA;
    343 : FF2D;
    344 : FD49;
    345 : 0255;
    346 : FA71;
    347 : FC18;
    348 : 07C6;
    349 : EFCF;
    350 : FEAC;
    351 : FF7C;
    352 : FB90;
    353 : 095B;
    354 : 011F;
    355 : F8AF;
    356 : 0477;
    357 : FBDB;
    358 : 0015;
    359 : 0887;
    360 : 0660;
    361 : E974;
    362 : FF6A;
    363 : 0800;
    364 : FC58;
    365 : 01A6;
    366 : 043B;
    367 : F1AA;
    368 : FD48;
    369 : FF44;
    370 : 049E;
    371 : 0698;
    372 : 001A;
    373 : FAFD;
    374 : FCB1;
    375 : 00CA;
    376 : 0E4D;
    377 : FC35;
    378 : 0546;
    379 : 08AE;
    380 : 0445;
    381 : 0215;
    382 : F08B;
    383 : 012F;
    384 : 0080;
END;
