WIDTH=16;
DEPTH=385;

ADDRESS_RADIX=DEC;
DATA_RADIX=HEX;

CONTENT BEGIN
    0 : F931;
    1 : F7FF;
    2 : FCBB;
    3 : 041F;
    4 : 11D7;
    5 : F7D2;
    6 : FFA7;
    7 : F833;
    8 : 038A;
    9 : 00D8;
    10 : EE91;
    11 : FE51;
    12 : FCE7;
    13 : FC16;
    14 : F503;
    15 : 0353;
    16 : 0FEA;
    17 : F11C;
    18 : FD03;
    19 : 096C;
    20 : 03DD;
    21 : FB66;
    22 : F719;
    23 : 032E;
    24 : FC50;
    25 : 069C;
    26 : FA84;
    27 : FF8C;
    28 : 113F;
    29 : F861;
    30 : 0215;
    31 : FBAB;
    32 : F99A;
    33 : 014E;
    34 : 0D15;
    35 : FE44;
    36 : F97F;
    37 : 17F9;
    38 : FF18;
    39 : FB84;
    40 : FD8D;
    41 : F756;
    42 : 083F;
    43 : FFBD;
    44 : 00B9;
    45 : FFFA;
    46 : FCA3;
    47 : 04C2;
    48 : F118;
    49 : 10E1;
    50 : 022F;
    51 : F9EF;
    52 : FBF6;
    53 : F585;
    54 : FD58;
    55 : 0284;
    56 : F694;
    57 : 036E;
    58 : 0E4D;
    59 : F405;
    60 : 1181;
    61 : E7A5;
    62 : FDD3;
    63 : 0591;
    64 : FDDB;
    65 : 0DFC;
    66 : FE91;
    67 : 06F7;
    68 : 08FA;
    69 : 0156;
    70 : F80D;
    71 : 0451;
    72 : FB03;
    73 : FFD2;
    74 : FAF8;
    75 : 02CF;
    76 : 1326;
    77 : F67F;
    78 : FD4E;
    79 : 0A12;
    80 : 03FE;
    81 : FAAF;
    82 : F243;
    83 : 0001;
    84 : F209;
    85 : FE4F;
    86 : FDB7;
    87 : FFC1;
    88 : 0C5F;
    89 : F5F2;
    90 : FD26;
    91 : 0A5C;
    92 : 0A49;
    93 : FD80;
    94 : EBA0;
    95 : FE92;
    96 : FADB;
    97 : FA78;
    98 : 055E;
    99 : FCDA;
    100 : 0012;
    101 : 045B;
    102 : 0492;
    103 : FCF9;
    104 : 0338;
    105 : FF2B;
    106 : FBB6;
    107 : 07CD;
    108 : 03F8;
    109 : F105;
    110 : FD9C;
    111 : 098E;
    112 : 08BB;
    113 : 0131;
    114 : FB46;
    115 : FF3D;
    116 : 0320;
    117 : FEE6;
    118 : 08F1;
    119 : 027B;
    120 : 087F;
    121 : 02E5;
    122 : F9C5;
    123 : 05D4;
    124 : FDDE;
    125 : FA84;
    126 : F715;
    127 : 0476;
    128 : 04FD;
    129 : F86D;
    130 : 08DF;
    131 : 045A;
    132 : 0662;
    133 : F49A;
    134 : F14A;
    135 : 076E;
    136 : 1120;
    137 : FC75;
    138 : F7B3;
    139 : E6B5;
    140 : FFED;
    141 : 074B;
    142 : 0A10;
    143 : F450;
    144 : FC8E;
    145 : F53A;
    146 : F9B7;
    147 : 0685;
    148 : 0E0E;
    149 : F5FB;
    150 : FD98;
    151 : 05BA;
    152 : FFF1;
    153 : FAF6;
    154 : F063;
    155 : FF8C;
    156 : 006C;
    157 : 0E28;
    158 : 0982;
    159 : FBAB;
    160 : F3D3;
    161 : 0334;
    162 : 098B;
    163 : EA5A;
    164 : 0042;
    165 : 0628;
    166 : 03D2;
    167 : 0C46;
    168 : 033C;
    169 : F97A;
    170 : 0931;
    171 : 0277;
    172 : D303;
    173 : 0C7A;
    174 : 023D;
    175 : 0976;
    176 : FD96;
    177 : 0651;
    178 : 031C;
    179 : FB30;
    180 : 0B2A;
    181 : 0272;
    182 : 08AF;
    183 : FC9C;
    184 : EC01;
    185 : 0F9F;
    186 : 046C;
    187 : 0593;
    188 : 0263;
    189 : 01E1;
    190 : 0A5D;
    191 : 05A3;
    192 : FF02;
    193 : 05B4;
    194 : 083D;
    195 : FEE8;
    196 : F78B;
    197 : 0611;
    198 : FF7C;
    199 : 0BAD;
    200 : 08F5;
    201 : 0128;
    202 : EED2;
    203 : FD5E;
    204 : FD69;
    205 : F754;
    206 : 051E;
    207 : 0674;
    208 : 0AF9;
    209 : 032E;
    210 : 0B56;
    211 : F360;
    212 : FD21;
    213 : 0009;
    214 : 06C0;
    215 : 0CBE;
    216 : FFAD;
    217 : 0B0F;
    218 : 04B4;
    219 : 0416;
    220 : FFC8;
    221 : F7DA;
    222 : 06E8;
    223 : EEB4;
    224 : 046F;
    225 : 061B;
    226 : 0254;
    227 : 0AB3;
    228 : F0EE;
    229 : 0212;
    230 : 036A;
    231 : 0047;
    232 : 01D3;
    233 : F506;
    234 : 05F5;
    235 : 08CE;
    236 : 0AA5;
    237 : FA5C;
    238 : EFD5;
    239 : 0D64;
    240 : 05F1;
    241 : F33B;
    242 : F3BC;
    243 : 0647;
    244 : 1006;
    245 : FE23;
    246 : 0B10;
    247 : EE76;
    248 : FE02;
    249 : 075D;
    250 : FF65;
    251 : 023C;
    252 : 05D5;
    253 : 08E5;
    254 : 024C;
    255 : 01CE;
    256 : F7B5;
    257 : 0270;
    258 : 0549;
    259 : FBD0;
    260 : 0339;
    261 : 006E;
    262 : 0195;
    263 : 0D64;
    264 : 052E;
    265 : 03E1;
    266 : 02B7;
    267 : FE35;
    268 : F2A5;
    269 : 082C;
    270 : EBFB;
    271 : 1B65;
    272 : FFDA;
    273 : F92E;
    274 : 0778;
    275 : F206;
    276 : FE64;
    277 : 012A;
    278 : FA16;
    279 : FEB9;
    280 : 1034;
    281 : FD01;
    282 : 09A9;
    283 : 0645;
    284 : 008F;
    285 : 0592;
    286 : F23C;
    287 : FE9D;
    288 : 0209;
    289 : 0D0D;
    290 : 0273;
    291 : F785;
    292 : F2AE;
    293 : 020D;
    294 : FE32;
    295 : ED3D;
    296 : FDC7;
    297 : 0BC2;
    298 : 0C51;
    299 : FCFD;
    300 : 0A9B;
    301 : EE54;
    302 : 05D9;
    303 : 052E;
    304 : FED1;
    305 : 0926;
    306 : FBE3;
    307 : 0B18;
    308 : 01FC;
    309 : FDB5;
    310 : F818;
    311 : FC88;
    312 : 098C;
    313 : 07A0;
    314 : 0174;
    315 : 0322;
    316 : F304;
    317 : 0100;
    318 : FC07;
    319 : F664;
    320 : FD39;
    321 : 026F;
    322 : 0ACA;
    323 : FE16;
    324 : 0298;
    325 : 1074;
    326 : 0281;
    327 : FD33;
    328 : F83F;
    329 : FF73;
    330 : FBE9;
    331 : 0D11;
    332 : FCCD;
    333 : FFB8;
    334 : D347;
    335 : F2E2;
    336 : FA30;
    337 : 0A70;
    338 : 044E;
    339 : 029B;
    340 : FCFB;
    341 : FC3E;
    342 : F8A1;
    343 : 08BA;
    344 : 01C7;
    345 : F98C;
    346 : 03D9;
    347 : 0356;
    348 : FE27;
    349 : FA19;
    350 : 01EF;
    351 : 00A6;
    352 : 056A;
    353 : FE2B;
    354 : F8A9;
    355 : F547;
    356 : 03E6;
    357 : 07BA;
    358 : 0658;
    359 : F756;
    360 : 0869;
    361 : F3D4;
    362 : 049B;
    363 : 05B7;
    364 : 01F8;
    365 : 05F3;
    366 : FE40;
    367 : ED16;
    368 : FEB7;
    369 : 0869;
    370 : 09D0;
    371 : 0041;
    372 : F34D;
    373 : FCF4;
    374 : FC80;
    375 : 01BB;
    376 : 153A;
    377 : F507;
    378 : F48E;
    379 : 0FA2;
    380 : 00BA;
    381 : FB0C;
    382 : FE9E;
    383 : FA68;
    384 : 0080;
END;
