WIDTH=16;
DEPTH=385;

ADDRESS_RADIX=DEC;
DATA_RADIX=HEX;

CONTENT BEGIN
    0 : 0AEE;
    1 : 0116;
    2 : 0440;
    3 : 058C;
    4 : E53E;
    5 : 07F6;
    6 : FC1D;
    7 : 0626;
    8 : 0193;
    9 : FC17;
    10 : FC3D;
    11 : 003F;
    12 : FAB3;
    13 : 0C93;
    14 : 0609;
    15 : FF6A;
    16 : 02E4;
    17 : 00B9;
    18 : 0DB6;
    19 : F47B;
    20 : FA5F;
    21 : FFE7;
    22 : 035C;
    23 : 0C1D;
    24 : F93D;
    25 : 0F9C;
    26 : 03E9;
    27 : F873;
    28 : FA5C;
    29 : FF7E;
    30 : F8F9;
    31 : 17FE;
    32 : FF9A;
    33 : F940;
    34 : FF38;
    35 : F65D;
    36 : 09BB;
    37 : EE29;
    38 : 0072;
    39 : 0333;
    40 : 0110;
    41 : 0868;
    42 : F3AA;
    43 : 0849;
    44 : FAE7;
    45 : FD56;
    46 : 0706;
    47 : F220;
    48 : FC11;
    49 : 023A;
    50 : F95A;
    51 : FF8A;
    52 : 0D87;
    53 : F5A4;
    54 : F8A1;
    55 : 0D44;
    56 : FB5E;
    57 : FD7D;
    58 : 01CF;
    59 : F305;
    60 : 0C20;
    61 : 01DB;
    62 : FEE8;
    63 : 00ED;
    64 : F8B9;
    65 : 07A4;
    66 : 0446;
    67 : F95F;
    68 : 01FA;
    69 : 0560;
    70 : 0F2E;
    71 : 0529;
    72 : 056B;
    73 : F50A;
    74 : 0920;
    75 : FF1A;
    76 : F142;
    77 : 1202;
    78 : FF1F;
    79 : F6FB;
    80 : FD3A;
    81 : 01EC;
    82 : 09CD;
    83 : FB30;
    84 : 05C1;
    85 : 0545;
    86 : FDCA;
    87 : 0365;
    88 : 036A;
    89 : 017D;
    90 : 05FC;
    91 : EE15;
    92 : 0091;
    93 : 0215;
    94 : FF6E;
    95 : 0823;
    96 : FE33;
    97 : 0C5B;
    98 : 09CB;
    99 : FCE7;
    100 : F7A0;
    101 : 07DF;
    102 : 0670;
    103 : 0399;
    104 : FDA5;
    105 : FAEB;
    106 : FBDF;
    107 : 0784;
    108 : 043C;
    109 : 0702;
    110 : 0215;
    111 : 0203;
    112 : FA11;
    113 : 01BC;
    114 : 011F;
    115 : F419;
    116 : 0704;
    117 : 00C5;
    118 : ED75;
    119 : 02B3;
    120 : 01AC;
    121 : FF66;
    122 : 0829;
    123 : FF7B;
    124 : FDC2;
    125 : 0781;
    126 : FBEF;
    127 : 0684;
    128 : 01D9;
    129 : 022F;
    130 : FEB3;
    131 : FB4A;
    132 : 0B5D;
    133 : 05D3;
    134 : 0347;
    135 : FF16;
    136 : F02F;
    137 : 05AB;
    138 : 05B7;
    139 : 00A8;
    140 : 03D2;
    141 : 03E3;
    142 : F903;
    143 : 03D0;
    144 : 03A1;
    145 : 0C51;
    146 : FB80;
    147 : FC92;
    148 : FE37;
    149 : FFE7;
    150 : 0E91;
    151 : EE8B;
    152 : 00E9;
    153 : 04CF;
    154 : FFE4;
    155 : 0F7E;
    156 : 0647;
    157 : F31D;
    158 : FB9E;
    159 : 00E6;
    160 : 0B76;
    161 : 07F9;
    162 : 0988;
    163 : 06B7;
    164 : 07B4;
    165 : FED9;
    166 : F25E;
    167 : 082B;
    168 : FA9B;
    169 : F6BC;
    170 : FFAB;
    171 : 009C;
    172 : F537;
    173 : FE39;
    174 : 078B;
    175 : F947;
    176 : 010F;
    177 : FFA3;
    178 : 05A6;
    179 : 0916;
    180 : F8EE;
    181 : 01C9;
    182 : FEE5;
    183 : 0108;
    184 : 034E;
    185 : F7A9;
    186 : 0133;
    187 : FB87;
    188 : 0563;
    189 : 029D;
    190 : E6AA;
    191 : 03FA;
    192 : FE21;
    193 : FBB8;
    194 : 02D8;
    195 : 05B8;
    196 : 0B97;
    197 : FA47;
    198 : F731;
    199 : F95B;
    200 : FE55;
    201 : FD74;
    202 : 0CA8;
    203 : 00BD;
    204 : 0208;
    205 : 0F45;
    206 : 0330;
    207 : 0303;
    208 : F7DB;
    209 : F9E7;
    210 : FB95;
    211 : 0C3F;
    212 : FBC3;
    213 : FF78;
    214 : FE79;
    215 : F9EB;
    216 : 01CB;
    217 : FC75;
    218 : FCA1;
    219 : FD5B;
    220 : 00C0;
    221 : FBB7;
    222 : 015F;
    223 : 08E6;
    224 : 0209;
    225 : 023B;
    226 : F6B4;
    227 : FA8E;
    228 : 0AE0;
    229 : EEB4;
    230 : 03D7;
    231 : 0472;
    232 : 02B6;
    233 : 0E51;
    234 : EF64;
    235 : 042F;
    236 : F998;
    237 : FF6A;
    238 : 14DA;
    239 : ED0D;
    240 : 0C82;
    241 : 0276;
    242 : 074C;
    243 : 0354;
    244 : F152;
    245 : 09FA;
    246 : 0AC4;
    247 : 07CA;
    248 : FFBD;
    249 : F9B0;
    250 : F49C;
    251 : 0B89;
    252 : FE11;
    253 : F074;
    254 : 0153;
    255 : 015A;
    256 : 0415;
    257 : 029C;
    258 : 0599;
    259 : F592;
    260 : FC28;
    261 : 0A29;
    262 : F82C;
    263 : FACF;
    264 : 02B1;
    265 : ED12;
    266 : 0083;
    267 : 0605;
    268 : 01D6;
    269 : 051D;
    270 : 0720;
    271 : F57B;
    272 : 0029;
    273 : FDB0;
    274 : 051A;
    275 : 084F;
    276 : FA28;
    277 : 16C4;
    278 : FD6B;
    279 : FAD9;
    280 : FE3F;
    281 : F4B6;
    282 : FCC5;
    283 : 0436;
    284 : FBD3;
    285 : FC9C;
    286 : 10EE;
    287 : 006D;
    288 : FAC2;
    289 : 00D1;
    290 : F8C4;
    291 : 0254;
    292 : 11F8;
    293 : F7D7;
    294 : 03EC;
    295 : 05B2;
    296 : 04A5;
    297 : FC25;
    298 : F1CB;
    299 : 0B12;
    300 : 0DC3;
    301 : FF9D;
    302 : 0010;
    303 : 04BF;
    304 : F400;
    305 : 0608;
    306 : 0311;
    307 : F897;
    308 : FCFC;
    309 : 013D;
    310 : 0478;
    311 : 0026;
    312 : 030F;
    313 : EC4C;
    314 : 043B;
    315 : 05CF;
    316 : 010A;
    317 : 0739;
    318 : 0519;
    319 : F7CE;
    320 : 090F;
    321 : FE43;
    322 : F325;
    323 : 107E;
    324 : 02B7;
    325 : F1BC;
    326 : FDC0;
    327 : 08D3;
    328 : 0A17;
    329 : 028A;
    330 : 0324;
    331 : 07C8;
    332 : 002E;
    333 : FDE1;
    334 : FC5B;
    335 : 0556;
    336 : 08AA;
    337 : FA66;
    338 : 049A;
    339 : FF2B;
    340 : 0370;
    341 : 0B08;
    342 : 045E;
    343 : FDE6;
    344 : FD42;
    345 : 03F0;
    346 : FCA3;
    347 : F9FE;
    348 : FC57;
    349 : FFB4;
    350 : 0A98;
    351 : FEB0;
    352 : FB54;
    353 : 03F8;
    354 : F72C;
    355 : 0444;
    356 : 0434;
    357 : 019B;
    358 : 05D6;
    359 : FF66;
    360 : FB26;
    361 : 0201;
    362 : FCFB;
    363 : FEEF;
    364 : FE3A;
    365 : F9FC;
    366 : 0466;
    367 : 0114;
    368 : 0637;
    369 : FFD4;
    370 : F4D4;
    371 : 0A3A;
    372 : F71E;
    373 : 0D44;
    374 : 051A;
    375 : 0173;
    376 : F912;
    377 : F982;
    378 : 0956;
    379 : F766;
    380 : F8D9;
    381 : 0A7C;
    382 : 0C0A;
    383 : FCD7;
    384 : 0080;
END;
