WIDTH=16;
DEPTH=385;

ADDRESS_RADIX=DEC;
DATA_RADIX=HEX;

CONTENT BEGIN
    0 : 07B5;
    1 : 08AE;
    2 : FE56;
    3 : 02F2;
    4 : F19F;
    5 : FCE5;
    6 : 00F5;
    7 : 068E;
    8 : 06E0;
    9 : FE3F;
    10 : 04DD;
    11 : 0871;
    12 : 01CE;
    13 : 03CC;
    14 : 0927;
    15 : 0044;
    16 : F50B;
    17 : 0664;
    18 : F933;
    19 : F92A;
    20 : 01C5;
    21 : 00D2;
    22 : 06EC;
    23 : FD1B;
    24 : 0BF8;
    25 : 0522;
    26 : 0A9E;
    27 : 006C;
    28 : F499;
    29 : 10F1;
    30 : FF24;
    31 : 0D88;
    32 : 0AA9;
    33 : 00F3;
    34 : FA90;
    35 : 01D8;
    36 : 0300;
    37 : F895;
    38 : FB39;
    39 : FFF4;
    40 : 0826;
    41 : FDC1;
    42 : 009B;
    43 : FE0C;
    44 : 0742;
    45 : FFD5;
    46 : FC0A;
    47 : 0ABD;
    48 : F2EA;
    49 : 01D5;
    50 : FD2C;
    51 : FF33;
    52 : 104B;
    53 : F2F1;
    54 : FEBD;
    55 : 020A;
    56 : FEA7;
    57 : FCE4;
    58 : F5D6;
    59 : FE09;
    60 : FCEA;
    61 : 00DC;
    62 : 0598;
    63 : FD55;
    64 : F878;
    65 : 0603;
    66 : 00C0;
    67 : F7FA;
    68 : F9E4;
    69 : 01F8;
    70 : 09F9;
    71 : FD19;
    72 : FF39;
    73 : 0CF8;
    74 : 00BE;
    75 : FD5F;
    76 : FDC9;
    77 : FD84;
    78 : 023C;
    79 : EEB2;
    80 : 004B;
    81 : 07E0;
    82 : 03B0;
    83 : 0082;
    84 : FDA7;
    85 : 037D;
    86 : 02A0;
    87 : 071B;
    88 : 061A;
    89 : F97D;
    90 : FDA2;
    91 : F5E0;
    92 : FF80;
    93 : 0109;
    94 : 08BC;
    95 : 0236;
    96 : FC98;
    97 : 09A6;
    98 : F91F;
    99 : 024B;
    100 : FF83;
    101 : F3F8;
    102 : 08DE;
    103 : FCFD;
    104 : 02B5;
    105 : 022C;
    106 : FD5B;
    107 : 0BB5;
    108 : F4F8;
    109 : 0C6A;
    110 : 01F8;
    111 : FE90;
    112 : FD4B;
    113 : F583;
    114 : FB95;
    115 : FC12;
    116 : FF46;
    117 : FDDD;
    118 : 00E0;
    119 : 00AE;
    120 : F9A6;
    121 : 0543;
    122 : 0476;
    123 : FD76;
    124 : 0419;
    125 : FEB9;
    126 : 08C1;
    127 : 0043;
    128 : FC1A;
    129 : FCA7;
    130 : FA7A;
    131 : 06E2;
    132 : 0749;
    133 : 04A2;
    134 : 05BB;
    135 : 051B;
    136 : F0AA;
    137 : FDDF;
    138 : F649;
    139 : 1110;
    140 : FDC7;
    141 : FC58;
    142 : 0781;
    143 : F741;
    144 : FED7;
    145 : 02EF;
    146 : 0B98;
    147 : 002F;
    148 : F232;
    149 : 0555;
    150 : F445;
    151 : FAFA;
    152 : 0373;
    153 : 0394;
    154 : 0F4E;
    155 : FBF3;
    156 : F63F;
    157 : F96B;
    158 : FFA2;
    159 : 05CF;
    160 : 0F95;
    161 : F7C3;
    162 : 00BB;
    163 : 0790;
    164 : 0743;
    165 : FDE6;
    166 : F48C;
    167 : 019C;
    168 : FBC0;
    169 : FC3D;
    170 : 0495;
    171 : FAF9;
    172 : D851;
    173 : 04C3;
    174 : F582;
    175 : 019D;
    176 : FDB8;
    177 : 01B9;
    178 : 0E02;
    179 : F57B;
    180 : 0874;
    181 : F3AB;
    182 : FF63;
    183 : 02A5;
    184 : FD8D;
    185 : 0781;
    186 : 024A;
    187 : 0274;
    188 : 0349;
    189 : 03A1;
    190 : F149;
    191 : 0090;
    192 : FD53;
    193 : 03CD;
    194 : FCBB;
    195 : FB89;
    196 : 112E;
    197 : FEB0;
    198 : 06DB;
    199 : F46B;
    200 : FA02;
    201 : 03E0;
    202 : 00E0;
    203 : FEFF;
    204 : F8B9;
    205 : 108F;
    206 : 04A2;
    207 : FCEB;
    208 : F8EE;
    209 : F6FF;
    210 : FAC2;
    211 : 0C56;
    212 : 0319;
    213 : FF95;
    214 : FB98;
    215 : FB36;
    216 : FD02;
    217 : 016E;
    218 : FE43;
    219 : 05A4;
    220 : 0575;
    221 : F6DC;
    222 : F21F;
    223 : 1162;
    224 : 020F;
    225 : FAE7;
    226 : 02D3;
    227 : F5EF;
    228 : 02EB;
    229 : F870;
    230 : 0222;
    231 : 0412;
    232 : 07C6;
    233 : 02E3;
    234 : F776;
    235 : 04BD;
    236 : F9E9;
    237 : 0385;
    238 : 12B1;
    239 : F057;
    240 : 031C;
    241 : 056C;
    242 : FDC8;
    243 : 0130;
    244 : F9D3;
    245 : FD13;
    246 : FAA7;
    247 : 0A1D;
    248 : 038E;
    249 : FEA1;
    250 : FC6E;
    251 : FED8;
    252 : 04C8;
    253 : F360;
    254 : F7A6;
    255 : 06A8;
    256 : 065C;
    257 : FB0F;
    258 : FD3E;
    259 : 00D4;
    260 : 00F1;
    261 : FA41;
    262 : 01A7;
    263 : FDB4;
    264 : FFCA;
    265 : F8C5;
    266 : FE13;
    267 : 0153;
    268 : 05C3;
    269 : FF52;
    270 : 00C6;
    271 : FB13;
    272 : 011E;
    273 : 042D;
    274 : 0F41;
    275 : FE53;
    276 : 0563;
    277 : 0F9C;
    278 : 0155;
    279 : FC01;
    280 : F3C2;
    281 : FDE1;
    282 : FED3;
    283 : F8EC;
    284 : F4D2;
    285 : 03CD;
    286 : 0B16;
    287 : F7D1;
    288 : 0465;
    289 : FA0F;
    290 : FA21;
    291 : 0081;
    292 : 07C1;
    293 : 0237;
    294 : 04C0;
    295 : 0345;
    296 : 08D8;
    297 : 0123;
    298 : F13F;
    299 : 0815;
    300 : 0492;
    301 : 047A;
    302 : 08D2;
    303 : 02B2;
    304 : EE2B;
    305 : 007A;
    306 : 004F;
    307 : 00E7;
    308 : FAC7;
    309 : 0795;
    310 : 0C26;
    311 : F284;
    312 : FECD;
    313 : FED3;
    314 : FB6D;
    315 : 0AD2;
    316 : 0E27;
    317 : F288;
    318 : FFE0;
    319 : FF66;
    320 : 0403;
    321 : 06C9;
    322 : F2BF;
    323 : FCB7;
    324 : 08CF;
    325 : F559;
    326 : 0474;
    327 : 0436;
    328 : 0187;
    329 : 081C;
    330 : FEEA;
    331 : F80B;
    332 : 07E7;
    333 : 01B1;
    334 : F3F4;
    335 : 03A9;
    336 : 005C;
    337 : FDB3;
    338 : 016D;
    339 : FF2A;
    340 : 0FBB;
    341 : 037D;
    342 : FFC8;
    343 : F1EA;
    344 : FF27;
    345 : FF92;
    346 : FD91;
    347 : 013B;
    348 : 04F4;
    349 : 06B2;
    350 : 0100;
    351 : 0118;
    352 : F685;
    353 : FBF5;
    354 : F9A2;
    355 : 0912;
    356 : 0401;
    357 : FE4C;
    358 : 02DA;
    359 : FF3D;
    360 : FA5D;
    361 : 0E76;
    362 : FADA;
    363 : FF67;
    364 : 00BC;
    365 : F6B1;
    366 : F5DE;
    367 : 09D3;
    368 : 0477;
    369 : F5D6;
    370 : FA5B;
    371 : 0022;
    372 : 0594;
    373 : 0A2B;
    374 : 04BD;
    375 : 00D1;
    376 : F235;
    377 : FF72;
    378 : FD0F;
    379 : F53A;
    380 : 00B7;
    381 : 009A;
    382 : 0773;
    383 : 01C1;
    384 : 0080;
END;
