WIDTH=16;
DEPTH=385;

ADDRESS_RADIX=DEC;
DATA_RADIX=HEX;

CONTENT BEGIN
    0 : 0911;
    1 : FB92;
    2 : FB12;
    3 : 01D0;
    4 : FD9F;
    5 : 027C;
    6 : FB54;
    7 : F8D4;
    8 : 055D;
    9 : FB6F;
    10 : 0340;
    11 : 06CF;
    12 : FAD5;
    13 : 0A1A;
    14 : 03B7;
    15 : FD16;
    16 : 02A9;
    17 : 0200;
    18 : F6AF;
    19 : 03AD;
    20 : FEEF;
    21 : 01E3;
    22 : 0D34;
    23 : F67C;
    24 : 02D0;
    25 : 01EC;
    26 : FB34;
    27 : FD3D;
    28 : FEA5;
    29 : FA1B;
    30 : FBC5;
    31 : FF54;
    32 : 06AD;
    33 : FE46;
    34 : FDE2;
    35 : 0676;
    36 : F5DA;
    37 : 05BD;
    38 : F92D;
    39 : FE32;
    40 : 0F2E;
    41 : F4C7;
    42 : 0A69;
    43 : FFEC;
    44 : FD38;
    45 : 0A74;
    46 : F7DE;
    47 : FBFA;
    48 : FE2A;
    49 : FC16;
    50 : FC5E;
    51 : 049E;
    52 : 093B;
    53 : FC2E;
    54 : F619;
    55 : 061A;
    56 : 04E2;
    57 : FEE2;
    58 : 0279;
    59 : FB6D;
    60 : 01E1;
    61 : 0BB3;
    62 : FF5C;
    63 : FCF6;
    64 : FBDE;
    65 : FD66;
    66 : F73F;
    67 : 0127;
    68 : 00B0;
    69 : 00EA;
    70 : 0A7B;
    71 : FD50;
    72 : 0502;
    73 : 03F3;
    74 : 059B;
    75 : FF0C;
    76 : F6E0;
    77 : 0601;
    78 : 026E;
    79 : F558;
    80 : FE9D;
    81 : 0388;
    82 : FE23;
    83 : 018F;
    84 : 0267;
    85 : 009A;
    86 : 05E3;
    87 : 01CE;
    88 : FA99;
    89 : FF9C;
    90 : FEE2;
    91 : F88F;
    92 : 058D;
    93 : 0281;
    94 : FE36;
    95 : 01CE;
    96 : F99A;
    97 : 0393;
    98 : 013B;
    99 : FDFA;
    100 : 0763;
    101 : F92A;
    102 : 023E;
    103 : F9D9;
    104 : 01F5;
    105 : 04D7;
    106 : 025F;
    107 : 01CA;
    108 : FA90;
    109 : 0989;
    110 : 042A;
    111 : 049F;
    112 : 0007;
    113 : F7A6;
    114 : 0925;
    115 : F9A6;
    116 : 0138;
    117 : 062D;
    118 : F638;
    119 : 05A2;
    120 : 003B;
    121 : F978;
    122 : 0517;
    123 : 00FE;
    124 : F7BA;
    125 : 02ED;
    126 : 02D0;
    127 : F7CC;
    128 : 02EC;
    129 : FE13;
    130 : FF90;
    131 : 0992;
    132 : F064;
    133 : 0EA4;
    134 : FF18;
    135 : FA52;
    136 : 0827;
    137 : F4C7;
    138 : 02A0;
    139 : 0E32;
    140 : FD76;
    141 : 0004;
    142 : 024A;
    143 : FEC9;
    144 : 0343;
    145 : FFA8;
    146 : 055D;
    147 : 0354;
    148 : F4FC;
    149 : 01E4;
    150 : 0030;
    151 : FA43;
    152 : FE85;
    153 : FD35;
    154 : FFD1;
    155 : 0175;
    156 : FF84;
    157 : FA89;
    158 : FD88;
    159 : FEA5;
    160 : 0353;
    161 : 0452;
    162 : 01C2;
    163 : 061F;
    164 : 041E;
    165 : 04AB;
    166 : F791;
    167 : FAC0;
    168 : 01EC;
    169 : 055B;
    170 : 001F;
    171 : F78F;
    172 : 279E;
    173 : 0686;
    174 : F675;
    175 : 00A4;
    176 : 0560;
    177 : 0213;
    178 : 082F;
    179 : FF12;
    180 : 0201;
    181 : F75A;
    182 : 03FE;
    183 : 0386;
    184 : 0825;
    185 : 0856;
    186 : FEAD;
    187 : 003E;
    188 : 00B4;
    189 : FFBC;
    190 : 01A7;
    191 : 0002;
    192 : 09CA;
    193 : FD84;
    194 : FCD2;
    195 : 08C8;
    196 : FF35;
    197 : FEA7;
    198 : FE25;
    199 : 054C;
    200 : FC53;
    201 : 0286;
    202 : 0D2B;
    203 : F7B8;
    204 : FE60;
    205 : 03EE;
    206 : 070A;
    207 : FF2B;
    208 : F92D;
    209 : FEFF;
    210 : FCA8;
    211 : FDDD;
    212 : FE01;
    213 : 0403;
    214 : FBE1;
    215 : F965;
    216 : 0348;
    217 : FD5E;
    218 : 0016;
    219 : 022C;
    220 : FC75;
    221 : FE5A;
    222 : 05F8;
    223 : F8B7;
    224 : 040A;
    225 : 01A1;
    226 : F612;
    227 : 0B7C;
    228 : 011C;
    229 : 05A1;
    230 : FE57;
    231 : FF0E;
    232 : FF30;
    233 : 0152;
    234 : FF7D;
    235 : FFDC;
    236 : FBDD;
    237 : 0191;
    238 : 0561;
    239 : F998;
    240 : 01F4;
    241 : 09C1;
    242 : 01B4;
    243 : FFC9;
    244 : FE9A;
    245 : FFB1;
    246 : F7C4;
    247 : 0C8C;
    248 : FDE2;
    249 : F8BD;
    250 : 0078;
    251 : F5F9;
    252 : F3FF;
    253 : 016E;
    254 : F9AC;
    255 : 0127;
    256 : 0969;
    257 : F042;
    258 : 026F;
    259 : 0362;
    260 : FC33;
    261 : FE50;
    262 : 02E0;
    263 : 0150;
    264 : FDD7;
    265 : 0115;
    266 : F98B;
    267 : FE3D;
    268 : 07C3;
    269 : F95E;
    270 : F0C6;
    271 : 0658;
    272 : FCAE;
    273 : FC58;
    274 : 0F76;
    275 : F667;
    276 : FECC;
    277 : 0149;
    278 : FC80;
    279 : 03FE;
    280 : FC92;
    281 : F714;
    282 : F8B9;
    283 : FE27;
    284 : FBBD;
    285 : 0617;
    286 : 0A84;
    287 : F28D;
    288 : 05F4;
    289 : FFCD;
    290 : FEE9;
    291 : 05D3;
    292 : 0225;
    293 : FB07;
    294 : FDCE;
    295 : 0065;
    296 : 0647;
    297 : FAA1;
    298 : F887;
    299 : 0661;
    300 : F6E0;
    301 : 0998;
    302 : 015A;
    303 : FB3F;
    304 : 001C;
    305 : FCDE;
    306 : 0408;
    307 : FDFE;
    308 : FAEB;
    309 : 06BD;
    310 : 088D;
    311 : FC72;
    312 : 016B;
    313 : F71D;
    314 : FAC6;
    315 : 047B;
    316 : 0649;
    317 : 0212;
    318 : 03C7;
    319 : 0211;
    320 : FE99;
    321 : 0692;
    322 : F90C;
    323 : FD32;
    324 : 0271;
    325 : FB7E;
    326 : F838;
    327 : FEB4;
    328 : 03CC;
    329 : FDE4;
    330 : F94A;
    331 : 03CE;
    332 : FE6B;
    333 : FE1A;
    334 : 2DE2;
    335 : F40F;
    336 : 0585;
    337 : 0045;
    338 : F614;
    339 : 01F7;
    340 : 0574;
    341 : FCD7;
    342 : FAA3;
    343 : FA20;
    344 : FC68;
    345 : 03C3;
    346 : 05C8;
    347 : F82C;
    348 : 0310;
    349 : 0287;
    350 : 070B;
    351 : FF7A;
    352 : F8AE;
    353 : 0B1A;
    354 : 0003;
    355 : FEB4;
    356 : 005D;
    357 : 0497;
    358 : FEFF;
    359 : 0370;
    360 : FA21;
    361 : 05E1;
    362 : 068F;
    363 : FE17;
    364 : FE69;
    365 : 01FA;
    366 : 02CD;
    367 : 0388;
    368 : FE7B;
    369 : FE2B;
    370 : F929;
    371 : FFBA;
    372 : FBF6;
    373 : FE48;
    374 : 019D;
    375 : FD82;
    376 : 0030;
    377 : 04C6;
    378 : 02C3;
    379 : FADD;
    380 : F873;
    381 : FE8E;
    382 : 0269;
    383 : FD6F;
    384 : 0080;
END;
