WIDTH=16;
DEPTH=385;

ADDRESS_RADIX=DEC;
DATA_RADIX=HEX;

CONTENT BEGIN
    0 : 0217;
    1 : 00C6;
    2 : FEC8;
    3 : FB61;
    4 : 11D4;
    5 : FE8F;
    6 : 097F;
    7 : F402;
    8 : FD3F;
    9 : FC76;
    10 : F1E9;
    11 : 06D8;
    12 : FFD2;
    13 : F224;
    14 : 017B;
    15 : FEF7;
    16 : FDCA;
    17 : 0442;
    18 : 04AC;
    19 : 06C3;
    20 : FD88;
    21 : 002E;
    22 : F870;
    23 : FD9E;
    24 : FD9C;
    25 : FBD1;
    26 : 0051;
    27 : 00D6;
    28 : 0AE4;
    29 : 04BD;
    30 : FF29;
    31 : FD6E;
    32 : FE7D;
    33 : 003E;
    34 : 088D;
    35 : FD09;
    36 : 02FF;
    37 : 1A1B;
    38 : 028A;
    39 : FF02;
    40 : 0057;
    41 : 043E;
    42 : 0727;
    43 : FAC9;
    44 : FF01;
    45 : FC11;
    46 : 0022;
    47 : 0A0D;
    48 : 0274;
    49 : 072C;
    50 : 027D;
    51 : 00B7;
    52 : F556;
    53 : FF09;
    54 : 05B9;
    55 : FD6C;
    56 : 024F;
    57 : FD16;
    58 : 033F;
    59 : 071D;
    60 : FF95;
    61 : F514;
    62 : FE4B;
    63 : 062B;
    64 : 053A;
    65 : FD42;
    66 : FF38;
    67 : 0BE0;
    68 : FFEA;
    69 : FF51;
    70 : FC05;
    71 : FA39;
    72 : 05A6;
    73 : F55A;
    74 : 021F;
    75 : 035F;
    76 : FD34;
    77 : 00EE;
    78 : 0A1A;
    79 : 0781;
    80 : 036C;
    81 : FEDC;
    82 : F5AD;
    83 : 0BBF;
    84 : F7D6;
    85 : FAB2;
    86 : 0446;
    87 : 0077;
    88 : FF08;
    89 : FF70;
    90 : 0004;
    91 : 0B67;
    92 : FEBA;
    93 : 0044;
    94 : FCF4;
    95 : FD62;
    96 : 04A3;
    97 : F26E;
    98 : F69C;
    99 : 01AB;
    100 : 0304;
    101 : 0106;
    102 : 011D;
    103 : FD82;
    104 : FC12;
    105 : 01EF;
    106 : FF77;
    107 : FB30;
    108 : 09C6;
    109 : F7FC;
    110 : F553;
    111 : FF2F;
    112 : 0C14;
    113 : 0448;
    114 : 05B9;
    115 : 0643;
    116 : 04AF;
    117 : FFFB;
    118 : 09B2;
    119 : 06F9;
    120 : 012A;
    121 : FE84;
    122 : 04BA;
    123 : 0283;
    124 : FF95;
    125 : 0637;
    126 : 08F5;
    127 : FA27;
    128 : 0220;
    129 : 0006;
    130 : FACA;
    131 : 0A9B;
    132 : FD4E;
    133 : F44F;
    134 : F8B8;
    135 : FD8A;
    136 : 0744;
    137 : FF54;
    138 : 00F0;
    139 : EEAE;
    140 : FD0A;
    141 : FE36;
    142 : 02BF;
    143 : FF04;
    144 : 0DAA;
    145 : F1A7;
    146 : F914;
    147 : 0CF9;
    148 : 0389;
    149 : FF80;
    150 : 085A;
    151 : 0921;
    152 : F80F;
    153 : FCAC;
    154 : F78D;
    155 : 00F0;
    156 : 043E;
    157 : 03F5;
    158 : FFC8;
    159 : FBE3;
    160 : F2B0;
    161 : 0474;
    162 : F891;
    163 : FAED;
    164 : FF85;
    165 : FD31;
    166 : 06FC;
    167 : FB6C;
    168 : F938;
    169 : 01BF;
    170 : FE43;
    171 : FE60;
    172 : D322;
    173 : FF80;
    174 : F76C;
    175 : 10D3;
    176 : FF06;
    177 : F98E;
    178 : FF3F;
    179 : FC09;
    180 : 03A5;
    181 : FF36;
    182 : 02AC;
    183 : 038E;
    184 : EFBE;
    185 : FC6A;
    186 : 0212;
    187 : FEA5;
    188 : FFE6;
    189 : FC84;
    190 : 0B6D;
    191 : 0339;
    192 : 0041;
    193 : 02B0;
    194 : 042E;
    195 : 028A;
    196 : F338;
    197 : FFEB;
    198 : F9DD;
    199 : 0412;
    200 : 0610;
    201 : FCE4;
    202 : F666;
    203 : 0336;
    204 : FD55;
    205 : FAE1;
    206 : F9FD;
    207 : FD0A;
    208 : 09F8;
    209 : FD2A;
    210 : 02FB;
    211 : FA04;
    212 : F389;
    213 : 0211;
    214 : 0AC4;
    215 : F7CC;
    216 : 0970;
    217 : F9AA;
    218 : 01EF;
    219 : 056D;
    220 : F78B;
    221 : 02D0;
    222 : F918;
    223 : F8D4;
    224 : FA4B;
    225 : 03C9;
    226 : 09B1;
    227 : F5E0;
    228 : 06FA;
    229 : F4DA;
    230 : FE99;
    231 : 06BA;
    232 : F4CE;
    233 : 0403;
    234 : 0845;
    235 : 02F5;
    236 : 0401;
    237 : FD6F;
    238 : ECDD;
    239 : 04DF;
    240 : FAA8;
    241 : F26A;
    242 : FDB8;
    243 : 0872;
    244 : 0944;
    245 : FA31;
    246 : FBB8;
    247 : FFD7;
    248 : F79A;
    249 : FD87;
    250 : 115D;
    251 : FA89;
    252 : FE10;
    253 : 0A59;
    254 : 066A;
    255 : FB7B;
    256 : FA39;
    257 : 053A;
    258 : 0485;
    259 : 0583;
    260 : FA4F;
    261 : 04BB;
    262 : 01A4;
    263 : F8D7;
    264 : FF91;
    265 : 012C;
    266 : 061B;
    267 : FADF;
    268 : F2F9;
    269 : 0A22;
    270 : 08AB;
    271 : 0D62;
    272 : 02A6;
    273 : FD88;
    274 : F2E7;
    275 : 06EB;
    276 : 04C1;
    277 : FB21;
    278 : FCF1;
    279 : 071B;
    280 : 07C6;
    281 : FEAE;
    282 : FF71;
    283 : FC29;
    284 : 0565;
    285 : F9DB;
    286 : F102;
    287 : 08A6;
    288 : 0517;
    289 : 076B;
    290 : FFEF;
    291 : F5A0;
    292 : F4BE;
    293 : 079E;
    294 : 05AA;
    295 : F0C9;
    296 : FC48;
    297 : 0969;
    298 : 0620;
    299 : FDE0;
    300 : 0E5E;
    301 : EA1C;
    302 : FD34;
    303 : 0901;
    304 : F986;
    305 : 0654;
    306 : FE84;
    307 : 0B91;
    308 : FE5B;
    309 : FF4C;
    310 : F677;
    311 : F714;
    312 : FCCF;
    313 : 0CD5;
    314 : 0076;
    315 : FD2B;
    316 : FA35;
    317 : F954;
    318 : 00A8;
    319 : E995;
    320 : 00F6;
    321 : 05D7;
    322 : 052E;
    323 : 06DD;
    324 : 078B;
    325 : 0560;
    326 : FBD5;
    327 : 03A1;
    328 : F683;
    329 : FAE0;
    330 : FA31;
    331 : F82F;
    332 : F984;
    333 : FFAC;
    334 : CCCD;
    335 : F848;
    336 : 0512;
    337 : FB90;
    338 : 00EF;
    339 : 05A6;
    340 : F7D8;
    341 : 04A6;
    342 : FE3C;
    343 : 135C;
    344 : F9A8;
    345 : FDB5;
    346 : 0200;
    347 : F651;
    348 : 04B7;
    349 : F624;
    350 : 0047;
    351 : FEC2;
    352 : FA53;
    353 : 0297;
    354 : 0A93;
    355 : F4F6;
    356 : F812;
    357 : FE14;
    358 : 0037;
    359 : 059D;
    360 : F2DC;
    361 : FA43;
    362 : FE0E;
    363 : FB70;
    364 : 0622;
    365 : F4B9;
    366 : 0C38;
    367 : F262;
    368 : FDC6;
    369 : 0886;
    370 : 0044;
    371 : 0359;
    372 : F7A6;
    373 : FB28;
    374 : F857;
    375 : 014B;
    376 : 1256;
    377 : F4A7;
    378 : 0717;
    379 : 07A0;
    380 : 0619;
    381 : FEB6;
    382 : F4E5;
    383 : 080E;
    384 : 0080;
END;
