WIDTH=16;
DEPTH=385;

ADDRESS_RADIX=DEC;
DATA_RADIX=HEX;

CONTENT BEGIN
    0 : FDC3;
    1 : FFA5;
    2 : 0161;
    3 : 017D;
    4 : 05C8;
    5 : 00AF;
    6 : EE0B;
    7 : 06F5;
    8 : 000E;
    9 : F916;
    10 : 0589;
    11 : F723;
    12 : 0983;
    13 : F0FC;
    14 : FF64;
    15 : 08CE;
    16 : 0815;
    17 : 04CD;
    18 : 0019;
    19 : 064F;
    20 : 0926;
    21 : FA54;
    22 : EE86;
    23 : 0946;
    24 : FEC4;
    25 : F1C3;
    26 : 0831;
    27 : 0275;
    28 : F94D;
    29 : 07BF;
    30 : FC50;
    31 : F8F9;
    32 : FBF0;
    33 : FDB0;
    34 : 0B20;
    35 : FFF1;
    36 : 0683;
    37 : 0390;
    38 : 035F;
    39 : 020C;
    40 : F568;
    41 : FE69;
    42 : 0354;
    43 : 02CB;
    44 : F8D9;
    45 : FEFB;
    46 : FE93;
    47 : FB7D;
    48 : F842;
    49 : 10FE;
    50 : 0140;
    51 : F770;
    52 : F6ED;
    53 : F714;
    54 : FF9E;
    55 : F6F7;
    56 : 01B3;
    57 : 07CE;
    58 : F660;
    59 : 022B;
    60 : 0D89;
    61 : F0E2;
    62 : FAEA;
    63 : 0BEB;
    64 : 0683;
    65 : FF80;
    66 : FE20;
    67 : 0347;
    68 : 0380;
    69 : 0250;
    70 : F417;
    71 : FCA2;
    72 : F6F4;
    73 : F6AD;
    74 : FC81;
    75 : FC92;
    76 : 0CD4;
    77 : FC24;
    78 : 0559;
    79 : FED3;
    80 : 066B;
    81 : FFB3;
    82 : ECB5;
    83 : 0809;
    84 : FE46;
    85 : F9A1;
    86 : 008C;
    87 : 051B;
    88 : FE08;
    89 : FB93;
    90 : F9A1;
    91 : 084D;
    92 : 05EB;
    93 : FCC2;
    94 : F6A7;
    95 : 013B;
    96 : 035A;
    97 : 013D;
    98 : FDE2;
    99 : FC64;
    100 : 043F;
    101 : 0069;
    102 : FA45;
    103 : FDD8;
    104 : 02C2;
    105 : FED3;
    106 : 049F;
    107 : FF1E;
    108 : F578;
    109 : FB44;
    110 : 0218;
    111 : FFBF;
    112 : 06B5;
    113 : F996;
    114 : FF50;
    115 : 087F;
    116 : 001B;
    117 : FC60;
    118 : 023D;
    119 : FFCF;
    120 : F69E;
    121 : 0A63;
    122 : FFF8;
    123 : FCE9;
    124 : FDD2;
    125 : F6B1;
    126 : F8DD;
    127 : FD59;
    128 : 0329;
    129 : FE0E;
    130 : 01C0;
    131 : FB5D;
    132 : FD13;
    133 : F2E0;
    134 : FA3F;
    135 : 01CC;
    136 : 068C;
    137 : FAAF;
    138 : F8EB;
    139 : F4EA;
    140 : 0429;
    141 : FCF6;
    142 : 08A1;
    143 : 032F;
    144 : 00D6;
    145 : FBDA;
    146 : FD8C;
    147 : 0312;
    148 : 0E82;
    149 : FBF9;
    150 : F9F7;
    151 : 1095;
    152 : FC94;
    153 : FB47;
    154 : 0193;
    155 : FAF6;
    156 : 0269;
    157 : 0B4C;
    158 : 06F9;
    159 : 001F;
    160 : F611;
    161 : FFB3;
    162 : 0296;
    163 : F2FF;
    164 : F928;
    165 : FF3D;
    166 : 08E2;
    167 : 01D6;
    168 : 0415;
    169 : 0648;
    170 : FBDF;
    171 : 0114;
    172 : EDB9;
    173 : 0279;
    174 : FDEF;
    175 : F259;
    176 : 0771;
    177 : 028E;
    178 : F8D1;
    179 : 0314;
    180 : FFAA;
    181 : 0C95;
    182 : 01E0;
    183 : FE0D;
    184 : F903;
    185 : 00C3;
    186 : 017C;
    187 : FA05;
    188 : FE04;
    189 : FE3F;
    190 : FA4C;
    191 : FC59;
    192 : 054E;
    193 : F2C5;
    194 : 095E;
    195 : FFA9;
    196 : EFC9;
    197 : 0EDC;
    198 : FAE3;
    199 : 0E4B;
    200 : 053F;
    201 : FFCA;
    202 : FD19;
    203 : FF5D;
    204 : 0501;
    205 : F918;
    206 : F2F7;
    207 : 05BC;
    208 : 09C6;
    209 : F8E8;
    210 : F9D8;
    211 : FCB7;
    212 : FD6E;
    213 : 0679;
    214 : 0D4E;
    215 : F2AB;
    216 : F7E5;
    217 : 03F6;
    218 : FF53;
    219 : FCFF;
    220 : 0323;
    221 : F3E2;
    222 : 0259;
    223 : F001;
    224 : F9D3;
    225 : 07B5;
    226 : 0D7D;
    227 : 0174;
    228 : 0381;
    229 : FBA8;
    230 : 03C4;
    231 : 053D;
    232 : FA82;
    233 : 07FF;
    234 : 05EC;
    235 : 0BA3;
    236 : 02BD;
    237 : FD67;
    238 : EFFB;
    239 : FECD;
    240 : 0204;
    241 : FB22;
    242 : F734;
    243 : 037A;
    244 : 0A6A;
    245 : F5AB;
    246 : 0584;
    247 : EE29;
    248 : FC45;
    249 : 07FA;
    250 : 033D;
    251 : 00DE;
    252 : FD18;
    253 : 0745;
    254 : 0822;
    255 : FF6D;
    256 : F323;
    257 : FE5D;
    258 : FE3E;
    259 : 06AB;
    260 : 053C;
    261 : FB98;
    262 : FA4A;
    263 : 0682;
    264 : 0239;
    265 : 053E;
    266 : 0481;
    267 : FD87;
    268 : EF08;
    269 : 02B9;
    270 : 005D;
    271 : 0051;
    272 : 0AB7;
    273 : FD1D;
    274 : F50E;
    275 : 0D32;
    276 : F334;
    277 : FDAB;
    278 : FA86;
    279 : 0085;
    280 : 0E1B;
    281 : F13B;
    282 : FD44;
    283 : 15B1;
    284 : FFB8;
    285 : FD07;
    286 : F9E6;
    287 : F55A;
    288 : 0176;
    289 : 008C;
    290 : 04ED;
    291 : FE3C;
    292 : EFD1;
    293 : 06A6;
    294 : 06C1;
    295 : EB8D;
    296 : 0039;
    297 : 0648;
    298 : 0209;
    299 : 0A71;
    300 : 0F29;
    301 : EF23;
    302 : FB6C;
    303 : 06C7;
    304 : 0825;
    305 : 0831;
    306 : FDC4;
    307 : 02A5;
    308 : 0ABD;
    309 : FD9E;
    310 : F2D7;
    311 : 071C;
    312 : F797;
    313 : 0E28;
    314 : 0897;
    315 : F81E;
    316 : F722;
    317 : FFD7;
    318 : FEFE;
    319 : F824;
    320 : FDC8;
    321 : 0194;
    322 : 0E39;
    323 : 043C;
    324 : 05D2;
    325 : 025E;
    326 : 06A9;
    327 : 02D9;
    328 : EA27;
    329 : 0266;
    330 : F5D1;
    331 : 0C3A;
    332 : 031F;
    333 : FB5C;
    334 : E57C;
    335 : F885;
    336 : 0A54;
    337 : 0505;
    338 : FA49;
    339 : 03DB;
    340 : F4BB;
    341 : FCF4;
    342 : 05AF;
    343 : 080B;
    344 : F9F1;
    345 : 026A;
    346 : 00AC;
    347 : FA72;
    348 : 04DC;
    349 : FDF9;
    350 : F8C7;
    351 : 040F;
    352 : 0D95;
    353 : FAB5;
    354 : F33C;
    355 : FD24;
    356 : FCD8;
    357 : 002D;
    358 : FE9D;
    359 : F46C;
    360 : 0349;
    361 : F1D0;
    362 : FBCC;
    363 : FDB5;
    364 : 06F8;
    365 : 0541;
    366 : 00E8;
    367 : F529;
    368 : FD16;
    369 : 0644;
    370 : 0EC9;
    371 : 0055;
    372 : FBAA;
    373 : F9D4;
    374 : 00A4;
    375 : 00A5;
    376 : 08E1;
    377 : FFFB;
    378 : F92A;
    379 : 09FF;
    380 : 0077;
    381 : 00C6;
    382 : F931;
    383 : F8CC;
    384 : 0080;
END;
