WIDTH=16;
DEPTH=385;

ADDRESS_RADIX=DEC;
DATA_RADIX=HEX;

CONTENT BEGIN
    0 : 00A0;
    1 : FB5F;
    2 : FEAD;
    3 : 0363;
    4 : 0EB9;
    5 : 0304;
    6 : F936;
    7 : 01B3;
    8 : 02F6;
    9 : 005A;
    10 : FC42;
    11 : F7E3;
    12 : 0341;
    13 : F440;
    14 : 00CC;
    15 : 054A;
    16 : FEC0;
    17 : 01BF;
    18 : 0555;
    19 : 03AC;
    20 : F981;
    21 : 030C;
    22 : F7B9;
    23 : F6E6;
    24 : 0473;
    25 : 09F3;
    26 : FF48;
    27 : 0176;
    28 : FE86;
    29 : FFA0;
    30 : 0157;
    31 : F4AF;
    32 : FF83;
    33 : 088B;
    34 : 027D;
    35 : 02B4;
    36 : F9F7;
    37 : 08C7;
    38 : 012F;
    39 : 0162;
    40 : FFFE;
    41 : FE80;
    42 : FF73;
    43 : FFC2;
    44 : 06E6;
    45 : FFDA;
    46 : 0592;
    47 : 06BB;
    48 : 0C9D;
    49 : FD43;
    50 : FD80;
    51 : 0554;
    52 : F4EB;
    53 : 034E;
    54 : 01EE;
    55 : FFC9;
    56 : 03A6;
    57 : FE3D;
    58 : 0A86;
    59 : 03C1;
    60 : 0B25;
    61 : F121;
    62 : 00ED;
    63 : 05D2;
    64 : F614;
    65 : 02DA;
    66 : 025E;
    67 : 07E6;
    68 : 03CB;
    69 : 0190;
    70 : FE69;
    71 : FBE1;
    72 : F9E6;
    73 : F424;
    74 : FABD;
    75 : FD7B;
    76 : 0772;
    77 : 00B3;
    78 : FD17;
    79 : 04BD;
    80 : 01BB;
    81 : FD48;
    82 : FBEC;
    83 : FC4D;
    84 : F6B4;
    85 : 05AA;
    86 : FF8D;
    87 : FF36;
    88 : 02F2;
    89 : F9F3;
    90 : 02A5;
    91 : 06EB;
    92 : F6C8;
    93 : 00A6;
    94 : FE62;
    95 : F67C;
    96 : 0288;
    97 : FEBA;
    98 : F5CE;
    99 : FF80;
    100 : DC1D;
    101 : F7D8;
    102 : 098A;
    103 : FF8E;
    104 : FE9A;
    105 : 020C;
    106 : EB76;
    107 : 02EB;
    108 : FBCC;
    109 : F933;
    110 : FFE9;
    111 : FF29;
    112 : 0D3D;
    113 : 0224;
    114 : FD5D;
    115 : F219;
    116 : 013F;
    117 : 056E;
    118 : 0142;
    119 : FBA3;
    120 : 0133;
    121 : 0656;
    122 : F77F;
    123 : FF9B;
    124 : 0F5E;
    125 : FAAE;
    126 : 0D98;
    127 : 0645;
    128 : 05C6;
    129 : 01F9;
    130 : F518;
    131 : 0D27;
    132 : 0ABC;
    133 : F2FC;
    134 : FCAA;
    135 : 065F;
    136 : FFDB;
    137 : 08AF;
    138 : 042E;
    139 : C969;
    140 : 02D6;
    141 : FB67;
    142 : FDAE;
    143 : 0579;
    144 : F8D9;
    145 : F4B6;
    146 : FB9D;
    147 : FAF2;
    148 : FF95;
    149 : FB82;
    150 : 0612;
    151 : 0318;
    152 : FFF3;
    153 : 0548;
    154 : FBBF;
    155 : FEF2;
    156 : 0C9C;
    157 : 00DF;
    158 : 002B;
    159 : 07DC;
    160 : FC4E;
    161 : 06C4;
    162 : 01B7;
    163 : F31E;
    164 : FE55;
    165 : 09FE;
    166 : FC17;
    167 : FAE6;
    168 : F684;
    169 : FA62;
    170 : FB0A;
    171 : 00A8;
    172 : A383;
    173 : F50B;
    174 : F7C6;
    175 : 110E;
    176 : 04F8;
    177 : 0110;
    178 : 0C5F;
    179 : FB05;
    180 : 0273;
    181 : 0448;
    182 : 03C0;
    183 : F7B2;
    184 : E4DE;
    185 : 02DC;
    186 : F8DF;
    187 : 0306;
    188 : FC14;
    189 : FAA5;
    190 : EF4F;
    191 : FC75;
    192 : F744;
    193 : 1068;
    194 : FDB1;
    195 : F996;
    196 : 0600;
    197 : F57E;
    198 : F856;
    199 : 0392;
    200 : 062D;
    201 : 012E;
    202 : FC86;
    203 : FD85;
    204 : FEA9;
    205 : 0A26;
    206 : FCBD;
    207 : F9C7;
    208 : 0940;
    209 : FB68;
    210 : FBBB;
    211 : FA11;
    212 : FF0D;
    213 : F992;
    214 : 0548;
    215 : 0600;
    216 : F8F7;
    217 : 0FFF;
    218 : FA77;
    219 : FC09;
    220 : 1355;
    221 : F660;
    222 : F492;
    223 : FC74;
    224 : 023E;
    225 : FEC0;
    226 : 0412;
    227 : FA62;
    228 : F905;
    229 : E656;
    230 : 030D;
    231 : 01B6;
    232 : FDCA;
    233 : F9D4;
    234 : ED22;
    235 : 0CBA;
    236 : FFE9;
    237 : F564;
    238 : 083A;
    239 : F858;
    240 : 00C2;
    241 : F584;
    242 : 01ED;
    243 : 0352;
    244 : FE44;
    245 : 0448;
    246 : FD61;
    247 : 0032;
    248 : FB10;
    249 : FE66;
    250 : 0B6E;
    251 : 0037;
    252 : FE71;
    253 : 0759;
    254 : FF9A;
    255 : FA9B;
    256 : 01CA;
    257 : FE92;
    258 : 0A01;
    259 : FF6C;
    260 : FB1B;
    261 : FA37;
    262 : 01F9;
    263 : 0994;
    264 : 01FC;
    265 : FFEC;
    266 : 02E7;
    267 : 00ED;
    268 : FBA4;
    269 : 0551;
    270 : 043A;
    271 : FE2F;
    272 : 01F0;
    273 : 0137;
    274 : F69B;
    275 : 04C0;
    276 : 05EA;
    277 : FC57;
    278 : F8F9;
    279 : 007B;
    280 : 0164;
    281 : 00C9;
    282 : 0444;
    283 : FD97;
    284 : 014C;
    285 : 0223;
    286 : F839;
    287 : 0107;
    288 : 07BD;
    289 : FF84;
    290 : 0531;
    291 : FE1C;
    292 : F609;
    293 : 08EB;
    294 : F7F3;
    295 : FFDA;
    296 : FAF5;
    297 : 01C1;
    298 : 08A2;
    299 : F3BE;
    300 : FD04;
    301 : E699;
    302 : FF6B;
    303 : 0727;
    304 : 0010;
    305 : FFA5;
    306 : 032E;
    307 : 06A3;
    308 : FA52;
    309 : 0094;
    310 : FC41;
    311 : FC83;
    312 : 032F;
    313 : FE14;
    314 : 0774;
    315 : FD9E;
    316 : F4C0;
    317 : 0788;
    318 : 0175;
    319 : DF8C;
    320 : 056E;
    321 : 01A9;
    322 : FEAD;
    323 : 0A25;
    324 : 0207;
    325 : FFD3;
    326 : FD83;
    327 : F96B;
    328 : F14E;
    329 : 0708;
    330 : FB75;
    331 : FC28;
    332 : 04AD;
    333 : 0059;
    334 : 85F4;
    335 : 02BF;
    336 : 007A;
    337 : FA71;
    338 : FFFD;
    339 : 02B9;
    340 : F0E7;
    341 : FE6A;
    342 : 0CB7;
    343 : 0398;
    344 : FE9E;
    345 : FF5E;
    346 : F1D1;
    347 : 08C9;
    348 : 0297;
    349 : F865;
    350 : FB1E;
    351 : 062E;
    352 : 0222;
    353 : F7E9;
    354 : 035B;
    355 : F55A;
    356 : FACE;
    357 : FFC8;
    358 : 0881;
    359 : 058B;
    360 : 013F;
    361 : E982;
    362 : 0321;
    363 : FFE9;
    364 : 045A;
    365 : 07D5;
    366 : F8FC;
    367 : 03FB;
    368 : FBC6;
    369 : 016F;
    370 : 0743;
    371 : F1B4;
    372 : F824;
    373 : 0173;
    374 : FDDF;
    375 : 0094;
    376 : 0E83;
    377 : FCBC;
    378 : 02A3;
    379 : 04D3;
    380 : FE61;
    381 : FEEB;
    382 : FA49;
    383 : 0280;
    384 : 0080;
END;
