WIDTH=16;
DEPTH=385;

ADDRESS_RADIX=DEC;
DATA_RADIX=HEX;

CONTENT BEGIN
    0 : 073E;
    1 : FC9C;
    2 : FFD6;
    3 : 06DB;
    4 : F192;
    5 : 05A4;
    6 : 03DD;
    7 : 0A58;
    8 : 02E3;
    9 : FB9F;
    10 : 02FF;
    11 : 0546;
    12 : 00EF;
    13 : 1281;
    14 : 01F2;
    15 : F777;
    16 : F67F;
    17 : FF1D;
    18 : FF8C;
    19 : FA5B;
    20 : 0110;
    21 : 0173;
    22 : 066C;
    23 : FC2A;
    24 : 015E;
    25 : 0154;
    26 : FCD5;
    27 : FDEB;
    28 : F6E7;
    29 : FB26;
    30 : 0978;
    31 : 035B;
    32 : 07C7;
    33 : 00D2;
    34 : EC7A;
    35 : 07DA;
    36 : 050D;
    37 : EB28;
    38 : FA0A;
    39 : 0797;
    40 : FFF0;
    41 : F9C0;
    42 : 008B;
    43 : F3CA;
    44 : 004C;
    45 : 05C0;
    46 : FEB8;
    47 : 012E;
    48 : 025C;
    49 : F221;
    50 : 0378;
    51 : 0322;
    52 : FF13;
    53 : 0337;
    54 : 0489;
    55 : F791;
    56 : 04DF;
    57 : 0431;
    58 : F243;
    59 : 0080;
    60 : F895;
    61 : 0A19;
    62 : 054D;
    63 : FA32;
    64 : F445;
    65 : FE37;
    66 : F4E5;
    67 : F8F5;
    68 : 03EF;
    69 : FABF;
    70 : 046D;
    71 : FD70;
    72 : FE21;
    73 : 11E0;
    74 : FBBB;
    75 : FD41;
    76 : 026B;
    77 : FBE2;
    78 : FF2C;
    79 : F826;
    80 : F8D0;
    81 : FECD;
    82 : 0EB6;
    83 : FF72;
    84 : 000D;
    85 : 023C;
    86 : FE79;
    87 : 0310;
    88 : FCAD;
    89 : FA3E;
    90 : 0730;
    91 : F8EA;
    92 : 01A7;
    93 : 03B1;
    94 : 0844;
    95 : 050C;
    96 : 0E22;
    97 : FF80;
    98 : 033C;
    99 : 0195;
    100 : F810;
    101 : 0FC0;
    102 : 009F;
    103 : 0B65;
    104 : 02FE;
    105 : FEA8;
    106 : 0217;
    107 : 01D3;
    108 : 0355;
    109 : 078F;
    110 : F8EE;
    111 : FD6D;
    112 : F7A9;
    113 : FAF1;
    114 : FF91;
    115 : F706;
    116 : 0508;
    117 : 01AE;
    118 : F541;
    119 : 0426;
    120 : 04FF;
    121 : F476;
    122 : 0457;
    123 : FF56;
    124 : FC3E;
    125 : 0961;
    126 : 06A3;
    127 : FD3B;
    128 : FCD4;
    129 : 051D;
    130 : F666;
    131 : FDCD;
    132 : 0609;
    133 : 074E;
    134 : FCBA;
    135 : FFA1;
    136 : F68E;
    137 : 0130;
    138 : 0173;
    139 : 121E;
    140 : F9C0;
    141 : 0354;
    142 : FC40;
    143 : F80D;
    144 : FDA8;
    145 : 12FD;
    146 : 027C;
    147 : FB90;
    148 : F7C9;
    149 : F9F4;
    150 : 002B;
    151 : F11B;
    152 : FF67;
    153 : FF39;
    154 : 0508;
    155 : 0624;
    156 : 02E8;
    157 : EDD7;
    158 : FDD9;
    159 : 063F;
    160 : 0568;
    161 : 04E2;
    162 : 0A63;
    163 : 07A4;
    164 : FE27;
    165 : 01F2;
    166 : F9DF;
    167 : 06B1;
    168 : FBE8;
    169 : FB5D;
    170 : FE64;
    171 : FD9F;
    172 : 1A09;
    173 : FEAA;
    174 : FFB8;
    175 : F881;
    176 : 00C3;
    177 : FF73;
    178 : F962;
    179 : 0455;
    180 : 09E1;
    181 : F4B5;
    182 : FE1A;
    183 : 019A;
    184 : 05D7;
    185 : 0A24;
    186 : FDC5;
    187 : FD15;
    188 : FB3B;
    189 : FFF3;
    190 : 0028;
    191 : FF7E;
    192 : FEFF;
    193 : F57E;
    194 : 0350;
    195 : 02A0;
    196 : 00F3;
    197 : 0325;
    198 : 0844;
    199 : F559;
    200 : 00A1;
    201 : FDE9;
    202 : 0558;
    203 : 0AF6;
    204 : 0922;
    205 : 00BF;
    206 : FE93;
    207 : 054F;
    208 : F208;
    209 : FE60;
    210 : FCA2;
    211 : 0F06;
    212 : FE75;
    213 : FCA5;
    214 : FE7D;
    215 : FC27;
    216 : 018F;
    217 : FF2E;
    218 : 0133;
    219 : 0375;
    220 : F8F8;
    221 : FD2B;
    222 : 0424;
    223 : 0959;
    224 : 0492;
    225 : FF5B;
    226 : F4E8;
    227 : 03A4;
    228 : FCE7;
    229 : 045D;
    230 : FE83;
    231 : F994;
    232 : 03B3;
    233 : FDB5;
    234 : 0AE6;
    235 : F40F;
    236 : FB18;
    237 : 0383;
    238 : 0283;
    239 : 00C1;
    240 : F90F;
    241 : 1291;
    242 : 007E;
    243 : F794;
    244 : F880;
    245 : F76A;
    246 : 04E4;
    247 : 027E;
    248 : 0178;
    249 : FC34;
    250 : F5B4;
    251 : 0AE4;
    252 : F532;
    253 : FACA;
    254 : FFEB;
    255 : FD9A;
    256 : 084A;
    257 : F89E;
    258 : F7E9;
    259 : F6AB;
    260 : FBE8;
    261 : FDB0;
    262 : 0464;
    263 : FEDE;
    264 : F881;
    265 : F6B1;
    266 : 00F7;
    267 : 006A;
    268 : 0B6D;
    269 : FE2D;
    270 : FD65;
    271 : F6AB;
    272 : FF8B;
    273 : FE91;
    274 : 08B3;
    275 : 000C;
    276 : FFBA;
    277 : FDB3;
    278 : 025F;
    279 : 00AB;
    280 : F90B;
    281 : 05DA;
    282 : 04A5;
    283 : FDD9;
    284 : FFE4;
    285 : 0606;
    286 : 0658;
    287 : FA33;
    288 : 0E90;
    289 : F15C;
    290 : FE21;
    291 : 0AF9;
    292 : 063E;
    293 : 0838;
    294 : FCA8;
    295 : 08B4;
    296 : FCF6;
    297 : 007D;
    298 : FBAE;
    299 : FD06;
    300 : 004A;
    301 : 0F8A;
    302 : FF99;
    303 : FC6E;
    304 : F8D4;
    305 : FCA2;
    306 : 003C;
    307 : F9AC;
    308 : FC45;
    309 : FBDA;
    310 : 062F;
    311 : 0046;
    312 : 0395;
    313 : F716;
    314 : FC71;
    315 : 074F;
    316 : 09BC;
    317 : FC8B;
    318 : 0467;
    319 : 03FE;
    320 : F772;
    321 : 01E2;
    322 : F806;
    323 : F85E;
    324 : 063C;
    325 : F638;
    326 : FAF6;
    327 : 0981;
    328 : 0A01;
    329 : FCDD;
    330 : 0C91;
    331 : FC98;
    332 : 06CF;
    333 : FF42;
    334 : 1C8D;
    335 : 10B0;
    336 : 01B6;
    337 : F42D;
    338 : FE66;
    339 : 0705;
    340 : 00D0;
    341 : FC2D;
    342 : 0B67;
    343 : F0A5;
    344 : 00CE;
    345 : 04A0;
    346 : F821;
    347 : 0ACF;
    348 : 05DD;
    349 : 042C;
    350 : FDC0;
    351 : 0871;
    352 : FA69;
    353 : FB57;
    354 : F59A;
    355 : 0A84;
    356 : 0259;
    357 : F640;
    358 : 029C;
    359 : FF10;
    360 : 057F;
    361 : 0961;
    362 : 02F6;
    363 : 02FE;
    364 : 0102;
    365 : 06AC;
    366 : FCC7;
    367 : 07E1;
    368 : 0076;
    369 : 044B;
    370 : F7D7;
    371 : F859;
    372 : F593;
    373 : 07B8;
    374 : 04B9;
    375 : 0162;
    376 : F617;
    377 : F7BF;
    378 : 050C;
    379 : F85B;
    380 : FB91;
    381 : 0733;
    382 : 0AFB;
    383 : FC3D;
    384 : 0080;
END;
