WIDTH=16;
DEPTH=385;

ADDRESS_RADIX=DEC;
DATA_RADIX=HEX;

CONTENT BEGIN
    0 : 087D;
    1 : F206;
    2 : 025E;
    3 : 0015;
    4 : E789;
    5 : 0DE2;
    6 : 0A5D;
    7 : 00ED;
    8 : 0089;
    9 : 0378;
    10 : FE0F;
    11 : 082B;
    12 : FEBD;
    13 : 0126;
    14 : 0533;
    15 : 014C;
    16 : FD31;
    17 : 00CD;
    18 : 0A53;
    19 : FE03;
    20 : 028A;
    21 : 02F7;
    22 : F937;
    23 : 0246;
    24 : FD44;
    25 : FB17;
    26 : 01B1;
    27 : FE12;
    28 : F1D1;
    29 : FEA3;
    30 : 06B7;
    31 : 01F8;
    32 : FAED;
    33 : 0157;
    34 : FAED;
    35 : 0009;
    36 : 0177;
    37 : EE1D;
    38 : 04A8;
    39 : FEA1;
    40 : F75B;
    41 : 0012;
    42 : FC73;
    43 : FE9B;
    44 : F81A;
    45 : FF04;
    46 : FD22;
    47 : F712;
    48 : FC4D;
    49 : 03ED;
    50 : 011A;
    51 : 0292;
    52 : 08EF;
    53 : FE52;
    54 : 01AA;
    55 : F615;
    56 : FFFB;
    57 : 00DC;
    58 : F849;
    59 : 074A;
    60 : 0469;
    61 : 00B4;
    62 : 051C;
    63 : 0047;
    64 : 01B3;
    65 : 0B12;
    66 : 0C2F;
    67 : F50F;
    68 : FBE6;
    69 : 089F;
    70 : FA28;
    71 : 0093;
    72 : FBD7;
    73 : 0937;
    74 : 041B;
    75 : 00F2;
    76 : 0223;
    77 : F97F;
    78 : 0648;
    79 : FA21;
    80 : FCD2;
    81 : FE19;
    82 : FF66;
    83 : 02E2;
    84 : 03EE;
    85 : FED6;
    86 : 0199;
    87 : 0416;
    88 : FAD0;
    89 : 0365;
    90 : 036B;
    91 : F69F;
    92 : 02E6;
    93 : 023C;
    94 : FEA8;
    95 : 0880;
    96 : FD74;
    97 : 0AB0;
    98 : FCEC;
    99 : FC18;
    100 : 0E9A;
    101 : FE8E;
    102 : 098A;
    103 : 00BE;
    104 : F894;
    105 : FE63;
    106 : FC82;
    107 : FF57;
    108 : FD4A;
    109 : 0C32;
    110 : FD46;
    111 : FBB0;
    112 : 057F;
    113 : FC35;
    114 : 1225;
    115 : F61C;
    116 : 02AB;
    117 : 021E;
    118 : E996;
    119 : 125E;
    120 : 063E;
    121 : FF24;
    122 : 03F7;
    123 : 02F1;
    124 : F618;
    125 : FF86;
    126 : 0974;
    127 : FD6E;
    128 : FFF3;
    129 : 01CE;
    130 : F850;
    131 : 038E;
    132 : F967;
    133 : 014F;
    134 : 084E;
    135 : FBAE;
    136 : FD24;
    137 : 07E3;
    138 : FA6D;
    139 : 0830;
    140 : 02D1;
    141 : 0071;
    142 : 012B;
    143 : 01A1;
    144 : F637;
    145 : 060D;
    146 : FE56;
    147 : FD39;
    148 : 05D8;
    149 : FB69;
    150 : F716;
    151 : FE16;
    152 : 0096;
    153 : FE32;
    154 : 0E02;
    155 : FFB3;
    156 : F60C;
    157 : FE1B;
    158 : FF7D;
    159 : 002F;
    160 : 0668;
    161 : F863;
    162 : 04CF;
    163 : 0870;
    164 : 0083;
    165 : 01A4;
    166 : 005B;
    167 : FFAE;
    168 : FC62;
    169 : FAAE;
    170 : 07EE;
    171 : 002D;
    172 : 3090;
    173 : 0845;
    174 : FCAC;
    175 : EC1E;
    176 : 0406;
    177 : 004E;
    178 : FCEE;
    179 : 0287;
    180 : FE9B;
    181 : 06FD;
    182 : FB92;
    183 : 04C9;
    184 : 07EA;
    185 : F5C6;
    186 : 0A54;
    187 : F2CE;
    188 : FF23;
    189 : 0773;
    190 : EDC2;
    191 : 00B1;
    192 : F772;
    193 : FDC5;
    194 : FE65;
    195 : FC59;
    196 : 08E1;
    197 : FE53;
    198 : FDB0;
    199 : 004D;
    200 : FB71;
    201 : 02C2;
    202 : 0658;
    203 : F832;
    204 : 09B8;
    205 : FACB;
    206 : 03B5;
    207 : 0440;
    208 : F5DC;
    209 : 0721;
    210 : 0EF1;
    211 : F506;
    212 : 04E8;
    213 : 0367;
    214 : EF21;
    215 : 11EC;
    216 : 0FE7;
    217 : F083;
    218 : 0015;
    219 : 0816;
    220 : F46F;
    221 : 090B;
    222 : FA98;
    223 : FF6E;
    224 : 08FC;
    225 : FA74;
    226 : FB35;
    227 : 08E2;
    228 : FEA8;
    229 : 0C00;
    230 : 039B;
    231 : 03EC;
    232 : 0D75;
    233 : FEC9;
    234 : 0316;
    235 : 021A;
    236 : F93F;
    237 : 00E1;
    238 : 04B8;
    239 : F830;
    240 : 0236;
    241 : 0134;
    242 : FB7F;
    243 : FFEF;
    244 : 0190;
    245 : 02A3;
    246 : F98E;
    247 : 039E;
    248 : 057F;
    249 : FAA8;
    250 : FD5A;
    251 : 0148;
    252 : 02A5;
    253 : F8C4;
    254 : 0886;
    255 : FE8F;
    256 : FBBA;
    257 : 09D8;
    258 : 0463;
    259 : 01EB;
    260 : F816;
    261 : FFD3;
    262 : F5CC;
    263 : F8FC;
    264 : 091C;
    265 : F23B;
    266 : FFCC;
    267 : 05B2;
    268 : FAE8;
    269 : 0599;
    270 : 080D;
    271 : EE8D;
    272 : 0103;
    273 : 0503;
    274 : F70C;
    275 : 0414;
    276 : F3E8;
    277 : 0728;
    278 : F9A9;
    279 : FD73;
    280 : 06FC;
    281 : F12F;
    282 : FB38;
    283 : 0333;
    284 : F9D5;
    285 : 02BC;
    286 : 0A0B;
    287 : F8B9;
    288 : 005A;
    289 : 0316;
    290 : FA13;
    291 : FF5C;
    292 : 0BCF;
    293 : FFC5;
    294 : F845;
    295 : 01D0;
    296 : FFA9;
    297 : FB4E;
    298 : FD49;
    299 : FFF9;
    300 : 0586;
    301 : FFBB;
    302 : FFA4;
    303 : 0579;
    304 : FD50;
    305 : FE3F;
    306 : FDE5;
    307 : 013F;
    308 : 0272;
    309 : 0131;
    310 : 0653;
    311 : 00E4;
    312 : FE89;
    313 : FA6F;
    314 : FCE5;
    315 : FE27;
    316 : 060E;
    317 : 0324;
    318 : FB66;
    319 : 0569;
    320 : FFA2;
    321 : 0150;
    322 : 0775;
    323 : FF82;
    324 : 0229;
    325 : 00CE;
    326 : 02C9;
    327 : FDF8;
    328 : FE7E;
    329 : 0216;
    330 : FEF8;
    331 : 0CBF;
    332 : 0376;
    333 : FCF1;
    334 : 2F37;
    335 : FFF4;
    336 : 000D;
    337 : FCE2;
    338 : FC9D;
    339 : FFD9;
    340 : FE35;
    341 : FC78;
    342 : 083E;
    343 : FB37;
    344 : F959;
    345 : FE22;
    346 : FBAC;
    347 : 0058;
    348 : 01CF;
    349 : 0672;
    350 : 0415;
    351 : F9C4;
    352 : 03A4;
    353 : 06DB;
    354 : FF5F;
    355 : FF91;
    356 : FDCA;
    357 : 03DB;
    358 : 0352;
    359 : 0010;
    360 : 0694;
    361 : 01D0;
    362 : 086C;
    363 : 0021;
    364 : FCD0;
    365 : 090C;
    366 : F35B;
    367 : 0953;
    368 : 03B6;
    369 : FD91;
    370 : 03E7;
    371 : F825;
    372 : F5D9;
    373 : 0413;
    374 : 0545;
    375 : F83F;
    376 : F413;
    377 : FDAF;
    378 : 093E;
    379 : F16C;
    380 : 0355;
    381 : 038C;
    382 : F831;
    383 : 0AF9;
    384 : 0080;
END;
