WIDTH=16;
DEPTH=385;

ADDRESS_RADIX=DEC;
DATA_RADIX=HEX;

CONTENT BEGIN
    0 : F94E;
    1 : 05ED;
    2 : FA34;
    3 : FF4C;
    4 : 032C;
    5 : F111;
    6 : FB3F;
    7 : FA7E;
    8 : FF17;
    9 : 021A;
    10 : 0443;
    11 : 0050;
    12 : FB8B;
    13 : FE71;
    14 : 052C;
    15 : 01AA;
    16 : 0C92;
    17 : 0319;
    18 : F965;
    19 : 0BBF;
    20 : 0467;
    21 : F3D1;
    22 : FD9F;
    23 : 060F;
    24 : 0C9C;
    25 : F320;
    26 : 041F;
    27 : 0191;
    28 : F85B;
    29 : 0F8F;
    30 : FBA7;
    31 : FBD1;
    32 : 0032;
    33 : FF3D;
    34 : 04EB;
    35 : FD91;
    36 : 09E2;
    37 : F9E0;
    38 : FDAC;
    39 : 0622;
    40 : 00C1;
    41 : 0638;
    42 : 0F86;
    43 : F685;
    44 : 0514;
    45 : 02E5;
    46 : EF92;
    47 : 10E9;
    48 : FADC;
    49 : 00CF;
    50 : FAA6;
    51 : 0104;
    52 : FF4B;
    53 : F91F;
    54 : 022B;
    55 : 092C;
    56 : 027F;
    57 : FC7A;
    58 : F953;
    59 : 0462;
    60 : FF76;
    61 : F558;
    62 : 0484;
    63 : 0285;
    64 : 046A;
    65 : 073E;
    66 : 078E;
    67 : F90F;
    68 : 0289;
    69 : FFD7;
    70 : F24D;
    71 : 0B99;
    72 : 0A84;
    73 : F997;
    74 : 00D1;
    75 : 062B;
    76 : 0384;
    77 : 0859;
    78 : FE01;
    79 : 0D62;
    80 : FB1E;
    81 : FC5D;
    82 : 00D0;
    83 : F6E9;
    84 : 007B;
    85 : F931;
    86 : 0444;
    87 : 02B8;
    88 : FF32;
    89 : 048F;
    90 : F851;
    91 : 0326;
    92 : 063B;
    93 : F654;
    94 : FAF7;
    95 : 0860;
    96 : 0706;
    97 : F14F;
    98 : 00BA;
    99 : 03B1;
    100 : FC16;
    101 : 057E;
    102 : FE57;
    103 : F41D;
    104 : FCFA;
    105 : 06F9;
    106 : 042C;
    107 : FC03;
    108 : 087B;
    109 : FBD8;
    110 : 01BA;
    111 : 0040;
    112 : F85B;
    113 : 0A8C;
    114 : 012E;
    115 : FF53;
    116 : 054C;
    117 : 0333;
    118 : F7E4;
    119 : 0163;
    120 : F274;
    121 : 0B6F;
    122 : 02EB;
    123 : FFE2;
    124 : 010D;
    125 : F353;
    126 : FFDF;
    127 : 013F;
    128 : FAC2;
    129 : FEDA;
    130 : 074B;
    131 : FA32;
    132 : FBA8;
    133 : 00AD;
    134 : FEB5;
    135 : FBE7;
    136 : 085A;
    137 : FD68;
    138 : FF94;
    139 : F2AC;
    140 : 0103;
    141 : 02E5;
    142 : 0140;
    143 : 0494;
    144 : FA2B;
    145 : FDEF;
    146 : 005B;
    147 : 011B;
    148 : 0D04;
    149 : FECB;
    150 : 06FB;
    151 : 0602;
    152 : FDF7;
    153 : 0506;
    154 : FBC4;
    155 : FD03;
    156 : F80E;
    157 : 0694;
    158 : F70B;
    159 : FFCD;
    160 : 0206;
    161 : F152;
    162 : FA61;
    163 : FC2D;
    164 : 0774;
    165 : FF5B;
    166 : 0229;
    167 : FF41;
    168 : 05FD;
    169 : 00E5;
    170 : FDB8;
    171 : 00EB;
    172 : F80B;
    173 : FEB2;
    174 : 01D0;
    175 : F597;
    176 : FE47;
    177 : FE94;
    178 : FCD2;
    179 : 0594;
    180 : 059A;
    181 : 0A1F;
    182 : 05C2;
    183 : FF63;
    184 : FD09;
    185 : 040D;
    186 : F46B;
    187 : 011A;
    188 : FFC0;
    189 : F5D0;
    190 : 0739;
    191 : 0137;
    192 : F86D;
    193 : FC45;
    194 : FFC0;
    195 : FB74;
    196 : FD1C;
    197 : FC9A;
    198 : 05C0;
    199 : FC95;
    200 : 01E5;
    201 : 044A;
    202 : F6E1;
    203 : 0544;
    204 : 02EA;
    205 : F972;
    206 : FAF8;
    207 : 02B5;
    208 : F9EC;
    209 : F9CD;
    210 : FF9C;
    211 : FABB;
    212 : FC46;
    213 : FD9E;
    214 : 03D9;
    215 : FFDA;
    216 : F5F5;
    217 : FC1B;
    218 : FE36;
    219 : F8A8;
    220 : 042A;
    221 : FF54;
    222 : FF72;
    223 : FAD2;
    224 : FE09;
    225 : F962;
    226 : 05D5;
    227 : 0628;
    228 : FE0C;
    229 : FEF1;
    230 : 00B0;
    231 : FF44;
    232 : F9CE;
    233 : 01A3;
    234 : FCB2;
    235 : 0564;
    236 : 01AF;
    237 : FAEC;
    238 : FDA6;
    239 : 04B0;
    240 : 0008;
    241 : F42F;
    242 : FEF9;
    243 : FF8F;
    244 : 053A;
    245 : 0831;
    246 : 0310;
    247 : 0061;
    248 : F88C;
    249 : FD04;
    250 : 017A;
    251 : F8FB;
    252 : FB83;
    253 : FFBC;
    254 : FB97;
    255 : FF4C;
    256 : FE26;
    257 : FD15;
    258 : FADA;
    259 : 0B7B;
    260 : 02E2;
    261 : FA80;
    262 : 02D2;
    263 : 03AA;
    264 : FDB2;
    265 : 0741;
    266 : 066D;
    267 : FC40;
    268 : FA65;
    269 : 041D;
    270 : F98B;
    271 : 082B;
    272 : FD1F;
    273 : F91A;
    274 : FF2F;
    275 : F845;
    276 : FA65;
    277 : FA4E;
    278 : 03AD;
    279 : FEE3;
    280 : FCE2;
    281 : FBAF;
    282 : F4CE;
    283 : 0D91;
    284 : FD76;
    285 : FD91;
    286 : 01F7;
    287 : F36C;
    288 : 0997;
    289 : 01D7;
    290 : FBFB;
    291 : 016A;
    292 : F4AB;
    293 : 0007;
    294 : FF29;
    295 : F2DB;
    296 : 0282;
    297 : FC25;
    298 : FCD1;
    299 : 0A8B;
    300 : FEF1;
    301 : FEC4;
    302 : 004F;
    303 : 04DA;
    304 : 0765;
    305 : F7CA;
    306 : 066F;
    307 : F52F;
    308 : 065B;
    309 : 007A;
    310 : F1A1;
    311 : 0B28;
    312 : 0D0C;
    313 : 000A;
    314 : 03CF;
    315 : 0440;
    316 : F770;
    317 : 0C7E;
    318 : F3B9;
    319 : 0535;
    320 : FC9E;
    321 : F900;
    322 : 0A14;
    323 : F906;
    324 : 0675;
    325 : 05DF;
    326 : FA4A;
    327 : FFE5;
    328 : F932;
    329 : FCD1;
    330 : 01F2;
    331 : 05B8;
    332 : FF15;
    333 : FA05;
    334 : FAE5;
    335 : 00E5;
    336 : F3B5;
    337 : 075F;
    338 : 04BB;
    339 : FA2F;
    340 : 0531;
    341 : 0151;
    342 : F0C2;
    343 : 058F;
    344 : 00C0;
    345 : F873;
    346 : 0899;
    347 : F7E9;
    348 : FF17;
    349 : FB4C;
    350 : 0192;
    351 : 013F;
    352 : FD31;
    353 : FD40;
    354 : 0555;
    355 : FC92;
    356 : FE70;
    357 : 0674;
    358 : F645;
    359 : FBF0;
    360 : FC44;
    361 : FE4D;
    362 : 064D;
    363 : 001D;
    364 : 02B6;
    365 : 0483;
    366 : 014F;
    367 : F250;
    368 : 0072;
    369 : 00EA;
    370 : 017A;
    371 : 0634;
    372 : 0655;
    373 : F8DB;
    374 : FEDB;
    375 : 0040;
    376 : F906;
    377 : FF67;
    378 : 009A;
    379 : 0786;
    380 : FEFD;
    381 : 0175;
    382 : 0079;
    383 : 002E;
    384 : 0080;
END;
