WIDTH=16;
DEPTH=385;

ADDRESS_RADIX=DEC;
DATA_RADIX=HEX;

CONTENT BEGIN
    0 : 03B8;
    1 : F6C2;
    2 : F744;
    3 : 093D;
    4 : 12C7;
    5 : F66B;
    6 : FEE4;
    7 : EEFC;
    8 : 00E2;
    9 : 0247;
    10 : F47C;
    11 : FE31;
    12 : FA48;
    13 : F367;
    14 : F7C5;
    15 : 025D;
    16 : 106D;
    17 : FF4F;
    18 : 095F;
    19 : 0675;
    20 : FC2A;
    21 : FEAA;
    22 : F7C6;
    23 : 0587;
    24 : F6C4;
    25 : FC9D;
    26 : 0070;
    27 : 0085;
    28 : 10C4;
    29 : FEE4;
    30 : FB95;
    31 : FE17;
    32 : F588;
    33 : 02C2;
    34 : 15D6;
    35 : F6B6;
    36 : FD7D;
    37 : 1873;
    38 : FB7F;
    39 : FCB5;
    40 : 0490;
    41 : FE05;
    42 : F898;
    43 : FECD;
    44 : 05CA;
    45 : F992;
    46 : 0173;
    47 : 05C7;
    48 : 08AF;
    49 : 04BF;
    50 : 05C8;
    51 : FA66;
    52 : F131;
    53 : 0EB9;
    54 : FBFE;
    55 : FFC1;
    56 : F9EF;
    57 : 0247;
    58 : 07E8;
    59 : F4E9;
    60 : FF81;
    61 : F921;
    62 : 00E0;
    63 : 073D;
    64 : 0592;
    65 : F91E;
    66 : 0647;
    67 : 0881;
    68 : FFB0;
    69 : F82A;
    70 : F1D6;
    71 : 06B0;
    72 : 073A;
    73 : F9FC;
    74 : FACE;
    75 : 0265;
    76 : 03C1;
    77 : FD09;
    78 : FC81;
    79 : 0AA9;
    80 : 00EE;
    81 : F9D4;
    82 : F400;
    83 : FF0F;
    84 : 02D1;
    85 : F7C9;
    86 : FEE6;
    87 : 00A3;
    88 : FA51;
    89 : FF89;
    90 : 0657;
    91 : 0A0E;
    92 : FD94;
    93 : 035F;
    94 : FA9C;
    95 : 0058;
    96 : FF21;
    97 : F131;
    98 : 02ED;
    99 : 052D;
    100 : 000F;
    101 : FEB9;
    102 : FBAF;
    103 : FEBE;
    104 : 0509;
    105 : FCB9;
    106 : FFD5;
    107 : 0037;
    108 : 0B7E;
    109 : F56C;
    110 : FB13;
    111 : 0058;
    112 : 01E3;
    113 : 062A;
    114 : FE90;
    115 : 0274;
    116 : 0538;
    117 : 01F5;
    118 : 040E;
    119 : 01C9;
    120 : 07B3;
    121 : 0087;
    122 : 0690;
    123 : 01CB;
    124 : FADA;
    125 : 0B16;
    126 : FB16;
    127 : F8AE;
    128 : 0459;
    129 : FFB1;
    130 : 0190;
    131 : 01E4;
    132 : 053C;
    133 : F52F;
    134 : F37D;
    135 : 0AB2;
    136 : 0B86;
    137 : F5AF;
    138 : 0364;
    139 : EA7B;
    140 : 0193;
    141 : FD47;
    142 : 0087;
    143 : 0D4B;
    144 : 03F0;
    145 : F6D8;
    146 : FE0A;
    147 : 0960;
    148 : 066D;
    149 : F94E;
    150 : 0607;
    151 : 0822;
    152 : 029B;
    153 : FFEF;
    154 : F032;
    155 : 0015;
    156 : 05BA;
    157 : 01DC;
    158 : 02A1;
    159 : 0075;
    160 : F0AA;
    161 : 0601;
    162 : 09BC;
    163 : EBA7;
    164 : 0118;
    165 : 0810;
    166 : FBA3;
    167 : 052D;
    168 : FF65;
    169 : 029C;
    170 : 0198;
    171 : FDCC;
    172 : F189;
    173 : FD43;
    174 : FD18;
    175 : 05B3;
    176 : 0634;
    177 : FF29;
    178 : F905;
    179 : FFBE;
    180 : F8BA;
    181 : 104F;
    182 : 0028;
    183 : F5B3;
    184 : FC3D;
    185 : F913;
    186 : F50A;
    187 : 01B4;
    188 : FE5D;
    189 : FB11;
    190 : 0E13;
    191 : F7C5;
    192 : 0D81;
    193 : 00AF;
    194 : 0009;
    195 : FE2C;
    196 : EF6A;
    197 : 0BF1;
    198 : F95D;
    199 : 0D5F;
    200 : 07CC;
    201 : F5EF;
    202 : F380;
    203 : 005C;
    204 : FD42;
    205 : FA57;
    206 : F986;
    207 : FD48;
    208 : 09BB;
    209 : FA85;
    210 : 0144;
    211 : F782;
    212 : FACC;
    213 : 05FD;
    214 : 0AB6;
    215 : F887;
    216 : F771;
    217 : FF6C;
    218 : 06AB;
    219 : 0257;
    220 : 02BF;
    221 : 0020;
    222 : FD71;
    223 : EFBD;
    224 : F947;
    225 : 0C44;
    226 : 0A17;
    227 : F6C9;
    228 : F8CA;
    229 : 0C0B;
    230 : FF29;
    231 : F869;
    232 : FD42;
    233 : FCA1;
    234 : 03B6;
    235 : 0C5D;
    236 : F9AD;
    237 : FE08;
    238 : FE75;
    239 : FF89;
    240 : F339;
    241 : FF75;
    242 : FADF;
    243 : FD5A;
    244 : 0DF1;
    245 : F1DE;
    246 : F995;
    247 : FA67;
    248 : FBE1;
    249 : FB30;
    250 : 0B15;
    251 : FC54;
    252 : FCBF;
    253 : 071B;
    254 : 0350;
    255 : 0289;
    256 : F5E5;
    257 : FC2A;
    258 : FDDF;
    259 : 0318;
    260 : 016C;
    261 : FBA3;
    262 : 030E;
    263 : 0825;
    264 : F322;
    265 : 1202;
    266 : 0188;
    267 : FA23;
    268 : FECF;
    269 : F622;
    270 : F43D;
    271 : 13D8;
    272 : 045E;
    273 : 00F8;
    274 : FCCF;
    275 : F5BA;
    276 : 0206;
    277 : F021;
    278 : FA88;
    279 : 01D6;
    280 : 017C;
    281 : FD4D;
    282 : EF9E;
    283 : 0EA5;
    284 : FF6F;
    285 : F840;
    286 : FD02;
    287 : F0FD;
    288 : 019E;
    289 : 057C;
    290 : FFE7;
    291 : 0388;
    292 : F46B;
    293 : F911;
    294 : FD0C;
    295 : F2C2;
    296 : FE07;
    297 : 028D;
    298 : 0DC5;
    299 : 01B0;
    300 : FB77;
    301 : FB29;
    302 : FB2A;
    303 : FC10;
    304 : 06FF;
    305 : F8D9;
    306 : FEFD;
    307 : 111B;
    308 : FFBB;
    309 : F8AE;
    310 : F6B8;
    311 : F873;
    312 : F900;
    313 : 0BA5;
    314 : FFA4;
    315 : F9F8;
    316 : F604;
    317 : F810;
    318 : FC27;
    319 : FCB4;
    320 : 0318;
    321 : 0276;
    322 : 0D95;
    323 : 01CB;
    324 : F688;
    325 : 0856;
    326 : 06EE;
    327 : FE03;
    328 : F783;
    329 : FE3E;
    330 : F7C7;
    331 : FFDE;
    332 : F6A7;
    333 : FFEF;
    334 : F4F8;
    335 : F5A8;
    336 : 0146;
    337 : 037F;
    338 : FEB8;
    339 : FDD6;
    340 : F312;
    341 : FF9F;
    342 : FE20;
    343 : 065D;
    344 : 07DC;
    345 : FC61;
    346 : FDAC;
    347 : 0851;
    348 : FE2D;
    349 : FA43;
    350 : FDE7;
    351 : 009D;
    352 : 09B5;
    353 : 0349;
    354 : 05CC;
    355 : FA6A;
    356 : FC10;
    357 : 0115;
    358 : 034D;
    359 : 0323;
    360 : FBE3;
    361 : 0057;
    362 : FD19;
    363 : FCCF;
    364 : 075A;
    365 : F7BF;
    366 : 05E3;
    367 : EDFE;
    368 : 042C;
    369 : 04EF;
    370 : 02DB;
    371 : 0C00;
    372 : 0934;
    373 : EF89;
    374 : FEDB;
    375 : 08EC;
    376 : 0AC5;
    377 : 0766;
    378 : 0293;
    379 : 0F13;
    380 : FE5E;
    381 : F8FF;
    382 : F7A6;
    383 : 0143;
    384 : 0080;
END;
