WIDTH=16;
DEPTH=385;

ADDRESS_RADIX=DEC;
DATA_RADIX=HEX;

CONTENT BEGIN
    0 : 004C;
    1 : F852;
    2 : FFD6;
    3 : 01B2;
    4 : 132C;
    5 : 02B2;
    6 : FF85;
    7 : FDB5;
    8 : FDAC;
    9 : 019C;
    10 : FE0D;
    11 : F937;
    12 : FC63;
    13 : F6BB;
    14 : FFD8;
    15 : 0246;
    16 : FEED;
    17 : FCF9;
    18 : 00A4;
    19 : 0397;
    20 : 0002;
    21 : 0461;
    22 : FC80;
    23 : FB53;
    24 : F932;
    25 : 036D;
    26 : 038A;
    27 : FF5B;
    28 : 0D81;
    29 : 013B;
    30 : 103D;
    31 : F2A5;
    32 : FD04;
    33 : 0A65;
    34 : 04FC;
    35 : 0BA7;
    36 : 00B3;
    37 : 15F0;
    38 : 0586;
    39 : FD9A;
    40 : FA30;
    41 : 00A2;
    42 : F37C;
    43 : 033B;
    44 : 02E8;
    45 : F885;
    46 : 0CAD;
    47 : FD86;
    48 : 0199;
    49 : 07F0;
    50 : FE27;
    51 : 00D0;
    52 : FA18;
    53 : F8C7;
    54 : FF75;
    55 : F7AB;
    56 : 001F;
    57 : FDC9;
    58 : 097E;
    59 : 02CE;
    60 : 0396;
    61 : FDEF;
    62 : F734;
    63 : 06F0;
    64 : 05DD;
    65 : F606;
    66 : 0207;
    67 : 0755;
    68 : 04A1;
    69 : F9E0;
    70 : F9C1;
    71 : 093E;
    72 : FEF4;
    73 : FD62;
    74 : F9EC;
    75 : 003E;
    76 : 02F8;
    77 : F6EF;
    78 : 03A4;
    79 : FFC0;
    80 : 04DF;
    81 : 0238;
    82 : F2B2;
    83 : 03DF;
    84 : F855;
    85 : FF16;
    86 : 0173;
    87 : 0218;
    88 : 0103;
    89 : FE4C;
    90 : FA54;
    91 : 0712;
    92 : FBFA;
    93 : 003B;
    94 : FF7D;
    95 : F79E;
    96 : FE09;
    97 : F8F9;
    98 : F836;
    99 : 0048;
    100 : FF34;
    101 : F6F3;
    102 : FC10;
    103 : 02E2;
    104 : FEE5;
    105 : 026F;
    106 : FE58;
    107 : F902;
    108 : F251;
    109 : FDD3;
    110 : 01CE;
    111 : FC5B;
    112 : 14C7;
    113 : FD63;
    114 : 0526;
    115 : FE68;
    116 : 0280;
    117 : 0063;
    118 : 027E;
    119 : 038A;
    120 : 031B;
    121 : FE44;
    122 : FD7A;
    123 : FA1C;
    124 : 06ED;
    125 : 08A5;
    126 : FE88;
    127 : 0424;
    128 : 00EA;
    129 : FB78;
    130 : 0435;
    131 : 05FB;
    132 : FF9C;
    133 : F527;
    134 : 0291;
    135 : 00FC;
    136 : FF2C;
    137 : 03A7;
    138 : 0986;
    139 : F28D;
    140 : F959;
    141 : FE6F;
    142 : 0040;
    143 : 010B;
    144 : FDCA;
    145 : 0094;
    146 : FCF4;
    147 : FF54;
    148 : 047B;
    149 : F79E;
    150 : 0EDF;
    151 : 0141;
    152 : 04A7;
    153 : 0541;
    154 : EEA1;
    155 : 04B5;
    156 : 0357;
    157 : 0503;
    158 : 03C9;
    159 : FE15;
    160 : F4A2;
    161 : 051C;
    162 : FBE1;
    163 : F89D;
    164 : FAFB;
    165 : 0033;
    166 : 03C0;
    167 : FB3E;
    168 : 0BB5;
    169 : FA38;
    170 : 0416;
    171 : 01F8;
    172 : DB66;
    173 : 0FE8;
    174 : F867;
    175 : 1CFE;
    176 : FEB9;
    177 : FDE8;
    178 : 0A72;
    179 : F8D5;
    180 : F348;
    181 : 0384;
    182 : 04DE;
    183 : F86F;
    184 : F94B;
    185 : FB6C;
    186 : 0531;
    187 : FF86;
    188 : FB43;
    189 : 02EA;
    190 : 1405;
    191 : FF49;
    192 : F9FE;
    193 : 0B11;
    194 : 036F;
    195 : F975;
    196 : FAF7;
    197 : 01C5;
    198 : FBFE;
    199 : 051E;
    200 : 0872;
    201 : FAB9;
    202 : F6B1;
    203 : 05F5;
    204 : 0200;
    205 : 00E6;
    206 : F8DB;
    207 : 001B;
    208 : 0BE9;
    209 : FA37;
    210 : FFAA;
    211 : 04D6;
    212 : FA3A;
    213 : FEE5;
    214 : 0E2E;
    215 : FA55;
    216 : F954;
    217 : 0574;
    218 : 0910;
    219 : FFB4;
    220 : 0541;
    221 : 048E;
    222 : F9A5;
    223 : F6BC;
    224 : 07E0;
    225 : 028F;
    226 : FEA2;
    227 : FFD6;
    228 : F8DD;
    229 : FF93;
    230 : 02D4;
    231 : FD6D;
    232 : F991;
    233 : F970;
    234 : F868;
    235 : 093E;
    236 : FF94;
    237 : FC60;
    238 : 015E;
    239 : FC37;
    240 : FA10;
    241 : F73C;
    242 : F9BD;
    243 : FF91;
    244 : 0B04;
    245 : FF78;
    246 : 02C8;
    247 : 0156;
    248 : FFD0;
    249 : FE5D;
    250 : 09DD;
    251 : 0467;
    252 : 093E;
    253 : FE5B;
    254 : 047C;
    255 : 0603;
    256 : F0B0;
    257 : 026D;
    258 : FF23;
    259 : FC79;
    260 : 010D;
    261 : 08AE;
    262 : 0423;
    263 : FE3F;
    264 : 0C1E;
    265 : FE5F;
    266 : 03E1;
    267 : 0692;
    268 : F7B7;
    269 : 0B4B;
    270 : FEA2;
    271 : 0D38;
    272 : 070E;
    273 : FD34;
    274 : FC75;
    275 : 05AF;
    276 : 00F0;
    277 : F9FE;
    278 : 060F;
    279 : 0081;
    280 : 0211;
    281 : 058C;
    282 : 060B;
    283 : F9E6;
    284 : FF79;
    285 : FE3A;
    286 : F4EE;
    287 : 0532;
    288 : FE41;
    289 : 0796;
    290 : 0364;
    291 : F706;
    292 : FA43;
    293 : 0312;
    294 : F3EC;
    295 : FE62;
    296 : FE3D;
    297 : FC68;
    298 : 0F41;
    299 : FACD;
    300 : 00F9;
    301 : F19D;
    302 : 038D;
    303 : 0217;
    304 : FCC7;
    305 : 07B5;
    306 : 0D2F;
    307 : 041D;
    308 : 025B;
    309 : 0476;
    310 : F305;
    311 : 05D6;
    312 : 0A3C;
    313 : 0627;
    314 : 04E6;
    315 : FF9A;
    316 : F1E6;
    317 : 03D8;
    318 : 06F6;
    319 : F038;
    320 : 0173;
    321 : 026B;
    322 : FE9F;
    323 : 057C;
    324 : 08A2;
    325 : F9E1;
    326 : 0563;
    327 : 0113;
    328 : EEA8;
    329 : 0B1A;
    330 : 0776;
    331 : F94D;
    332 : FE2B;
    333 : 042A;
    334 : DF73;
    335 : 037F;
    336 : FCFB;
    337 : 0517;
    338 : 028F;
    339 : FF70;
    340 : F8BF;
    341 : FCB5;
    342 : FFF7;
    343 : 0215;
    344 : 0121;
    345 : FF33;
    346 : F4D5;
    347 : 0119;
    348 : 04F3;
    349 : F5FA;
    350 : FC4C;
    351 : FCDE;
    352 : FC66;
    353 : 05DE;
    354 : FB74;
    355 : F9C1;
    356 : 0213;
    357 : 03CE;
    358 : 0A54;
    359 : FF73;
    360 : 0632;
    361 : FA3E;
    362 : 0076;
    363 : FB01;
    364 : 0323;
    365 : 098D;
    366 : FFD5;
    367 : F7A5;
    368 : FD86;
    369 : 004B;
    370 : 052A;
    371 : 03CB;
    372 : 073C;
    373 : F625;
    374 : FE13;
    375 : 07B1;
    376 : 0D80;
    377 : 0746;
    378 : FDAB;
    379 : 011F;
    380 : FD19;
    381 : FCD7;
    382 : F5CA;
    383 : FBC6;
    384 : 0080;
END;
