WIDTH=16;
DEPTH=385;

ADDRESS_RADIX=DEC;
DATA_RADIX=HEX;

CONTENT BEGIN
    0 : 05C7;
    1 : F0B8;
    2 : 0044;
    3 : 0833;
    4 : 0C6C;
    5 : 01E7;
    6 : FDAD;
    7 : 061B;
    8 : FDFD;
    9 : FB3E;
    10 : 0051;
    11 : F7CB;
    12 : F8D7;
    13 : FA79;
    14 : 04CB;
    15 : 03AE;
    16 : 04EE;
    17 : FFEB;
    18 : 0254;
    19 : 0A2A;
    20 : 0085;
    21 : F73E;
    22 : F75B;
    23 : FE7A;
    24 : 050D;
    25 : FAD1;
    26 : FC5E;
    27 : 0229;
    28 : 02D2;
    29 : FDCB;
    30 : 0797;
    31 : F8C7;
    32 : F791;
    33 : 0144;
    34 : 0A0D;
    35 : 06BF;
    36 : F215;
    37 : 1AF5;
    38 : 035A;
    39 : FAE3;
    40 : FCB4;
    41 : F678;
    42 : 0A00;
    43 : F925;
    44 : 02A0;
    45 : FD71;
    46 : 048E;
    47 : 0CE4;
    48 : EF72;
    49 : 0F0D;
    50 : 02DB;
    51 : FA98;
    52 : 02EA;
    53 : F553;
    54 : FE7D;
    55 : 019F;
    56 : FA42;
    57 : 0001;
    58 : 18E5;
    59 : FAC6;
    60 : 019D;
    61 : F0CE;
    62 : 033E;
    63 : 021B;
    64 : FE68;
    65 : 0C1C;
    66 : EFAD;
    67 : 124E;
    68 : 0167;
    69 : F8DC;
    70 : 011C;
    71 : F19F;
    72 : 05DA;
    73 : FDDE;
    74 : FB49;
    75 : 0405;
    76 : 0279;
    77 : FB9F;
    78 : F2A3;
    79 : 1614;
    80 : FFB7;
    81 : F739;
    82 : 03FD;
    83 : F50F;
    84 : F815;
    85 : 0D54;
    86 : FB75;
    87 : FED6;
    88 : 066A;
    89 : F108;
    90 : 0850;
    91 : 0087;
    92 : 0472;
    93 : 0533;
    94 : F0B7;
    95 : 01AD;
    96 : F36C;
    97 : FD2B;
    98 : FF9B;
    99 : FFB2;
    100 : 0AFC;
    101 : F735;
    102 : FD78;
    103 : 05AC;
    104 : 0031;
    105 : F999;
    106 : FE97;
    107 : 03CB;
    108 : 027E;
    109 : F824;
    110 : F759;
    111 : 04CD;
    112 : 0D16;
    113 : F970;
    114 : 04F5;
    115 : 0726;
    116 : FF38;
    117 : 03BB;
    118 : 0442;
    119 : FCC8;
    120 : 0213;
    121 : F995;
    122 : 06BD;
    123 : FEC5;
    124 : 021B;
    125 : 09D1;
    126 : FE0E;
    127 : 03B6;
    128 : FACA;
    129 : 03CD;
    130 : 0404;
    131 : F9D9;
    132 : 0561;
    133 : F6FA;
    134 : 00CD;
    135 : 093A;
    136 : 02EC;
    137 : 0311;
    138 : FF47;
    139 : FBFC;
    140 : 0413;
    141 : 01A3;
    142 : 0806;
    143 : 056E;
    144 : FB87;
    145 : F782;
    146 : 0413;
    147 : FBDC;
    148 : 03E8;
    149 : 09F0;
    150 : 0482;
    151 : 0C84;
    152 : 0434;
    153 : FD80;
    154 : F650;
    155 : FD45;
    156 : 00B0;
    157 : 077D;
    158 : FBCD;
    159 : 023C;
    160 : FD26;
    161 : F994;
    162 : 0A0A;
    163 : F83E;
    164 : F915;
    165 : 0716;
    166 : 00E3;
    167 : FEB8;
    168 : F7B8;
    169 : FFA7;
    170 : 043A;
    171 : F96C;
    172 : 18CB;
    173 : 0428;
    174 : FCA7;
    175 : 11EA;
    176 : FF86;
    177 : FFBF;
    178 : FCA8;
    179 : FE1C;
    180 : F831;
    181 : 0686;
    182 : 084B;
    183 : F7B5;
    184 : FD41;
    185 : 0375;
    186 : 0AC0;
    187 : FD79;
    188 : FE0B;
    189 : FF3A;
    190 : 0F44;
    191 : 0768;
    192 : F393;
    193 : 1229;
    194 : 0618;
    195 : FBFA;
    196 : 01A6;
    197 : FE0B;
    198 : 06E9;
    199 : 0226;
    200 : 02A4;
    201 : 0326;
    202 : FA35;
    203 : 0693;
    204 : FA14;
    205 : F7FE;
    206 : 0020;
    207 : 0728;
    208 : 0DE5;
    209 : FBB7;
    210 : 07C8;
    211 : F740;
    212 : FB43;
    213 : 0A8A;
    214 : 03C3;
    215 : FB8A;
    216 : 0D03;
    217 : F7AB;
    218 : 05F3;
    219 : 0147;
    220 : F502;
    221 : 101F;
    222 : 01AB;
    223 : F5A3;
    224 : F7CE;
    225 : 01FA;
    226 : 0473;
    227 : FFCD;
    228 : 0D07;
    229 : 0316;
    230 : 017D;
    231 : 0780;
    232 : F3B9;
    233 : 04C5;
    234 : 0D4F;
    235 : 0323;
    236 : 0166;
    237 : FB5D;
    238 : F592;
    239 : 0CF7;
    240 : F5FF;
    241 : FECF;
    242 : 01F1;
    243 : 0782;
    244 : 0A8B;
    245 : F575;
    246 : F650;
    247 : FB9E;
    248 : FD40;
    249 : FADD;
    250 : 08E2;
    251 : FC58;
    252 : 038F;
    253 : 054D;
    254 : 02CA;
    255 : 0354;
    256 : F8C9;
    257 : 0006;
    258 : 0444;
    259 : 0166;
    260 : 0208;
    261 : 0683;
    262 : FE67;
    263 : FFCB;
    264 : F9AD;
    265 : 07D1;
    266 : 027C;
    267 : FDB5;
    268 : FA41;
    269 : F779;
    270 : 08E6;
    271 : 0BC0;
    272 : 0682;
    273 : FEA5;
    274 : EF78;
    275 : 0A3B;
    276 : 05F4;
    277 : FA3D;
    278 : 00AC;
    279 : 07B3;
    280 : 0A6F;
    281 : 02E5;
    282 : FB88;
    283 : 0640;
    284 : 01FE;
    285 : F5B3;
    286 : FE16;
    287 : 0312;
    288 : F88B;
    289 : 0C8E;
    290 : FE69;
    291 : FA58;
    292 : 005A;
    293 : F51B;
    294 : 0442;
    295 : F23A;
    296 : FB80;
    297 : 04E3;
    298 : 0519;
    299 : 0255;
    300 : 02C6;
    301 : 0052;
    302 : FDB5;
    303 : 0130;
    304 : 07B1;
    305 : 01F8;
    306 : FDBE;
    307 : 0762;
    308 : 01B6;
    309 : FB64;
    310 : F54A;
    311 : FD5D;
    312 : FDDC;
    313 : 03E7;
    314 : 00E7;
    315 : FB49;
    316 : FD04;
    317 : 0402;
    318 : F934;
    319 : 00BD;
    320 : FE2E;
    321 : FD3D;
    322 : 0EA3;
    323 : F9B9;
    324 : F58C;
    325 : 0C5E;
    326 : 0779;
    327 : FB20;
    328 : FD3E;
    329 : FC03;
    330 : 0693;
    331 : F817;
    332 : FF29;
    333 : FF4C;
    334 : FD6C;
    335 : 08F1;
    336 : 0019;
    337 : FE02;
    338 : 051E;
    339 : 0247;
    340 : F235;
    341 : 04A9;
    342 : 06DA;
    343 : 059B;
    344 : FEE6;
    345 : 0120;
    346 : F4FD;
    347 : 03F9;
    348 : 0083;
    349 : FE0D;
    350 : FF43;
    351 : 0339;
    352 : 0443;
    353 : FD56;
    354 : FF99;
    355 : FE9F;
    356 : FB25;
    357 : 0490;
    358 : 0E85;
    359 : F808;
    360 : 00D2;
    361 : FDBF;
    362 : FB7E;
    363 : FDC7;
    364 : 0759;
    365 : FCD0;
    366 : FF14;
    367 : F6C8;
    368 : FE33;
    369 : 076B;
    370 : 0802;
    371 : 00B3;
    372 : 0101;
    373 : F1FE;
    374 : 0246;
    375 : 0412;
    376 : 047C;
    377 : 04CD;
    378 : 0178;
    379 : 0418;
    380 : 0601;
    381 : FB00;
    382 : F32C;
    383 : 04A7;
    384 : 0080;
END;
