WIDTH=16;
DEPTH=385;

ADDRESS_RADIX=DEC;
DATA_RADIX=HEX;

CONTENT BEGIN
    0 : 00A2;
    1 : 0248;
    2 : 02A9;
    3 : FE5F;
    4 : E57B;
    5 : FFA1;
    6 : 0561;
    7 : 0169;
    8 : 0088;
    9 : FC34;
    10 : 016D;
    11 : 0D59;
    12 : 0039;
    13 : 093E;
    14 : FBE3;
    15 : FA87;
    16 : F736;
    17 : FDF1;
    18 : 01C0;
    19 : F4AC;
    20 : FB92;
    21 : 09EA;
    22 : 0DD4;
    23 : FD4A;
    24 : FDF1;
    25 : 07A6;
    26 : FCBA;
    27 : FEA8;
    28 : F811;
    29 : F8EE;
    30 : FCBA;
    31 : 0FB0;
    32 : 0069;
    33 : FE7C;
    34 : F8A0;
    35 : F6AB;
    36 : FA46;
    37 : EB1C;
    38 : 01C1;
    39 : FD33;
    40 : FF60;
    41 : FFB2;
    42 : F29A;
    43 : 08B9;
    44 : FD38;
    45 : FC70;
    46 : 0B1D;
    47 : F6C8;
    48 : 0019;
    49 : F717;
    50 : 0379;
    51 : 0240;
    52 : 0907;
    53 : 0525;
    54 : 04AD;
    55 : FEB4;
    56 : 02C1;
    57 : FF83;
    58 : F44A;
    59 : 0620;
    60 : 0664;
    61 : 095A;
    62 : 00B8;
    63 : 049E;
    64 : F9E0;
    65 : 0081;
    66 : 03DC;
    67 : E750;
    68 : 0114;
    69 : 0427;
    70 : 0198;
    71 : 0B1A;
    72 : 012A;
    73 : 0867;
    74 : 050A;
    75 : F952;
    76 : F289;
    77 : 050D;
    78 : 04F8;
    79 : ED21;
    80 : FAAB;
    81 : 05A2;
    82 : 05F1;
    83 : FED6;
    84 : 06EF;
    85 : 0174;
    86 : 0276;
    87 : 0113;
    88 : F7BC;
    89 : 0249;
    90 : 0064;
    91 : FBCB;
    92 : 006F;
    93 : FC34;
    94 : 0A1D;
    95 : 0268;
    96 : 06FA;
    97 : 04CD;
    98 : 011A;
    99 : 0240;
    100 : F67A;
    101 : 03D1;
    102 : FA53;
    103 : 0B37;
    104 : 006E;
    105 : F817;
    106 : FD51;
    107 : F96A;
    108 : 0862;
    109 : 038F;
    110 : 025D;
    111 : FF48;
    112 : EC09;
    113 : 0279;
    114 : 072B;
    115 : F62B;
    116 : FA82;
    117 : 018C;
    118 : EFDD;
    119 : FE7C;
    120 : F726;
    121 : 0102;
    122 : FFEC;
    123 : FEBE;
    124 : 03E4;
    125 : F6D4;
    126 : FBF0;
    127 : 02AF;
    128 : 041B;
    129 : FCA0;
    130 : F53E;
    131 : FD14;
    132 : 0817;
    133 : 09D7;
    134 : FD49;
    135 : 016B;
    136 : F90C;
    137 : 00E6;
    138 : 0555;
    139 : 1088;
    140 : 0485;
    141 : FE43;
    142 : F8AA;
    143 : 05AB;
    144 : F458;
    145 : 1179;
    146 : 0724;
    147 : F834;
    148 : FB27;
    149 : FE18;
    150 : F5A3;
    151 : F9A3;
    152 : FB9C;
    153 : 016F;
    154 : 10C3;
    155 : F58E;
    156 : 023B;
    157 : F904;
    158 : F9CC;
    159 : 0692;
    160 : 0FAB;
    161 : FA26;
    162 : F8D2;
    163 : 1267;
    164 : FF40;
    165 : FCF6;
    166 : 008D;
    167 : F7D0;
    168 : FEC4;
    169 : 039F;
    170 : FE93;
    171 : 047C;
    172 : 1302;
    173 : F575;
    174 : FCB8;
    175 : F977;
    176 : FECB;
    177 : F863;
    178 : 03B9;
    179 : 0691;
    180 : 08D4;
    181 : F1B6;
    182 : 0028;
    183 : 01CD;
    184 : 0224;
    185 : 0CB2;
    186 : 020E;
    187 : 0467;
    188 : 048A;
    189 : 0443;
    190 : F4AE;
    191 : FD97;
    192 : F692;
    193 : FA04;
    194 : F9F1;
    195 : FF7A;
    196 : 128F;
    197 : FA6B;
    198 : 067F;
    199 : F763;
    200 : F531;
    201 : 01CF;
    202 : 0D81;
    203 : 003D;
    204 : 0717;
    205 : 0B02;
    206 : FD11;
    207 : FE1C;
    208 : FB50;
    209 : 0506;
    210 : 0680;
    211 : 0ABE;
    212 : 01E9;
    213 : 009E;
    214 : F08F;
    215 : FE8A;
    216 : 0A1B;
    217 : FAD8;
    218 : FAF2;
    219 : 04D2;
    220 : 0087;
    221 : 027A;
    222 : F928;
    223 : 0863;
    224 : 01F7;
    225 : F9C6;
    226 : F679;
    227 : FE5B;
    228 : 02F2;
    229 : FDE1;
    230 : FCF2;
    231 : 0354;
    232 : 078E;
    233 : FBBD;
    234 : FB09;
    235 : F8A8;
    236 : F5D4;
    237 : 03FE;
    238 : 1103;
    239 : F50D;
    240 : FABD;
    241 : 06E4;
    242 : FFE6;
    243 : F8E7;
    244 : FAAC;
    245 : 0425;
    246 : 04CE;
    247 : FEB7;
    248 : 07DC;
    249 : FF2D;
    250 : F056;
    251 : 0E78;
    252 : F6E7;
    253 : FFF9;
    254 : F929;
    255 : FFAA;
    256 : 1616;
    257 : F5BA;
    258 : FB29;
    259 : FE7C;
    260 : FD66;
    261 : F893;
    262 : FD86;
    263 : FC71;
    264 : F65B;
    265 : F5B7;
    266 : FAF4;
    267 : 0089;
    268 : 117C;
    269 : FC9B;
    270 : 05F8;
    271 : EF87;
    272 : 06F4;
    273 : 01B1;
    274 : FD3A;
    275 : 0547;
    276 : FEA1;
    277 : 02A3;
    278 : 0243;
    279 : 0289;
    280 : F9E5;
    281 : 0471;
    282 : FC72;
    283 : F3B4;
    284 : 047C;
    285 : 01C9;
    286 : 0764;
    287 : 065B;
    288 : 07CE;
    289 : F108;
    290 : FDC9;
    291 : 0A02;
    292 : 08C2;
    293 : 0563;
    294 : 0103;
    295 : 0BAD;
    296 : 04F4;
    297 : FEC4;
    298 : F1B1;
    299 : 005A;
    300 : FECD;
    301 : 087E;
    302 : 0999;
    303 : FA78;
    304 : F52B;
    305 : 09EE;
    306 : FD06;
    307 : F811;
    308 : FF3F;
    309 : 026B;
    310 : 0754;
    311 : FB56;
    312 : F2B7;
    313 : F9DB;
    314 : FAB5;
    315 : 03D7;
    316 : 1302;
    317 : F1FD;
    318 : 0455;
    319 : 0495;
    320 : F928;
    321 : 0025;
    322 : F749;
    323 : FB47;
    324 : 0AED;
    325 : F321;
    326 : FFF1;
    327 : 0156;
    328 : 0509;
    329 : 0BB7;
    330 : 05BB;
    331 : FE6F;
    332 : FB89;
    333 : 00B1;
    334 : 1013;
    335 : FD81;
    336 : 0897;
    337 : F0DF;
    338 : FF58;
    339 : 07AD;
    340 : 0039;
    341 : 01A7;
    342 : F6AB;
    343 : FE56;
    344 : F732;
    345 : 009E;
    346 : 0873;
    347 : F0F6;
    348 : 033E;
    349 : 05AF;
    350 : FF11;
    351 : FFD3;
    352 : F6F6;
    353 : FBF2;
    354 : 04C0;
    355 : 051E;
    356 : FA49;
    357 : 047B;
    358 : 0111;
    359 : FE4A;
    360 : 092B;
    361 : 0929;
    362 : FCB9;
    363 : F954;
    364 : FA59;
    365 : 0AA4;
    366 : 07E8;
    367 : 067F;
    368 : 01CE;
    369 : 06C4;
    370 : F1E5;
    371 : FD2A;
    372 : 07EA;
    373 : 0402;
    374 : FEC6;
    375 : FF15;
    376 : EA19;
    377 : 00E2;
    378 : FDDA;
    379 : FA98;
    380 : 0134;
    381 : 02F6;
    382 : 1165;
    383 : 0152;
    384 : 0080;
END;
