WIDTH=16;
DEPTH=385;

ADDRESS_RADIX=DEC;
DATA_RADIX=HEX;

CONTENT BEGIN
    0 : 09CF;
    1 : F0D5;
    2 : FA53;
    3 : 098E;
    4 : 04FD;
    5 : 020A;
    6 : 0262;
    7 : 004C;
    8 : 0720;
    9 : FF8B;
    10 : F508;
    11 : 004D;
    12 : 02BF;
    13 : EC0C;
    14 : FD23;
    15 : 0AD9;
    16 : 0367;
    17 : FEBA;
    18 : FE00;
    19 : 1070;
    20 : 0206;
    21 : FB73;
    22 : FD8E;
    23 : FF5D;
    24 : 02DA;
    25 : F905;
    26 : FDE7;
    27 : 014B;
    28 : FFEC;
    29 : FC0F;
    30 : 05AE;
    31 : F438;
    32 : F9F7;
    33 : 0C6D;
    34 : 076C;
    35 : F9BE;
    36 : FB31;
    37 : 081B;
    38 : FEF7;
    39 : FAE8;
    40 : FDA6;
    41 : FFE7;
    42 : 00CC;
    43 : FC21;
    44 : FDEF;
    45 : 04E8;
    46 : 043B;
    47 : FCD1;
    48 : F480;
    49 : 1116;
    50 : FF77;
    51 : FCF6;
    52 : FCDF;
    53 : EFE0;
    54 : F7F5;
    55 : FB96;
    56 : 0365;
    57 : FDF4;
    58 : 0392;
    59 : 0361;
    60 : F9C6;
    61 : FCDD;
    62 : F58D;
    63 : 0067;
    64 : 0EBF;
    65 : F401;
    66 : FAD2;
    67 : 1163;
    68 : 01D7;
    69 : F7F2;
    70 : F7F4;
    71 : F956;
    72 : FB02;
    73 : FA39;
    74 : 02A4;
    75 : 00BD;
    76 : 0AF8;
    77 : 0277;
    78 : 0B92;
    79 : FCB1;
    80 : 0A21;
    81 : FF5D;
    82 : E987;
    83 : 1201;
    84 : 0033;
    85 : FAC6;
    86 : F726;
    87 : FF88;
    88 : FE42;
    89 : FC45;
    90 : 070E;
    91 : FAC2;
    92 : 068C;
    93 : 021B;
    94 : EF0B;
    95 : 0DFA;
    96 : FCEA;
    97 : F9EA;
    98 : FE13;
    99 : 0669;
    100 : 063E;
    101 : F6DD;
    102 : FC6C;
    103 : 074C;
    104 : F9D3;
    105 : FEC9;
    106 : 052B;
    107 : F513;
    108 : 0945;
    109 : EEA6;
    110 : 036E;
    111 : 03F3;
    112 : FEA0;
    113 : 0F3C;
    114 : 0005;
    115 : 0D36;
    116 : 02D4;
    117 : F85E;
    118 : 03BF;
    119 : 03A2;
    120 : FCD9;
    121 : 01E3;
    122 : 02DC;
    123 : 0047;
    124 : FED6;
    125 : FFDD;
    126 : 0667;
    127 : FE2E;
    128 : FECE;
    129 : FEC5;
    130 : 0532;
    131 : 0859;
    132 : 0152;
    133 : FCD1;
    134 : FD3E;
    135 : 04B0;
    136 : 0852;
    137 : F9D0;
    138 : FA42;
    139 : F490;
    140 : 015A;
    141 : 05C8;
    142 : 0AAB;
    143 : F898;
    144 : 08ED;
    145 : F250;
    146 : FCD7;
    147 : 05E8;
    148 : 00BA;
    149 : FFCD;
    150 : F91E;
    151 : 097C;
    152 : FFDD;
    153 : FC7E;
    154 : F62C;
    155 : F76E;
    156 : F9BA;
    157 : 075A;
    158 : 04AF;
    159 : F593;
    160 : F6A6;
    161 : 0675;
    162 : 02D6;
    163 : F559;
    164 : 0080;
    165 : 0467;
    166 : 05CA;
    167 : 0372;
    168 : 07F4;
    169 : 0420;
    170 : FAE3;
    171 : 0678;
    172 : 0443;
    173 : FD7D;
    174 : 00BF;
    175 : FAE4;
    176 : FB5B;
    177 : 00C3;
    178 : FAF7;
    179 : FE15;
    180 : FB08;
    181 : 0675;
    182 : 08C3;
    183 : FD16;
    184 : F957;
    185 : 0383;
    186 : EF8A;
    187 : 03A3;
    188 : FEF3;
    189 : FC2F;
    190 : 0B68;
    191 : F0F8;
    192 : 03EF;
    193 : FA8A;
    194 : 01B0;
    195 : FC7F;
    196 : F063;
    197 : 07DA;
    198 : 076D;
    199 : 0025;
    200 : 05EF;
    201 : 02EA;
    202 : EFA4;
    203 : 061B;
    204 : 0665;
    205 : EB8D;
    206 : 00FD;
    207 : 0439;
    208 : FE6F;
    209 : 0A76;
    210 : FDCD;
    211 : F798;
    212 : FBB9;
    213 : 02B3;
    214 : 0EC3;
    215 : FF1F;
    216 : 045D;
    217 : F615;
    218 : 0228;
    219 : FF64;
    220 : EF58;
    221 : 051B;
    222 : 0ADF;
    223 : F27B;
    224 : FD35;
    225 : 0335;
    226 : 01E6;
    227 : 07B9;
    228 : 0727;
    229 : 03C4;
    230 : FC10;
    231 : 0452;
    232 : F916;
    233 : FF28;
    234 : FDDF;
    235 : 0D20;
    236 : 06C3;
    237 : FE39;
    238 : F605;
    239 : FBE7;
    240 : FC1D;
    241 : F8B0;
    242 : 0160;
    243 : 0034;
    244 : 0B69;
    245 : 051B;
    246 : FFC7;
    247 : F44F;
    248 : FCE7;
    249 : 0AED;
    250 : 0824;
    251 : F8BA;
    252 : FDEB;
    253 : 0DB6;
    254 : FDCD;
    255 : FB62;
    256 : FD29;
    257 : FC67;
    258 : FD33;
    259 : 1098;
    260 : FF23;
    261 : 00A2;
    262 : 0559;
    263 : F587;
    264 : 0B2D;
    265 : 057B;
    266 : 069C;
    267 : F870;
    268 : EF23;
    269 : 1036;
    270 : F9F4;
    271 : 0879;
    272 : 0288;
    273 : 00D1;
    274 : FB00;
    275 : FC51;
    276 : 0198;
    277 : FACA;
    278 : FEBE;
    279 : 0677;
    280 : 083D;
    281 : F76F;
    282 : 006A;
    283 : 0B87;
    284 : 0657;
    285 : FA3D;
    286 : EFC4;
    287 : FDDF;
    288 : FB47;
    289 : 0E6F;
    290 : 0940;
    291 : F26F;
    292 : F6E3;
    293 : 06CD;
    294 : FBE1;
    295 : F4CA;
    296 : FBB1;
    297 : FD86;
    298 : 0A0C;
    299 : 01EB;
    300 : 0B44;
    301 : F300;
    302 : FDFE;
    303 : 08B0;
    304 : 03AC;
    305 : 01D0;
    306 : FBA5;
    307 : 069D;
    308 : 06AB;
    309 : 001F;
    310 : FADF;
    311 : 0077;
    312 : F617;
    313 : 127E;
    314 : FE2C;
    315 : F81A;
    316 : FCB3;
    317 : F310;
    318 : F036;
    319 : 0467;
    320 : FEE3;
    321 : F973;
    322 : 1055;
    323 : F4E6;
    324 : 026C;
    325 : 0C9F;
    326 : 061E;
    327 : 00B9;
    328 : F124;
    329 : FC9E;
    330 : FF89;
    331 : 01A2;
    332 : 0090;
    333 : 0019;
    334 : F737;
    335 : 0540;
    336 : F6ED;
    337 : 0D35;
    338 : FF32;
    339 : F705;
    340 : F561;
    341 : F971;
    342 : FD8A;
    343 : 011D;
    344 : 00FA;
    345 : 023D;
    346 : FB7E;
    347 : FBD1;
    348 : 0451;
    349 : FF38;
    350 : FF93;
    351 : FCFE;
    352 : 04E6;
    353 : 04E3;
    354 : FF29;
    355 : F726;
    356 : F9A5;
    357 : 02E9;
    358 : FBC4;
    359 : F852;
    360 : FFFD;
    361 : EDA5;
    362 : FDA7;
    363 : 0705;
    364 : 01D9;
    365 : FC6E;
    366 : FB5F;
    367 : F4E5;
    368 : 002A;
    369 : 027D;
    370 : 0482;
    371 : FC54;
    372 : 0742;
    373 : F4EB;
    374 : FC6E;
    375 : 0A42;
    376 : 06E9;
    377 : FE09;
    378 : FC67;
    379 : 0353;
    380 : 0371;
    381 : FA47;
    382 : F2F2;
    383 : 0680;
    384 : 0080;
END;
