WIDTH=16;
DEPTH=385;

ADDRESS_RADIX=DEC;
DATA_RADIX=HEX;

CONTENT BEGIN
    0 : FC4E;
    1 : F5A1;
    2 : F32B;
    3 : 0395;
    4 : 1E5A;
    5 : F2FB;
    6 : FC4A;
    7 : FA01;
    8 : 004A;
    9 : F8EA;
    10 : FD4E;
    11 : 00EF;
    12 : F98D;
    13 : F6D0;
    14 : F2FE;
    15 : 032A;
    16 : 0EF9;
    17 : F709;
    18 : 00E4;
    19 : 0F2D;
    20 : 0228;
    21 : F88D;
    22 : F26A;
    23 : FA05;
    24 : 03EB;
    25 : F12F;
    26 : FF35;
    27 : 01A8;
    28 : 07AD;
    29 : 02E3;
    30 : 0D38;
    31 : ECB7;
    32 : F9CF;
    33 : 03C4;
    34 : 0517;
    35 : 08CB;
    36 : F7E9;
    37 : 1D05;
    38 : FF1B;
    39 : F93B;
    40 : 00B4;
    41 : FCF4;
    42 : 0029;
    43 : F4D1;
    44 : FDF5;
    45 : FF31;
    46 : 0095;
    47 : 00EF;
    48 : FAC6;
    49 : 12C5;
    50 : F986;
    51 : FB19;
    52 : FD43;
    53 : F10D;
    54 : 0772;
    55 : F7E5;
    56 : 0023;
    57 : 0136;
    58 : 072F;
    59 : 0790;
    60 : 10FD;
    61 : EFB0;
    62 : FED1;
    63 : 05A6;
    64 : F78C;
    65 : 099E;
    66 : F5E5;
    67 : 117C;
    68 : 0582;
    69 : FA80;
    70 : F2F1;
    71 : F618;
    72 : FD32;
    73 : F97D;
    74 : FA3E;
    75 : 023E;
    76 : 0E78;
    77 : 00D0;
    78 : 01CB;
    79 : 0899;
    80 : 01BA;
    81 : FB42;
    82 : F015;
    83 : 0521;
    84 : FD6D;
    85 : F3E9;
    86 : 000B;
    87 : FDF2;
    88 : FDBD;
    89 : 035F;
    90 : F523;
    91 : 132A;
    92 : FB2B;
    93 : F8F5;
    94 : FD1E;
    95 : F1BA;
    96 : FFFC;
    97 : EEC4;
    98 : FDF8;
    99 : FF2C;
    100 : 06BE;
    101 : FFE7;
    102 : FAB6;
    103 : 037B;
    104 : 00A9;
    105 : 03F0;
    106 : 03DA;
    107 : F5A5;
    108 : 010B;
    109 : F98F;
    110 : F657;
    111 : 024A;
    112 : 116B;
    113 : FDE3;
    114 : FB56;
    115 : 063E;
    116 : FF03;
    117 : FAE7;
    118 : 0C5B;
    119 : FFE0;
    120 : 0399;
    121 : FAB7;
    122 : 062B;
    123 : FF2B;
    124 : FA7C;
    125 : 054A;
    126 : 0955;
    127 : EEF1;
    128 : 01D4;
    129 : 00B6;
    130 : FA8E;
    131 : 0EAA;
    132 : FEEE;
    133 : F2E0;
    134 : FDB2;
    135 : 062F;
    136 : 0E30;
    137 : 0454;
    138 : 0616;
    139 : FC81;
    140 : FCB9;
    141 : FDD0;
    142 : 0581;
    143 : 0614;
    144 : F676;
    145 : 0214;
    146 : F4CE;
    147 : FE61;
    148 : 1487;
    149 : F1E3;
    150 : FE50;
    151 : 0F00;
    152 : 0780;
    153 : FA9F;
    154 : F447;
    155 : 01CE;
    156 : F7E2;
    157 : 137F;
    158 : 0752;
    159 : F8FD;
    160 : F6DE;
    161 : FE63;
    162 : 046F;
    163 : F956;
    164 : F84D;
    165 : 090C;
    166 : 0A45;
    167 : F80B;
    168 : F950;
    169 : 0D5C;
    170 : FFE0;
    171 : F3B5;
    172 : 1E50;
    173 : 01C5;
    174 : FA7F;
    175 : 10BF;
    176 : FBE0;
    177 : FF35;
    178 : FC80;
    179 : FDEC;
    180 : FE00;
    181 : 07F5;
    182 : 033E;
    183 : 01E4;
    184 : FFC3;
    185 : FAF5;
    186 : FE41;
    187 : 0D8E;
    188 : FA45;
    189 : F9FF;
    190 : 23CD;
    191 : F869;
    192 : F95E;
    193 : 0D25;
    194 : 045A;
    195 : F522;
    196 : F01D;
    197 : 00C3;
    198 : F93C;
    199 : 114D;
    200 : 02A3;
    201 : F423;
    202 : F891;
    203 : FC33;
    204 : FDF0;
    205 : F478;
    206 : FE7A;
    207 : 054C;
    208 : 0DB5;
    209 : FFA0;
    210 : 08CA;
    211 : F28A;
    212 : FFD0;
    213 : FFF6;
    214 : 0890;
    215 : 0D0C;
    216 : F839;
    217 : 09D2;
    218 : 0183;
    219 : FDBC;
    220 : FFE7;
    221 : FF36;
    222 : FBFF;
    223 : F4DD;
    224 : F67A;
    225 : 04AB;
    226 : 1027;
    227 : FAF5;
    228 : FB2C;
    229 : 06B6;
    230 : F955;
    231 : FD2E;
    232 : F2BD;
    233 : F847;
    234 : FA9C;
    235 : 11CB;
    236 : 0154;
    237 : FAF7;
    238 : FAF5;
    239 : F933;
    240 : 022A;
    241 : F34E;
    242 : 014E;
    243 : 00B8;
    244 : 04C3;
    245 : 0831;
    246 : 0147;
    247 : F8E9;
    248 : FF31;
    249 : FFCD;
    250 : 08B4;
    251 : 021D;
    252 : FFC5;
    253 : 1302;
    254 : 02C3;
    255 : 0050;
    256 : F6C0;
    257 : F82C;
    258 : FAB7;
    259 : 0A30;
    260 : 005A;
    261 : FDEB;
    262 : 0E78;
    263 : FFA9;
    264 : F955;
    265 : 0905;
    266 : 0086;
    267 : F4F3;
    268 : F742;
    269 : 022E;
    270 : F922;
    271 : 0D97;
    272 : FF70;
    273 : FFB7;
    274 : F654;
    275 : F808;
    276 : 06A4;
    277 : F233;
    278 : F47C;
    279 : 0030;
    280 : 05CC;
    281 : FBDC;
    282 : 02DB;
    283 : 00ED;
    284 : 072B;
    285 : FD34;
    286 : F1E8;
    287 : 0714;
    288 : F9F7;
    289 : 08F0;
    290 : FB75;
    291 : FAA8;
    292 : FA0F;
    293 : F779;
    294 : 04CD;
    295 : F844;
    296 : FA03;
    297 : 042B;
    298 : 0FF5;
    299 : FD6F;
    300 : 0719;
    301 : F2C8;
    302 : F992;
    303 : FDBB;
    304 : 00D0;
    305 : 0785;
    306 : FC2B;
    307 : 145C;
    308 : FC71;
    309 : F88C;
    310 : FDE0;
    311 : F65B;
    312 : FAB2;
    313 : 0F2F;
    314 : 03C3;
    315 : EFBF;
    316 : F4BF;
    317 : 056C;
    318 : FC32;
    319 : FE77;
    320 : FB4B;
    321 : FEF0;
    322 : 0DA1;
    323 : FDEC;
    324 : 0C3D;
    325 : 0002;
    326 : 047B;
    327 : FC9B;
    328 : EA35;
    329 : 0C43;
    330 : FF84;
    331 : F88E;
    332 : 021F;
    333 : F81E;
    334 : 0BD6;
    335 : 096D;
    336 : 0212;
    337 : 015C;
    338 : FD39;
    339 : FA22;
    340 : F257;
    341 : 0663;
    342 : 0249;
    343 : 01B8;
    344 : FE78;
    345 : 073B;
    346 : FD88;
    347 : FF30;
    348 : FAC8;
    349 : 03E4;
    350 : F3FD;
    351 : 00E1;
    352 : 098D;
    353 : F000;
    354 : FF7A;
    355 : F8D0;
    356 : FEE9;
    357 : FA3B;
    358 : 057A;
    359 : 0777;
    360 : 055F;
    361 : F9C6;
    362 : FA39;
    363 : FF24;
    364 : FF19;
    365 : FDC5;
    366 : FD0C;
    367 : EEB3;
    368 : F8B4;
    369 : 0A19;
    370 : 0BC4;
    371 : FB27;
    372 : 0835;
    373 : F20A;
    374 : FCE0;
    375 : 07AA;
    376 : 1048;
    377 : 047D;
    378 : F23B;
    379 : 0E8E;
    380 : 021A;
    381 : F319;
    382 : FAE3;
    383 : FE13;
    384 : 0080;
END;
