WIDTH=16;
DEPTH=385;

ADDRESS_RADIX=DEC;
DATA_RADIX=HEX;

CONTENT BEGIN
    0 : F519;
    1 : 0482;
    2 : 02B1;
    3 : F6D7;
    4 : FAB2;
    5 : 00C1;
    6 : 0161;
    7 : FEE5;
    8 : 07F7;
    9 : 01BF;
    10 : FBD9;
    11 : 049D;
    12 : F67A;
    13 : 07C7;
    14 : 0261;
    15 : F558;
    16 : 0287;
    17 : 03E2;
    18 : 049D;
    19 : 014E;
    20 : 00A1;
    21 : 01A0;
    22 : FFC4;
    23 : FCD4;
    24 : F393;
    25 : 03AE;
    26 : 0393;
    27 : F683;
    28 : 01EB;
    29 : 00DE;
    30 : FCAF;
    31 : 0351;
    32 : 0186;
    33 : F9F1;
    34 : F6CF;
    35 : FD61;
    36 : 05A6;
    37 : EE48;
    38 : FD74;
    39 : 09BC;
    40 : 03B2;
    41 : 0194;
    42 : 028E;
    43 : 0443;
    44 : 02FF;
    45 : 0618;
    46 : FA9D;
    47 : 00D1;
    48 : FA55;
    49 : FEF4;
    50 : 01AF;
    51 : FE63;
    52 : 0A20;
    53 : 0229;
    54 : 0479;
    55 : 0481;
    56 : FCE3;
    57 : FD56;
    58 : F366;
    59 : FDF0;
    60 : F4C9;
    61 : 1385;
    62 : FDD2;
    63 : FD32;
    64 : 0834;
    65 : EFE2;
    66 : FAB2;
    67 : 0262;
    68 : FB8E;
    69 : 0123;
    70 : 085A;
    71 : F5C9;
    72 : 01C3;
    73 : FDE8;
    74 : 01EA;
    75 : FF1D;
    76 : F6A2;
    77 : 022F;
    78 : F795;
    79 : FDF8;
    80 : FFD6;
    81 : 00E9;
    82 : 0578;
    83 : F620;
    84 : 0073;
    85 : 0455;
    86 : 0302;
    87 : FF14;
    88 : FB9D;
    89 : FC2E;
    90 : 0A5F;
    91 : F6AA;
    92 : 00CF;
    93 : 0092;
    94 : FF24;
    95 : 0C9B;
    96 : F669;
    97 : 07D9;
    98 : 0310;
    99 : FC60;
    100 : 072B;
    101 : FCB1;
    102 : F5BD;
    103 : 0644;
    104 : 0030;
    105 : FD8E;
    106 : 0837;
    107 : F77E;
    108 : FD07;
    109 : 0241;
    110 : 0955;
    111 : FF2C;
    112 : F64A;
    113 : 0409;
    114 : FB26;
    115 : 0AD5;
    116 : FEB4;
    117 : F9FC;
    118 : FAD9;
    119 : F7DB;
    120 : F18F;
    121 : 0790;
    122 : FF17;
    123 : FBB2;
    124 : 088F;
    125 : F93A;
    126 : F7F2;
    127 : 01FF;
    128 : FF81;
    129 : FAEF;
    130 : 081F;
    131 : FFBB;
    132 : F3A8;
    133 : 0983;
    134 : 04E2;
    135 : FD3B;
    136 : 04BC;
    137 : FC89;
    138 : FFAA;
    139 : 0076;
    140 : 00EA;
    141 : 06E5;
    142 : 0159;
    143 : 0168;
    144 : 0F53;
    145 : FADF;
    146 : 02DB;
    147 : 030F;
    148 : F57F;
    149 : 0FD9;
    150 : 04D8;
    151 : F72B;
    152 : FC88;
    153 : 097F;
    154 : 0077;
    155 : FA4E;
    156 : FEC2;
    157 : FF14;
    158 : 044C;
    159 : FBE0;
    160 : FFC2;
    161 : 030E;
    162 : 0A71;
    163 : FC69;
    164 : 0321;
    165 : 06A2;
    166 : F8A0;
    167 : 09ED;
    168 : FCDD;
    169 : 0337;
    170 : F858;
    171 : FF49;
    172 : 1335;
    173 : F588;
    174 : 0036;
    175 : F4E6;
    176 : 00F3;
    177 : 0214;
    178 : 004A;
    179 : FD96;
    180 : 047A;
    181 : F4DD;
    182 : 0451;
    183 : 02C6;
    184 : FFDB;
    185 : 0A21;
    186 : FA72;
    187 : FCCA;
    188 : 010B;
    189 : 0011;
    190 : FE9F;
    191 : FE9B;
    192 : 04B2;
    193 : FCC8;
    194 : 021A;
    195 : 0344;
    196 : 0183;
    197 : 0027;
    198 : 08A6;
    199 : F77F;
    200 : FD4F;
    201 : FFCC;
    202 : FED4;
    203 : 064C;
    204 : FCEC;
    205 : FD46;
    206 : 06E8;
    207 : 015A;
    208 : F255;
    209 : FE3D;
    210 : 08ED;
    211 : 00C0;
    212 : 06B9;
    213 : 0318;
    214 : F460;
    215 : 06C8;
    216 : FE05;
    217 : F56A;
    218 : FE52;
    219 : FA65;
    220 : 012F;
    221 : 06C8;
    222 : 09B8;
    223 : 0303;
    224 : FED9;
    225 : 02AA;
    226 : F7AD;
    227 : FF94;
    228 : F2EE;
    229 : 05B7;
    230 : 05BA;
    231 : FF76;
    232 : 0A34;
    233 : FBDB;
    234 : 0A05;
    235 : F9C0;
    236 : FFEF;
    237 : 0794;
    238 : 01A5;
    239 : 042F;
    240 : FF22;
    241 : 0243;
    242 : FCED;
    243 : FFB9;
    244 : FCC4;
    245 : FCFB;
    246 : 0A7D;
    247 : 0136;
    248 : FFEB;
    249 : 037F;
    250 : F802;
    251 : 0414;
    252 : 04BD;
    253 : F668;
    254 : 02C3;
    255 : 0721;
    256 : FF9B;
    257 : 0246;
    258 : F9BF;
    259 : FFE8;
    260 : 071F;
    261 : FD47;
    262 : F975;
    263 : 0209;
    264 : FBCA;
    265 : FD46;
    266 : 0540;
    267 : 05A0;
    268 : 083F;
    269 : FFE9;
    270 : FBE0;
    271 : FBBE;
    272 : 01EC;
    273 : FDC5;
    274 : 0478;
    275 : 0061;
    276 : 0627;
    277 : FBA7;
    278 : 032A;
    279 : 01A3;
    280 : F45A;
    281 : 0609;
    282 : 0807;
    283 : F9A4;
    284 : FEDC;
    285 : 07F6;
    286 : 074A;
    287 : 0751;
    288 : F8E6;
    289 : 0099;
    290 : FAF0;
    291 : 022E;
    292 : 0C59;
    293 : F835;
    294 : FA4C;
    295 : 0C76;
    296 : F9EE;
    297 : FE55;
    298 : 0000;
    299 : F21A;
    300 : 08D8;
    301 : 0436;
    302 : 0155;
    303 : 0601;
    304 : F88A;
    305 : FE0D;
    306 : 052A;
    307 : FD88;
    308 : 0075;
    309 : FE32;
    310 : FFC4;
    311 : 02D0;
    312 : 0C39;
    313 : F6E4;
    314 : FD06;
    315 : 0C17;
    316 : FE5D;
    317 : FE4E;
    318 : FF72;
    319 : 04C0;
    320 : 0200;
    321 : FEFE;
    322 : FD25;
    323 : 018B;
    324 : F9AD;
    325 : FDA4;
    326 : FCF4;
    327 : FD09;
    328 : 03AF;
    329 : FA49;
    330 : 03C7;
    331 : F758;
    332 : 042F;
    333 : 0476;
    334 : 1058;
    335 : 0525;
    336 : F7B5;
    337 : 02F9;
    338 : 0215;
    339 : 0120;
    340 : 0644;
    341 : FAC9;
    342 : 0103;
    343 : 0132;
    344 : FDA4;
    345 : 0294;
    346 : 07F7;
    347 : FC9A;
    348 : 06AD;
    349 : 076E;
    350 : FDD3;
    351 : FE21;
    352 : 015A;
    353 : 064F;
    354 : 0010;
    355 : 0D16;
    356 : FBF9;
    357 : FBA4;
    358 : FD11;
    359 : FAC4;
    360 : F862;
    361 : 093F;
    362 : 0342;
    363 : FB0F;
    364 : 016F;
    365 : FC2E;
    366 : 04F7;
    367 : 01E9;
    368 : FD7B;
    369 : 0791;
    370 : FC0F;
    371 : FAFF;
    372 : 01DA;
    373 : 09DC;
    374 : FEBF;
    375 : FF26;
    376 : FCCF;
    377 : FC2E;
    378 : F620;
    379 : 08B0;
    380 : FAA7;
    381 : FECE;
    382 : 109E;
    383 : F347;
    384 : 0080;
END;
