WIDTH=16;
DEPTH=385;

ADDRESS_RADIX=DEC;
DATA_RADIX=HEX;

CONTENT BEGIN
    0 : 0564;
    1 : 05E8;
    2 : FED0;
    3 : FE2C;
    4 : EF63;
    5 : 050B;
    6 : 0A13;
    7 : FCAB;
    8 : FE8C;
    9 : 06ED;
    10 : FABB;
    11 : 02B1;
    12 : 02CC;
    13 : 068F;
    14 : 08A4;
    15 : FFD4;
    16 : F622;
    17 : FF89;
    18 : 0981;
    19 : F40F;
    20 : FD2A;
    21 : 063F;
    22 : FEEE;
    23 : 0563;
    24 : 0DB0;
    25 : FF19;
    26 : 00F3;
    27 : 0003;
    28 : F0CC;
    29 : 08D6;
    30 : 093E;
    31 : 0396;
    32 : 0C03;
    33 : FC4D;
    34 : F033;
    35 : 0E84;
    36 : 0362;
    37 : E1FC;
    38 : 04B8;
    39 : 036D;
    40 : 0206;
    41 : 0D85;
    42 : 0917;
    43 : 0140;
    44 : 011E;
    45 : 0294;
    46 : EE40;
    47 : 00E7;
    48 : F9A4;
    49 : FC13;
    50 : F8AF;
    51 : FDF0;
    52 : 06EC;
    53 : F5B2;
    54 : F7A1;
    55 : 08B4;
    56 : F97E;
    57 : FF30;
    58 : FBDD;
    59 : F82C;
    60 : 0A86;
    61 : F957;
    62 : 043A;
    63 : 0413;
    64 : F0B1;
    65 : 0615;
    66 : 0835;
    67 : F3BA;
    68 : F8A6;
    69 : 0194;
    70 : 0871;
    71 : 0852;
    72 : 087F;
    73 : FA97;
    74 : 0465;
    75 : 0411;
    76 : F5EF;
    77 : 09A4;
    78 : 046E;
    79 : F61D;
    80 : F449;
    81 : 0569;
    82 : 0C42;
    83 : FD23;
    84 : 0223;
    85 : FE10;
    86 : 00B8;
    87 : 0710;
    88 : 0018;
    89 : FC4C;
    90 : FB25;
    91 : F773;
    92 : F8CE;
    93 : 0140;
    94 : 088A;
    95 : FA01;
    96 : 07B2;
    97 : 0061;
    98 : FD87;
    99 : 021E;
    100 : F454;
    101 : 020E;
    102 : 0362;
    103 : FF49;
    104 : FCAE;
    105 : 03EF;
    106 : 020D;
    107 : F84D;
    108 : 0427;
    109 : 0A39;
    110 : 024F;
    111 : 01AB;
    112 : F636;
    113 : 0014;
    114 : F7C3;
    115 : FCB8;
    116 : 0110;
    117 : FEC5;
    118 : FC56;
    119 : F965;
    120 : FDB7;
    121 : 0570;
    122 : 0417;
    123 : F81A;
    124 : FC71;
    125 : 0A82;
    126 : F6AC;
    127 : 00DC;
    128 : FEC4;
    129 : FAD2;
    130 : 056C;
    131 : FB05;
    132 : FEFF;
    133 : 0632;
    134 : FF8C;
    135 : F7E0;
    136 : FA12;
    137 : 0041;
    138 : FE13;
    139 : 0853;
    140 : 0004;
    141 : F741;
    142 : F8CB;
    143 : FC12;
    144 : 03C0;
    145 : 0390;
    146 : 0271;
    147 : FD17;
    148 : FBB0;
    149 : 077E;
    150 : 02A4;
    151 : FDD1;
    152 : FDEF;
    153 : FF6A;
    154 : FE57;
    155 : FB93;
    156 : 06AA;
    157 : F976;
    158 : F80B;
    159 : 0030;
    160 : 0867;
    161 : 0221;
    162 : 06CD;
    163 : FCEF;
    164 : 010D;
    165 : FB09;
    166 : F241;
    167 : 07EA;
    168 : FB4D;
    169 : 0127;
    170 : 01DB;
    171 : FFA2;
    172 : E6A0;
    173 : 026C;
    174 : FCFF;
    175 : F503;
    176 : FF07;
    177 : F8A8;
    178 : 09B0;
    179 : 0430;
    180 : 0DD4;
    181 : F389;
    182 : FACE;
    183 : 0B79;
    184 : 0017;
    185 : 0704;
    186 : FF59;
    187 : FA11;
    188 : 03C0;
    189 : FED6;
    190 : E24E;
    191 : 02A6;
    192 : 0160;
    193 : F5A6;
    194 : FC4C;
    195 : 076B;
    196 : 0797;
    197 : F8A6;
    198 : EFD2;
    199 : FEDC;
    200 : FB13;
    201 : FE73;
    202 : 0A9A;
    203 : F02D;
    204 : 0204;
    205 : 03D9;
    206 : 0500;
    207 : FACC;
    208 : F1BE;
    209 : 07B9;
    210 : 0828;
    211 : FFFA;
    212 : 0228;
    213 : 0003;
    214 : F3CD;
    215 : 06E6;
    216 : 06EB;
    217 : FAED;
    218 : FD78;
    219 : 09C8;
    220 : 017A;
    221 : FF27;
    222 : 0479;
    223 : 014F;
    224 : 0355;
    225 : FB41;
    226 : F3A1;
    227 : 05B7;
    228 : F8EE;
    229 : F632;
    230 : FEA7;
    231 : 00D7;
    232 : 0505;
    233 : F6A3;
    234 : FC34;
    235 : F829;
    236 : F555;
    237 : 007D;
    238 : 081F;
    239 : F977;
    240 : F0E0;
    241 : 09CA;
    242 : 03A6;
    243 : F5B5;
    244 : 0172;
    245 : FD7A;
    246 : FE0D;
    247 : 00D0;
    248 : FF12;
    249 : F97E;
    250 : F268;
    251 : FF11;
    252 : F54B;
    253 : FBF4;
    254 : FC57;
    255 : FBA8;
    256 : 07DC;
    257 : F861;
    258 : 037D;
    259 : FDC0;
    260 : 020F;
    261 : 00DC;
    262 : 0021;
    263 : 0423;
    264 : 017F;
    265 : FE4B;
    266 : 000E;
    267 : 0307;
    268 : 02A5;
    269 : FC3C;
    270 : FBCC;
    271 : EEFD;
    272 : FDB9;
    273 : 00E2;
    274 : 0D25;
    275 : 02C9;
    276 : F30A;
    277 : 0C9E;
    278 : 03CC;
    279 : FB48;
    280 : FF0B;
    281 : FB2D;
    282 : F754;
    283 : FCE4;
    284 : F750;
    285 : 0495;
    286 : 0B5C;
    287 : F4B3;
    288 : F342;
    289 : FD48;
    290 : FFCB;
    291 : FE4A;
    292 : 089F;
    293 : FB5E;
    294 : 0420;
    295 : 03B9;
    296 : 089E;
    297 : FD25;
    298 : ED22;
    299 : 0382;
    300 : F64F;
    301 : 0EAF;
    302 : FE43;
    303 : F838;
    304 : 002B;
    305 : F243;
    306 : 0BF7;
    307 : F148;
    308 : FB63;
    309 : 0AD2;
    310 : 03BE;
    311 : 0448;
    312 : 0B45;
    313 : F225;
    314 : FC84;
    315 : 0452;
    316 : FED3;
    317 : 0869;
    318 : FA3F;
    319 : 096B;
    320 : FCFD;
    321 : FCC1;
    322 : FC9B;
    323 : FC37;
    324 : 0325;
    325 : F8BB;
    326 : 00EB;
    327 : 0495;
    328 : 070F;
    329 : 04AB;
    330 : 0441;
    331 : FB10;
    332 : 00D1;
    333 : 0262;
    334 : F2BC;
    335 : 05C3;
    336 : 0A5C;
    337 : F08B;
    338 : FF35;
    339 : 0811;
    340 : 0155;
    341 : 0400;
    342 : FE25;
    343 : F050;
    344 : FF0C;
    345 : FDA7;
    346 : 01AB;
    347 : 0040;
    348 : 02CB;
    349 : F63A;
    350 : 04F0;
    351 : FE91;
    352 : F0EA;
    353 : 08BD;
    354 : F963;
    355 : 0C4C;
    356 : 0043;
    357 : F745;
    358 : FAE5;
    359 : FD28;
    360 : F6E8;
    361 : 0490;
    362 : 02A1;
    363 : FC6E;
    364 : F918;
    365 : FAB6;
    366 : 00B9;
    367 : 0710;
    368 : 01EE;
    369 : F95B;
    370 : FB85;
    371 : 046D;
    372 : FFA7;
    373 : 0994;
    374 : 0770;
    375 : FE9D;
    376 : F24D;
    377 : FD72;
    378 : FF12;
    379 : F472;
    380 : F8A0;
    381 : 0270;
    382 : 064E;
    383 : FE38;
    384 : 0080;
END;
