WIDTH=16;
DEPTH=385;

ADDRESS_RADIX=DEC;
DATA_RADIX=HEX;

CONTENT BEGIN
    0 : F5F1;
    1 : FDCC;
    2 : FF34;
    3 : F974;
    4 : 1284;
    5 : FEE0;
    6 : 0325;
    7 : F094;
    8 : FEA9;
    9 : FFFC;
    10 : F25C;
    11 : 0230;
    12 : 00C5;
    13 : F417;
    14 : FC5B;
    15 : FE16;
    16 : 0641;
    17 : 0111;
    18 : FB63;
    19 : 0F97;
    20 : FBCC;
    21 : FE47;
    22 : FC0C;
    23 : F49C;
    24 : 00B0;
    25 : F669;
    26 : FAA7;
    27 : 0858;
    28 : 0472;
    29 : F9B6;
    30 : FEF2;
    31 : FF69;
    32 : FBE0;
    33 : 062E;
    34 : 103C;
    35 : F68C;
    36 : FB9A;
    37 : 117D;
    38 : FD96;
    39 : FEF8;
    40 : 0143;
    41 : FC9B;
    42 : FB7B;
    43 : 0402;
    44 : 0086;
    45 : 0541;
    46 : 00A7;
    47 : F6BB;
    48 : 0A78;
    49 : FF43;
    50 : 07E3;
    51 : 027A;
    52 : EEA5;
    53 : 0D2B;
    54 : FFCD;
    55 : FD3C;
    56 : FBC9;
    57 : FE62;
    58 : FF33;
    59 : FCB7;
    60 : 00EA;
    61 : EBF6;
    62 : 05E0;
    63 : FF60;
    64 : 0137;
    65 : 0C5D;
    66 : FC33;
    67 : 15CE;
    68 : FE33;
    69 : FA25;
    70 : 02DB;
    71 : FADF;
    72 : 04BA;
    73 : F7DD;
    74 : FCC2;
    75 : 02D6;
    76 : 077F;
    77 : FE2C;
    78 : 0701;
    79 : 075B;
    80 : 0619;
    81 : FDC0;
    82 : EF32;
    83 : 08CD;
    84 : FFCB;
    85 : 0431;
    86 : FDFA;
    87 : 009D;
    88 : 0050;
    89 : F593;
    90 : 0538;
    91 : 09DE;
    92 : FC99;
    93 : 03BD;
    94 : F701;
    95 : FA86;
    96 : 03DC;
    97 : F8E7;
    98 : FACE;
    99 : 0506;
    100 : 0964;
    101 : FF81;
    102 : F30C;
    103 : 0674;
    104 : FD57;
    105 : FAA1;
    106 : 0AB3;
    107 : F348;
    108 : 07EB;
    109 : F982;
    110 : FAA0;
    111 : 0851;
    112 : 0661;
    113 : F990;
    114 : 015C;
    115 : 02A7;
    116 : 0030;
    117 : 0941;
    118 : 0730;
    119 : FA92;
    120 : FDEC;
    121 : 05D3;
    122 : 022B;
    123 : FEC1;
    124 : F779;
    125 : FAFD;
    126 : FEDC;
    127 : 0236;
    128 : FE13;
    129 : FFBA;
    130 : 0A1A;
    131 : FE7E;
    132 : FE3D;
    133 : F4A6;
    134 : F63A;
    135 : 0174;
    136 : 0D32;
    137 : FC40;
    138 : 0848;
    139 : F184;
    140 : 005B;
    141 : 015D;
    142 : FE38;
    143 : 0104;
    144 : F9E3;
    145 : F52A;
    146 : 03E0;
    147 : FD2B;
    148 : 04D1;
    149 : 00DA;
    150 : F975;
    151 : 0C13;
    152 : 05CD;
    153 : FA02;
    154 : F489;
    155 : FE45;
    156 : F915;
    157 : 0992;
    158 : FFC2;
    159 : 01AA;
    160 : FDC9;
    161 : F868;
    162 : 0482;
    163 : F5C9;
    164 : FDB7;
    165 : 00B6;
    166 : 0535;
    167 : 018B;
    168 : FF60;
    169 : 0D34;
    170 : FCCB;
    171 : FBD4;
    172 : F634;
    173 : FF2A;
    174 : FCED;
    175 : 01A1;
    176 : FC8D;
    177 : 0453;
    178 : 053B;
    179 : F831;
    180 : 0EB0;
    181 : 00C9;
    182 : FF88;
    183 : FE53;
    184 : F09B;
    185 : 0D6E;
    186 : 0227;
    187 : FB1B;
    188 : 012C;
    189 : 041A;
    190 : 0542;
    191 : 0212;
    192 : F381;
    193 : 0C76;
    194 : FF95;
    195 : 0054;
    196 : 0176;
    197 : F206;
    198 : F0DD;
    199 : 1206;
    200 : FFC0;
    201 : FB0B;
    202 : FE5B;
    203 : F31C;
    204 : F59B;
    205 : 046E;
    206 : F94C;
    207 : FEE6;
    208 : 1345;
    209 : F1FF;
    210 : FDEB;
    211 : 001A;
    212 : FB14;
    213 : 0003;
    214 : 1022;
    215 : F9F6;
    216 : 0096;
    217 : 0262;
    218 : 00F8;
    219 : 0447;
    220 : 01F6;
    221 : F962;
    222 : F8E7;
    223 : F7DA;
    224 : F84B;
    225 : FF29;
    226 : 0DAA;
    227 : F93D;
    228 : FE18;
    229 : 0AED;
    230 : FDC2;
    231 : FF33;
    232 : FCEE;
    233 : F508;
    234 : F8D9;
    235 : 0754;
    236 : FBDE;
    237 : FC4C;
    238 : FC65;
    239 : FCD7;
    240 : FAA8;
    241 : F816;
    242 : FF74;
    243 : FCE5;
    244 : 0738;
    245 : FD32;
    246 : 0AFB;
    247 : F31B;
    248 : FC62;
    249 : 00F8;
    250 : 0424;
    251 : 08E1;
    252 : 031C;
    253 : 0539;
    254 : FE31;
    255 : 00CE;
    256 : F8DA;
    257 : 0186;
    258 : 0126;
    259 : 0FF0;
    260 : FAFD;
    261 : FD70;
    262 : 04E7;
    263 : F8F6;
    264 : FFCC;
    265 : 0F15;
    266 : FB58;
    267 : FD0E;
    268 : FB3D;
    269 : FA35;
    270 : F0CE;
    271 : 1AB2;
    272 : FDB4;
    273 : F9B8;
    274 : 0787;
    275 : F43C;
    276 : F9D2;
    277 : FBFB;
    278 : FFDB;
    279 : FEC1;
    280 : 0C03;
    281 : FFF9;
    282 : 0578;
    283 : 05D3;
    284 : 0B66;
    285 : FECE;
    286 : F103;
    287 : 0B48;
    288 : FB06;
    289 : 1654;
    290 : FE0A;
    291 : FA5E;
    292 : FCF2;
    293 : F396;
    294 : 059E;
    295 : EF78;
    296 : 036F;
    297 : 056D;
    298 : 0943;
    299 : 0B78;
    300 : 0270;
    301 : F266;
    302 : FCF5;
    303 : 0142;
    304 : 0800;
    305 : 0309;
    306 : 0863;
    307 : FFE5;
    308 : 04F2;
    309 : 014B;
    310 : EC57;
    311 : 06A1;
    312 : 014D;
    313 : 070D;
    314 : 028F;
    315 : 030D;
    316 : F673;
    317 : FEE6;
    318 : 03AF;
    319 : FBE5;
    320 : 0002;
    321 : 074E;
    322 : 0809;
    323 : FEB5;
    324 : FDF8;
    325 : 06DD;
    326 : 0009;
    327 : FF07;
    328 : F751;
    329 : FE21;
    330 : 015B;
    331 : FCE6;
    332 : 01B4;
    333 : FC64;
    334 : E42E;
    335 : 0922;
    336 : FD26;
    337 : 0DC8;
    338 : FD99;
    339 : FD3C;
    340 : 0438;
    341 : FE68;
    342 : FD35;
    343 : 0A91;
    344 : FEB2;
    345 : FD5A;
    346 : 0224;
    347 : FAF0;
    348 : F9F3;
    349 : F3EE;
    350 : 0014;
    351 : 03C2;
    352 : 0B06;
    353 : 0181;
    354 : F711;
    355 : FEA9;
    356 : FF78;
    357 : 0098;
    358 : 0380;
    359 : F507;
    360 : FC0A;
    361 : F4A0;
    362 : FEF3;
    363 : 02E7;
    364 : 0653;
    365 : FE24;
    366 : FB9F;
    367 : FA8D;
    368 : 01D6;
    369 : 02A4;
    370 : 0FC7;
    371 : 000B;
    372 : 035B;
    373 : EF79;
    374 : 036E;
    375 : FF51;
    376 : 04F7;
    377 : 0C5E;
    378 : 0333;
    379 : FFE9;
    380 : 068E;
    381 : 0196;
    382 : ED33;
    383 : 0605;
    384 : 0080;
END;
