WIDTH=16;
DEPTH=385;

ADDRESS_RADIX=DEC;
DATA_RADIX=HEX;

CONTENT BEGIN
    0 : 0250;
    1 : FA06;
    2 : FF36;
    3 : 0054;
    4 : F99A;
    5 : 038C;
    6 : F14B;
    7 : 0C0E;
    8 : 00B6;
    9 : FB54;
    10 : 068A;
    11 : FBA9;
    12 : F7B0;
    13 : FF4B;
    14 : F9E5;
    15 : FFED;
    16 : 095F;
    17 : F677;
    18 : F979;
    19 : 06C8;
    20 : FD87;
    21 : FAD9;
    22 : FFF4;
    23 : F97F;
    24 : FC81;
    25 : FCB0;
    26 : FDB0;
    27 : FAB6;
    28 : FC4D;
    29 : 0641;
    30 : 0468;
    31 : F762;
    32 : FE38;
    33 : 05C7;
    34 : FEC1;
    35 : 0397;
    36 : F4F0;
    37 : 08A6;
    38 : FC79;
    39 : FA37;
    40 : 0658;
    41 : F78F;
    42 : 0126;
    43 : F9BB;
    44 : 00DF;
    45 : 0654;
    46 : 0746;
    47 : FEED;
    48 : 00FB;
    49 : 094F;
    50 : 0294;
    51 : FF06;
    52 : 00EE;
    53 : 01B8;
    54 : FB45;
    55 : 02ED;
    56 : FF52;
    57 : FABC;
    58 : 066D;
    59 : 0159;
    60 : 0561;
    61 : F51D;
    62 : FF7E;
    63 : 0297;
    64 : 02BF;
    65 : 095C;
    66 : FE73;
    67 : 0BAB;
    68 : FFFC;
    69 : FAC2;
    70 : 068F;
    71 : FEF7;
    72 : FC18;
    73 : F92B;
    74 : FAC6;
    75 : FD1F;
    76 : 0818;
    77 : 0110;
    78 : FBFD;
    79 : 0581;
    80 : FEC7;
    81 : 0086;
    82 : 0065;
    83 : F616;
    84 : 0743;
    85 : 0251;
    86 : 00AA;
    87 : 07AB;
    88 : F47D;
    89 : FD8D;
    90 : FBB5;
    91 : 028A;
    92 : FFAB;
    93 : F7BA;
    94 : FF59;
    95 : 0386;
    96 : 0701;
    97 : FBBC;
    98 : 0581;
    99 : 01D6;
    100 : F08F;
    101 : 0881;
    102 : 049B;
    103 : 078F;
    104 : 0443;
    105 : 028F;
    106 : FAAF;
    107 : FF65;
    108 : F996;
    109 : FF56;
    110 : FD38;
    111 : FEEB;
    112 : 0880;
    113 : F9A1;
    114 : 01D5;
    115 : FB08;
    116 : FDE3;
    117 : 04D8;
    118 : FFD7;
    119 : FFEB;
    120 : 08EA;
    121 : F7C5;
    122 : FCFF;
    123 : FE32;
    124 : FE0F;
    125 : 0B8B;
    126 : 06FE;
    127 : 073D;
    128 : FB9F;
    129 : 0227;
    130 : 015B;
    131 : 0148;
    132 : 0A13;
    133 : F631;
    134 : FCC1;
    135 : 0A0B;
    136 : FB04;
    137 : FEF1;
    138 : 0024;
    139 : FB82;
    140 : 00E2;
    141 : 0275;
    142 : FFD1;
    143 : F9C2;
    144 : 009B;
    145 : FD0F;
    146 : FD2B;
    147 : FBF6;
    148 : 00E0;
    149 : 0169;
    150 : 066D;
    151 : FC1B;
    152 : FD48;
    153 : 0396;
    154 : FAC9;
    155 : 002D;
    156 : FE5A;
    157 : 04FC;
    158 : FCAE;
    159 : F94F;
    160 : FEEC;
    161 : FD0B;
    162 : 0BE0;
    163 : F8F6;
    164 : FACD;
    165 : 0153;
    166 : F994;
    167 : 01A6;
    168 : 06BD;
    169 : F417;
    170 : FFE1;
    171 : 0081;
    172 : F00D;
    173 : 094C;
    174 : 00CF;
    175 : 014D;
    176 : 046D;
    177 : 0046;
    178 : F6B8;
    179 : FCA1;
    180 : F5A1;
    181 : 0B77;
    182 : FF69;
    183 : F991;
    184 : 0036;
    185 : FACD;
    186 : FEFC;
    187 : FEAB;
    188 : FF24;
    189 : FEBF;
    190 : 0214;
    191 : FB51;
    192 : FA7C;
    193 : 0064;
    194 : 0245;
    195 : FF30;
    196 : FE0F;
    197 : FC01;
    198 : F46F;
    199 : 0BFA;
    200 : FECA;
    201 : F8A8;
    202 : 0135;
    203 : F50A;
    204 : 032D;
    205 : F9CF;
    206 : 0259;
    207 : 05AF;
    208 : 0419;
    209 : 06E4;
    210 : FDDA;
    211 : F960;
    212 : F9B5;
    213 : 03CB;
    214 : 03CF;
    215 : FCC9;
    216 : 0576;
    217 : FE13;
    218 : FDDE;
    219 : 01D5;
    220 : 01A5;
    221 : 0435;
    222 : 0B17;
    223 : F95A;
    224 : FAA4;
    225 : FE46;
    226 : 0017;
    227 : 0B35;
    228 : FEF2;
    229 : 05F1;
    230 : FC6D;
    231 : FA20;
    232 : 0A64;
    233 : FE07;
    234 : 0735;
    235 : 02D9;
    236 : 0460;
    237 : FD1A;
    238 : F6FE;
    239 : 051E;
    240 : F68F;
    241 : FC41;
    242 : FC42;
    243 : 026A;
    244 : 0595;
    245 : F5C5;
    246 : F42B;
    247 : 0296;
    248 : FE87;
    249 : FFDF;
    250 : 0D10;
    251 : FA5E;
    252 : 0256;
    253 : FB56;
    254 : FE7B;
    255 : 0134;
    256 : FD0E;
    257 : 018E;
    258 : 03D6;
    259 : FA8C;
    260 : FDAF;
    261 : 03C5;
    262 : F9FD;
    263 : 02C8;
    264 : 1373;
    265 : F5B3;
    266 : 04E1;
    267 : 01FA;
    268 : EE0C;
    269 : 11BD;
    270 : 0590;
    271 : FDA9;
    272 : 055E;
    273 : 02C9;
    274 : F8E6;
    275 : 0680;
    276 : 000D;
    277 : FBB3;
    278 : FC4B;
    279 : F991;
    280 : 01E5;
    281 : 06BA;
    282 : FD0A;
    283 : 0F04;
    284 : FE80;
    285 : FDD6;
    286 : 04B3;
    287 : F827;
    288 : F854;
    289 : 01E1;
    290 : FF2E;
    291 : F7B7;
    292 : FC06;
    293 : FD3F;
    294 : 0B40;
    295 : F946;
    296 : FB22;
    297 : 0AA1;
    298 : FC06;
    299 : FE18;
    300 : 027A;
    301 : FCB1;
    302 : 0210;
    303 : 0056;
    304 : 0347;
    305 : 032A;
    306 : 083B;
    307 : 0502;
    308 : F8C2;
    309 : FF8D;
    310 : FB2D;
    311 : FE3B;
    312 : F8C8;
    313 : 0589;
    314 : 0265;
    315 : F9D9;
    316 : 0367;
    317 : 00A1;
    318 : FF29;
    319 : F68E;
    320 : F79B;
    321 : 0028;
    322 : 088C;
    323 : FDDC;
    324 : 009C;
    325 : 07D6;
    326 : 0372;
    327 : F7FB;
    328 : F879;
    329 : 0088;
    330 : 08B2;
    331 : FE90;
    332 : FE45;
    333 : 0695;
    334 : E920;
    335 : 007A;
    336 : 076A;
    337 : 0334;
    338 : F762;
    339 : 0303;
    340 : FD79;
    341 : F8FD;
    342 : 0895;
    343 : FFE6;
    344 : 04F3;
    345 : FEC2;
    346 : F1B4;
    347 : 0BB4;
    348 : FA09;
    349 : F86E;
    350 : F9E4;
    351 : FDFC;
    352 : 09A5;
    353 : FC03;
    354 : 0102;
    355 : FB73;
    356 : 019B;
    357 : FC86;
    358 : FE8D;
    359 : 04A3;
    360 : FBF3;
    361 : 04C2;
    362 : F8BD;
    363 : FF8B;
    364 : 1146;
    365 : F599;
    366 : 0380;
    367 : F714;
    368 : 0259;
    369 : 0230;
    370 : 004B;
    371 : 0906;
    372 : 0D36;
    373 : F735;
    374 : FDFE;
    375 : 03AD;
    376 : FB2B;
    377 : 0CF2;
    378 : 0696;
    379 : FF56;
    380 : 02AE;
    381 : 04E1;
    382 : F788;
    383 : FFED;
    384 : 0080;
END;
