WIDTH=16;
DEPTH=385;

ADDRESS_RADIX=DEC;
DATA_RADIX=HEX;

CONTENT BEGIN
    0 : FF9A;
    1 : FDEA;
    2 : 02AF;
    3 : 0366;
    4 : 0D5B;
    5 : FD33;
    6 : 05DA;
    7 : F7D7;
    8 : FE17;
    9 : 04E6;
    10 : F2C4;
    11 : FDAE;
    12 : FDD7;
    13 : F389;
    14 : 0133;
    15 : 049A;
    16 : 00B1;
    17 : FD34;
    18 : 025C;
    19 : 09AD;
    20 : 03FB;
    21 : FD46;
    22 : F62A;
    23 : FF5B;
    24 : F8AB;
    25 : 0A1B;
    26 : F91A;
    27 : FF5A;
    28 : 0C70;
    29 : F29C;
    30 : 02A9;
    31 : FC53;
    32 : FE98;
    33 : 03DD;
    34 : 0945;
    35 : 019C;
    36 : 0087;
    37 : 0F75;
    38 : 043A;
    39 : FE72;
    40 : F672;
    41 : 0094;
    42 : 0125;
    43 : F826;
    44 : FD1C;
    45 : 01B3;
    46 : 0532;
    47 : 03A9;
    48 : 0190;
    49 : 0770;
    50 : FDAD;
    51 : 025C;
    52 : FB95;
    53 : FC63;
    54 : 058A;
    55 : F7E1;
    56 : FB55;
    57 : 03BC;
    58 : 0BD3;
    59 : 0586;
    60 : 01E3;
    61 : F7A4;
    62 : F5B9;
    63 : FE21;
    64 : 03A1;
    65 : F9C4;
    66 : 0256;
    67 : 03A5;
    68 : 0298;
    69 : FAAB;
    70 : F810;
    71 : 0737;
    72 : 0B93;
    73 : ED6E;
    74 : FA83;
    75 : 0899;
    76 : 0426;
    77 : 0764;
    78 : FFE5;
    79 : 104E;
    80 : FFBB;
    81 : FA6A;
    82 : 002C;
    83 : 00F6;
    84 : F5D3;
    85 : 0487;
    86 : FAE3;
    87 : FA55;
    88 : 0777;
    89 : F9D8;
    90 : 0D37;
    91 : 0341;
    92 : FF6E;
    93 : 0407;
    94 : F657;
    95 : 07B0;
    96 : 0464;
    97 : F8FD;
    98 : 0000;
    99 : 0009;
    100 : FC41;
    101 : 03FB;
    102 : F86C;
    103 : 0505;
    104 : FD70;
    105 : FFFE;
    106 : 04A8;
    107 : F81E;
    108 : 010C;
    109 : F68A;
    110 : FC8B;
    111 : 05D2;
    112 : 0CC2;
    113 : FF42;
    114 : 0445;
    115 : 02E0;
    116 : FDD6;
    117 : 02FA;
    118 : 077E;
    119 : 01B6;
    120 : FC4B;
    121 : FE67;
    122 : 0877;
    123 : FC2F;
    124 : FA68;
    125 : 0506;
    126 : F2EC;
    127 : 0A5D;
    128 : FE93;
    129 : FAD2;
    130 : 061F;
    131 : F5F1;
    132 : FBB1;
    133 : F4EC;
    134 : F71C;
    135 : 02EB;
    136 : 06B9;
    137 : F7AB;
    138 : F7CD;
    139 : EF9B;
    140 : 0580;
    141 : FAE9;
    142 : 04B4;
    143 : 04F9;
    144 : FEC2;
    145 : F006;
    146 : FF43;
    147 : 060D;
    148 : 065C;
    149 : 0362;
    150 : FF01;
    151 : 063F;
    152 : 01B8;
    153 : 0156;
    154 : F801;
    155 : FCA2;
    156 : FC96;
    157 : 0978;
    158 : FBCD;
    159 : FCDE;
    160 : FFF7;
    161 : FD20;
    162 : 06E0;
    163 : F206;
    164 : F83C;
    165 : 07AF;
    166 : 0818;
    167 : 032D;
    168 : F945;
    169 : FD32;
    170 : 046D;
    171 : FCBD;
    172 : DB77;
    173 : 04BE;
    174 : FEA1;
    175 : 080B;
    176 : FEEE;
    177 : FBB2;
    178 : 01A8;
    179 : 0540;
    180 : FF1C;
    181 : 02EA;
    182 : 017E;
    183 : FF87;
    184 : FA1E;
    185 : 03B4;
    186 : FEA6;
    187 : F36B;
    188 : 04C3;
    189 : FF7C;
    190 : 03F7;
    191 : 092A;
    192 : FDEE;
    193 : 0D0C;
    194 : 0627;
    195 : FAA3;
    196 : F55A;
    197 : FD18;
    198 : F6EE;
    199 : 0A43;
    200 : 022F;
    201 : F5AC;
    202 : F993;
    203 : FF99;
    204 : 02C7;
    205 : EE28;
    206 : 007E;
    207 : 01A8;
    208 : FF88;
    209 : 086C;
    210 : 0944;
    211 : EFF1;
    212 : FBB1;
    213 : 0132;
    214 : FEB1;
    215 : 0872;
    216 : F9E5;
    217 : FC68;
    218 : 002F;
    219 : 04FD;
    220 : 02ED;
    221 : F899;
    222 : 0315;
    223 : F283;
    224 : F61A;
    225 : 0644;
    226 : 0833;
    227 : FF34;
    228 : F842;
    229 : FDA5;
    230 : 050E;
    231 : F8B0;
    232 : FAD9;
    233 : 00FA;
    234 : 0A10;
    235 : 0469;
    236 : 0011;
    237 : 0305;
    238 : F868;
    239 : 0474;
    240 : 016A;
    241 : F5D6;
    242 : FDA4;
    243 : 0829;
    244 : 03FB;
    245 : FA18;
    246 : 0A01;
    247 : EDB2;
    248 : FDF1;
    249 : 0651;
    250 : FE71;
    251 : 06F1;
    252 : 06AD;
    253 : FD6F;
    254 : 023A;
    255 : FF1D;
    256 : F2ED;
    257 : 0742;
    258 : 0811;
    259 : 068E;
    260 : F944;
    261 : 050D;
    262 : 00CC;
    263 : FBD3;
    264 : 0306;
    265 : 0412;
    266 : FC89;
    267 : FD0F;
    268 : F6A8;
    269 : FFB5;
    270 : FE9C;
    271 : 0775;
    272 : 0079;
    273 : 01F6;
    274 : F625;
    275 : FD68;
    276 : F630;
    277 : 02FE;
    278 : F8FD;
    279 : FDDA;
    280 : 11E7;
    281 : F8D6;
    282 : 01CA;
    283 : FBBE;
    284 : 0490;
    285 : FA55;
    286 : EEE2;
    287 : 0799;
    288 : F382;
    289 : 0AA3;
    290 : 07EE;
    291 : F7BC;
    292 : F88E;
    293 : FB4F;
    294 : 069D;
    295 : FB18;
    296 : F675;
    297 : 025B;
    298 : 0A1D;
    299 : FCFF;
    300 : F862;
    301 : F5A7;
    302 : F8A2;
    303 : FD90;
    304 : 082C;
    305 : F8A6;
    306 : F490;
    307 : 1016;
    308 : 03D6;
    309 : FC4F;
    310 : FCB6;
    311 : F75C;
    312 : FC83;
    313 : 08DF;
    314 : 0185;
    315 : FD99;
    316 : FAD9;
    317 : FB36;
    318 : 040A;
    319 : EE80;
    320 : FC0F;
    321 : 0955;
    322 : 0467;
    323 : FC62;
    324 : F880;
    325 : 09FE;
    326 : 05A0;
    327 : FE14;
    328 : FCDB;
    329 : FD21;
    330 : 0632;
    331 : F941;
    332 : 0213;
    333 : 053F;
    334 : CDD1;
    335 : 0441;
    336 : FAE0;
    337 : 07CC;
    338 : 0400;
    339 : FBF5;
    340 : FDED;
    341 : 0266;
    342 : FC7D;
    343 : 1589;
    344 : FB36;
    345 : FCD9;
    346 : 03FF;
    347 : F837;
    348 : FA92;
    349 : 0077;
    350 : F5C9;
    351 : 0089;
    352 : 0E14;
    353 : F1D3;
    354 : 0130;
    355 : F77B;
    356 : 0492;
    357 : FEAA;
    358 : FD1D;
    359 : 014E;
    360 : F9C1;
    361 : F59C;
    362 : FEB0;
    363 : F7D8;
    364 : 0529;
    365 : 003F;
    366 : 0AE3;
    367 : EED6;
    368 : FBDE;
    369 : 0848;
    370 : 0214;
    371 : 06C5;
    372 : 0B4A;
    373 : F313;
    374 : 032C;
    375 : 03E2;
    376 : FE47;
    377 : 09CF;
    378 : 0512;
    379 : 0496;
    380 : FDC2;
    381 : FA47;
    382 : F2BE;
    383 : 01DB;
    384 : 0080;
END;
