WIDTH=16;
DEPTH=385;

ADDRESS_RADIX=DEC;
DATA_RADIX=HEX;

CONTENT BEGIN
    0 : FB81;
    1 : 016E;
    2 : 056C;
    3 : 03F1;
    4 : E88C;
    5 : FF5A;
    6 : FE95;
    7 : 0FC7;
    8 : FEF3;
    9 : 0049;
    10 : 0766;
    11 : F868;
    12 : F3DD;
    13 : 10FF;
    14 : 03F6;
    15 : F5AF;
    16 : 01C9;
    17 : FBC8;
    18 : 0839;
    19 : F813;
    20 : FC5F;
    21 : 046B;
    22 : 04E3;
    23 : 036F;
    24 : 00C0;
    25 : FC9F;
    26 : 00A3;
    27 : 0307;
    28 : F5E8;
    29 : 01D8;
    30 : 084B;
    31 : 06FD;
    32 : 09BE;
    33 : FD80;
    34 : EA78;
    35 : 04B2;
    36 : 0254;
    37 : DB21;
    38 : FA7B;
    39 : 0024;
    40 : 0299;
    41 : FFF3;
    42 : 08B1;
    43 : FD49;
    44 : F95E;
    45 : FE64;
    46 : EE14;
    47 : 0632;
    48 : 02D2;
    49 : F56D;
    50 : F7D3;
    51 : 0462;
    52 : 0958;
    53 : FE16;
    54 : 065D;
    55 : 0719;
    56 : FA97;
    57 : 03A3;
    58 : F139;
    59 : F720;
    60 : FFC9;
    61 : 033B;
    62 : 054A;
    63 : FEF0;
    64 : F493;
    65 : FEE1;
    66 : 0D9C;
    67 : EB58;
    68 : FE60;
    69 : 0A79;
    70 : FBE8;
    71 : 0608;
    72 : FEBC;
    73 : 0FB1;
    74 : 038B;
    75 : F4DB;
    76 : FB4B;
    77 : 0385;
    78 : 084F;
    79 : F0DA;
    80 : F4F8;
    81 : 0582;
    82 : 0AFB;
    83 : 010C;
    84 : FC5B;
    85 : 0950;
    86 : 03F4;
    87 : FA4C;
    88 : FEAD;
    89 : FE91;
    90 : 0340;
    91 : F6AE;
    92 : 015A;
    93 : FDBF;
    94 : 03F0;
    95 : 0615;
    96 : F3AB;
    97 : 1498;
    98 : FF56;
    99 : FC1A;
    100 : 0EC1;
    101 : F614;
    102 : 0200;
    103 : FC1E;
    104 : F925;
    105 : FFFE;
    106 : 06F1;
    107 : FEEA;
    108 : FE2E;
    109 : 0123;
    110 : 08DB;
    111 : FB2E;
    112 : ECE2;
    113 : 0976;
    114 : FD28;
    115 : 03A9;
    116 : FFA8;
    117 : 0139;
    118 : F921;
    119 : F79B;
    120 : FAD7;
    121 : 01E6;
    122 : FE19;
    123 : FFA5;
    124 : FD69;
    125 : F863;
    126 : FE1C;
    127 : F9CB;
    128 : FEA3;
    129 : FB00;
    130 : 017D;
    131 : 0172;
    132 : FAAA;
    133 : 0887;
    134 : 0A33;
    135 : F9BD;
    136 : F340;
    137 : 01A9;
    138 : 0477;
    139 : 1A7F;
    140 : FEBE;
    141 : 0402;
    142 : F4DE;
    143 : FB7F;
    144 : FF45;
    145 : 07FF;
    146 : 06E1;
    147 : 004B;
    148 : F4F9;
    149 : FEBE;
    150 : 03BE;
    151 : F30B;
    152 : 01B1;
    153 : 0674;
    154 : 0405;
    155 : FEE6;
    156 : FF33;
    157 : F156;
    158 : F794;
    159 : FEED;
    160 : 0BF3;
    161 : 0471;
    162 : 0619;
    163 : 0011;
    164 : 0314;
    165 : 0336;
    166 : F844;
    167 : 0842;
    168 : F5FF;
    169 : 113B;
    170 : F9B2;
    171 : FD20;
    172 : 6763;
    173 : F0E2;
    174 : 000E;
    175 : D925;
    176 : FAF4;
    177 : 072F;
    178 : 02DF;
    179 : F75F;
    180 : 07C6;
    181 : F65D;
    182 : FC24;
    183 : 0C15;
    184 : 09B4;
    185 : 0224;
    186 : 09A4;
    187 : F5B4;
    188 : FFAD;
    189 : FE63;
    190 : DDF1;
    191 : 0A49;
    192 : 0210;
    193 : F573;
    194 : FC58;
    195 : 0212;
    196 : 0C58;
    197 : 02A9;
    198 : 0AAD;
    199 : F2DD;
    200 : FDF8;
    201 : 0A80;
    202 : 086D;
    203 : 05D7;
    204 : 0266;
    205 : 0D38;
    206 : 030D;
    207 : FD54;
    208 : F71C;
    209 : 001E;
    210 : F483;
    211 : 0D46;
    212 : 046B;
    213 : F27D;
    214 : F75A;
    215 : FEC2;
    216 : F7C1;
    217 : 0442;
    218 : 0223;
    219 : 04B8;
    220 : FF37;
    221 : F47C;
    222 : F593;
    223 : 0AD1;
    224 : 00BF;
    225 : F89E;
    226 : F9E4;
    227 : F6B6;
    228 : F872;
    229 : 05E1;
    230 : 078C;
    231 : 015A;
    232 : 1123;
    233 : 035F;
    234 : F9B1;
    235 : F65D;
    236 : 0246;
    237 : 05AD;
    238 : 058A;
    239 : F9F8;
    240 : F837;
    241 : 09B7;
    242 : FC12;
    243 : FBC7;
    244 : FF68;
    245 : F974;
    246 : F05C;
    247 : 0E19;
    248 : 06FD;
    249 : F121;
    250 : F731;
    251 : FD3C;
    252 : 013D;
    253 : F069;
    254 : F580;
    255 : 0381;
    256 : 05C7;
    257 : FADD;
    258 : 0640;
    259 : F6BF;
    260 : 0384;
    261 : 05CC;
    262 : F577;
    263 : 011C;
    264 : 0049;
    265 : F42F;
    266 : 006B;
    267 : 02C7;
    268 : 0954;
    269 : 0788;
    270 : 03FF;
    271 : E9EA;
    272 : FC6C;
    273 : FF71;
    274 : 0450;
    275 : FFA5;
    276 : 067E;
    277 : 0256;
    278 : 0742;
    279 : 01B8;
    280 : F622;
    281 : 0AC4;
    282 : 02CE;
    283 : FC4B;
    284 : FE81;
    285 : 066B;
    286 : 0B9D;
    287 : 04A0;
    288 : F37A;
    289 : FD7E;
    290 : FC3E;
    291 : FC7A;
    292 : 0FC7;
    293 : FCC7;
    294 : 0696;
    295 : 0033;
    296 : 01EA;
    297 : FF95;
    298 : EE9B;
    299 : 0680;
    300 : F11C;
    301 : 1192;
    302 : FF56;
    303 : F93E;
    304 : 02C0;
    305 : F24C;
    306 : 0C8F;
    307 : ED88;
    308 : 01A0;
    309 : 06CC;
    310 : 0327;
    311 : 0D57;
    312 : F91F;
    313 : F697;
    314 : 0014;
    315 : 0184;
    316 : 042F;
    317 : FA76;
    318 : FD89;
    319 : 113D;
    320 : 01E1;
    321 : FB23;
    322 : F68D;
    323 : FEB5;
    324 : F943;
    325 : FA0D;
    326 : FC61;
    327 : FC9D;
    328 : 0DBE;
    329 : FF17;
    330 : FC72;
    331 : 061D;
    332 : FB39;
    333 : 036E;
    334 : 4E51;
    335 : F742;
    336 : F45D;
    337 : FA87;
    338 : F6F8;
    339 : 00CD;
    340 : 101D;
    341 : EF42;
    342 : 0071;
    343 : F993;
    344 : FCBD;
    345 : FED2;
    346 : 0717;
    347 : F942;
    348 : FA7E;
    349 : 06BD;
    350 : 0A32;
    351 : FBAE;
    352 : FC50;
    353 : 04BF;
    354 : FE0A;
    355 : 0252;
    356 : FF18;
    357 : FF48;
    358 : F1F6;
    359 : FCE2;
    360 : F647;
    361 : 0FDB;
    362 : 03E6;
    363 : F5BC;
    364 : FBFF;
    365 : 011E;
    366 : F8A3;
    367 : 0A04;
    368 : 060B;
    369 : FE9C;
    370 : FBF6;
    371 : FCBF;
    372 : FC24;
    373 : 069E;
    374 : 0C03;
    375 : FC9C;
    376 : E978;
    377 : 0213;
    378 : 0497;
    379 : F3BB;
    380 : FFCC;
    381 : 0514;
    382 : 052C;
    383 : 0277;
    384 : 0080;
END;
