WIDTH=16;
DEPTH=385;

ADDRESS_RADIX=DEC;
DATA_RADIX=HEX;

CONTENT BEGIN
    0 : F8A8;
    1 : 040D;
    2 : 028F;
    3 : FA06;
    4 : 0379;
    5 : 0049;
    6 : 0392;
    7 : FF5C;
    8 : FE4C;
    9 : FD9F;
    10 : 022C;
    11 : 01EC;
    12 : F7AA;
    13 : 0B15;
    14 : FCB5;
    15 : FD87;
    16 : FBCE;
    17 : F7D6;
    18 : F9A3;
    19 : F603;
    20 : FC4B;
    21 : FD88;
    22 : 0E44;
    23 : 00DE;
    24 : F7BD;
    25 : 040B;
    26 : 05D0;
    27 : FAA8;
    28 : FEBF;
    29 : 0171;
    30 : F8FA;
    31 : 13A0;
    32 : FC28;
    33 : F7D4;
    34 : 02F5;
    35 : F872;
    36 : 00FC;
    37 : FF4E;
    38 : F9D0;
    39 : F9FC;
    40 : 022C;
    41 : 01C2;
    42 : FCC2;
    43 : FE72;
    44 : 007D;
    45 : FCA2;
    46 : 00A2;
    47 : FDB2;
    48 : FCD5;
    49 : 0079;
    50 : FFB2;
    51 : FC69;
    52 : 093C;
    53 : FD24;
    54 : 052E;
    55 : FFF7;
    56 : F878;
    57 : 0439;
    58 : 0807;
    59 : F8C1;
    60 : 062E;
    61 : 049B;
    62 : FC0E;
    63 : FEAE;
    64 : F3A7;
    65 : 0304;
    66 : 0CFB;
    67 : F2B7;
    68 : F914;
    69 : 0206;
    70 : 0189;
    71 : 0745;
    72 : 042A;
    73 : 03D2;
    74 : FE80;
    75 : 00F3;
    76 : F218;
    77 : FE58;
    78 : EC74;
    79 : 04AE;
    80 : FAC9;
    81 : FCDF;
    82 : 12CE;
    83 : ECAC;
    84 : 01DA;
    85 : 02F0;
    86 : FADE;
    87 : 013F;
    88 : 07EB;
    89 : 00CE;
    90 : 0CAF;
    91 : F321;
    92 : FF4C;
    93 : 0108;
    94 : 02FC;
    95 : 0DBF;
    96 : 0B41;
    97 : FD1A;
    98 : FC82;
    99 : FFDE;
    100 : FB15;
    101 : 0A63;
    102 : 06B3;
    103 : FD5C;
    104 : FF3F;
    105 : 059E;
    106 : FEC8;
    107 : 0746;
    108 : 04A0;
    109 : 0504;
    110 : 02EC;
    111 : FE66;
    112 : FD88;
    113 : 06FA;
    114 : FBAB;
    115 : FE90;
    116 : FE14;
    117 : F9FD;
    118 : FE33;
    119 : FC9F;
    120 : FC56;
    121 : FFA2;
    122 : 043E;
    123 : FE9B;
    124 : 08B1;
    125 : 038A;
    126 : 0815;
    127 : 0286;
    128 : 00F0;
    129 : FF2D;
    130 : FA82;
    131 : 08DF;
    132 : 0720;
    133 : 014A;
    134 : 0152;
    135 : 0343;
    136 : F0CF;
    137 : 0196;
    138 : F845;
    139 : 09A6;
    140 : FFE3;
    141 : FF86;
    142 : FD9D;
    143 : FA52;
    144 : F8F2;
    145 : 0719;
    146 : 0519;
    147 : 0038;
    148 : F5F3;
    149 : FC14;
    150 : 0116;
    151 : F71A;
    152 : 074B;
    153 : FC7C;
    154 : 02B6;
    155 : 0C59;
    156 : F531;
    157 : FC51;
    158 : F3CC;
    159 : 005D;
    160 : 0EC0;
    161 : F0EF;
    162 : F7B0;
    163 : 07FB;
    164 : 0940;
    165 : FA4D;
    166 : F45F;
    167 : 01AF;
    168 : 062D;
    169 : FCEB;
    170 : FEEF;
    171 : F908;
    172 : 0848;
    173 : 09B8;
    174 : FD58;
    175 : 0B29;
    176 : FB52;
    177 : FBBC;
    178 : 05D4;
    179 : FCFD;
    180 : 068F;
    181 : F1BF;
    182 : FB8A;
    183 : 056D;
    184 : 0532;
    185 : 00ED;
    186 : 02D4;
    187 : 00BB;
    188 : 01DD;
    189 : 02CC;
    190 : 0316;
    191 : 0758;
    192 : 0431;
    193 : 0721;
    194 : 029F;
    195 : 03A1;
    196 : 0967;
    197 : 03DD;
    198 : FD8A;
    199 : F4CE;
    200 : 0476;
    201 : FBE8;
    202 : 03AB;
    203 : 07BF;
    204 : 093E;
    205 : 03A5;
    206 : FD0A;
    207 : 0347;
    208 : FD4F;
    209 : 03BF;
    210 : F3D8;
    211 : 0B7F;
    212 : F9B7;
    213 : FE56;
    214 : FF86;
    215 : EF4C;
    216 : 001F;
    217 : FD48;
    218 : 027F;
    219 : F884;
    220 : FD73;
    221 : 0BC3;
    222 : 116D;
    223 : FED2;
    224 : 055F;
    225 : FE60;
    226 : EAF9;
    227 : 1301;
    228 : FB84;
    229 : FB5F;
    230 : FF26;
    231 : FE9A;
    232 : 0193;
    233 : FDF0;
    234 : 072D;
    235 : F0CE;
    236 : F96B;
    237 : 07FE;
    238 : 0950;
    239 : 030D;
    240 : 0C4F;
    241 : FD69;
    242 : 03AD;
    243 : FD3C;
    244 : ED2A;
    245 : 101F;
    246 : FCE7;
    247 : 0203;
    248 : 00F5;
    249 : F65D;
    250 : F69A;
    251 : 07A3;
    252 : F8FF;
    253 : FED3;
    254 : F64C;
    255 : FF9E;
    256 : 10CE;
    257 : F710;
    258 : F063;
    259 : FF26;
    260 : FC46;
    261 : F827;
    262 : 09A7;
    263 : F766;
    264 : 0268;
    265 : F999;
    266 : FEF2;
    267 : 0428;
    268 : 068E;
    269 : FC6C;
    270 : 0749;
    271 : F4D5;
    272 : 0159;
    273 : 00E6;
    274 : FBBF;
    275 : 077C;
    276 : FB2E;
    277 : 04C3;
    278 : FA0E;
    279 : FE18;
    280 : 040E;
    281 : 0084;
    282 : 0919;
    283 : EF78;
    284 : FB6A;
    285 : 0659;
    286 : 04B0;
    287 : 03AC;
    288 : 020E;
    289 : ECAF;
    290 : 0340;
    291 : 0307;
    292 : 01F7;
    293 : 0A1A;
    294 : 04DB;
    295 : 06EF;
    296 : FEAD;
    297 : FCEF;
    298 : FA8C;
    299 : 05A9;
    300 : FD6A;
    301 : 06D6;
    302 : 0324;
    303 : FCEE;
    304 : F7A1;
    305 : 05B2;
    306 : FD5B;
    307 : F98B;
    308 : 021E;
    309 : FF28;
    310 : 019E;
    311 : FFBB;
    312 : FC9F;
    313 : FEA4;
    314 : FDE0;
    315 : FEF9;
    316 : 0D1E;
    317 : FDCC;
    318 : FC97;
    319 : FFF3;
    320 : 0050;
    321 : F9D6;
    322 : F738;
    323 : 03DF;
    324 : 0145;
    325 : F565;
    326 : FE65;
    327 : 01AE;
    328 : 04FA;
    329 : FF95;
    330 : 094E;
    331 : F37B;
    332 : FDDC;
    333 : 08B5;
    334 : 0D4C;
    335 : 0387;
    336 : 036E;
    337 : F93F;
    338 : FF32;
    339 : F7BE;
    340 : 03D4;
    341 : 0A5E;
    342 : 0221;
    343 : F294;
    344 : 0301;
    345 : 032C;
    346 : FA6F;
    347 : 0887;
    348 : F69F;
    349 : 0A56;
    350 : 04EC;
    351 : F79D;
    352 : F70F;
    353 : FDE2;
    354 : 00A3;
    355 : 0D69;
    356 : FC1C;
    357 : F782;
    358 : 04A2;
    359 : FA58;
    360 : F9D3;
    361 : 048E;
    362 : 06AF;
    363 : FFD3;
    364 : FDF4;
    365 : 04DB;
    366 : FF40;
    367 : 0670;
    368 : FF6C;
    369 : F95C;
    370 : EFC6;
    371 : FD9D;
    372 : 05F4;
    373 : 04B8;
    374 : 0353;
    375 : FA41;
    376 : F807;
    377 : 0B94;
    378 : 012E;
    379 : F0F6;
    380 : FA3C;
    381 : FFFC;
    382 : 07EA;
    383 : 038A;
    384 : 0080;
END;
