WIDTH=16;
DEPTH=385;

ADDRESS_RADIX=DEC;
DATA_RADIX=HEX;

CONTENT BEGIN
    0 : FF24;
    1 : 0B52;
    2 : 08CF;
    3 : FC3F;
    4 : E6E4;
    5 : 031C;
    6 : 0569;
    7 : 0131;
    8 : 0220;
    9 : FF7A;
    10 : FD83;
    11 : 0D35;
    12 : FF26;
    13 : 0550;
    14 : 07F7;
    15 : FC00;
    16 : F777;
    17 : 05BA;
    18 : 052E;
    19 : FDFF;
    20 : FEFA;
    21 : FDBC;
    22 : 0588;
    23 : 045E;
    24 : FC53;
    25 : 0444;
    26 : 02B9;
    27 : 0460;
    28 : F7E1;
    29 : FC34;
    30 : F882;
    31 : 09A8;
    32 : 086B;
    33 : FB7C;
    34 : F5DE;
    35 : 014F;
    36 : 096F;
    37 : EC2B;
    38 : FE0E;
    39 : FF5B;
    40 : FAD2;
    41 : 0267;
    42 : FF3A;
    43 : FC88;
    44 : FEB3;
    45 : 0901;
    46 : F67C;
    47 : F9BF;
    48 : FB0B;
    49 : FFC1;
    50 : FE45;
    51 : FCA1;
    52 : 0B23;
    53 : FDFF;
    54 : F5D5;
    55 : 03BE;
    56 : 00FE;
    57 : FE33;
    58 : 00B3;
    59 : FE2C;
    60 : 04ED;
    61 : FF6B;
    62 : 0229;
    63 : 007E;
    64 : FBC0;
    65 : 08D8;
    66 : 0CF7;
    67 : ED07;
    68 : FFF3;
    69 : 07E5;
    70 : 00A6;
    71 : 0944;
    72 : 02D7;
    73 : 0A31;
    74 : FE07;
    75 : FFD1;
    76 : 015E;
    77 : FDDF;
    78 : F8A0;
    79 : FB42;
    80 : 0115;
    81 : FCFB;
    82 : 0C64;
    83 : FE05;
    84 : FBD6;
    85 : 0254;
    86 : 0066;
    87 : 009B;
    88 : FF7B;
    89 : FC17;
    90 : 05B5;
    91 : FB0D;
    92 : FFB7;
    93 : 07EC;
    94 : 0CBB;
    95 : 01D6;
    96 : 03BE;
    97 : 04A5;
    98 : 0738;
    99 : 02A7;
    100 : F0DE;
    101 : 0842;
    102 : 00E5;
    103 : 037C;
    104 : 09FF;
    105 : FDD4;
    106 : F78D;
    107 : 054E;
    108 : 015D;
    109 : 09D9;
    110 : FF5C;
    111 : FBD2;
    112 : F559;
    113 : FAB4;
    114 : 04BD;
    115 : F3AF;
    116 : FDD6;
    117 : 02EA;
    118 : EF9E;
    119 : FD0B;
    120 : FCF3;
    121 : 0663;
    122 : 00BD;
    123 : F8F1;
    124 : FE26;
    125 : FDFA;
    126 : FAB2;
    127 : 04ED;
    128 : 016C;
    129 : 0406;
    130 : FD00;
    131 : F584;
    132 : F19E;
    133 : 0E5F;
    134 : 017B;
    135 : F8AD;
    136 : FF13;
    137 : F6D8;
    138 : 0BB9;
    139 : 0329;
    140 : 08D1;
    141 : 01B3;
    142 : F077;
    143 : 107E;
    144 : 0604;
    145 : 0634;
    146 : 006E;
    147 : 02E0;
    148 : F490;
    149 : FC8F;
    150 : 03DD;
    151 : EC03;
    152 : FFCD;
    153 : 0831;
    154 : FED7;
    155 : 0116;
    156 : FA89;
    157 : F9D3;
    158 : FA3E;
    159 : 0393;
    160 : 0F66;
    161 : F5F8;
    162 : 0766;
    163 : FFB5;
    164 : 01F8;
    165 : 07D6;
    166 : F4ED;
    167 : FFB3;
    168 : 0483;
    169 : F0CE;
    170 : 0572;
    171 : 0548;
    172 : 0105;
    173 : 0AFC;
    174 : F756;
    175 : F168;
    176 : 0625;
    177 : FA70;
    178 : 04C6;
    179 : 0104;
    180 : 080A;
    181 : FE6D;
    182 : F8B1;
    183 : 01A7;
    184 : 025C;
    185 : 018D;
    186 : FF9B;
    187 : FC28;
    188 : 0463;
    189 : 06F4;
    190 : DAD1;
    191 : FA41;
    192 : FB0C;
    193 : 0352;
    194 : F88E;
    195 : 02EF;
    196 : 12E6;
    197 : F0F4;
    198 : 00DD;
    199 : F205;
    200 : FEA3;
    201 : 0B66;
    202 : 05B9;
    203 : FCE4;
    204 : FCE4;
    205 : 0411;
    206 : 0455;
    207 : FC43;
    208 : F141;
    209 : FFBC;
    210 : F531;
    211 : 0A2A;
    212 : 04E2;
    213 : FE1A;
    214 : FE05;
    215 : FF92;
    216 : 069D;
    217 : FA48;
    218 : FF1C;
    219 : 08CA;
    220 : 0111;
    221 : FC35;
    222 : 0052;
    223 : 07FE;
    224 : 0785;
    225 : FD75;
    226 : F432;
    227 : 015F;
    228 : F5DA;
    229 : FD7C;
    230 : 04A7;
    231 : F97C;
    232 : 0A9F;
    233 : FE21;
    234 : 0192;
    235 : F99C;
    236 : 03FF;
    237 : 018F;
    238 : 022B;
    239 : 00AC;
    240 : 0887;
    241 : 06BC;
    242 : 01E3;
    243 : FFAA;
    244 : F862;
    245 : 064D;
    246 : 0EDE;
    247 : 022A;
    248 : 0531;
    249 : 04B3;
    250 : F373;
    251 : 0D20;
    252 : FEC8;
    253 : F89B;
    254 : 033B;
    255 : 0244;
    256 : 0846;
    257 : 01B7;
    258 : F640;
    259 : FD7A;
    260 : 0468;
    261 : F8BD;
    262 : FAB1;
    263 : FF51;
    264 : FCCF;
    265 : F6CA;
    266 : F8B1;
    267 : 02D0;
    268 : 0AE4;
    269 : FA56;
    270 : 005B;
    271 : EEA5;
    272 : 04B8;
    273 : 0332;
    274 : 000F;
    275 : 024C;
    276 : 02A8;
    277 : 0C02;
    278 : 0494;
    279 : 00E2;
    280 : FA68;
    281 : 01FD;
    282 : 0D35;
    283 : F552;
    284 : 0425;
    285 : 06A1;
    286 : FFFE;
    287 : 0EF1;
    288 : 0B22;
    289 : F500;
    290 : F883;
    291 : 0B32;
    292 : 036B;
    293 : FCA3;
    294 : F796;
    295 : 0CC2;
    296 : 08F2;
    297 : FE1E;
    298 : FA89;
    299 : 01B5;
    300 : 062A;
    301 : FD9E;
    302 : 05A6;
    303 : FF70;
    304 : F357;
    305 : 0AC1;
    306 : FA3E;
    307 : F73B;
    308 : FEA2;
    309 : FAA5;
    310 : 0949;
    311 : 0641;
    312 : 016D;
    313 : FB27;
    314 : 0196;
    315 : 0498;
    316 : 0823;
    317 : FD8B;
    318 : 09DB;
    319 : FB53;
    320 : 053D;
    321 : 01DF;
    322 : F553;
    323 : 0FDD;
    324 : 03D4;
    325 : F59D;
    326 : FE98;
    327 : 0152;
    328 : 0999;
    329 : 08B8;
    330 : 004D;
    331 : FEA5;
    332 : 0045;
    333 : 01BB;
    334 : 0C57;
    335 : 03FC;
    336 : FB9E;
    337 : F9E3;
    338 : 05A0;
    339 : 0202;
    340 : 023C;
    341 : FE19;
    342 : 01B8;
    343 : 0109;
    344 : FEF6;
    345 : FF36;
    346 : FD86;
    347 : F907;
    348 : F779;
    349 : 0300;
    350 : 05F9;
    351 : FF35;
    352 : FFB5;
    353 : FAC5;
    354 : 0591;
    355 : FCB2;
    356 : 00EF;
    357 : FEFF;
    358 : F718;
    359 : 0758;
    360 : FB91;
    361 : 0223;
    362 : 03CC;
    363 : 06EF;
    364 : 048A;
    365 : 000E;
    366 : 02F6;
    367 : FE2B;
    368 : 03A5;
    369 : 006C;
    370 : F406;
    371 : 068B;
    372 : F799;
    373 : 07DA;
    374 : 0880;
    375 : F6B5;
    376 : EE7E;
    377 : 03C6;
    378 : 018B;
    379 : F9CD;
    380 : 031A;
    381 : 084E;
    382 : 05C8;
    383 : FA69;
    384 : 0080;
END;
