WIDTH=16;
DEPTH=385;

ADDRESS_RADIX=DEC;
DATA_RADIX=HEX;

CONTENT BEGIN
    0 : 0225;
    1 : 0F7A;
    2 : F8C9;
    3 : FF13;
    4 : F4E3;
    5 : FC2F;
    6 : F7D4;
    7 : 0D73;
    8 : F818;
    9 : 0071;
    10 : 0BB8;
    11 : F530;
    12 : 06CD;
    13 : 0608;
    14 : 024A;
    15 : 0142;
    16 : F74B;
    17 : 0454;
    18 : 0482;
    19 : F6E4;
    20 : 00BD;
    21 : 090A;
    22 : 0D1E;
    23 : 0558;
    24 : FD43;
    25 : 0E4B;
    26 : FD1E;
    27 : FC56;
    28 : FEE6;
    29 : FDC2;
    30 : F850;
    31 : 0B61;
    32 : 0AED;
    33 : F69E;
    34 : F160;
    35 : 04CC;
    36 : FEF1;
    37 : F54B;
    38 : FBD9;
    39 : FDE8;
    40 : 08A5;
    41 : F9E5;
    42 : 0D9D;
    43 : F8B2;
    44 : 03AC;
    45 : 05B9;
    46 : F19C;
    47 : 075A;
    48 : 0A6E;
    49 : F69D;
    50 : FBAB;
    51 : FE4A;
    52 : 03E4;
    53 : 07FA;
    54 : F926;
    55 : FFDA;
    56 : 0705;
    57 : FCF5;
    58 : F980;
    59 : 06BA;
    60 : FB13;
    61 : 0603;
    62 : 0ACE;
    63 : FDC7;
    64 : F47C;
    65 : 0044;
    66 : 0D92;
    67 : EE10;
    68 : FA8B;
    69 : 0B96;
    70 : 097F;
    71 : 0549;
    72 : 07C6;
    73 : 023E;
    74 : 0224;
    75 : 00F9;
    76 : F784;
    77 : 074C;
    78 : F99F;
    79 : F485;
    80 : 0485;
    81 : 000C;
    82 : 0C8D;
    83 : 0305;
    84 : FF29;
    85 : 0A6E;
    86 : F8EA;
    87 : FE10;
    88 : 03F4;
    89 : F788;
    90 : FC3D;
    91 : FACE;
    92 : FD4F;
    93 : FF65;
    94 : 0E5D;
    95 : FDB0;
    96 : 07EB;
    97 : 0539;
    98 : 096D;
    99 : FE90;
    100 : F06F;
    101 : 0DE1;
    102 : 072A;
    103 : FBD0;
    104 : 001D;
    105 : 0041;
    106 : F832;
    107 : 088C;
    108 : 0262;
    109 : FF11;
    110 : 050A;
    111 : FDC5;
    112 : F241;
    113 : 0A3E;
    114 : 0180;
    115 : F775;
    116 : 098A;
    117 : 000C;
    118 : EFB7;
    119 : 06C7;
    120 : FF99;
    121 : F8F8;
    122 : 0436;
    123 : 0209;
    124 : FFFC;
    125 : 0673;
    126 : F578;
    127 : 0A13;
    128 : 013A;
    129 : FA83;
    130 : 0119;
    131 : FA3F;
    132 : FA83;
    133 : 102E;
    134 : FE68;
    135 : F90C;
    136 : FB5C;
    137 : F8E0;
    138 : FF1F;
    139 : 0835;
    140 : FAFE;
    141 : 02A1;
    142 : FEDB;
    143 : FAAC;
    144 : 076A;
    145 : 0329;
    146 : 011F;
    147 : 073F;
    148 : F63B;
    149 : 0214;
    150 : F747;
    151 : F663;
    152 : FAAE;
    153 : FF82;
    154 : 0CF1;
    155 : F99B;
    156 : 0628;
    157 : F26B;
    158 : F830;
    159 : 0274;
    160 : 06A8;
    161 : FDBC;
    162 : 0AD5;
    163 : 05EB;
    164 : 0823;
    165 : FD2F;
    166 : EDF8;
    167 : 0A8B;
    168 : 0B67;
    169 : F67C;
    170 : FE71;
    171 : 0800;
    172 : F93B;
    173 : 021C;
    174 : 02C3;
    175 : FE11;
    176 : FA6F;
    177 : 038C;
    178 : 07F6;
    179 : F732;
    180 : F2E4;
    181 : 0410;
    182 : FC96;
    183 : 008D;
    184 : 0C19;
    185 : F1B8;
    186 : 048B;
    187 : 00B1;
    188 : 01C7;
    189 : FE42;
    190 : F0A2;
    191 : 07AD;
    192 : FDE8;
    193 : F9CF;
    194 : FF77;
    195 : FB90;
    196 : 0DBA;
    197 : 0491;
    198 : FFC2;
    199 : F8F2;
    200 : FA21;
    201 : FD45;
    202 : 05CB;
    203 : FC5E;
    204 : F903;
    205 : 10A6;
    206 : 0655;
    207 : F3AD;
    208 : FA34;
    209 : 0601;
    210 : F4A6;
    211 : 0CEB;
    212 : 0879;
    213 : FFC7;
    214 : F78A;
    215 : F9C9;
    216 : 075C;
    217 : FD09;
    218 : F848;
    219 : FEAF;
    220 : FF3C;
    221 : FD41;
    222 : FADF;
    223 : 0FF4;
    224 : 0276;
    225 : FB74;
    226 : FE20;
    227 : FDBB;
    228 : 05FE;
    229 : F7AB;
    230 : 00EC;
    231 : FECC;
    232 : 015C;
    233 : 0429;
    234 : F746;
    235 : F846;
    236 : F7C8;
    237 : 0117;
    238 : 0E1E;
    239 : F4C2;
    240 : F777;
    241 : 0990;
    242 : 0298;
    243 : FF6B;
    244 : F97F;
    245 : F71C;
    246 : 0298;
    247 : 10F1;
    248 : FB0D;
    249 : FD22;
    250 : FE93;
    251 : FD46;
    252 : 03E1;
    253 : F504;
    254 : 031F;
    255 : 0159;
    256 : 0731;
    257 : 06E0;
    258 : FAAB;
    259 : FA90;
    260 : 0403;
    261 : FB83;
    262 : F793;
    263 : FECF;
    264 : 02B8;
    265 : EEE2;
    266 : FD75;
    267 : 0668;
    268 : 09CC;
    269 : 0598;
    270 : FAC7;
    271 : F084;
    272 : FD6A;
    273 : F956;
    274 : 0930;
    275 : 0282;
    276 : FF30;
    277 : 0691;
    278 : FEFB;
    279 : 0076;
    280 : FA80;
    281 : 01DA;
    282 : 00CF;
    283 : F834;
    284 : FC49;
    285 : 0694;
    286 : 074C;
    287 : FB06;
    288 : FAD8;
    289 : F62A;
    290 : FED6;
    291 : 01B0;
    292 : 0577;
    293 : FBC6;
    294 : F9C2;
    295 : 0CC6;
    296 : FFC7;
    297 : FD1C;
    298 : FA64;
    299 : FD71;
    300 : F999;
    301 : 0626;
    302 : 0473;
    303 : FB75;
    304 : F5F3;
    305 : FE3A;
    306 : 05AC;
    307 : F9A2;
    308 : 01DF;
    309 : 00C5;
    310 : 05F8;
    311 : 06C1;
    312 : FCA6;
    313 : F2F7;
    314 : FE84;
    315 : 0707;
    316 : 0CD7;
    317 : FD76;
    318 : FF54;
    319 : 0CD5;
    320 : FFB3;
    321 : 02BF;
    322 : FB52;
    323 : F469;
    324 : FE59;
    325 : F875;
    326 : FD3D;
    327 : FE46;
    328 : 067C;
    329 : FC14;
    330 : F815;
    331 : 07A5;
    332 : FB79;
    333 : FED6;
    334 : 0EF0;
    335 : F855;
    336 : F8EB;
    337 : F7DB;
    338 : FEF2;
    339 : 0548;
    340 : 0D21;
    341 : F98C;
    342 : 08D7;
    343 : F39D;
    344 : FCDD;
    345 : 0282;
    346 : F943;
    347 : 026B;
    348 : FE43;
    349 : 064B;
    350 : FD62;
    351 : FE57;
    352 : 00D0;
    353 : FB9A;
    354 : FEEB;
    355 : FD60;
    356 : 0148;
    357 : 0516;
    358 : FDD4;
    359 : 0240;
    360 : 009B;
    361 : 038B;
    362 : 09C1;
    363 : FE3C;
    364 : F9DE;
    365 : 0B73;
    366 : 0585;
    367 : FF4B;
    368 : 05BA;
    369 : FC84;
    370 : F0AD;
    371 : 0E26;
    372 : 050A;
    373 : 09C6;
    374 : FFAF;
    375 : 02F0;
    376 : F1E5;
    377 : FDD9;
    378 : FC25;
    379 : FA31;
    380 : 00EA;
    381 : FE1C;
    382 : 080A;
    383 : FCA3;
    384 : 0080;
END;
