WIDTH=16;
DEPTH=385;

ADDRESS_RADIX=DEC;
DATA_RADIX=HEX;

CONTENT BEGIN
    0 : FC91;
    1 : 05C1;
    2 : FEC4;
    3 : FF78;
    4 : F688;
    5 : FE5F;
    6 : F7A5;
    7 : 0146;
    8 : 00F5;
    9 : FD01;
    10 : 08E7;
    11 : 01A6;
    12 : FB1B;
    13 : 0C46;
    14 : FC47;
    15 : FDBB;
    16 : 043A;
    17 : F6FE;
    18 : 00B4;
    19 : FAC1;
    20 : 0337;
    21 : 02AB;
    22 : FE99;
    23 : FE40;
    24 : 01D5;
    25 : FB5C;
    26 : FC1D;
    27 : 0349;
    28 : FA4E;
    29 : FB8B;
    30 : 065F;
    31 : FF10;
    32 : 058A;
    33 : FE89;
    34 : F44D;
    35 : 0AE0;
    36 : F934;
    37 : F040;
    38 : FF94;
    39 : 00E5;
    40 : 086A;
    41 : FCB0;
    42 : F994;
    43 : 0328;
    44 : FBF8;
    45 : FB54;
    46 : FB4B;
    47 : FC09;
    48 : F5EC;
    49 : 0601;
    50 : FAE5;
    51 : FCF2;
    52 : 0BD2;
    53 : F07A;
    54 : FFB4;
    55 : 0D1E;
    56 : FF1D;
    57 : FAAE;
    58 : F477;
    59 : 00BA;
    60 : EDF5;
    61 : 10D7;
    62 : FD88;
    63 : FBAD;
    64 : 09C8;
    65 : EE17;
    66 : 0D05;
    67 : EFC3;
    68 : 02B9;
    69 : 0579;
    70 : F59D;
    71 : 06A8;
    72 : 01B0;
    73 : 057E;
    74 : FC44;
    75 : 0083;
    76 : FEA8;
    77 : FE6A;
    78 : 073A;
    79 : F7CF;
    80 : 02C1;
    81 : 00F6;
    82 : FFA6;
    83 : 0732;
    84 : 067B;
    85 : FFC6;
    86 : 04F9;
    87 : FB8F;
    88 : FFEA;
    89 : 0ABD;
    90 : 0202;
    91 : F329;
    92 : 0629;
    93 : 00FF;
    94 : 0047;
    95 : 0AC9;
    96 : 05B7;
    97 : F994;
    98 : FCFC;
    99 : 03CC;
    100 : FEF7;
    101 : FFC4;
    102 : 04E9;
    103 : F8EB;
    104 : 010B;
    105 : 0667;
    106 : 0050;
    107 : FCC7;
    108 : F8E7;
    109 : 0B6D;
    110 : FDD1;
    111 : FEF8;
    112 : FA59;
    113 : FA5A;
    114 : 0777;
    115 : FAB9;
    116 : 0384;
    117 : 00BB;
    118 : EF5D;
    119 : 0A49;
    120 : 06DF;
    121 : 0287;
    122 : 0544;
    123 : 01F2;
    124 : F6B4;
    125 : 07E4;
    126 : 015A;
    127 : FB04;
    128 : 04DE;
    129 : 0001;
    130 : 00F2;
    131 : 0617;
    132 : F7EB;
    133 : 08DC;
    134 : 0307;
    135 : FE18;
    136 : 0035;
    137 : FACE;
    138 : 00A8;
    139 : 00BF;
    140 : 0115;
    141 : 025E;
    142 : FED1;
    143 : 050C;
    144 : FDB8;
    145 : 04E9;
    146 : F7A0;
    147 : 0292;
    148 : FF60;
    149 : F501;
    150 : 033B;
    151 : FD1E;
    152 : F46A;
    153 : 0295;
    154 : 01E7;
    155 : F528;
    156 : 0390;
    157 : FC4E;
    158 : FAC5;
    159 : 0479;
    160 : 0717;
    161 : F8DD;
    162 : FC95;
    163 : FD52;
    164 : 01B3;
    165 : 00D1;
    166 : F77F;
    167 : FCA8;
    168 : FD6B;
    169 : FA84;
    170 : 01DD;
    171 : 0109;
    172 : 0231;
    173 : 013C;
    174 : F7A8;
    175 : 0445;
    176 : FBD4;
    177 : FC75;
    178 : 0DE3;
    179 : F765;
    180 : FD3E;
    181 : 01F1;
    182 : 0345;
    183 : 046D;
    184 : 0C6D;
    185 : FF50;
    186 : 0D07;
    187 : F8B8;
    188 : FF36;
    189 : 0668;
    190 : EC2A;
    191 : 0229;
    192 : FDB7;
    193 : F653;
    194 : 0096;
    195 : 0499;
    196 : 01E4;
    197 : F833;
    198 : F28C;
    199 : 0088;
    200 : FB8D;
    201 : FD1D;
    202 : 0B9A;
    203 : F220;
    204 : 005B;
    205 : FB19;
    206 : 024E;
    207 : 0409;
    208 : EEC5;
    209 : FEEB;
    210 : F37F;
    211 : 0AC3;
    212 : 00AD;
    213 : FF78;
    214 : 0171;
    215 : F3CD;
    216 : FBBE;
    217 : FC05;
    218 : FDD7;
    219 : FCDC;
    220 : 06B6;
    221 : 021D;
    222 : 0983;
    223 : FEE8;
    224 : 0189;
    225 : 0085;
    226 : F63F;
    227 : 0961;
    228 : F50E;
    229 : 11EF;
    230 : FB04;
    231 : FB75;
    232 : 06F2;
    233 : EFF8;
    234 : 070B;
    235 : FCA1;
    236 : F54A;
    237 : 035D;
    238 : 05F7;
    239 : F9C4;
    240 : FA24;
    241 : 013E;
    242 : FCF6;
    243 : FCEE;
    244 : FBE3;
    245 : FB85;
    246 : F714;
    247 : 0A86;
    248 : 007E;
    249 : F63D;
    250 : FC44;
    251 : FC4A;
    252 : 0433;
    253 : EFB4;
    254 : 00BD;
    255 : 06A3;
    256 : FD7E;
    257 : 04FE;
    258 : FED6;
    259 : 02FF;
    260 : 021F;
    261 : 0241;
    262 : 00E7;
    263 : 0295;
    264 : 0C22;
    265 : F5BE;
    266 : FBE4;
    267 : FF09;
    268 : FEAF;
    269 : 0A5B;
    270 : FB51;
    271 : FF87;
    272 : FC7A;
    273 : FAF1;
    274 : 0AE4;
    275 : FAF9;
    276 : 077C;
    277 : FF72;
    278 : FC27;
    279 : 08F9;
    280 : F6B3;
    281 : FB31;
    282 : 0473;
    283 : FDF9;
    284 : 04F4;
    285 : FF5A;
    286 : 00DA;
    287 : 0AAB;
    288 : F6E7;
    289 : FCFC;
    290 : 05A9;
    291 : FF1A;
    292 : 031F;
    293 : FF16;
    294 : 03BC;
    295 : 01B1;
    296 : FA1E;
    297 : FBA4;
    298 : F0C7;
    299 : FD19;
    300 : 00CF;
    301 : FF6D;
    302 : FF30;
    303 : 00AE;
    304 : FC03;
    305 : 01FD;
    306 : FB0B;
    307 : F072;
    308 : FA89;
    309 : 0099;
    310 : 0555;
    311 : FCEB;
    312 : FDBA;
    313 : F54B;
    314 : F9DF;
    315 : FEFE;
    316 : 0434;
    317 : FF72;
    318 : FFC2;
    319 : 0BFF;
    320 : F695;
    321 : FFE5;
    322 : 05F6;
    323 : FCC2;
    324 : FCDD;
    325 : 0061;
    326 : FE45;
    327 : 00DF;
    328 : 0C34;
    329 : FD26;
    330 : 03D3;
    331 : 024A;
    332 : FDF2;
    333 : F9AF;
    334 : 074F;
    335 : 0761;
    336 : 09DC;
    337 : F687;
    338 : 0431;
    339 : 0185;
    340 : FCC8;
    341 : 0C73;
    342 : F579;
    343 : F96B;
    344 : 0032;
    345 : FCE7;
    346 : 0843;
    347 : F9DD;
    348 : 07D0;
    349 : 0328;
    350 : FCD2;
    351 : 09B3;
    352 : FBF5;
    353 : F9D2;
    354 : FF61;
    355 : FF7E;
    356 : FC53;
    357 : FEF6;
    358 : F530;
    359 : 004B;
    360 : FF5E;
    361 : 0581;
    362 : 0340;
    363 : 0117;
    364 : FC50;
    365 : 0478;
    366 : F7E1;
    367 : 0550;
    368 : FA32;
    369 : FC1D;
    370 : 0143;
    371 : F851;
    372 : 05BC;
    373 : FDA0;
    374 : 01C7;
    375 : 038C;
    376 : EF4E;
    377 : FFEE;
    378 : 095B;
    379 : F96A;
    380 : 0172;
    381 : 03B1;
    382 : FEBB;
    383 : 03FE;
    384 : 0080;
END;
