WIDTH=16;
DEPTH=385;

ADDRESS_RADIX=DEC;
DATA_RADIX=HEX;

CONTENT BEGIN
    0 : FBEC;
    1 : FBEC;
    2 : 02CB;
    3 : 0482;
    4 : F2CD;
    5 : FB5B;
    6 : F5A2;
    7 : 0142;
    8 : 0375;
    9 : FF0C;
    10 : 0457;
    11 : FBCE;
    12 : F53F;
    13 : 04A2;
    14 : 0475;
    15 : FC8D;
    16 : 0C5E;
    17 : 0172;
    18 : F8D6;
    19 : 0443;
    20 : FE5D;
    21 : 00F8;
    22 : 0523;
    23 : F95F;
    24 : F85A;
    25 : FF31;
    26 : 02B8;
    27 : F7EF;
    28 : FF16;
    29 : 0183;
    30 : FC1E;
    31 : FC56;
    32 : 07AF;
    33 : FEEA;
    34 : FB91;
    35 : 03C9;
    36 : FDD1;
    37 : F1CC;
    38 : FE73;
    39 : 01B3;
    40 : 045B;
    41 : FED7;
    42 : 01DF;
    43 : FCCC;
    44 : FE70;
    45 : 0336;
    46 : F79F;
    47 : 0081;
    48 : F99B;
    49 : FCF3;
    50 : 01D7;
    51 : 0216;
    52 : 04D2;
    53 : 0084;
    54 : 069E;
    55 : FC54;
    56 : 0319;
    57 : FC08;
    58 : EB3B;
    59 : 0F4D;
    60 : 00E1;
    61 : 021A;
    62 : 0285;
    63 : FD94;
    64 : 03CB;
    65 : 039E;
    66 : F648;
    67 : 05FD;
    68 : FD94;
    69 : F945;
    70 : 05B2;
    71 : FAA2;
    72 : FFAA;
    73 : 0883;
    74 : F871;
    75 : FE31;
    76 : 0DF8;
    77 : FDF0;
    78 : F2ED;
    79 : 04B6;
    80 : FE4A;
    81 : F7E2;
    82 : 076B;
    83 : FAFB;
    84 : 04F8;
    85 : F8EF;
    86 : FC9F;
    87 : FDAD;
    88 : FDFF;
    89 : 071A;
    90 : FB7D;
    91 : 0193;
    92 : 04C3;
    93 : FFD8;
    94 : 0164;
    95 : 007A;
    96 : FDCC;
    97 : 03E5;
    98 : FAF9;
    99 : 022C;
    100 : 0F1E;
    101 : F82E;
    102 : 0E71;
    103 : F26F;
    104 : 01E8;
    105 : 0620;
    106 : 01A5;
    107 : 0E40;
    108 : 04F3;
    109 : 078E;
    110 : 0375;
    111 : FBB9;
    112 : F39B;
    113 : 0450;
    114 : F909;
    115 : 0CEC;
    116 : 004A;
    117 : F65A;
    118 : FFC4;
    119 : 0102;
    120 : FFD5;
    121 : 0483;
    122 : 012F;
    123 : 02CA;
    124 : F756;
    125 : FB4A;
    126 : FD8A;
    127 : F409;
    128 : FE3A;
    129 : 00CF;
    130 : 06EC;
    131 : 05CE;
    132 : FE11;
    133 : 03D3;
    134 : FC94;
    135 : F923;
    136 : FF41;
    137 : FC07;
    138 : 01E6;
    139 : 0380;
    140 : 012E;
    141 : 017E;
    142 : 01F7;
    143 : 032E;
    144 : FDAF;
    145 : FFB4;
    146 : 0266;
    147 : FDCF;
    148 : 047B;
    149 : 05AC;
    150 : F7F6;
    151 : 04EF;
    152 : FD2C;
    153 : FFE2;
    154 : 0459;
    155 : F56C;
    156 : FE96;
    157 : 02FF;
    158 : FFE0;
    159 : FF39;
    160 : 0748;
    161 : 015F;
    162 : FB2D;
    163 : 0786;
    164 : FA7E;
    165 : FD45;
    166 : 069E;
    167 : F498;
    168 : F979;
    169 : 0237;
    170 : 01FD;
    171 : 0481;
    172 : 0D9A;
    173 : FBAF;
    174 : F935;
    175 : F4B5;
    176 : FACF;
    177 : 028F;
    178 : 01AB;
    179 : F4BA;
    180 : 00AD;
    181 : 0284;
    182 : 0483;
    183 : FDFA;
    184 : FF11;
    185 : 037F;
    186 : F934;
    187 : 04E7;
    188 : F7E8;
    189 : FD6F;
    190 : 002F;
    191 : F02F;
    192 : 05E0;
    193 : F629;
    194 : FA93;
    195 : FBAD;
    196 : F951;
    197 : FFE0;
    198 : 0099;
    199 : FAAD;
    200 : 0457;
    201 : 03B1;
    202 : 0135;
    203 : 0768;
    204 : 065D;
    205 : F595;
    206 : FED3;
    207 : 0080;
    208 : F2D3;
    209 : 069E;
    210 : FEFC;
    211 : 0338;
    212 : F906;
    213 : FEF0;
    214 : 017E;
    215 : F853;
    216 : 025D;
    217 : FCA5;
    218 : F65C;
    219 : 0311;
    220 : 058B;
    221 : F8ED;
    222 : FF57;
    223 : F743;
    224 : 048F;
    225 : 02A1;
    226 : FA0F;
    227 : 027D;
    228 : F865;
    229 : 072E;
    230 : FC69;
    231 : FEAB;
    232 : FECC;
    233 : F65B;
    234 : 067E;
    235 : F959;
    236 : FF1E;
    237 : 00CB;
    238 : F843;
    239 : 0470;
    240 : F999;
    241 : 0323;
    242 : FE53;
    243 : FA07;
    244 : 03C3;
    245 : FC9B;
    246 : F478;
    247 : 00C4;
    248 : FB0F;
    249 : FB46;
    250 : 075F;
    251 : FB3D;
    252 : 0529;
    253 : FF70;
    254 : 00BD;
    255 : 02C0;
    256 : F96B;
    257 : FD86;
    258 : 0321;
    259 : 00F7;
    260 : 03E9;
    261 : 0023;
    262 : F530;
    263 : 0801;
    264 : 0B73;
    265 : FD73;
    266 : FD72;
    267 : 051E;
    268 : 0071;
    269 : 07AA;
    270 : F8F4;
    271 : F91F;
    272 : FB4A;
    273 : FDF6;
    274 : 0145;
    275 : F938;
    276 : 0C33;
    277 : F61C;
    278 : FE7E;
    279 : 04A8;
    280 : F3D3;
    281 : 04C2;
    282 : 05F3;
    283 : 0676;
    284 : FEAC;
    285 : FB2B;
    286 : F964;
    287 : 020E;
    288 : FDD3;
    289 : FFC6;
    290 : FB2B;
    291 : FAC2;
    292 : FE0F;
    293 : FFAC;
    294 : 06E3;
    295 : FEF0;
    296 : FD0D;
    297 : FF9A;
    298 : F5DD;
    299 : FE14;
    300 : F713;
    301 : 0A94;
    302 : 00C6;
    303 : 0024;
    304 : 0950;
    305 : F437;
    306 : 0690;
    307 : F778;
    308 : FC4C;
    309 : F8F2;
    310 : FC62;
    311 : 0993;
    312 : 0321;
    313 : F3D6;
    314 : 037C;
    315 : FF17;
    316 : F7B8;
    317 : 0B89;
    318 : FDCD;
    319 : 0EF8;
    320 : F4A3;
    321 : 0207;
    322 : 0C36;
    323 : F0A7;
    324 : FF63;
    325 : 01D3;
    326 : FEB3;
    327 : FCF5;
    328 : 0552;
    329 : 0465;
    330 : FF36;
    331 : 04C6;
    332 : 0139;
    333 : F8F0;
    334 : 0F4E;
    335 : 071A;
    336 : 04AB;
    337 : 0284;
    338 : FEC6;
    339 : FCAB;
    340 : FCD7;
    341 : 0318;
    342 : 06D2;
    343 : F239;
    344 : 04FB;
    345 : 018F;
    346 : FDCE;
    347 : 0BC5;
    348 : 0576;
    349 : F9D3;
    350 : 069A;
    351 : 0016;
    352 : FD4B;
    353 : 0E44;
    354 : FB84;
    355 : FE9D;
    356 : 037C;
    357 : 026B;
    358 : F309;
    359 : FC6D;
    360 : 0AB6;
    361 : 0112;
    362 : FE56;
    363 : 020E;
    364 : FD6A;
    365 : 08F7;
    366 : 07FE;
    367 : FFF7;
    368 : 04E0;
    369 : 01D2;
    370 : FEFB;
    371 : 0796;
    372 : 02C7;
    373 : F7EA;
    374 : FB2E;
    375 : FA57;
    376 : FA97;
    377 : 088D;
    378 : 0849;
    379 : F6CE;
    380 : FFA6;
    381 : FD4B;
    382 : FAA6;
    383 : 0E2C;
    384 : 0080;
END;
