WIDTH=16;
DEPTH=385;

ADDRESS_RADIX=DEC;
DATA_RADIX=HEX;

CONTENT BEGIN
    0 : FCDC;
    1 : FCFA;
    2 : 0121;
    3 : 02CF;
    4 : 12CE;
    5 : FE57;
    6 : 1026;
    7 : F017;
    8 : 024D;
    9 : 0459;
    10 : F31C;
    11 : 0EB6;
    12 : 03EA;
    13 : F10E;
    14 : 0443;
    15 : 0504;
    16 : 0057;
    17 : 02BD;
    18 : FEA0;
    19 : 0915;
    20 : 0597;
    21 : 0442;
    22 : F2D7;
    23 : F9A6;
    24 : 00FB;
    25 : F884;
    26 : 0300;
    27 : FE1D;
    28 : 0261;
    29 : 07E0;
    30 : F9FB;
    31 : FA2A;
    32 : FE8D;
    33 : 035F;
    34 : 11A9;
    35 : FD3D;
    36 : 0A2E;
    37 : 0DC5;
    38 : 01DC;
    39 : 0505;
    40 : F9A7;
    41 : 052E;
    42 : F101;
    43 : 0AA8;
    44 : FEE2;
    45 : FCE6;
    46 : 056B;
    47 : F209;
    48 : FC3C;
    49 : 0D61;
    50 : 0350;
    51 : FA79;
    52 : F40A;
    53 : F946;
    54 : F2F5;
    55 : 0EDB;
    56 : FD27;
    57 : FA0D;
    58 : 1445;
    59 : F89A;
    60 : F696;
    61 : FE35;
    62 : F91A;
    63 : FE80;
    64 : 129A;
    65 : F630;
    66 : FAC2;
    67 : 1105;
    68 : FD8E;
    69 : FCA7;
    70 : FC50;
    71 : F562;
    72 : 0111;
    73 : FE2B;
    74 : FFEC;
    75 : FFA4;
    76 : 05FF;
    77 : FAB6;
    78 : F8FC;
    79 : 0CFB;
    80 : FD12;
    81 : FBD5;
    82 : F8F4;
    83 : F7C0;
    84 : FAE9;
    85 : 0489;
    86 : FECA;
    87 : 026E;
    88 : 057C;
    89 : F51D;
    90 : 04BB;
    91 : 021C;
    92 : 0035;
    93 : 02E7;
    94 : F39B;
    95 : 03E3;
    96 : FD8D;
    97 : FB06;
    98 : 005A;
    99 : 0261;
    100 : 02F4;
    101 : F946;
    102 : FB53;
    103 : F7AB;
    104 : FBA1;
    105 : 0274;
    106 : 02D4;
    107 : F934;
    108 : 01A6;
    109 : F8E8;
    110 : FB08;
    111 : 0156;
    112 : 087B;
    113 : FD55;
    114 : 003A;
    115 : 013B;
    116 : 0459;
    117 : 04A6;
    118 : 0228;
    119 : FD33;
    120 : FF7F;
    121 : 028B;
    122 : 0250;
    123 : FD6F;
    124 : FD75;
    125 : 06AF;
    126 : 04D7;
    127 : FB47;
    128 : 0650;
    129 : FCAF;
    130 : FFEB;
    131 : 0BF9;
    132 : 0ECD;
    133 : EB4B;
    134 : 0001;
    135 : 04C9;
    136 : FF39;
    137 : 0E7F;
    138 : 08DA;
    139 : EFAF;
    140 : 02D4;
    141 : 02B6;
    142 : FB54;
    143 : 0401;
    144 : 005F;
    145 : F38A;
    146 : FB9B;
    147 : 0455;
    148 : 10C8;
    149 : 02E8;
    150 : FC61;
    151 : 0FA9;
    152 : 032A;
    153 : F7BA;
    154 : FC73;
    155 : 039C;
    156 : FFD5;
    157 : 1306;
    158 : FF31;
    159 : FAB2;
    160 : FC27;
    161 : FCFF;
    162 : FD5E;
    163 : EFCC;
    164 : 05D0;
    165 : 0020;
    166 : 01C5;
    167 : 0671;
    168 : F042;
    169 : 0D87;
    170 : FFE7;
    171 : F8A0;
    172 : F89E;
    173 : F430;
    174 : 1051;
    175 : F8DF;
    176 : FEC6;
    177 : 095A;
    178 : FD4E;
    179 : 0A2A;
    180 : 0E7B;
    181 : FE45;
    182 : 0013;
    183 : 01E2;
    184 : F073;
    185 : 0B8F;
    186 : FCC2;
    187 : 03EF;
    188 : FE20;
    189 : 0070;
    190 : 0D56;
    191 : FCCF;
    192 : F7D1;
    193 : 0B42;
    194 : 05DC;
    195 : F7B3;
    196 : F8BB;
    197 : FE6B;
    198 : FCE3;
    199 : 0948;
    200 : 048B;
    201 : FD49;
    202 : F8A8;
    203 : 0462;
    204 : 013F;
    205 : EEA0;
    206 : 0055;
    207 : 09C2;
    208 : 06A1;
    209 : 02A2;
    210 : 0518;
    211 : F1AB;
    212 : 0823;
    213 : 00DE;
    214 : 03E8;
    215 : 0F03;
    216 : F8E1;
    217 : 0060;
    218 : 02E6;
    219 : F9A8;
    220 : 0330;
    221 : 0461;
    222 : 054B;
    223 : F297;
    224 : FDD6;
    225 : 0149;
    226 : 0085;
    227 : 0088;
    228 : FDA2;
    229 : 0AF5;
    230 : FE0C;
    231 : 02FE;
    232 : 0034;
    233 : F450;
    234 : F7D0;
    235 : 0E12;
    236 : FEBB;
    237 : FF8F;
    238 : FAD4;
    239 : F399;
    240 : FD8F;
    241 : FA50;
    242 : FEA8;
    243 : FA9E;
    244 : 0A76;
    245 : 0312;
    246 : FC0B;
    247 : F4F0;
    248 : 008D;
    249 : 03C6;
    250 : 096C;
    251 : FEC1;
    252 : FB2E;
    253 : 0652;
    254 : 05CD;
    255 : FC9F;
    256 : F8B8;
    257 : 05D7;
    258 : FD36;
    259 : 0689;
    260 : 0945;
    261 : FF8A;
    262 : 031F;
    263 : 072C;
    264 : 035A;
    265 : 0799;
    266 : 001C;
    267 : FDC5;
    268 : EF35;
    269 : FD8E;
    270 : 0527;
    271 : 0F4A;
    272 : FA69;
    273 : FE74;
    274 : F903;
    275 : FC6A;
    276 : 0544;
    277 : F06B;
    278 : FEF4;
    279 : 0627;
    280 : 0294;
    281 : 04FF;
    282 : FF90;
    283 : 090F;
    284 : F7E0;
    285 : 0077;
    286 : FCAA;
    287 : F716;
    288 : FA85;
    289 : 06E2;
    290 : 0B41;
    291 : FD54;
    292 : F298;
    293 : 0285;
    294 : F406;
    295 : FE20;
    296 : 00AE;
    297 : FEEA;
    298 : 109D;
    299 : F699;
    300 : 03A3;
    301 : F74C;
    302 : FEBC;
    303 : FBAD;
    304 : 06EA;
    305 : 0651;
    306 : FC39;
    307 : 021C;
    308 : 0589;
    309 : FAF4;
    310 : F32F;
    311 : 063F;
    312 : 0BEE;
    313 : 0573;
    314 : FF62;
    315 : 0353;
    316 : F4A8;
    317 : 0645;
    318 : 0130;
    319 : F8ED;
    320 : 0268;
    321 : FF00;
    322 : 0348;
    323 : 0690;
    324 : FAD0;
    325 : 0673;
    326 : FB72;
    327 : FDD1;
    328 : F8B6;
    329 : F9BA;
    330 : 0496;
    331 : 03EA;
    332 : FF9A;
    333 : 02AB;
    334 : EB0E;
    335 : FACE;
    336 : 025E;
    337 : 049D;
    338 : FF98;
    339 : 01AA;
    340 : F951;
    341 : FF6E;
    342 : F2CA;
    343 : 0BD2;
    344 : 01E2;
    345 : F5E7;
    346 : 06B0;
    347 : FCA2;
    348 : FA04;
    349 : 0122;
    350 : FDBA;
    351 : FC44;
    352 : 05E4;
    353 : F725;
    354 : 079B;
    355 : F61A;
    356 : FABD;
    357 : 0668;
    358 : FD43;
    359 : FCCC;
    360 : 029E;
    361 : EA2F;
    362 : 065B;
    363 : 039A;
    364 : FA5A;
    365 : 0AEB;
    366 : 065C;
    367 : F54B;
    368 : FDD5;
    369 : 014B;
    370 : 0698;
    371 : 046C;
    372 : FFBB;
    373 : 0093;
    374 : FE87;
    375 : 0140;
    376 : 1430;
    377 : FF40;
    378 : 04B7;
    379 : 053C;
    380 : 02B4;
    381 : 057E;
    382 : F6C8;
    383 : 045A;
    384 : 0080;
END;
