WIDTH=16;
DEPTH=385;

ADDRESS_RADIX=DEC;
DATA_RADIX=HEX;

CONTENT BEGIN
    0 : 034A;
    1 : 079B;
    2 : 0357;
    3 : 0305;
    4 : F99E;
    5 : 00FF;
    6 : FABB;
    7 : 0494;
    8 : 0097;
    9 : 0525;
    10 : 0558;
    11 : F843;
    12 : FD92;
    13 : 0845;
    14 : 0986;
    15 : FD7C;
    16 : F40A;
    17 : 02ED;
    18 : 0DA4;
    19 : F20C;
    20 : FC20;
    21 : 0B36;
    22 : 068F;
    23 : 060A;
    24 : F544;
    25 : 101A;
    26 : FF8B;
    27 : F76F;
    28 : 0230;
    29 : F5D0;
    30 : FC32;
    31 : 109A;
    32 : 005C;
    33 : FFDC;
    34 : FC81;
    35 : F399;
    36 : 0059;
    37 : EF20;
    38 : 0650;
    39 : 01C5;
    40 : FC7C;
    41 : 066B;
    42 : 0E93;
    43 : F94C;
    44 : 01C7;
    45 : 0154;
    46 : F858;
    47 : 0F34;
    48 : 0D06;
    49 : F3A6;
    50 : FE6A;
    51 : 07AE;
    52 : 061F;
    53 : 0B02;
    54 : 0752;
    55 : 0182;
    56 : FE67;
    57 : FC71;
    58 : FEF5;
    59 : 047D;
    60 : 026C;
    61 : 05F4;
    62 : FDE4;
    63 : 035C;
    64 : F97D;
    65 : FD31;
    66 : 041A;
    67 : F472;
    68 : F993;
    69 : 07F2;
    70 : 0B94;
    71 : 0097;
    72 : FF6C;
    73 : 0AF0;
    74 : FC5C;
    75 : 0198;
    76 : F996;
    77 : F4A4;
    78 : 0E78;
    79 : EF64;
    80 : FF99;
    81 : 05BD;
    82 : 01C9;
    83 : 0D1A;
    84 : FC2E;
    85 : 0086;
    86 : 097D;
    87 : FD76;
    88 : FE2B;
    89 : 0693;
    90 : 098F;
    91 : F86F;
    92 : 03C1;
    93 : 014B;
    94 : 027A;
    95 : 096C;
    96 : FEA3;
    97 : 01CE;
    98 : 0307;
    99 : 0507;
    100 : F6B7;
    101 : FC9E;
    102 : F1A4;
    103 : 0C8F;
    104 : FB3B;
    105 : FC05;
    106 : 05F1;
    107 : F1E9;
    108 : F23F;
    109 : 0DBE;
    110 : 0075;
    111 : F6CC;
    112 : FDC9;
    113 : F490;
    114 : F7E8;
    115 : FACF;
    116 : F832;
    117 : FEBF;
    118 : 055F;
    119 : FA47;
    120 : FD34;
    121 : FB81;
    122 : 09DB;
    123 : FEB5;
    124 : 00D0;
    125 : 04CC;
    126 : 0046;
    127 : 087F;
    128 : FF48;
    129 : FC56;
    130 : FCAD;
    131 : FDB0;
    132 : 07B1;
    133 : 0656;
    134 : 04D2;
    135 : FF8A;
    136 : F383;
    137 : 05E8;
    138 : 0360;
    139 : 0070;
    140 : 029A;
    141 : FEB2;
    142 : F247;
    143 : 06B2;
    144 : F5A1;
    145 : 1377;
    146 : FEEB;
    147 : F86A;
    148 : 04A4;
    149 : FA9C;
    150 : FD87;
    151 : F548;
    152 : FD2C;
    153 : 0748;
    154 : 09A2;
    155 : FA89;
    156 : FEFA;
    157 : FA43;
    158 : FD8B;
    159 : 0142;
    160 : 0C83;
    161 : 02E1;
    162 : F6A7;
    163 : 0EF1;
    164 : 052B;
    165 : F9B5;
    166 : FF3E;
    167 : 0039;
    168 : FE80;
    169 : F722;
    170 : 0168;
    171 : 01DA;
    172 : 11FF;
    173 : 0200;
    174 : FF5C;
    175 : FCD6;
    176 : 002B;
    177 : FE72;
    178 : FC34;
    179 : 00AE;
    180 : 08D7;
    181 : F5A4;
    182 : F960;
    183 : 0278;
    184 : 016F;
    185 : 00E5;
    186 : 0071;
    187 : 0756;
    188 : F81B;
    189 : FF84;
    190 : FB7A;
    191 : F8D5;
    192 : 00F1;
    193 : FFA9;
    194 : FD43;
    195 : 049E;
    196 : 0E23;
    197 : 01A0;
    198 : F8B4;
    199 : F775;
    200 : FC38;
    201 : FFB9;
    202 : 0A46;
    203 : FADE;
    204 : F760;
    205 : 126E;
    206 : 00C9;
    207 : FB03;
    208 : 022E;
    209 : F617;
    210 : 03E1;
    211 : 0139;
    212 : 0AEA;
    213 : FDA5;
    214 : F160;
    215 : 0DD2;
    216 : F638;
    217 : 0B08;
    218 : FDE5;
    219 : 0081;
    220 : 0647;
    221 : F12A;
    222 : 0558;
    223 : 04E9;
    224 : 0340;
    225 : FE25;
    226 : EF93;
    227 : 010D;
    228 : 0660;
    229 : FE04;
    230 : FAEA;
    231 : 02B1;
    232 : 0ACF;
    233 : 01FC;
    234 : F5DA;
    235 : FD7A;
    236 : F793;
    237 : 005B;
    238 : 1010;
    239 : F303;
    240 : FD83;
    241 : 0872;
    242 : 01D7;
    243 : FDA8;
    244 : F6C2;
    245 : FC42;
    246 : 0036;
    247 : 0488;
    248 : 077F;
    249 : 010C;
    250 : F969;
    251 : 06BC;
    252 : 0F6E;
    253 : EFCA;
    254 : 00AB;
    255 : 06C4;
    256 : FCF1;
    257 : 0AF8;
    258 : FB5A;
    259 : FCB3;
    260 : FB3D;
    261 : FD34;
    262 : 08C7;
    263 : FC2C;
    264 : 07E0;
    265 : F7ED;
    266 : F24E;
    267 : 04E6;
    268 : 0896;
    269 : F8A2;
    270 : FCE5;
    271 : F819;
    272 : 0167;
    273 : 00E0;
    274 : 080D;
    275 : 0028;
    276 : F5D5;
    277 : 0A70;
    278 : FF81;
    279 : FADE;
    280 : FD59;
    281 : F811;
    282 : FED0;
    283 : F394;
    284 : 015F;
    285 : 0569;
    286 : 0826;
    287 : 02AC;
    288 : 0126;
    289 : F4DB;
    290 : FD6A;
    291 : 017F;
    292 : 08E6;
    293 : 0589;
    294 : F518;
    295 : 0E25;
    296 : 0647;
    297 : FA25;
    298 : FE9B;
    299 : FE86;
    300 : 06AB;
    301 : 01B8;
    302 : FFB5;
    303 : 0088;
    304 : F43A;
    305 : 04DD;
    306 : 006E;
    307 : 0465;
    308 : FDAA;
    309 : FFC9;
    310 : 1108;
    311 : 0171;
    312 : 0101;
    313 : EF9C;
    314 : FD41;
    315 : 0670;
    316 : 090F;
    317 : 055E;
    318 : 0253;
    319 : FE4D;
    320 : 09DA;
    321 : FE55;
    322 : F0AA;
    323 : 0C80;
    324 : 02F9;
    325 : F692;
    326 : FA89;
    327 : 03B2;
    328 : 0B1F;
    329 : 01AF;
    330 : 0980;
    331 : F1AC;
    332 : 042B;
    333 : 017F;
    334 : 0E98;
    335 : 102C;
    336 : 0358;
    337 : F183;
    338 : 0181;
    339 : 0788;
    340 : 0038;
    341 : 00EF;
    342 : 058F;
    343 : F747;
    344 : FE43;
    345 : 0705;
    346 : FE9E;
    347 : FE83;
    348 : FE74;
    349 : 0579;
    350 : 065C;
    351 : F981;
    352 : F886;
    353 : 081B;
    354 : FD98;
    355 : 0639;
    356 : FE45;
    357 : 00A9;
    358 : 0921;
    359 : FE9D;
    360 : F8DD;
    361 : 0C32;
    362 : 0366;
    363 : FCA5;
    364 : FD0D;
    365 : FA09;
    366 : FBA7;
    367 : 0754;
    368 : 05E9;
    369 : 00FB;
    370 : F5E8;
    371 : FC8D;
    372 : FE54;
    373 : 05A9;
    374 : 04DF;
    375 : FB60;
    376 : F0A5;
    377 : 003E;
    378 : 02C5;
    379 : F70A;
    380 : FCB1;
    381 : 0A68;
    382 : 08CD;
    383 : F940;
    384 : 0080;
END;
