WIDTH=16;
DEPTH=385;

ADDRESS_RADIX=DEC;
DATA_RADIX=HEX;

CONTENT BEGIN
    0 : F87C;
    1 : 0351;
    2 : F752;
    3 : 00A7;
    4 : 0582;
    5 : F34D;
    6 : FC06;
    7 : FE68;
    8 : F68B;
    9 : FDC4;
    10 : 05E4;
    11 : F79F;
    12 : F8E0;
    13 : 0684;
    14 : 0567;
    15 : F79F;
    16 : F991;
    17 : 06F8;
    18 : FBCD;
    19 : FC53;
    20 : F609;
    21 : FE74;
    22 : 103B;
    23 : FB87;
    24 : FAC9;
    25 : 07A3;
    26 : 0363;
    27 : FE5A;
    28 : 020D;
    29 : FF30;
    30 : F79E;
    31 : 0D28;
    32 : 0153;
    33 : F28F;
    34 : F941;
    35 : FC2E;
    36 : FD0A;
    37 : FD6C;
    38 : FCB0;
    39 : F6B3;
    40 : FF88;
    41 : 01FD;
    42 : F8AF;
    43 : 0555;
    44 : FEAE;
    45 : 00E5;
    46 : 063A;
    47 : F39F;
    48 : 0275;
    49 : F50A;
    50 : 0158;
    51 : FF93;
    52 : 00D5;
    53 : 0820;
    54 : F8AF;
    55 : 054C;
    56 : 00A6;
    57 : FA25;
    58 : 0B4A;
    59 : 00DC;
    60 : 0765;
    61 : 00E3;
    62 : 03E4;
    63 : 0039;
    64 : F1C0;
    65 : 08AA;
    66 : FC94;
    67 : F789;
    68 : F9CB;
    69 : FFD0;
    70 : 06B8;
    71 : FD64;
    72 : FB26;
    73 : 03DE;
    74 : FCE0;
    75 : F853;
    76 : F4F0;
    77 : FC4A;
    78 : 06E8;
    79 : FB1B;
    80 : FE40;
    81 : 0504;
    82 : 04E6;
    83 : 0066;
    84 : FFD6;
    85 : 03ED;
    86 : 0100;
    87 : FE6B;
    88 : FEC0;
    89 : FF3F;
    90 : FDDB;
    91 : F6AC;
    92 : FEAA;
    93 : 02B3;
    94 : 0561;
    95 : FE8A;
    96 : F2FB;
    97 : 05EB;
    98 : FD5A;
    99 : F968;
    100 : 09B4;
    101 : FBB0;
    102 : 03AD;
    103 : 0658;
    104 : F779;
    105 : 00C9;
    106 : 03AD;
    107 : FA81;
    108 : 01EF;
    109 : FD67;
    110 : 07F7;
    111 : FCA7;
    112 : F4A4;
    113 : 08CA;
    114 : FBCC;
    115 : FED1;
    116 : 028E;
    117 : FA83;
    118 : FC4B;
    119 : 0344;
    120 : FB7E;
    121 : 0218;
    122 : F75F;
    123 : FB44;
    124 : 06B7;
    125 : F6A8;
    126 : 047B;
    127 : FEF3;
    128 : 020D;
    129 : 0262;
    130 : F473;
    131 : 002B;
    132 : F8DC;
    133 : 08A6;
    134 : FECD;
    135 : F90D;
    136 : FFF8;
    137 : 0115;
    138 : FB33;
    139 : 12F4;
    140 : F799;
    141 : FB58;
    142 : 0639;
    143 : F845;
    144 : FCE1;
    145 : 05E8;
    146 : 04AE;
    147 : F584;
    148 : F6C4;
    149 : 0936;
    150 : F84C;
    151 : F87B;
    152 : FBD4;
    153 : FC0E;
    154 : 0805;
    155 : FBDD;
    156 : F9B5;
    157 : FACE;
    158 : 015C;
    159 : FF92;
    160 : 035D;
    161 : FC0A;
    162 : 0B4C;
    163 : 01DF;
    164 : 00C9;
    165 : FF8A;
    166 : ECFD;
    167 : 033F;
    168 : FBED;
    169 : FD19;
    170 : FFE4;
    171 : 021A;
    172 : 17DF;
    173 : FC41;
    174 : 016F;
    175 : 051F;
    176 : FCEC;
    177 : F7D5;
    178 : FF37;
    179 : 04F1;
    180 : FECF;
    181 : F736;
    182 : FBFA;
    183 : F9C1;
    184 : 089A;
    185 : 0665;
    186 : 0561;
    187 : 0439;
    188 : F7FF;
    189 : 00CF;
    190 : 0577;
    191 : FA45;
    192 : 09C3;
    193 : FF41;
    194 : FCCA;
    195 : FD36;
    196 : 0084;
    197 : 0878;
    198 : 0652;
    199 : FB36;
    200 : 013D;
    201 : 0210;
    202 : 02EE;
    203 : 0288;
    204 : 00FD;
    205 : 0B37;
    206 : FFEE;
    207 : FB0F;
    208 : FE2E;
    209 : FDE2;
    210 : F918;
    211 : 09C4;
    212 : F929;
    213 : FB04;
    214 : FC3E;
    215 : F48A;
    216 : 0CAD;
    217 : FAA2;
    218 : F9C2;
    219 : 01D4;
    220 : FBE1;
    221 : 04CA;
    222 : F493;
    223 : 0BFB;
    224 : 019B;
    225 : F7B7;
    226 : FF34;
    227 : FC67;
    228 : FAA2;
    229 : 0A46;
    230 : FB8A;
    231 : FE81;
    232 : 0AE3;
    233 : F5A8;
    234 : 0418;
    235 : FA91;
    236 : FA04;
    237 : 01BB;
    238 : 0A78;
    239 : 0171;
    240 : 059C;
    241 : FFEE;
    242 : FD6E;
    243 : FBC7;
    244 : F4A2;
    245 : 073B;
    246 : 030E;
    247 : FC8A;
    248 : 0854;
    249 : FD11;
    250 : F2D8;
    251 : 0C1A;
    252 : FC60;
    253 : 0336;
    254 : F2A5;
    255 : 00A3;
    256 : 0D3C;
    257 : EF44;
    258 : FAD4;
    259 : FEC8;
    260 : FA9C;
    261 : 0091;
    262 : FED4;
    263 : F304;
    264 : FFCB;
    265 : F35A;
    266 : FD1B;
    267 : F9F4;
    268 : 053A;
    269 : 0977;
    270 : 07E7;
    271 : FC39;
    272 : FEC5;
    273 : 030D;
    274 : 044A;
    275 : 0647;
    276 : FF9B;
    277 : FFE8;
    278 : F99F;
    279 : FA07;
    280 : F693;
    281 : FCB4;
    282 : 06C8;
    283 : F079;
    284 : F90D;
    285 : FFAE;
    286 : 0468;
    287 : 07CE;
    288 : FA12;
    289 : FF86;
    290 : F7DF;
    291 : FB5E;
    292 : 08DB;
    293 : F49A;
    294 : F8CF;
    295 : 06DD;
    296 : 0400;
    297 : FBED;
    298 : FC65;
    299 : FFFE;
    300 : F503;
    301 : 099A;
    302 : 03CC;
    303 : F414;
    304 : F8C6;
    305 : 00D0;
    306 : F9D5;
    307 : FD67;
    308 : 0413;
    309 : 00B5;
    310 : 021C;
    311 : FB3D;
    312 : 01C0;
    313 : F879;
    314 : F822;
    315 : FB5D;
    316 : 072A;
    317 : 02EE;
    318 : F2B8;
    319 : 0867;
    320 : FA42;
    321 : F9EC;
    322 : FF7F;
    323 : F206;
    324 : 0239;
    325 : EF98;
    326 : FD0F;
    327 : 010D;
    328 : FECF;
    329 : 0300;
    330 : FBFA;
    331 : 0075;
    332 : FDF9;
    333 : F7F3;
    334 : 1759;
    335 : FD88;
    336 : FEB4;
    337 : F816;
    338 : FDB1;
    339 : F618;
    340 : 026F;
    341 : 08DB;
    342 : 05C8;
    343 : FCAC;
    344 : 00EE;
    345 : 0272;
    346 : FDC6;
    347 : 0490;
    348 : 0615;
    349 : 04AA;
    350 : FCEB;
    351 : 000B;
    352 : F529;
    353 : FC3C;
    354 : F82C;
    355 : 0506;
    356 : FC88;
    357 : FEAF;
    358 : 09D9;
    359 : FAA6;
    360 : F5A4;
    361 : 0993;
    362 : FFA5;
    363 : FBF4;
    364 : 0074;
    365 : F7C7;
    366 : FBCE;
    367 : 02D0;
    368 : FC76;
    369 : FD06;
    370 : F814;
    371 : FBFF;
    372 : 07B2;
    373 : 02DC;
    374 : F86A;
    375 : FF3E;
    376 : FE2B;
    377 : 052A;
    378 : F74D;
    379 : FEAB;
    380 : FFCF;
    381 : FF5D;
    382 : 0E7B;
    383 : FC06;
    384 : 0080;
END;
