WIDTH=16;
DEPTH=385;

ADDRESS_RADIX=DEC;
DATA_RADIX=HEX;

CONTENT BEGIN
    0 : FEB0;
    1 : 035C;
    2 : 08F8;
    3 : FC36;
    4 : F5CD;
    5 : 072A;
    6 : 0489;
    7 : 0679;
    8 : F8D9;
    9 : FFB2;
    10 : 041A;
    11 : 00EE;
    12 : F962;
    13 : FDA8;
    14 : FC6E;
    15 : 036C;
    16 : 06E0;
    17 : F676;
    18 : FCC5;
    19 : 0F7A;
    20 : F900;
    21 : FEB2;
    22 : 04B9;
    23 : F056;
    24 : 0797;
    25 : 04C1;
    26 : F999;
    27 : 0598;
    28 : FF8A;
    29 : FD4A;
    30 : 0F25;
    31 : FA7A;
    32 : FF00;
    33 : 06F8;
    34 : FC7B;
    35 : 094E;
    36 : 0EDB;
    37 : F8B8;
    38 : 0163;
    39 : 06EE;
    40 : F968;
    41 : 095A;
    42 : 03DF;
    43 : F562;
    44 : 0127;
    45 : 0114;
    46 : F93E;
    47 : 05BE;
    48 : F692;
    49 : 03AC;
    50 : 0426;
    51 : FA3E;
    52 : FC95;
    53 : FD00;
    54 : F321;
    55 : 09CF;
    56 : FE54;
    57 : FD9C;
    58 : 042F;
    59 : F368;
    60 : FB3F;
    61 : FD51;
    62 : FD05;
    63 : 00D6;
    64 : 0523;
    65 : F8DB;
    66 : F91A;
    67 : 086B;
    68 : 002B;
    69 : FA30;
    70 : 0390;
    71 : F97B;
    72 : FE8B;
    73 : FE09;
    74 : FBC1;
    75 : FFC5;
    76 : 0838;
    77 : 0019;
    78 : 0C04;
    79 : F986;
    80 : FFFD;
    81 : 06C7;
    82 : FE29;
    83 : 0A48;
    84 : 0440;
    85 : F7FB;
    86 : 02D3;
    87 : 0162;
    88 : F81A;
    89 : 089F;
    90 : F7D0;
    91 : 0398;
    92 : 039C;
    93 : F714;
    94 : 0000;
    95 : 0282;
    96 : 01F4;
    97 : 09BA;
    98 : 000C;
    99 : FCBC;
    100 : FE24;
    101 : FFB6;
    102 : 0173;
    103 : FE78;
    104 : 04BF;
    105 : 00AB;
    106 : FB00;
    107 : 037B;
    108 : FE52;
    109 : 03DA;
    110 : FA0F;
    111 : FFE4;
    112 : 0657;
    113 : FA05;
    114 : FD1A;
    115 : 064D;
    116 : F99D;
    117 : FF23;
    118 : 037B;
    119 : F3D5;
    120 : FA7E;
    121 : 0056;
    122 : 050E;
    123 : 0273;
    124 : FB4E;
    125 : FC25;
    126 : 09ED;
    127 : FC35;
    128 : 0002;
    129 : 064B;
    130 : FC92;
    131 : 07D5;
    132 : 053F;
    133 : 01D2;
    134 : F647;
    135 : 04A4;
    136 : 0450;
    137 : F6AD;
    138 : FB7E;
    139 : F9C4;
    140 : 0425;
    141 : FCF6;
    142 : 00E0;
    143 : 0340;
    144 : 018F;
    145 : FCB8;
    146 : 0517;
    147 : 02A8;
    148 : FE9B;
    149 : 021B;
    150 : 00A2;
    151 : 0849;
    152 : F8F4;
    153 : FE5D;
    154 : 0103;
    155 : F4E1;
    156 : 05F5;
    157 : F27C;
    158 : 04D1;
    159 : 00EA;
    160 : FB30;
    161 : 0F87;
    162 : 05AA;
    163 : 0048;
    164 : FD00;
    165 : FE85;
    166 : 0689;
    167 : 0566;
    168 : FBE5;
    169 : 07A6;
    170 : FDFD;
    171 : 0218;
    172 : EBCF;
    173 : F439;
    174 : 0DDB;
    175 : F0F1;
    176 : 0221;
    177 : 07CE;
    178 : F32E;
    179 : 0517;
    180 : FEB3;
    181 : FD9A;
    182 : 03BA;
    183 : FB6A;
    184 : F778;
    185 : 0890;
    186 : 0781;
    187 : F8D9;
    188 : FEE3;
    189 : FD2F;
    190 : F4C3;
    191 : 0767;
    192 : F7E3;
    193 : 002A;
    194 : 0428;
    195 : FAB7;
    196 : FFD7;
    197 : FC08;
    198 : FEF0;
    199 : FF24;
    200 : FB6A;
    201 : FF1D;
    202 : F999;
    203 : FA4B;
    204 : 0CCC;
    205 : F8C6;
    206 : 007B;
    207 : 015D;
    208 : F80E;
    209 : 0B84;
    210 : F820;
    211 : 04D4;
    212 : FF4F;
    213 : FF2A;
    214 : 074E;
    215 : FAA0;
    216 : 084E;
    217 : F6AC;
    218 : 027C;
    219 : FFCC;
    220 : FB58;
    221 : 0B87;
    222 : FD5D;
    223 : 0162;
    224 : FC64;
    225 : FC5A;
    226 : 0556;
    227 : FED7;
    228 : FD28;
    229 : F66D;
    230 : FEE4;
    231 : 0264;
    232 : 032C;
    233 : 003B;
    234 : 079C;
    235 : F9B7;
    236 : 03D9;
    237 : FFBD;
    238 : F69B;
    239 : 0A9E;
    240 : 0042;
    241 : FC18;
    242 : 06BC;
    243 : 0232;
    244 : FF99;
    245 : 0478;
    246 : 07E7;
    247 : F897;
    248 : FDD9;
    249 : 0828;
    250 : 0428;
    251 : 0726;
    252 : FE2F;
    253 : FA43;
    254 : 00D2;
    255 : 0431;
    256 : FCAC;
    257 : FD8A;
    258 : 0687;
    259 : 008E;
    260 : FD17;
    261 : 0564;
    262 : FB23;
    263 : FBFE;
    264 : FF2D;
    265 : FF1F;
    266 : 0479;
    267 : FF87;
    268 : F88B;
    269 : 0064;
    270 : F987;
    271 : FF6E;
    272 : 06DC;
    273 : F9C7;
    274 : 020D;
    275 : 081B;
    276 : FBAF;
    277 : 0627;
    278 : 03AF;
    279 : 0418;
    280 : 0356;
    281 : F801;
    282 : FC91;
    283 : 0A87;
    284 : 00F6;
    285 : FD13;
    286 : 0583;
    287 : 010B;
    288 : F829;
    289 : 00B9;
    290 : 04E6;
    291 : FFE2;
    292 : FD92;
    293 : FD7E;
    294 : 0006;
    295 : F953;
    296 : 0506;
    297 : 00DA;
    298 : FF16;
    299 : 09D4;
    300 : 074E;
    301 : F629;
    302 : FEE4;
    303 : 0AB0;
    304 : FF8E;
    305 : FF66;
    306 : 043E;
    307 : 01BE;
    308 : 008E;
    309 : FBE7;
    310 : FB61;
    311 : 0502;
    312 : 0006;
    313 : 0531;
    314 : 027A;
    315 : FD57;
    316 : 0091;
    317 : 01A7;
    318 : 04F2;
    319 : FE16;
    320 : 03CB;
    321 : 009C;
    322 : FBD3;
    323 : FFAC;
    324 : 05AE;
    325 : 01A0;
    326 : FD23;
    327 : FD55;
    328 : FA62;
    329 : 0118;
    330 : 07AF;
    331 : 02AB;
    332 : FCA0;
    333 : 03A7;
    334 : E212;
    335 : 00FA;
    336 : 013B;
    337 : F796;
    338 : FE8B;
    339 : 06D2;
    340 : 034F;
    341 : 0328;
    342 : 03E5;
    343 : 08AE;
    344 : FEC5;
    345 : 05F2;
    346 : 0119;
    347 : F9E7;
    348 : 044A;
    349 : FCB6;
    350 : F688;
    351 : 02BB;
    352 : 0672;
    353 : FA4C;
    354 : 0014;
    355 : F961;
    356 : FC24;
    357 : FCD7;
    358 : FD0C;
    359 : 028F;
    360 : FC23;
    361 : 03B8;
    362 : 01A5;
    363 : FD30;
    364 : 0225;
    365 : FC2B;
    366 : 023B;
    367 : F55D;
    368 : 002B;
    369 : 0189;
    370 : FEEF;
    371 : 0674;
    372 : 01FA;
    373 : FA0C;
    374 : 005A;
    375 : 0361;
    376 : F9AA;
    377 : 0150;
    378 : F84D;
    379 : 062B;
    380 : F9C5;
    381 : FD74;
    382 : 0704;
    383 : F827;
    384 : 0080;
END;
