WIDTH=16;
DEPTH=385;

ADDRESS_RADIX=DEC;
DATA_RADIX=HEX;

CONTENT BEGIN
    0 : FFFA;
    1 : F7CE;
    2 : 039B;
    3 : 051A;
    4 : 0CA7;
    5 : 0620;
    6 : FA28;
    7 : FD08;
    8 : 02EC;
    9 : FC35;
    10 : F9F3;
    11 : FEE6;
    12 : FF63;
    13 : FD50;
    14 : 040B;
    15 : 0193;
    16 : 02E7;
    17 : 0259;
    18 : FE23;
    19 : 0138;
    20 : FE89;
    21 : 01E6;
    22 : FB0D;
    23 : F987;
    24 : 000A;
    25 : 0DA4;
    26 : FE2B;
    27 : FD6A;
    28 : 04E0;
    29 : FC3D;
    30 : 0E16;
    31 : F695;
    32 : 019F;
    33 : 06B1;
    34 : 0023;
    35 : 0DC9;
    36 : 0643;
    37 : 0810;
    38 : 0906;
    39 : 0004;
    40 : F6B7;
    41 : 0C30;
    42 : 0940;
    43 : F1F8;
    44 : 05F8;
    45 : 031A;
    46 : FBD6;
    47 : 0D84;
    48 : FBB1;
    49 : 0A38;
    50 : FF85;
    51 : FE6D;
    52 : 03A5;
    53 : FCB6;
    54 : 06CB;
    55 : F926;
    56 : FD4B;
    57 : 0199;
    58 : 040C;
    59 : FF68;
    60 : 0F37;
    61 : F0FA;
    62 : 0218;
    63 : 0411;
    64 : F4C0;
    65 : 0ADC;
    66 : 0A81;
    67 : 0039;
    68 : 0240;
    69 : 0693;
    70 : FAD8;
    71 : 0504;
    72 : F8D3;
    73 : FC81;
    74 : F9BA;
    75 : FFC3;
    76 : 0993;
    77 : F849;
    78 : FAF9;
    79 : 0885;
    80 : 058D;
    81 : FC72;
    82 : FA99;
    83 : FC16;
    84 : FC8D;
    85 : 04E1;
    86 : FAAB;
    87 : FD03;
    88 : 00A7;
    89 : FDA4;
    90 : FA73;
    91 : 073C;
    92 : 027A;
    93 : 0002;
    94 : FCCA;
    95 : F8F4;
    96 : FFC1;
    97 : 0552;
    98 : FF63;
    99 : FB92;
    100 : F9A6;
    101 : FD3A;
    102 : FDE5;
    103 : 09AC;
    104 : 024C;
    105 : FCF5;
    106 : FEB3;
    107 : FF7B;
    108 : 0183;
    109 : FCCD;
    110 : FC8B;
    111 : 0169;
    112 : 0940;
    113 : F993;
    114 : FD19;
    115 : 01B4;
    116 : FF1A;
    117 : FA6B;
    118 : 0592;
    119 : 0152;
    120 : 06A3;
    121 : FBCB;
    122 : FA40;
    123 : FFC4;
    124 : 038B;
    125 : 0427;
    126 : 0364;
    127 : 06DA;
    128 : 0606;
    129 : 036D;
    130 : 0040;
    131 : 0687;
    132 : FB36;
    133 : F7CE;
    134 : 0B1B;
    135 : FEA3;
    136 : FEB0;
    137 : 0942;
    138 : 089A;
    139 : EF85;
    140 : 009A;
    141 : FD3B;
    142 : FF03;
    143 : 0DB5;
    144 : F939;
    145 : FDE7;
    146 : FE10;
    147 : 01DB;
    148 : 04E7;
    149 : F662;
    150 : 079F;
    151 : 0534;
    152 : FEA7;
    153 : 01A7;
    154 : FF10;
    155 : 02A1;
    156 : F152;
    157 : 0D27;
    158 : 02D1;
    159 : FA5B;
    160 : 078B;
    161 : FB41;
    162 : 019D;
    163 : FA60;
    164 : F917;
    165 : 0078;
    166 : 06C1;
    167 : 0193;
    168 : FEDF;
    169 : 034D;
    170 : FF2D;
    171 : 02AE;
    172 : EE03;
    173 : FA57;
    174 : 000C;
    175 : 065C;
    176 : FF55;
    177 : FE64;
    178 : 01ED;
    179 : 0384;
    180 : F4AF;
    181 : 05EB;
    182 : FE0E;
    183 : FB51;
    184 : FF51;
    185 : F980;
    186 : 001E;
    187 : FE6C;
    188 : FAAA;
    189 : 0301;
    190 : 0CDC;
    191 : FD19;
    192 : 0583;
    193 : 06D3;
    194 : 00E4;
    195 : FEE6;
    196 : FB48;
    197 : 0332;
    198 : F85A;
    199 : 06D4;
    200 : 01D6;
    201 : FE33;
    202 : FAF5;
    203 : F8F2;
    204 : 08C6;
    205 : F860;
    206 : FEB9;
    207 : 05C7;
    208 : 04CB;
    209 : 06D6;
    210 : F707;
    211 : FE6C;
    212 : FCEB;
    213 : 016E;
    214 : 0C7F;
    215 : FB28;
    216 : 09E9;
    217 : 0008;
    218 : 00B6;
    219 : 0404;
    220 : 0036;
    221 : 03B2;
    222 : 032D;
    223 : FECD;
    224 : F7F9;
    225 : 02E6;
    226 : 085A;
    227 : FCAA;
    228 : F62D;
    229 : F6B0;
    230 : FCD7;
    231 : FD26;
    232 : 068A;
    233 : FC3B;
    234 : FF17;
    235 : FE1D;
    236 : FD8F;
    237 : FF6B;
    238 : FB79;
    239 : 0058;
    240 : 001D;
    241 : FA84;
    242 : 05CD;
    243 : 0019;
    244 : FC9C;
    245 : 0187;
    246 : FDD5;
    247 : FE41;
    248 : 006C;
    249 : 0161;
    250 : 01F0;
    251 : FAB1;
    252 : FA05;
    253 : 0E45;
    254 : FC41;
    255 : FDA8;
    256 : 05E9;
    257 : F374;
    258 : 02C0;
    259 : 0537;
    260 : FC94;
    261 : 0505;
    262 : 046E;
    263 : FC57;
    264 : 07BA;
    265 : 0448;
    266 : 025C;
    267 : 0388;
    268 : FE23;
    269 : 067E;
    270 : 0166;
    271 : 0DCC;
    272 : FD94;
    273 : FA60;
    274 : FCCB;
    275 : FBF1;
    276 : 0800;
    277 : F901;
    278 : FFE5;
    279 : 0971;
    280 : 000D;
    281 : 0198;
    282 : FF37;
    283 : 0266;
    284 : 0558;
    285 : FAEB;
    286 : F8B2;
    287 : 0266;
    288 : FFCB;
    289 : FBC9;
    290 : 0570;
    291 : 02E9;
    292 : FBB3;
    293 : 0666;
    294 : 071B;
    295 : FD03;
    296 : FDE3;
    297 : 0A05;
    298 : 0472;
    299 : FAF4;
    300 : FFE4;
    301 : F07C;
    302 : 01D0;
    303 : 0264;
    304 : F82B;
    305 : 0019;
    306 : 01D8;
    307 : FCF7;
    308 : 05EE;
    309 : 0136;
    310 : F11F;
    311 : 054B;
    312 : FE11;
    313 : FD38;
    314 : 0044;
    315 : 042B;
    316 : 00CB;
    317 : 0270;
    318 : FECE;
    319 : F884;
    320 : F9A2;
    321 : 0485;
    322 : 0930;
    323 : F65D;
    324 : F9C9;
    325 : 07E8;
    326 : FD22;
    327 : FFD6;
    328 : FF9A;
    329 : F4E7;
    330 : FB0A;
    331 : F7E3;
    332 : FF7B;
    333 : FE47;
    334 : DD84;
    335 : FEA0;
    336 : 0714;
    337 : FE23;
    338 : 0285;
    339 : 0678;
    340 : F60D;
    341 : FF74;
    342 : 08A0;
    343 : 07C8;
    344 : 056C;
    345 : FCA3;
    346 : F4F7;
    347 : 0CF9;
    348 : 0056;
    349 : F417;
    350 : 01F0;
    351 : 03E9;
    352 : FD79;
    353 : FF94;
    354 : 00C8;
    355 : F649;
    356 : 0282;
    357 : 04C0;
    358 : 008A;
    359 : FE08;
    360 : 0435;
    361 : F833;
    362 : FA8E;
    363 : FE6E;
    364 : 07FD;
    365 : 0584;
    366 : FB9F;
    367 : FCEF;
    368 : FC5C;
    369 : FE3A;
    370 : 0584;
    371 : FCEF;
    372 : 0470;
    373 : 024B;
    374 : 021A;
    375 : 001D;
    376 : 032E;
    377 : 00C5;
    378 : 011F;
    379 : 03CA;
    380 : FCDB;
    381 : FB97;
    382 : FBBB;
    383 : 0008;
    384 : 0080;
END;
