WIDTH=16;
DEPTH=385;

ADDRESS_RADIX=DEC;
DATA_RADIX=HEX;

CONTENT BEGIN
    0 : FC2B;
    1 : FF27;
    2 : FC6E;
    3 : F89A;
    4 : EF4F;
    5 : FE63;
    6 : FC39;
    7 : 0594;
    8 : FC41;
    9 : F981;
    10 : 0980;
    11 : 0119;
    12 : FE8A;
    13 : 093F;
    14 : F980;
    15 : FC53;
    16 : 01AC;
    17 : F902;
    18 : FF40;
    19 : FDEA;
    20 : FED4;
    21 : FED8;
    22 : 056D;
    23 : 0235;
    24 : 0387;
    25 : 0044;
    26 : 0223;
    27 : 0279;
    28 : F94C;
    29 : 0021;
    30 : FD23;
    31 : FEFF;
    32 : 031C;
    33 : FC30;
    34 : F2F4;
    35 : FD4A;
    36 : FC98;
    37 : F915;
    38 : F9D6;
    39 : FF27;
    40 : 0912;
    41 : FC0A;
    42 : 0111;
    43 : FD71;
    44 : F7F4;
    45 : FB14;
    46 : F620;
    47 : 018E;
    48 : 0388;
    49 : FA59;
    50 : F87D;
    51 : FD37;
    52 : 019F;
    53 : 0116;
    54 : FEC6;
    55 : 05C0;
    56 : F86C;
    57 : FC85;
    58 : FF1F;
    59 : FC09;
    60 : 0BE1;
    61 : 02CC;
    62 : FBB4;
    63 : 0378;
    64 : FA63;
    65 : 00BE;
    66 : 04A7;
    67 : F741;
    68 : FFE8;
    69 : FF12;
    70 : FCED;
    71 : 06E1;
    72 : FACE;
    73 : 04F2;
    74 : 060A;
    75 : FB0F;
    76 : FE76;
    77 : 057E;
    78 : 0D79;
    79 : F2F1;
    80 : 00DA;
    81 : 055C;
    82 : F98A;
    83 : 09A8;
    84 : FC54;
    85 : 0975;
    86 : FA01;
    87 : FC38;
    88 : 0C03;
    89 : FA4B;
    90 : FE3F;
    91 : FBD1;
    92 : F7C8;
    93 : FFDD;
    94 : 0A3E;
    95 : FE1B;
    96 : F6C6;
    97 : 09B4;
    98 : 0667;
    99 : F5ED;
    100 : 0309;
    101 : 048C;
    102 : 082A;
    103 : FFAB;
    104 : F6E8;
    105 : 0236;
    106 : 01BC;
    107 : FC5A;
    108 : FD68;
    109 : 08D9;
    110 : FF50;
    111 : FFE7;
    112 : 0053;
    113 : FC4A;
    114 : FAF8;
    115 : 0702;
    116 : FE06;
    117 : F55B;
    118 : FC4B;
    119 : FCAA;
    120 : 05F4;
    121 : FF7B;
    122 : 01EC;
    123 : FFF4;
    124 : FCF5;
    125 : 0848;
    126 : 0675;
    127 : FBE0;
    128 : F9AF;
    129 : FFDC;
    130 : FFEE;
    131 : 00E0;
    132 : F952;
    133 : 049D;
    134 : FA81;
    135 : F939;
    136 : FAEA;
    137 : F6B2;
    138 : 06F2;
    139 : 0EAF;
    140 : 077D;
    141 : FD01;
    142 : F709;
    143 : 0BC0;
    144 : 0360;
    145 : 0753;
    146 : F9CF;
    147 : FBCD;
    148 : FC42;
    149 : FC0E;
    150 : F57C;
    151 : FD81;
    152 : 00C3;
    153 : F89B;
    154 : 07D7;
    155 : 0023;
    156 : F86E;
    157 : FAE7;
    158 : FF67;
    159 : FF19;
    160 : 0929;
    161 : FF78;
    162 : F0FA;
    163 : 0D07;
    164 : FC78;
    165 : FA2E;
    166 : 06D1;
    167 : F22B;
    168 : 01E8;
    169 : F838;
    170 : FD2B;
    171 : FF05;
    172 : 2878;
    173 : 05C2;
    174 : 0606;
    175 : E6ED;
    176 : FFF3;
    177 : 0124;
    178 : F431;
    179 : 043A;
    180 : FEBF;
    181 : FA2E;
    182 : 01C1;
    183 : 047C;
    184 : 0808;
    185 : 0519;
    186 : FC36;
    187 : F7F9;
    188 : 056B;
    189 : F939;
    190 : F080;
    191 : 08DF;
    192 : F83F;
    193 : FF8E;
    194 : FE44;
    195 : 01AF;
    196 : 07CA;
    197 : F54E;
    198 : FB23;
    199 : FF90;
    200 : FEFC;
    201 : FA55;
    202 : 036F;
    203 : FCEA;
    204 : 0A3C;
    205 : FEF9;
    206 : FFE8;
    207 : FC9F;
    208 : F10A;
    209 : 0581;
    210 : 00A3;
    211 : 068B;
    212 : 02E2;
    213 : 00BE;
    214 : F9B1;
    215 : FBEC;
    216 : F6F5;
    217 : FCA8;
    218 : FE9A;
    219 : 03EB;
    220 : 0238;
    221 : F647;
    222 : 092A;
    223 : 039B;
    224 : F9BF;
    225 : FBBE;
    226 : F512;
    227 : FD3E;
    228 : 09EA;
    229 : FD72;
    230 : 0142;
    231 : 009B;
    232 : FA4E;
    233 : 07A1;
    234 : 0608;
    235 : F4CE;
    236 : FDE0;
    237 : 07BA;
    238 : 0575;
    239 : 0767;
    240 : 0235;
    241 : 069E;
    242 : 05CB;
    243 : FFF5;
    244 : F870;
    245 : 0030;
    246 : F5C3;
    247 : 0B59;
    248 : FE4E;
    249 : F636;
    250 : 05E7;
    251 : FDB2;
    252 : F4F5;
    253 : FF94;
    254 : FA80;
    255 : FD62;
    256 : 0DED;
    257 : FC2E;
    258 : 035C;
    259 : 00D3;
    260 : 027D;
    261 : 00A7;
    262 : F95D;
    263 : FE3A;
    264 : 00F0;
    265 : FC7F;
    266 : 0104;
    267 : FEF8;
    268 : 0154;
    269 : 01C6;
    270 : 0917;
    271 : F2D5;
    272 : FDB1;
    273 : FF45;
    274 : FBD1;
    275 : 072B;
    276 : FCC2;
    277 : FD4B;
    278 : 03DF;
    279 : FA65;
    280 : F84E;
    281 : 0474;
    282 : F362;
    283 : 02AA;
    284 : F63B;
    285 : 0071;
    286 : 0E95;
    287 : F1D5;
    288 : 04B5;
    289 : FE8A;
    290 : F6DC;
    291 : 02F8;
    292 : 0CF3;
    293 : 01C1;
    294 : FBD5;
    295 : FF5E;
    296 : FD46;
    297 : FF1B;
    298 : FB2F;
    299 : FC7C;
    300 : F9D8;
    301 : 0A18;
    302 : 0425;
    303 : F847;
    304 : F929;
    305 : FB5B;
    306 : F877;
    307 : 0363;
    308 : F5F7;
    309 : FD09;
    310 : 0CAA;
    311 : F291;
    312 : 0C76;
    313 : F73C;
    314 : FB4D;
    315 : 011E;
    316 : FD47;
    317 : 077B;
    318 : 0781;
    319 : 0A9C;
    320 : FF6B;
    321 : 0334;
    322 : FB14;
    323 : FFA7;
    324 : 01A9;
    325 : F94E;
    326 : FEE2;
    327 : FCFA;
    328 : FEBA;
    329 : 03B5;
    330 : 0097;
    331 : 05B6;
    332 : F6D8;
    333 : FDF2;
    334 : 3390;
    335 : FE68;
    336 : 03AC;
    337 : FBE7;
    338 : FCDB;
    339 : 0117;
    340 : 02B0;
    341 : 0092;
    342 : 06B2;
    343 : F3A9;
    344 : FC57;
    345 : FB0E;
    346 : FC5A;
    347 : 0885;
    348 : FC17;
    349 : 023D;
    350 : 03B0;
    351 : 0167;
    352 : FF6A;
    353 : FFB5;
    354 : 00EC;
    355 : 061C;
    356 : 0155;
    357 : 003B;
    358 : FF73;
    359 : 0066;
    360 : FD9C;
    361 : 09B2;
    362 : 02C2;
    363 : FFAB;
    364 : FD36;
    365 : FD8D;
    366 : 01AB;
    367 : 0415;
    368 : FEDB;
    369 : 03B9;
    370 : FAC5;
    371 : F8C0;
    372 : 08FB;
    373 : FD25;
    374 : 08A8;
    375 : FC79;
    376 : EF32;
    377 : 0F46;
    378 : FC95;
    379 : F992;
    380 : 01BE;
    381 : FEF9;
    382 : FE6B;
    383 : FE7C;
    384 : 0080;
END;
