WIDTH=16;
DEPTH=385;

ADDRESS_RADIX=DEC;
DATA_RADIX=HEX;

CONTENT BEGIN
    0 : FA6F;
    1 : 058B;
    2 : FA22;
    3 : 0084;
    4 : FA56;
    5 : F785;
    6 : 02B3;
    7 : 051C;
    8 : FEAF;
    9 : FD17;
    10 : 0755;
    11 : 0174;
    12 : F51F;
    13 : 0FBC;
    14 : 04C6;
    15 : FFDB;
    16 : FEF1;
    17 : F8B0;
    18 : F544;
    19 : F889;
    20 : FC7C;
    21 : 0406;
    22 : 0E3C;
    23 : F55F;
    24 : EF90;
    25 : 0CD7;
    26 : FED8;
    27 : FA03;
    28 : 08F8;
    29 : F5EB;
    30 : FB18;
    31 : 0691;
    32 : 07AB;
    33 : 027F;
    34 : FA77;
    35 : FF8A;
    36 : 02A4;
    37 : EC7F;
    38 : FFD5;
    39 : FE47;
    40 : FF0A;
    41 : 06A4;
    42 : 081A;
    43 : F749;
    44 : 02C3;
    45 : 0545;
    46 : FA69;
    47 : 0945;
    48 : FCAE;
    49 : F3D1;
    50 : 02EB;
    51 : FCD6;
    52 : 0698;
    53 : 082F;
    54 : FDBB;
    55 : FEEA;
    56 : 047F;
    57 : 05FD;
    58 : FC50;
    59 : FF47;
    60 : F9A2;
    61 : 1448;
    62 : 0653;
    63 : F385;
    64 : FC24;
    65 : 04C5;
    66 : F1A2;
    67 : FC00;
    68 : FAA8;
    69 : FFA3;
    70 : 0F09;
    71 : F55A;
    72 : 12F9;
    73 : 0174;
    74 : 082C;
    75 : 02C7;
    76 : ED50;
    77 : 133A;
    78 : 03B6;
    79 : EB05;
    80 : 052C;
    81 : 0406;
    82 : 026E;
    83 : 0DEB;
    84 : FF3C;
    85 : 0B69;
    86 : FDE4;
    87 : 01F1;
    88 : 075C;
    89 : FB82;
    90 : 015A;
    91 : F57C;
    92 : 0431;
    93 : 024D;
    94 : 03BC;
    95 : 020B;
    96 : F53C;
    97 : 0B71;
    98 : 00FA;
    99 : F85D;
    100 : 05D9;
    101 : FD3F;
    102 : 016C;
    103 : FCB6;
    104 : 000D;
    105 : 0297;
    106 : FCE7;
    107 : 002A;
    108 : F902;
    109 : 0E86;
    110 : 04AD;
    111 : F7CD;
    112 : F693;
    113 : FCD5;
    114 : FBD2;
    115 : 04B5;
    116 : F802;
    117 : FFB7;
    118 : 034A;
    119 : F540;
    120 : F3C2;
    121 : 013A;
    122 : 0472;
    123 : 00C5;
    124 : 0B00;
    125 : FBFB;
    126 : 04B0;
    127 : FC98;
    128 : FE96;
    129 : FC0F;
    130 : F787;
    131 : 04FB;
    132 : F598;
    133 : 16A0;
    134 : FE49;
    135 : F9CC;
    136 : 01CB;
    137 : F1D3;
    138 : 03A1;
    139 : 0E6A;
    140 : FAED;
    141 : FF0C;
    142 : FA5C;
    143 : FF62;
    144 : 0364;
    145 : 03E0;
    146 : 00F4;
    147 : 0309;
    148 : FA1A;
    149 : 05C5;
    150 : 016E;
    151 : ECAE;
    152 : 0054;
    153 : 0606;
    154 : 055A;
    155 : 05A0;
    156 : 0402;
    157 : FA8C;
    158 : FB4F;
    159 : 00F0;
    160 : 0B2C;
    161 : 0389;
    162 : FF80;
    163 : 1018;
    164 : 07D2;
    165 : FB14;
    166 : F949;
    167 : 0455;
    168 : EDB9;
    169 : 0B9B;
    170 : FC95;
    171 : FAFA;
    172 : 439D;
    173 : F030;
    174 : FB0F;
    175 : 01E8;
    176 : 0356;
    177 : F867;
    178 : 02DA;
    179 : 0621;
    180 : 06C4;
    181 : F0AD;
    182 : 0139;
    183 : 0807;
    184 : 0318;
    185 : 0396;
    186 : 058A;
    187 : FFB0;
    188 : 0483;
    189 : 0546;
    190 : F2DB;
    191 : 022F;
    192 : 0438;
    193 : EF3E;
    194 : 064D;
    195 : 0437;
    196 : FBD2;
    197 : 09BC;
    198 : 0327;
    199 : F431;
    200 : FCBD;
    201 : 0A08;
    202 : 0C23;
    203 : FD95;
    204 : FF9C;
    205 : 0815;
    206 : 0439;
    207 : F897;
    208 : F59A;
    209 : 049A;
    210 : F9B3;
    211 : 076C;
    212 : 0017;
    213 : 018B;
    214 : F89B;
    215 : F5AF;
    216 : 0116;
    217 : 03B9;
    218 : 054A;
    219 : 0525;
    220 : FE95;
    221 : FDE3;
    222 : FD12;
    223 : 0F04;
    224 : 0163;
    225 : 0252;
    226 : FB45;
    227 : F44F;
    228 : 01D9;
    229 : FD72;
    230 : FE68;
    231 : 0237;
    232 : 0094;
    233 : FFC6;
    234 : F009;
    235 : FE83;
    236 : FE96;
    237 : 0182;
    238 : 1351;
    239 : F5C6;
    240 : F8B4;
    241 : 0E10;
    242 : 0611;
    243 : F7F6;
    244 : F9C4;
    245 : 0181;
    246 : F8D7;
    247 : 07B8;
    248 : 0921;
    249 : FBB8;
    250 : F6AA;
    251 : 036E;
    252 : F51E;
    253 : F8C3;
    254 : FE7D;
    255 : FED9;
    256 : 0969;
    257 : F9B8;
    258 : FB59;
    259 : F7F8;
    260 : FF84;
    261 : FB1B;
    262 : 00ED;
    263 : 01A9;
    264 : 0355;
    265 : EDD5;
    266 : 0075;
    267 : 0823;
    268 : 0577;
    269 : 0561;
    270 : FBC4;
    271 : F8D7;
    272 : 002A;
    273 : FDED;
    274 : 0E99;
    275 : 0213;
    276 : 039D;
    277 : 0B54;
    278 : FD3E;
    279 : FDA2;
    280 : FC88;
    281 : FE1D;
    282 : 092F;
    283 : F73E;
    284 : FE89;
    285 : 034C;
    286 : 01D9;
    287 : 01AF;
    288 : 013B;
    289 : FBFB;
    290 : F816;
    291 : 00E0;
    292 : 0DDF;
    293 : FD9A;
    294 : 067C;
    295 : 0B75;
    296 : 0123;
    297 : 0465;
    298 : F438;
    299 : FA4C;
    300 : 0ABC;
    301 : 091C;
    302 : FE5E;
    303 : FE69;
    304 : F36F;
    305 : 0483;
    306 : F4E6;
    307 : F9CE;
    308 : FB96;
    309 : FC3A;
    310 : 11D6;
    311 : FCF6;
    312 : 05D6;
    313 : F71E;
    314 : FE62;
    315 : 09E0;
    316 : 0B29;
    317 : 01F8;
    318 : F99D;
    319 : 0B85;
    320 : 0351;
    321 : F90B;
    322 : F610;
    323 : FEBA;
    324 : F3D8;
    325 : 037B;
    326 : FB51;
    327 : FF60;
    328 : 158B;
    329 : F4BB;
    330 : 0042;
    331 : FE42;
    332 : FB04;
    333 : 0705;
    334 : 2F1D;
    335 : F691;
    336 : 0182;
    337 : FB1F;
    338 : 03B3;
    339 : FF9C;
    340 : 05E4;
    341 : 0619;
    342 : 0363;
    343 : F550;
    344 : FF35;
    345 : 0445;
    346 : 05A4;
    347 : 022B;
    348 : F7A6;
    349 : 09DC;
    350 : FD4D;
    351 : FB97;
    352 : 02A2;
    353 : FFB0;
    354 : 096D;
    355 : 0079;
    356 : 03A4;
    357 : 007E;
    358 : F5DB;
    359 : 0A41;
    360 : 06E3;
    361 : 01E0;
    362 : 0455;
    363 : 039D;
    364 : EE74;
    365 : 04E0;
    366 : F9C5;
    367 : 07AB;
    368 : 0913;
    369 : FFBA;
    370 : F775;
    371 : 0148;
    372 : FB81;
    373 : 07AD;
    374 : FFE6;
    375 : FE19;
    376 : FD8D;
    377 : 008E;
    378 : 0112;
    379 : FEB7;
    380 : FA32;
    381 : 08D7;
    382 : 0DC3;
    383 : F297;
    384 : 0080;
END;
