WIDTH=16;
DEPTH=385;

ADDRESS_RADIX=DEC;
DATA_RADIX=HEX;

CONTENT BEGIN
    0 : 0411;
    1 : 0B10;
    2 : 0059;
    3 : 042B;
    4 : 038D;
    5 : FCD1;
    6 : 0178;
    7 : 05CF;
    8 : 0573;
    9 : FD5F;
    10 : 03C1;
    11 : 0084;
    12 : 07AC;
    13 : 0774;
    14 : 023C;
    15 : 0253;
    16 : F569;
    17 : 04C8;
    18 : 0798;
    19 : EA32;
    20 : 0148;
    21 : 076F;
    22 : 0091;
    23 : 09C0;
    24 : 029A;
    25 : F942;
    26 : 03E6;
    27 : 028B;
    28 : FAC7;
    29 : 04E8;
    30 : FA65;
    31 : 07C1;
    32 : 05D1;
    33 : FF1B;
    34 : F6B1;
    35 : F96B;
    36 : FAED;
    37 : FA6B;
    38 : FAAF;
    39 : 020E;
    40 : 0992;
    41 : FB6A;
    42 : FFC4;
    43 : F701;
    44 : 0567;
    45 : 02DC;
    46 : FBA4;
    47 : 04C1;
    48 : F88A;
    49 : 006E;
    50 : FBD2;
    51 : 0367;
    52 : 0F6F;
    53 : F3A0;
    54 : 0AF3;
    55 : FCEB;
    56 : 0200;
    57 : 077A;
    58 : FECF;
    59 : 0371;
    60 : FBD7;
    61 : 1437;
    62 : 00A9;
    63 : F94B;
    64 : FFDE;
    65 : FF31;
    66 : 0054;
    67 : F706;
    68 : 0597;
    69 : 033F;
    70 : FFC1;
    71 : 0303;
    72 : 0934;
    73 : 0AC2;
    74 : 04E8;
    75 : FDB2;
    76 : F2DC;
    77 : 0907;
    78 : 0416;
    79 : F350;
    80 : 0092;
    81 : 097F;
    82 : 04D7;
    83 : 025B;
    84 : 00F1;
    85 : 0928;
    86 : 0203;
    87 : FE81;
    88 : 0D80;
    89 : 0189;
    90 : 0CC7;
    91 : F5C8;
    92 : FD37;
    93 : 0A44;
    94 : 07EA;
    95 : 04F6;
    96 : 0B03;
    97 : FEFB;
    98 : 04A3;
    99 : 03A4;
    100 : F2D9;
    101 : 0340;
    102 : FE34;
    103 : 0D23;
    104 : FF46;
    105 : FCAF;
    106 : 0490;
    107 : FB9C;
    108 : F2DB;
    109 : 0CA6;
    110 : 0326;
    111 : FC0B;
    112 : FF55;
    113 : F750;
    114 : 05CB;
    115 : FFE0;
    116 : F8B5;
    117 : 0048;
    118 : FFD3;
    119 : FC1E;
    120 : F8C9;
    121 : 0403;
    122 : FEA4;
    123 : FC5E;
    124 : 0FCC;
    125 : FF2B;
    126 : 0BE2;
    127 : FA1D;
    128 : FF9C;
    129 : 00B4;
    130 : F20B;
    131 : 068E;
    132 : F3A3;
    133 : 1109;
    134 : 0376;
    135 : F36F;
    136 : FF50;
    137 : FE25;
    138 : FE42;
    139 : 11D8;
    140 : FEAB;
    141 : FB6E;
    142 : FD45;
    143 : FF7F;
    144 : 00F9;
    145 : FFFA;
    146 : 0852;
    147 : 01D0;
    148 : EC4F;
    149 : 0244;
    150 : F58E;
    151 : FE8E;
    152 : 00AC;
    153 : FCD9;
    154 : 0B94;
    155 : FB6E;
    156 : FBBB;
    157 : 0201;
    158 : FE0E;
    159 : FDC2;
    160 : 09DE;
    161 : FA43;
    162 : 046E;
    163 : 0BD2;
    164 : FB1A;
    165 : 007B;
    166 : FDAA;
    167 : FE10;
    168 : F889;
    169 : 064E;
    170 : FF5A;
    171 : FC64;
    172 : 2D6D;
    173 : FEFD;
    174 : FD28;
    175 : 0DC3;
    176 : FF7B;
    177 : FCB7;
    178 : 08F6;
    179 : FE8E;
    180 : 0094;
    181 : FB52;
    182 : 0171;
    183 : 068A;
    184 : 0DCB;
    185 : FCD0;
    186 : 0B91;
    187 : 0469;
    188 : FDBE;
    189 : 0059;
    190 : F980;
    191 : 05E2;
    192 : FBBD;
    193 : FE2D;
    194 : FBE3;
    195 : 06B9;
    196 : 06A6;
    197 : F6A3;
    198 : F877;
    199 : FB12;
    200 : 0165;
    201 : FD22;
    202 : 0D09;
    203 : 0169;
    204 : 060F;
    205 : 071C;
    206 : 0AA8;
    207 : FE1D;
    208 : F2F1;
    209 : 06B1;
    210 : FDAE;
    211 : 0653;
    212 : 06E6;
    213 : 0107;
    214 : F689;
    215 : FEA6;
    216 : 01B9;
    217 : 00C7;
    218 : FC7F;
    219 : 0676;
    220 : FFB2;
    221 : FDD5;
    222 : F86A;
    223 : 112E;
    224 : 01D0;
    225 : FD2A;
    226 : 003E;
    227 : F818;
    228 : 08EF;
    229 : 01F2;
    230 : F87E;
    231 : FEF9;
    232 : 0363;
    233 : 0503;
    234 : F89D;
    235 : F9F9;
    236 : 0224;
    237 : 06C7;
    238 : 0B87;
    239 : F992;
    240 : F2AE;
    241 : 0E5F;
    242 : 0458;
    243 : FF4A;
    244 : FEB1;
    245 : F509;
    246 : FCFF;
    247 : 05D2;
    248 : 0C99;
    249 : FC34;
    250 : F4FA;
    251 : 0745;
    252 : F856;
    253 : F8E7;
    254 : F989;
    255 : 0017;
    256 : 0D9F;
    257 : FE35;
    258 : 00EF;
    259 : F82E;
    260 : 0025;
    261 : 06CD;
    262 : 0700;
    263 : FDB2;
    264 : 039E;
    265 : EF15;
    266 : FEE6;
    267 : FF65;
    268 : 03A7;
    269 : 0BAC;
    270 : 0211;
    271 : FAB5;
    272 : FE8B;
    273 : FEC7;
    274 : 09B9;
    275 : 05ED;
    276 : 01B3;
    277 : FFB0;
    278 : 017E;
    279 : 041E;
    280 : F674;
    281 : FDCC;
    282 : F223;
    283 : FF60;
    284 : F9E4;
    285 : FD24;
    286 : 16A6;
    287 : F81F;
    288 : F6DF;
    289 : F8C8;
    290 : FE3E;
    291 : FC36;
    292 : 0ABA;
    293 : FEF0;
    294 : 017B;
    295 : 05BE;
    296 : 04F9;
    297 : FFC6;
    298 : F7DE;
    299 : 0300;
    300 : 0322;
    301 : 0A7C;
    302 : FF98;
    303 : FC56;
    304 : F712;
    305 : 041B;
    306 : 0DBA;
    307 : F55C;
    308 : 004E;
    309 : 05C4;
    310 : 0610;
    311 : 0CFE;
    312 : 005D;
    313 : F7AA;
    314 : F6BE;
    315 : 04C3;
    316 : 0EC2;
    317 : FEC2;
    318 : F6E9;
    319 : 0A37;
    320 : FF56;
    321 : FD92;
    322 : FEFA;
    323 : FD0A;
    324 : 0219;
    325 : F532;
    326 : FF76;
    327 : 02E5;
    328 : 02F1;
    329 : FF66;
    330 : 0582;
    331 : FAD3;
    332 : FDA0;
    333 : 008E;
    334 : 236C;
    335 : 065A;
    336 : FB4B;
    337 : FF5C;
    338 : FC3D;
    339 : FD31;
    340 : 058F;
    341 : F6BB;
    342 : 0D31;
    343 : F466;
    344 : 0139;
    345 : 0685;
    346 : F7A1;
    347 : 0307;
    348 : 02D1;
    349 : 0CFA;
    350 : 06A6;
    351 : 00D9;
    352 : F39A;
    353 : FF29;
    354 : FC36;
    355 : 0910;
    356 : 057F;
    357 : FC83;
    358 : 07BA;
    359 : 05EF;
    360 : FE31;
    361 : 08FC;
    362 : 02EC;
    363 : 02CA;
    364 : FC09;
    365 : 0227;
    366 : 0129;
    367 : 0A86;
    368 : FBE5;
    369 : 00C6;
    370 : FA7D;
    371 : F905;
    372 : 0448;
    373 : 00CA;
    374 : FF2B;
    375 : 06F5;
    376 : F84E;
    377 : FBF9;
    378 : F9DB;
    379 : F683;
    380 : 04DA;
    381 : 0145;
    382 : 04E0;
    383 : FE70;
    384 : 0080;
END;
