WIDTH=16;
DEPTH=385;

ADDRESS_RADIX=DEC;
DATA_RADIX=HEX;

CONTENT BEGIN
    0 : 07AF;
    1 : F7D0;
    2 : 013C;
    3 : 0163;
    4 : F1AC;
    5 : 0646;
    6 : 0130;
    7 : 02F2;
    8 : 0021;
    9 : 05B3;
    10 : 01FD;
    11 : FA50;
    12 : F9E2;
    13 : 078C;
    14 : FFB9;
    15 : FCC4;
    16 : 09AF;
    17 : FB3A;
    18 : 0045;
    19 : 0B09;
    20 : 0095;
    21 : FC85;
    22 : 0605;
    23 : 02E1;
    24 : F1A2;
    25 : 024C;
    26 : FE60;
    27 : F87B;
    28 : 0195;
    29 : F703;
    30 : FD3F;
    31 : F9B9;
    32 : FFE6;
    33 : FE82;
    34 : 0113;
    35 : 0441;
    36 : FD6A;
    37 : F93C;
    38 : F9F5;
    39 : FBD3;
    40 : 0400;
    41 : FEB6;
    42 : FE56;
    43 : FD13;
    44 : FCC5;
    45 : FB8A;
    46 : FE0F;
    47 : 01BF;
    48 : 007F;
    49 : 0523;
    50 : FF66;
    51 : FBF9;
    52 : FCDA;
    53 : FDBB;
    54 : F050;
    55 : 0405;
    56 : FE7D;
    57 : FD30;
    58 : 0136;
    59 : F430;
    60 : 0374;
    61 : FFA2;
    62 : FB9C;
    63 : 0425;
    64 : 0AC3;
    65 : 0218;
    66 : FD01;
    67 : 03E0;
    68 : FE82;
    69 : FCD4;
    70 : FF2B;
    71 : FE77;
    72 : 0379;
    73 : 0128;
    74 : FD41;
    75 : 0296;
    76 : 063B;
    77 : 00CA;
    78 : 0333;
    79 : 00FE;
    80 : FBAA;
    81 : FE7B;
    82 : FAE0;
    83 : FA49;
    84 : 0758;
    85 : 01E8;
    86 : 046A;
    87 : FBFB;
    88 : F6C4;
    89 : 0BEE;
    90 : 08E1;
    91 : F981;
    92 : 0297;
    93 : 0475;
    94 : F52D;
    95 : 0456;
    96 : FE87;
    97 : 03EE;
    98 : FF93;
    99 : FE26;
    100 : 0F24;
    101 : 00DA;
    102 : 00CA;
    103 : F5E4;
    104 : FF90;
    105 : FDEE;
    106 : 01CD;
    107 : 06F0;
    108 : 09E0;
    109 : FAAD;
    110 : FA77;
    111 : 066A;
    112 : FF27;
    113 : 0283;
    114 : FD4E;
    115 : 098F;
    116 : FD4E;
    117 : FC3E;
    118 : FC90;
    119 : FBFB;
    120 : 076E;
    121 : F702;
    122 : FEFB;
    123 : FF66;
    124 : F091;
    125 : 0557;
    126 : 01E1;
    127 : 03CB;
    128 : FE9C;
    129 : FA73;
    130 : 04D8;
    131 : 025C;
    132 : 0837;
    133 : F977;
    134 : FCB5;
    135 : 070A;
    136 : FE93;
    137 : 0197;
    138 : FC98;
    139 : FF22;
    140 : FF9D;
    141 : 05B5;
    142 : 03B3;
    143 : FB84;
    144 : 0B94;
    145 : FA99;
    146 : FC52;
    147 : 0220;
    148 : FD2F;
    149 : 05B9;
    150 : F538;
    151 : 0622;
    152 : FEA4;
    153 : F8FA;
    154 : 07A5;
    155 : FB02;
    156 : 0AEA;
    157 : FB94;
    158 : FFFA;
    159 : 04BE;
    160 : F3FB;
    161 : 0145;
    162 : FB05;
    163 : 013F;
    164 : 03E8;
    165 : FAA1;
    166 : 05DE;
    167 : 05B2;
    168 : FC95;
    169 : 01B2;
    170 : 01EE;
    171 : 0017;
    172 : 2C30;
    173 : FC1F;
    174 : F807;
    175 : FCB2;
    176 : F8DF;
    177 : FBFE;
    178 : 00C6;
    179 : F190;
    180 : 0B64;
    181 : 0495;
    182 : FE6E;
    183 : 010A;
    184 : FDEC;
    185 : 0375;
    186 : 0082;
    187 : F75C;
    188 : FE3D;
    189 : FF9B;
    190 : 016F;
    191 : 049D;
    192 : FBEA;
    193 : F76E;
    194 : FE1F;
    195 : FEC3;
    196 : FAFD;
    197 : FD8A;
    198 : 05B4;
    199 : 01B2;
    200 : FE68;
    201 : 023A;
    202 : 0182;
    203 : 03BA;
    204 : F009;
    205 : 03F8;
    206 : FD04;
    207 : F7BD;
    208 : 04CF;
    209 : F406;
    210 : FF52;
    211 : FECE;
    212 : 0440;
    213 : 02D7;
    214 : FD9A;
    215 : FE1A;
    216 : 027D;
    217 : F037;
    218 : 02BC;
    219 : FC7B;
    220 : F69F;
    221 : 0D5C;
    222 : 00AD;
    223 : 043D;
    224 : FE03;
    225 : FB26;
    226 : 058C;
    227 : 01DE;
    228 : F936;
    229 : 1042;
    230 : 0459;
    231 : FF7A;
    232 : 009A;
    233 : F90E;
    234 : F4AF;
    235 : 0B0C;
    236 : FEB3;
    237 : F9D8;
    238 : 0A58;
    239 : FAA8;
    240 : 0245;
    241 : 013B;
    242 : 035D;
    243 : F98B;
    244 : 0098;
    245 : 08F0;
    246 : 04BD;
    247 : FD44;
    248 : 0453;
    249 : 0248;
    250 : FC50;
    251 : 0447;
    252 : 0057;
    253 : 0541;
    254 : FA0F;
    255 : FE8C;
    256 : 02C4;
    257 : FB6C;
    258 : 0AFD;
    259 : FDB9;
    260 : 0139;
    261 : 050C;
    262 : ED6B;
    263 : 0180;
    264 : 0505;
    265 : FD14;
    266 : 05C2;
    267 : FED3;
    268 : F792;
    269 : 07E6;
    270 : 0020;
    271 : 007B;
    272 : FC80;
    273 : 00B1;
    274 : FF16;
    275 : F988;
    276 : F70B;
    277 : 02CE;
    278 : FCCA;
    279 : 006B;
    280 : 09B0;
    281 : F474;
    282 : 0454;
    283 : 0384;
    284 : FCC6;
    285 : 063E;
    286 : FED5;
    287 : FB9B;
    288 : FA8C;
    289 : 0602;
    290 : 004A;
    291 : FC60;
    292 : FD0A;
    293 : F84D;
    294 : 000F;
    295 : 02E8;
    296 : FADE;
    297 : 02CA;
    298 : 017E;
    299 : F738;
    300 : 02B5;
    301 : FE5A;
    302 : FD75;
    303 : 010F;
    304 : 059C;
    305 : 0338;
    306 : 0574;
    307 : FCDB;
    308 : FA8A;
    309 : 0237;
    310 : FB5A;
    311 : FD28;
    312 : 0405;
    313 : 0463;
    314 : FC42;
    315 : FFFD;
    316 : FDDD;
    317 : FB9E;
    318 : F619;
    319 : 0333;
    320 : 00B1;
    321 : FD12;
    322 : 099A;
    323 : FC97;
    324 : FFC0;
    325 : 088C;
    326 : F6D9;
    327 : 017F;
    328 : 04D7;
    329 : F562;
    330 : FBBD;
    331 : 044B;
    332 : 0277;
    333 : FEBE;
    334 : 1D00;
    335 : FBF9;
    336 : 014A;
    337 : F999;
    338 : 0150;
    339 : 056C;
    340 : FCFA;
    341 : 052A;
    342 : 00AA;
    343 : F98F;
    344 : 007B;
    345 : FEE5;
    346 : F8B4;
    347 : 00A5;
    348 : 0BE5;
    349 : FE17;
    350 : FCAB;
    351 : 094D;
    352 : 018E;
    353 : FE30;
    354 : 002E;
    355 : 033B;
    356 : 045D;
    357 : FF5B;
    358 : F9F7;
    359 : FF70;
    360 : FE77;
    361 : FBC0;
    362 : FD3B;
    363 : 0346;
    364 : 08AC;
    365 : 0221;
    366 : F82D;
    367 : 0107;
    368 : FF38;
    369 : F98A;
    370 : 0375;
    371 : FD7C;
    372 : F592;
    373 : 012F;
    374 : 02FC;
    375 : F994;
    376 : FF55;
    377 : FE3C;
    378 : F948;
    379 : 067B;
    380 : 0433;
    381 : FE79;
    382 : FEFE;
    383 : FA78;
    384 : 0080;
END;
