WIDTH=16;
DEPTH=385;

ADDRESS_RADIX=DEC;
DATA_RADIX=HEX;

CONTENT BEGIN
    0 : 0706;
    1 : 042A;
    2 : FD38;
    3 : 00C3;
    4 : 0860;
    5 : FFED;
    6 : F968;
    7 : F71E;
    8 : 05EC;
    9 : F992;
    10 : FA8B;
    11 : 04A9;
    12 : FC8C;
    13 : FBA3;
    14 : FC89;
    15 : FA4A;
    16 : F958;
    17 : FF80;
    18 : FFA2;
    19 : 047C;
    20 : FEFD;
    21 : FC47;
    22 : 0536;
    23 : FF76;
    24 : 0761;
    25 : F41B;
    26 : 04F3;
    27 : 0108;
    28 : FD29;
    29 : 0E1E;
    30 : F860;
    31 : 05F7;
    32 : 008A;
    33 : FC49;
    34 : 0829;
    35 : FDC8;
    36 : FAAE;
    37 : 0A62;
    38 : 0739;
    39 : FADC;
    40 : 0263;
    41 : 0413;
    42 : 03FA;
    43 : 08C1;
    44 : F936;
    45 : FE81;
    46 : 03C2;
    47 : 01CD;
    48 : 0D96;
    49 : F647;
    50 : FF06;
    51 : 053E;
    52 : FD19;
    53 : 0A6E;
    54 : F3C0;
    55 : 1223;
    56 : FEAD;
    57 : FA2D;
    58 : 0A2D;
    59 : F25C;
    60 : FC25;
    61 : FEC2;
    62 : 05D8;
    63 : FAA5;
    64 : F96C;
    65 : 05FC;
    66 : 0A37;
    67 : FFFF;
    68 : 0410;
    69 : 01B1;
    70 : FDCF;
    71 : 079A;
    72 : F8CD;
    73 : 034D;
    74 : 04B2;
    75 : F896;
    76 : F9EE;
    77 : 0085;
    78 : FB0E;
    79 : 0487;
    80 : F756;
    81 : FE54;
    82 : 0642;
    83 : F620;
    84 : FA07;
    85 : FCE5;
    86 : 069F;
    87 : FD1F;
    88 : 003B;
    89 : 0001;
    90 : FE6A;
    91 : FE1D;
    92 : 0228;
    93 : FEA2;
    94 : 039A;
    95 : 05E9;
    96 : 09E0;
    97 : F5EB;
    98 : FD3D;
    99 : FF89;
    100 : FA61;
    101 : 08B4;
    102 : FE48;
    103 : FE9D;
    104 : 03D2;
    105 : 03AC;
    106 : 0328;
    107 : FD70;
    108 : 0576;
    109 : 080F;
    110 : FC11;
    111 : FC3B;
    112 : 0439;
    113 : 059E;
    114 : 0F17;
    115 : F6A2;
    116 : 042C;
    117 : 03B4;
    118 : FCF4;
    119 : 0E56;
    120 : 03E4;
    121 : 0539;
    122 : FB24;
    123 : FFEA;
    124 : FF3A;
    125 : 003F;
    126 : 00A3;
    127 : F437;
    128 : 0429;
    129 : FD19;
    130 : FDB5;
    131 : 0B55;
    132 : FA59;
    133 : FCDD;
    134 : 00CD;
    135 : FBEC;
    136 : 02E5;
    137 : 039C;
    138 : FEE2;
    139 : F2AA;
    140 : 0000;
    141 : 0760;
    142 : FCBA;
    143 : FABA;
    144 : FCC8;
    145 : 0278;
    146 : F932;
    147 : FDC9;
    148 : 0566;
    149 : FCC0;
    150 : 090A;
    151 : 0205;
    152 : F9BC;
    153 : 06D3;
    154 : FB66;
    155 : FBCA;
    156 : 002C;
    157 : 0B60;
    158 : F927;
    159 : FE71;
    160 : 05D3;
    161 : F6DA;
    162 : FF6E;
    163 : FDD8;
    164 : 0598;
    165 : FE99;
    166 : FBEA;
    167 : 049F;
    168 : 0335;
    169 : 088C;
    170 : 0061;
    171 : FF7B;
    172 : F155;
    173 : 00F5;
    174 : 0323;
    175 : FEC7;
    176 : FE94;
    177 : 0328;
    178 : 0511;
    179 : FF6C;
    180 : FCF0;
    181 : F88E;
    182 : 0244;
    183 : FF4F;
    184 : FA85;
    185 : FC5A;
    186 : F7B6;
    187 : 0989;
    188 : F740;
    189 : FE31;
    190 : 0A5F;
    191 : F700;
    192 : 000A;
    193 : 02E6;
    194 : 0236;
    195 : 0357;
    196 : 07BD;
    197 : 03BB;
    198 : 0104;
    199 : 010F;
    200 : FFE2;
    201 : FBA2;
    202 : FF92;
    203 : 0258;
    204 : FB54;
    205 : 0060;
    206 : FB3E;
    207 : FB8A;
    208 : FC16;
    209 : FACA;
    210 : FC93;
    211 : FFD8;
    212 : 02D5;
    213 : 01B3;
    214 : 0415;
    215 : FFF7;
    216 : 06AB;
    217 : 0200;
    218 : FF5E;
    219 : 018F;
    220 : FD20;
    221 : 00AD;
    222 : 0304;
    223 : 01CD;
    224 : FC44;
    225 : F9AE;
    226 : FCB4;
    227 : 036A;
    228 : 0A94;
    229 : F87B;
    230 : 01D4;
    231 : 022C;
    232 : F656;
    233 : 0B2D;
    234 : F628;
    235 : 0C45;
    236 : FCA5;
    237 : FB1D;
    238 : 0CE2;
    239 : F7CD;
    240 : 08CF;
    241 : F934;
    242 : FE4C;
    243 : 07F9;
    244 : FD54;
    245 : 02ED;
    246 : 00A5;
    247 : FA1E;
    248 : FEEC;
    249 : 0835;
    250 : FDA4;
    251 : FD81;
    252 : F5D7;
    253 : 0687;
    254 : 006B;
    255 : FC0E;
    256 : 064F;
    257 : FB7D;
    258 : FB11;
    259 : 0245;
    260 : F9DD;
    261 : 0175;
    262 : 0B4D;
    263 : F584;
    264 : FD96;
    265 : FBA3;
    266 : FEE2;
    267 : FAF0;
    268 : 001B;
    269 : 072D;
    270 : F8A8;
    271 : 02AB;
    272 : 01DA;
    273 : 0534;
    274 : 0554;
    275 : F6B7;
    276 : 0D7F;
    277 : FF5A;
    278 : FDF2;
    279 : 0220;
    280 : F373;
    281 : 03FE;
    282 : 09A0;
    283 : ED43;
    284 : 0599;
    285 : 0131;
    286 : F532;
    287 : 12AD;
    288 : 00A0;
    289 : 0269;
    290 : FA15;
    291 : FE67;
    292 : 00E1;
    293 : FABC;
    294 : 083B;
    295 : FBE1;
    296 : FD77;
    297 : 07C5;
    298 : FD40;
    299 : FD34;
    300 : FC7B;
    301 : 02B8;
    302 : FDD9;
    303 : FC2C;
    304 : F98F;
    305 : F939;
    306 : FBE7;
    307 : 0317;
    308 : F5FA;
    309 : FFCF;
    310 : 04C2;
    311 : F1A1;
    312 : 00CD;
    313 : FC67;
    314 : FBA8;
    315 : FF8C;
    316 : FFD7;
    317 : 00C9;
    318 : FF13;
    319 : FE4F;
    320 : FD61;
    321 : F93B;
    322 : F4FB;
    323 : 02A1;
    324 : F50B;
    325 : FECC;
    326 : FDE1;
    327 : FE8A;
    328 : 0441;
    329 : F585;
    330 : F995;
    331 : FA86;
    332 : 0086;
    333 : F953;
    334 : EDC3;
    335 : FEEC;
    336 : 045C;
    337 : FB82;
    338 : 0849;
    339 : FE08;
    340 : FD1F;
    341 : 0C2B;
    342 : 0010;
    343 : 00B2;
    344 : FC63;
    345 : F86C;
    346 : 07DA;
    347 : 03F2;
    348 : 09E2;
    349 : F9A9;
    350 : 03F2;
    351 : FD87;
    352 : EEA4;
    353 : 0CF9;
    354 : 0593;
    355 : 0417;
    356 : FDC1;
    357 : 0417;
    358 : 0018;
    359 : F9D3;
    360 : FC2B;
    361 : 0190;
    362 : 0492;
    363 : FF45;
    364 : F847;
    365 : FFC6;
    366 : 0172;
    367 : F774;
    368 : FFB5;
    369 : 05D8;
    370 : F8C8;
    371 : FE33;
    372 : F702;
    373 : 0384;
    374 : FBE2;
    375 : 025A;
    376 : 0CE0;
    377 : F312;
    378 : 089D;
    379 : FCB2;
    380 : FFC6;
    381 : FE8E;
    382 : FD92;
    383 : 090F;
    384 : 0080;
END;
