WIDTH=16;
DEPTH=385;

ADDRESS_RADIX=DEC;
DATA_RADIX=HEX;

CONTENT BEGIN
    0 : 01BE;
    1 : 08D6;
    2 : FB37;
    3 : 0497;
    4 : 02EB;
    5 : F58A;
    6 : F23A;
    7 : 06E6;
    8 : 00B0;
    9 : F9C6;
    10 : 0EE7;
    11 : FDD2;
    12 : FEA9;
    13 : 1294;
    14 : FF27;
    15 : FC28;
    16 : FAFB;
    17 : FA8F;
    18 : 036A;
    19 : EECF;
    20 : FAF3;
    21 : 0935;
    22 : 0ABF;
    23 : 0102;
    24 : FB01;
    25 : 06CC;
    26 : FA76;
    27 : FEE7;
    28 : 0326;
    29 : F5F1;
    30 : F8DC;
    31 : 0C95;
    32 : 0579;
    33 : FAEB;
    34 : F58F;
    35 : F7E2;
    36 : 0B21;
    37 : F533;
    38 : FD6C;
    39 : 0121;
    40 : FCC7;
    41 : 0AF9;
    42 : F612;
    43 : 0271;
    44 : 0306;
    45 : FACA;
    46 : 01A8;
    47 : FC78;
    48 : 089D;
    49 : F868;
    50 : FBF0;
    51 : 007E;
    52 : 0922;
    53 : 07E5;
    54 : F7DA;
    55 : FF58;
    56 : 075F;
    57 : F7B7;
    58 : 05BD;
    59 : 086E;
    60 : 03BD;
    61 : 0778;
    62 : 04DD;
    63 : FA29;
    64 : EC50;
    65 : 057F;
    66 : 0217;
    67 : FD93;
    68 : F9D1;
    69 : 02A4;
    70 : 0F46;
    71 : 0090;
    72 : F59D;
    73 : 0DE5;
    74 : 07E5;
    75 : F896;
    76 : F102;
    77 : F8B0;
    78 : F6AB;
    79 : FD7E;
    80 : FF13;
    81 : F984;
    82 : 089C;
    83 : FB6B;
    84 : FAFE;
    85 : 099B;
    86 : 0363;
    87 : F7EC;
    88 : 015D;
    89 : 0432;
    90 : F8CD;
    91 : F907;
    92 : FEB3;
    93 : FF37;
    94 : 08E1;
    95 : FA54;
    96 : FC54;
    97 : 0DC5;
    98 : FDAF;
    99 : F993;
    100 : 0632;
    101 : FC91;
    102 : FB62;
    103 : 05F4;
    104 : FD00;
    105 : F9DD;
    106 : 05E2;
    107 : 027E;
    108 : 02F8;
    109 : 0324;
    110 : FEBE;
    111 : FD94;
    112 : FAF1;
    113 : 0403;
    114 : 0590;
    115 : F381;
    116 : 0148;
    117 : 0243;
    118 : F669;
    119 : 03F3;
    120 : 01F2;
    121 : FC13;
    122 : 02BA;
    123 : FD61;
    124 : 046C;
    125 : 061C;
    126 : FB8D;
    127 : FDF6;
    128 : FF59;
    129 : FEC2;
    130 : F7DF;
    131 : FC09;
    132 : 0856;
    133 : 0B3B;
    134 : 0AFC;
    135 : FC43;
    136 : EED2;
    137 : 07B1;
    138 : FC49;
    139 : 17B3;
    140 : 0677;
    141 : FB94;
    142 : FB43;
    143 : 0467;
    144 : FAAA;
    145 : 07FC;
    146 : 080A;
    147 : FA95;
    148 : F16D;
    149 : 021A;
    150 : FB32;
    151 : F2F2;
    152 : 00E1;
    153 : 053E;
    154 : 0595;
    155 : FC38;
    156 : 0481;
    157 : FA8B;
    158 : 04A7;
    159 : 00BB;
    160 : 02FA;
    161 : 0704;
    162 : FF95;
    163 : 040D;
    164 : 0046;
    165 : F83A;
    166 : F285;
    167 : 0519;
    168 : FEE7;
    169 : 01E4;
    170 : FEFD;
    171 : FA97;
    172 : 2A78;
    173 : 00A7;
    174 : 022B;
    175 : 1216;
    176 : F727;
    177 : 04A2;
    178 : 0620;
    179 : F2A8;
    180 : 073B;
    181 : F0F3;
    182 : 053A;
    183 : FFA5;
    184 : 02C2;
    185 : 0E40;
    186 : 0025;
    187 : 022F;
    188 : 063B;
    189 : 005F;
    190 : 0331;
    191 : 0840;
    192 : 0212;
    193 : 0074;
    194 : FC2B;
    195 : 00D1;
    196 : 072B;
    197 : 0111;
    198 : 0A66;
    199 : F25E;
    200 : F8D4;
    201 : FFC5;
    202 : 089C;
    203 : 0B32;
    204 : F221;
    205 : 1196;
    206 : FAE7;
    207 : FBEC;
    208 : 04E4;
    209 : ED3A;
    210 : FEF6;
    211 : 1110;
    212 : 02AA;
    213 : FD3D;
    214 : FFE2;
    215 : FF92;
    216 : F55E;
    217 : 0B67;
    218 : FAD5;
    219 : FCCE;
    220 : 05DB;
    221 : F1BB;
    222 : FEB7;
    223 : 0955;
    224 : 064E;
    225 : FBE9;
    226 : F12B;
    227 : FED5;
    228 : 0756;
    229 : F9EA;
    230 : FCD6;
    231 : FC6E;
    232 : FFB2;
    233 : 0849;
    234 : F698;
    235 : F638;
    236 : F529;
    237 : 0155;
    238 : 1432;
    239 : FB38;
    240 : F4EF;
    241 : 0ED3;
    242 : 0421;
    243 : F3B8;
    244 : FD00;
    245 : 0183;
    246 : 0846;
    247 : 0879;
    248 : 02B5;
    249 : 023C;
    250 : F44B;
    251 : 0072;
    252 : F8E4;
    253 : F796;
    254 : 02CD;
    255 : FDD3;
    256 : 0517;
    257 : 0109;
    258 : F42B;
    259 : FB99;
    260 : 019A;
    261 : FD2A;
    262 : 0973;
    263 : FBD7;
    264 : 0820;
    265 : F522;
    266 : F899;
    267 : 06E1;
    268 : 05DD;
    269 : FC08;
    270 : F97C;
    271 : F8FF;
    272 : 0283;
    273 : FDC6;
    274 : 00FE;
    275 : FCFB;
    276 : 03F2;
    277 : 03B8;
    278 : 0946;
    279 : FFE6;
    280 : F0B5;
    281 : 0496;
    282 : 061A;
    283 : F661;
    284 : FE7B;
    285 : 00ED;
    286 : 0598;
    287 : 0431;
    288 : FDF2;
    289 : EFAA;
    290 : F97B;
    291 : 0506;
    292 : 0B96;
    293 : 0020;
    294 : FA95;
    295 : 09DC;
    296 : 0467;
    297 : FCD0;
    298 : FA79;
    299 : FECD;
    300 : F544;
    301 : 13C7;
    302 : 01DC;
    303 : F59F;
    304 : F8A2;
    305 : F9B1;
    306 : 0EDC;
    307 : F5FB;
    308 : FC86;
    309 : 02C1;
    310 : 03B6;
    311 : 0BB4;
    312 : 0A8A;
    313 : F44D;
    314 : FB2C;
    315 : 0581;
    316 : 0663;
    317 : 05AE;
    318 : FED3;
    319 : 039B;
    320 : 084C;
    321 : FFB5;
    322 : EFAE;
    323 : 0324;
    324 : 05CD;
    325 : EEDC;
    326 : FD9D;
    327 : 00BC;
    328 : 06BA;
    329 : 0A52;
    330 : F5FF;
    331 : 00B8;
    332 : FAE4;
    333 : FD73;
    334 : 3A34;
    335 : F5C3;
    336 : 0060;
    337 : F760;
    338 : FE15;
    339 : FE51;
    340 : 013B;
    341 : 00A6;
    342 : FBFA;
    343 : 0133;
    344 : 009B;
    345 : 0210;
    346 : 0184;
    347 : F564;
    348 : F514;
    349 : 0BBE;
    350 : 04AF;
    351 : F92D;
    352 : F541;
    353 : F7DB;
    354 : F4D6;
    355 : 0D68;
    356 : FE91;
    357 : FE02;
    358 : 1005;
    359 : F7C3;
    360 : FC02;
    361 : 144F;
    362 : FB6F;
    363 : 00B9;
    364 : 01D6;
    365 : F46E;
    366 : FF98;
    367 : 0D1E;
    368 : 08D1;
    369 : F642;
    370 : F31A;
    371 : 0807;
    372 : 08E9;
    373 : FF63;
    374 : 01CF;
    375 : FD1C;
    376 : F2AA;
    377 : 0B49;
    378 : FE52;
    379 : F317;
    380 : FA33;
    381 : 07A2;
    382 : 0AD2;
    383 : F7A4;
    384 : 0080;
END;
