WIDTH=16;
DEPTH=385;

ADDRESS_RADIX=DEC;
DATA_RADIX=HEX;

CONTENT BEGIN
    0 : 0827;
    1 : F2F4;
    2 : 0327;
    3 : 0431;
    4 : 03E9;
    5 : 0310;
    6 : FD05;
    7 : F1F8;
    8 : 004E;
    9 : 048F;
    10 : FCE5;
    11 : FF52;
    12 : F887;
    13 : 0093;
    14 : F613;
    15 : 0118;
    16 : 1174;
    17 : F178;
    18 : FDD2;
    19 : 0830;
    20 : 03BC;
    21 : FAF4;
    22 : F2D5;
    23 : FF0E;
    24 : FA2F;
    25 : F41B;
    26 : 0420;
    27 : FE7D;
    28 : 0580;
    29 : 0619;
    30 : 09BD;
    31 : F209;
    32 : F88F;
    33 : 04F6;
    34 : 0480;
    35 : 00CE;
    36 : 0516;
    37 : 157C;
    38 : 00D0;
    39 : 0656;
    40 : F921;
    41 : F8FE;
    42 : 052B;
    43 : 0096;
    44 : FE56;
    45 : FBC9;
    46 : 02C2;
    47 : 0556;
    48 : 0872;
    49 : F9A8;
    50 : 0469;
    51 : 0370;
    52 : EDB8;
    53 : 09B6;
    54 : 0334;
    55 : 0267;
    56 : 0227;
    57 : 02A1;
    58 : FFE6;
    59 : FCCA;
    60 : F739;
    61 : FD0A;
    62 : FA2B;
    63 : 02B4;
    64 : 0FCF;
    65 : F4F4;
    66 : 0001;
    67 : FF53;
    68 : 030A;
    69 : FFD2;
    70 : F346;
    71 : 0628;
    72 : FFF8;
    73 : FAE9;
    74 : FD22;
    75 : FE8E;
    76 : 0C99;
    77 : 0498;
    78 : 084D;
    79 : FBE8;
    80 : 06DB;
    81 : FEEE;
    82 : EC1B;
    83 : 114D;
    84 : 00B3;
    85 : F14A;
    86 : 08CE;
    87 : 0041;
    88 : F315;
    89 : 0AAA;
    90 : F721;
    91 : 069D;
    92 : 09E8;
    93 : F97E;
    94 : F6FD;
    95 : 05F4;
    96 : 019E;
    97 : F57F;
    98 : FA52;
    99 : 01D4;
    100 : 06F6;
    101 : FCB7;
    102 : F4C2;
    103 : 003A;
    104 : FF4F;
    105 : FDC0;
    106 : 0A87;
    107 : F90E;
    108 : 0142;
    109 : FDD2;
    110 : FF2C;
    111 : 0224;
    112 : 08D8;
    113 : FF0B;
    114 : 04F1;
    115 : 09EE;
    116 : 0268;
    117 : 04B9;
    118 : 035E;
    119 : FE1B;
    120 : 0118;
    121 : 04E4;
    122 : 01AB;
    123 : FF26;
    124 : FE10;
    125 : 025C;
    126 : 04D5;
    127 : FB39;
    128 : 0276;
    129 : 04A7;
    130 : 043C;
    131 : 04FB;
    132 : 0241;
    133 : F184;
    134 : 0331;
    135 : 05FC;
    136 : 01E3;
    137 : 03C2;
    138 : F5FE;
    139 : FC77;
    140 : 0303;
    141 : FA02;
    142 : 06C4;
    143 : FBFA;
    144 : 0857;
    145 : EEE3;
    146 : FBD8;
    147 : 06B1;
    148 : 01E7;
    149 : 0298;
    150 : FF76;
    151 : 065E;
    152 : 0AB6;
    153 : FCB7;
    154 : F23A;
    155 : 0805;
    156 : FBD5;
    157 : 0916;
    158 : 0507;
    159 : FE2F;
    160 : FA69;
    161 : 01B3;
    162 : 033C;
    163 : F002;
    164 : FD88;
    165 : 018B;
    166 : 0421;
    167 : 0735;
    168 : FB9F;
    169 : 0678;
    170 : 04B3;
    171 : F815;
    172 : 0789;
    173 : 0246;
    174 : F833;
    175 : 0C98;
    176 : 0116;
    177 : FE82;
    178 : FD3D;
    179 : F6C7;
    180 : FEC4;
    181 : 0BCC;
    182 : 0061;
    183 : 0083;
    184 : 0092;
    185 : FBB7;
    186 : FFD0;
    187 : 02E7;
    188 : F984;
    189 : FFA4;
    190 : 133D;
    191 : FA27;
    192 : FB31;
    193 : 0107;
    194 : 0A65;
    195 : FE97;
    196 : ECFB;
    197 : FF8B;
    198 : 08A6;
    199 : 0359;
    200 : 02D8;
    201 : 052B;
    202 : F43A;
    203 : 03E2;
    204 : FCE6;
    205 : F550;
    206 : FCF2;
    207 : 039D;
    208 : 0918;
    209 : FD04;
    210 : 1015;
    211 : EE1D;
    212 : FCCB;
    213 : 0ABF;
    214 : FD6B;
    215 : 027C;
    216 : F762;
    217 : 07FC;
    218 : FECD;
    219 : FAB4;
    220 : 05F8;
    221 : FA46;
    222 : 119C;
    223 : EA4D;
    224 : FF82;
    225 : 052D;
    226 : FD5F;
    227 : 11B1;
    228 : 061E;
    229 : 07A7;
    230 : FEE6;
    231 : 00BE;
    232 : FB2C;
    233 : 032F;
    234 : F067;
    235 : 11CF;
    236 : 0305;
    237 : FAA8;
    238 : FCA2;
    239 : F1B9;
    240 : 08A4;
    241 : F6F1;
    242 : FA05;
    243 : 0539;
    244 : 0A79;
    245 : 0414;
    246 : 00A4;
    247 : F816;
    248 : 022E;
    249 : 006E;
    250 : 084F;
    251 : 0610;
    252 : FADE;
    253 : 0CB9;
    254 : 016B;
    255 : FCA1;
    256 : F5DE;
    257 : F6E6;
    258 : F4C3;
    259 : 0AA4;
    260 : F80F;
    261 : FEBF;
    262 : 066A;
    263 : F16D;
    264 : 00B9;
    265 : 06A4;
    266 : 08E8;
    267 : FB86;
    268 : ED11;
    269 : 023C;
    270 : F900;
    271 : 0EE2;
    272 : 02F8;
    273 : FC72;
    274 : F8C3;
    275 : FF3A;
    276 : 088D;
    277 : F50B;
    278 : F9D5;
    279 : 03EA;
    280 : 0827;
    281 : 0251;
    282 : 093E;
    283 : 0348;
    284 : FDEC;
    285 : FB8E;
    286 : F1D2;
    287 : 05E5;
    288 : 0D2E;
    289 : 03FF;
    290 : 08C3;
    291 : FD92;
    292 : ED21;
    293 : 0DAA;
    294 : 03D6;
    295 : F3BD;
    296 : 013A;
    297 : 0468;
    298 : 025E;
    299 : 00DC;
    300 : FD12;
    301 : F60A;
    302 : FDB7;
    303 : FDA8;
    304 : 09E4;
    305 : 0545;
    306 : 0E47;
    307 : FAEF;
    308 : 0173;
    309 : 0798;
    310 : F1FF;
    311 : 08B0;
    312 : FE65;
    313 : 06FF;
    314 : 086E;
    315 : FBBF;
    316 : EDB1;
    317 : FF75;
    318 : 0AA7;
    319 : F9DD;
    320 : FB7C;
    321 : 0240;
    322 : 0149;
    323 : 0013;
    324 : FBC1;
    325 : 07B0;
    326 : 080A;
    327 : FAF5;
    328 : F17D;
    329 : 01A2;
    330 : 0834;
    331 : FF09;
    332 : FE53;
    333 : 0473;
    334 : FCA4;
    335 : 02DC;
    336 : F7AA;
    337 : 07F4;
    338 : 0088;
    339 : FF69;
    340 : FDEB;
    341 : FD6F;
    342 : 0112;
    343 : 0AF9;
    344 : FD4B;
    345 : 01FC;
    346 : 0461;
    347 : FCC4;
    348 : FA83;
    349 : FE5B;
    350 : 00F2;
    351 : FF0F;
    352 : 0394;
    353 : FB06;
    354 : 08B2;
    355 : F9C9;
    356 : 07AD;
    357 : 019A;
    358 : F2FF;
    359 : 058E;
    360 : 011F;
    361 : F6D7;
    362 : FF2E;
    363 : 08F7;
    364 : 02C8;
    365 : F8D2;
    366 : 0E30;
    367 : EF45;
    368 : FACA;
    369 : 0C79;
    370 : 0533;
    371 : 0495;
    372 : 0206;
    373 : F7CE;
    374 : F833;
    375 : 04DC;
    376 : 0F6D;
    377 : FBDF;
    378 : F9B0;
    379 : 0AD0;
    380 : 0390;
    381 : F831;
    382 : F916;
    383 : 02FD;
    384 : 0080;
END;
