WIDTH=16;
DEPTH=384;

ADDRESS_RADIX=DEC;
DATA_RADIX=HEX;

CONTENT BEGIN
    0 : 0B99;
    1 : 04A1;
    2 : FC4F;
    3 : 031F;
    4 : 0AD8;
    5 : E4EF;
    6 : E898;
    7 : 15B3;
    8 : F1C9;
    9 : 159B;
    10 : D800;
    11 : 0BB4;
    12 : 17F2;
    13 : F443;
    14 : 1BA9;
    15 : DBD4;
    16 : 30C5;
    17 : D01B;
    18 : 2C58;
    19 : FE32;
    20 : 087A;
    21 : EEE6;
    22 : 0FA9;
    23 : F7F0;
    24 : 0400;
    25 : F2BA;
    26 : 1BF5;
    27 : EB8D;
    28 : 1DF5;
    29 : E7FD;
    30 : 14D7;
    31 : ED2F;
    32 : 0F17;
    33 : E20B;
    34 : 3D8C;
    35 : CC67;
    36 : 1428;
    37 : 0783;
    38 : 0EE7;
    39 : DEAA;
    40 : 1D78;
    41 : E1C4;
    42 : EFB0;
    43 : 1285;
    44 : 06AB;
    45 : F6C4;
    46 : 0454;
    47 : 1050;
    48 : 03E9;
    49 : 173D;
    50 : F86E;
    51 : 0722;
    52 : EA06;
    53 : 2715;
    54 : 03FD;
    55 : F4E7;
    56 : FF49;
    57 : F45C;
    58 : 2116;
    59 : E01C;
    60 : E410;
    61 : 2083;
    62 : F7C4;
    63 : 1F9B;
    64 : F757;
    65 : 03FE;
    66 : 13FA;
    67 : 032C;
    68 : F92E;
    69 : EA61;
    70 : 12F7;
    71 : 08FD;
    72 : 0000;
    73 : 21CE;
    74 : E866;
    75 : 074B;
    76 : F3B1;
    77 : 07F5;
    78 : 04FB;
    79 : E310;
    80 : 00FE;
    81 : ED9A;
    82 : 115A;
    83 : FE02;
    84 : FDFB;
    85 : F68D;
    86 : F2AA;
    87 : 06EE;
    88 : 01B7;
    89 : 060F;
    90 : 15DC;
    91 : 0631;
    92 : 00D6;
    93 : 06BE;
    94 : FFA5;
    95 : FA0A;
    96 : E420;
    97 : 12E8;
    98 : FA2A;
    99 : 193A;
    100 : E3D9;
    101 : 0DF0;
    102 : E44A;
    103 : 04EE;
    104 : F456;
    105 : 0A02;
    106 : 0274;
    107 : 110D;
    108 : 0FF2;
    109 : 0D0D;
    110 : F149;
    111 : 014A;
    112 : EE1D;
    113 : 19E9;
    114 : E81C;
    115 : 1779;
    116 : F709;
    117 : 1661;
    118 : ED06;
    119 : 15E6;
    120 : FC05;
    121 : 1747;
    122 : 008B;
    123 : 1AB6;
    124 : EC0D;
    125 : 1FD8;
    126 : EBF9;
    127 : F481;
    128 : FBDE;
    129 : 0B92;
    130 : F51C;
    131 : 0E05;
    132 : 1016;
    133 : F112;
    134 : F2E2;
    135 : 04A4;
    136 : 1337;
    137 : E3DA;
    138 : 03FE;
    139 : 0700;
    140 : 051E;
    141 : 029F;
    142 : DE2E;
    143 : 23EA;
    144 : EFDA;
    145 : 00FA;
    146 : EE76;
    147 : 2123;
    148 : FA10;
    149 : 0000;
    150 : F887;
    151 : 1D23;
    152 : E6E0;
    153 : 1501;
    154 : D37A;
    155 : 1A28;
    156 : FF1C;
    157 : 0528;
    158 : EFAC;
    159 : 16E2;
    160 : F448;
    161 : 188D;
    162 : EFB2;
    163 : 0587;
    164 : E1E1;
    165 : 2DEC;
    166 : D0BF;
    167 : 30EA;
    168 : EC1D;
    169 : 1563;
    170 : F089;
    171 : 02FF;
    172 : EA5B;
    173 : 0FE9;
    174 : E5DB;
    175 : 0E9F;
    176 : F841;
    177 : 140F;
    178 : FCC1;
    179 : 141C;
    180 : FBFC;
    181 : 0E2B;
    182 : 005E;
    183 : E6C4;
    184 : 23A9;
    185 : EFF0;
    186 : FA04;
    187 : F7AC;
    188 : 0581;
    189 : E819;
    190 : 17BC;
    191 : EA0D;
    192 : 100B;
    193 : 0B25;
    194 : F158;
    195 : 0A15;
    196 : F24F;
    197 : 261B;
    198 : E98C;
    199 : 1A6B;
    200 : F520;
    201 : FE64;
    202 : 0B5E;
    203 : 0FF8;
    204 : 0A03;
    205 : 03BC;
    206 : FE18;
    207 : E768;
    208 : 175A;
    209 : EDFB;
    210 : FC0D;
    211 : 1279;
    212 : F851;
    213 : 0B1A;
    214 : FA03;
    215 : F81A;
    216 : F20A;
    217 : 0824;
    218 : 1D36;
    219 : 05F6;
    220 : 0A91;
    221 : F806;
    222 : F801;
    223 : F0ED;
    224 : FF3F;
    225 : 142C;
    226 : F061;
    227 : F001;
    228 : 0202;
    229 : 0EAB;
    230 : 0676;
    231 : E105;
    232 : 1140;
    233 : EDEE;
    234 : 2BE4;
    235 : E69C;
    236 : 17BF;
    237 : DFD7;
    238 : 2AA7;
    239 : D81A;
    240 : F038;
    241 : F973;
    242 : 05DF;
    243 : E9C9;
    244 : 2940;
    245 : D88C;
    246 : 0403;
    247 : 0F57;
    248 : 004D;
    249 : E216;
    250 : 035D;
    251 : F2F7;
    252 : F408;
    253 : F909;
    254 : 040B;
    255 : 0B6E;
    256 : EBF9;
    257 : F408;
    258 : 03E8;
    259 : EF08;
    260 : 070F;
    261 : F497;
    262 : 1282;
    263 : 0BB9;
    264 : FAF1;
    265 : 01A5;
    266 : 1785;
    267 : E179;
    268 : 2183;
    269 : D688;
    270 : E410;
    271 : 1C51;
    272 : 0810;
    273 : 056E;
    274 : FE37;
    275 : EE0A;
    276 : FC03;
    277 : 0014;
    278 : EFFB;
    279 : 039C;
    280 : FA59;
    281 : 0000;
    282 : EFD0;
    283 : 0A1F;
    284 : 1112;
    285 : D607;
    286 : 27E4;
    287 : CF71;
    288 : 0000;
    289 : 0421;
    290 : F3F5;
    291 : 0F75;
    292 : FE3A;
    293 : F01F;
    294 : 05F0;
    295 : F2A0;
    296 : 0A69;
    297 : F719;
    298 : 1B9E;
    299 : F718;
    300 : FC00;
    301 : 00B1;
    302 : F2E7;
    303 : ECA8;
    304 : 1EAF;
    305 : F002;
    306 : 0000;
    307 : 1EE9;
    308 : FD67;
    309 : EA4D;
    310 : 0F63;
    311 : F7F8;
    312 : FBFE;
    313 : F183;
    314 : 042E;
    315 : EB5E;
    316 : FE18;
    317 : E7F5;
    318 : F807;
    319 : 0952;
    320 : 0F59;
    321 : 0007;
    322 : 1BFD;
    323 : FC03;
    324 : F092;
    325 : F145;
    326 : 0E39;
    327 : 02F7;
    328 : 04CD;
    329 : FC05;
    330 : 22F6;
    331 : E0F4;
    332 : 1BBE;
    333 : D2CF;
    334 : 2C48;
    335 : BE13;
    336 : FC02;
    337 : 063B;
    338 : F421;
    339 : FF63;
    340 : E194;
    341 : 09FA;
    342 : EA0E;
    343 : 1158;
    344 : FBA5;
    345 : 0DCC;
    346 : F4E8;
    347 : 25E9;
    348 : 0FDC;
    349 : FF6A;
    350 : 132C;
    351 : F40A;
    352 : 1D7B;
    353 : F024;
    354 : 11DE;
    355 : FA7C;
    356 : FFCD;
    357 : FBC6;
    358 : F8E7;
    359 : FE04;
    360 : FB00;
    361 : 152F;
    362 : FC3F;
    363 : F450;
    364 : 071B;
    365 : EBFF;
    366 : EE0D;
    367 : 1D75;
    368 : F5EC;
    369 : 2180;
    370 : D493;
    371 : 33DA;
    372 : 0803;
    373 : F448;
    374 : FEF8;
    375 : 189D;
    376 : F615;
    377 : 1406;
    378 : 0DFF;
    379 : F638;
    380 : 01CC;
    381 : EBC3;
    382 : 0DD8;
    383 : 0000;
END;
