WIDTH=16;
DEPTH=384;

ADDRESS_RADIX=DEC;
DATA_RADIX=HEX;

CONTENT BEGIN
    0 : 15C5;
    1 : F4C2;
    2 : 0309;
    3 : 076B;
    4 : 01B8;
    5 : FE05;
    6 : DC58;
    7 : 1FC3;
    8 : E18A;
    9 : 1D0C;
    10 : D2E4;
    11 : 2B94;
    12 : EC3B;
    13 : 0332;
    14 : ED99;
    15 : 20CD;
    16 : D5C4;
    17 : 13C5;
    18 : 0BA9;
    19 : FB41;
    20 : 0CB0;
    21 : EE14;
    22 : 1FF4;
    23 : E4CB;
    24 : F5E7;
    25 : 0B9A;
    26 : E91A;
    27 : 0755;
    28 : F4BA;
    29 : 0814;
    30 : F813;
    31 : 0263;
    32 : ED56;
    33 : 192F;
    34 : F150;
    35 : 0000;
    36 : 0A18;
    37 : F335;
    38 : 0B49;
    39 : E21A;
    40 : 1355;
    41 : F1DE;
    42 : 0B4F;
    43 : F426;
    44 : 08C0;
    45 : 012F;
    46 : 0BF1;
    47 : EB0D;
    48 : F7EF;
    49 : FD6D;
    50 : 092F;
    51 : E942;
    52 : 2686;
    53 : CB93;
    54 : F818;
    55 : F9D8;
    56 : 1103;
    57 : F18B;
    58 : 1507;
    59 : FC0C;
    60 : 0C22;
    61 : FFB5;
    62 : 0163;
    63 : E0DD;
    64 : 2105;
    65 : D78F;
    66 : FEFD;
    67 : 09A9;
    68 : 0284;
    69 : E8C7;
    70 : 1A88;
    71 : EBC2;
    72 : F226;
    73 : 09AB;
    74 : 0557;
    75 : FF33;
    76 : FDB8;
    77 : 01FB;
    78 : F425;
    79 : 0D50;
    80 : EBAD;
    81 : 24B5;
    82 : C307;
    83 : 4723;
    84 : 21C2;
    85 : E527;
    86 : 0416;
    87 : DF05;
    88 : 1982;
    89 : DF41;
    90 : 0000;
    91 : F967;
    92 : FD56;
    93 : 1901;
    94 : D73C;
    95 : 2793;
    96 : F816;
    97 : FE9D;
    98 : FD3B;
    99 : 015C;
    100 : 06D9;
    101 : EC36;
    102 : 0C21;
    103 : F7A1;
    104 : 0159;
    105 : E4FA;
    106 : 21C7;
    107 : D794;
    108 : FE04;
    109 : FD7A;
    110 : F118;
    111 : 1960;
    112 : D89B;
    113 : 358F;
    114 : F4E2;
    115 : 0479;
    116 : F3F8;
    117 : F661;
    118 : 062A;
    119 : 1A46;
    120 : 03F5;
    121 : 0215;
    122 : 1106;
    123 : FD63;
    124 : 113F;
    125 : EE32;
    126 : 13AC;
    127 : FB55;
    128 : 0147;
    129 : F969;
    130 : FDB6;
    131 : 0FBD;
    132 : F037;
    133 : 1036;
    134 : F592;
    135 : 0903;
    136 : FA15;
    137 : 0000;
    138 : F420;
    139 : F8C4;
    140 : FF2C;
    141 : 1134;
    142 : FC3C;
    143 : F02A;
    144 : F437;
    145 : 1252;
    146 : DE10;
    147 : 208D;
    148 : DC39;
    149 : 1B80;
    150 : F3E1;
    151 : F68D;
    152 : FD3C;
    153 : F539;
    154 : FEB4;
    155 : EFD7;
    156 : 081E;
    157 : FF1F;
    158 : 0DB8;
    159 : E096;
    160 : 10CF;
    161 : 0000;
    162 : F67C;
    163 : 084C;
    164 : F411;
    165 : 131C;
    166 : EB0F;
    167 : 1954;
    168 : 147E;
    169 : FB02;
    170 : FBA5;
    171 : 0568;
    172 : 0451;
    173 : EA85;
    174 : 1543;
    175 : F6C6;
    176 : 067D;
    177 : F100;
    178 : 12FB;
    179 : E7B3;
    180 : E73A;
    181 : 04F1;
    182 : FBF1;
    183 : 118C;
    184 : EDA9;
    185 : 11D6;
    186 : EBD5;
    187 : F94E;
    188 : 0940;
    189 : E533;
    190 : 1F73;
    191 : D3A1;
    192 : 0E27;
    193 : F1B6;
    194 : FF63;
    195 : F510;
    196 : FA98;
    197 : 0E27;
    198 : F69B;
    199 : 0D17;
    200 : ED0B;
    201 : 23D7;
    202 : D4F2;
    203 : 2497;
    204 : FA12;
    205 : 06D4;
    206 : F38F;
    207 : 14EC;
    208 : DA66;
    209 : 2982;
    210 : 07DE;
    211 : F744;
    212 : 06EE;
    213 : F1C8;
    214 : 17EC;
    215 : F044;
    216 : FA27;
    217 : 0272;
    218 : EC0B;
    219 : 0CC6;
    220 : E189;
    221 : 1765;
    222 : FF7A;
    223 : 0AA2;
    224 : E903;
    225 : 11C7;
    226 : E034;
    227 : 2880;
    228 : 0DDB;
    229 : FB61;
    230 : F55F;
    231 : 073E;
    232 : F37A;
    233 : 01FB;
    234 : EC3D;
    235 : 0E69;
    236 : F48C;
    237 : 11F1;
    238 : EF15;
    239 : 02F7;
    240 : F815;
    241 : 027E;
    242 : 0947;
    243 : FD3B;
    244 : 035C;
    245 : 07EB;
    246 : F61B;
    247 : FA18;
    248 : 0344;
    249 : 0D22;
    250 : FDF8;
    251 : EE31;
    252 : 1836;
    253 : EEC1;
    254 : 0F57;
    255 : DF17;
    256 : 2678;
    257 : DBAE;
    258 : F816;
    259 : 07F0;
    260 : FD46;
    261 : FF59;
    262 : 12CC;
    263 : EA3D;
    264 : 07D8;
    265 : 085C;
    266 : F59E;
    267 : 0516;
    268 : E787;
    269 : 2F0E;
    270 : F96B;
    271 : FD0C;
    272 : 0890;
    273 : FBD5;
    274 : 065C;
    275 : F065;
    276 : F817;
    277 : 0ADF;
    278 : F188;
    279 : 18F1;
    280 : F19E;
    281 : F817;
    282 : EB65;
    283 : 1012;
    284 : E841;
    285 : 0DFF;
    286 : E8FB;
    287 : 149B;
    288 : F7EB;
    289 : 0B5F;
    290 : 0148;
    291 : E910;
    292 : 0C81;
    293 : 102B;
    294 : 0814;
    295 : F2AA;
    296 : 0341;
    297 : E317;
    298 : 10A1;
    299 : F9F1;
    300 : FC11;
    301 : 0E62;
    302 : E7F9;
    303 : 1E75;
    304 : E098;
    305 : 1991;
    306 : FA10;
    307 : FF4A;
    308 : 110D;
    309 : 0546;
    310 : 0235;
    311 : F816;
    312 : 0205;
    313 : F12C;
    314 : 094E;
    315 : D8FE;
    316 : 26BC;
    317 : CB7D;
    318 : EBBF;
    319 : 01CC;
    320 : 0DB6;
    321 : D891;
    322 : 1E07;
    323 : D984;
    324 : F227;
    325 : 0A9F;
    326 : F17A;
    327 : 1AF6;
    328 : E73B;
    329 : 07E9;
    330 : 0BDA;
    331 : EDE4;
    332 : 0505;
    333 : F9A0;
    334 : 0592;
    335 : 0000;
    336 : FDFB;
    337 : F8D0;
    338 : FD27;
    339 : DF1B;
    340 : 0EFC;
    341 : E7C3;
    342 : F032;
    343 : FA8D;
    344 : F576;
    345 : 0530;
    346 : F19D;
    347 : 0000;
    348 : 0183;
    349 : 0E70;
    350 : F1F2;
    351 : FE08;
    352 : F4BA;
    353 : 1734;
    354 : 0000;
    355 : FD64;
    356 : F11A;
    357 : FD4D;
    358 : FED3;
    359 : F3E0;
    360 : F816;
    361 : FCF7;
    362 : F76E;
    363 : 0F14;
    364 : E3D3;
    365 : 0000;
    366 : E3B4;
    367 : 1203;
    368 : ED10;
    369 : 055E;
    370 : EA14;
    371 : 0C20;
    372 : 05F1;
    373 : 0335;
    374 : F647;
    375 : 1532;
    376 : F882;
    377 : 0000;
    378 : 0806;
    379 : EAF7;
    380 : 052F;
    381 : F165;
    382 : FBE6;
    383 : 0403;
END;
