WIDTH=16;
DEPTH=384;

ADDRESS_RADIX=DEC;
DATA_RADIX=HEX;

CONTENT BEGIN
    0 : F3F0;
    1 : 0232;
    2 : DB95;
    3 : 2F45;
    4 : C0F8;
    5 : 3E53;
    6 : F7FE;
    7 : FB90;
    8 : F87F;
    9 : 1805;
    10 : F51C;
    11 : 2009;
    12 : EB71;
    13 : 00C6;
    14 : F69D;
    15 : 0136;
    16 : E25D;
    17 : 1B94;
    18 : F8F7;
    19 : 0271;
    20 : F816;
    21 : 07BE;
    22 : 031B;
    23 : 161C;
    24 : 1214;
    25 : FE0D;
    26 : F8CF;
    27 : F7E7;
    28 : 0BD0;
    29 : DBD8;
    30 : 055F;
    31 : 0D2D;
    32 : ECC5;
    33 : 1A50;
    34 : D7A2;
    35 : 2136;
    36 : 17BD;
    37 : D3B4;
    38 : 16AF;
    39 : D803;
    40 : 3FED;
    41 : CA96;
    42 : 0000;
    43 : F3D3;
    44 : FF05;
    45 : EBB9;
    46 : 2539;
    47 : DE09;
    48 : 15E0;
    49 : EB77;
    50 : 115F;
    51 : DF5B;
    52 : 3DC3;
    53 : D63E;
    54 : 0805;
    55 : F8A9;
    56 : FF3A;
    57 : F96E;
    58 : F6A4;
    59 : EBF4;
    60 : 0304;
    61 : 003B;
    62 : F5D9;
    63 : EECC;
    64 : 07F4;
    65 : 0506;
    66 : E884;
    67 : 136A;
    68 : E7AF;
    69 : 24BC;
    70 : D457;
    71 : 0FA8;
    72 : 04CE;
    73 : E19D;
    74 : 0B75;
    75 : F42C;
    76 : 0FE7;
    77 : E703;
    78 : F5F7;
    79 : 1486;
    80 : 0974;
    81 : E17F;
    82 : 0452;
    83 : F38E;
    84 : 03CB;
    85 : 0B87;
    86 : F425;
    87 : 0C14;
    88 : D99F;
    89 : 195C;
    90 : 0408;
    91 : F4B5;
    92 : E4E7;
    93 : 23B2;
    94 : E378;
    95 : 203D;
    96 : E80E;
    97 : 0901;
    98 : F1F4;
    99 : 12CC;
    100 : F320;
    101 : 07FB;
    102 : 13B2;
    103 : 03D7;
    104 : 0062;
    105 : 0631;
    106 : EB3D;
    107 : 09D9;
    108 : 01FF;
    109 : EC4C;
    110 : 093B;
    111 : D990;
    112 : 3268;
    113 : DA17;
    114 : 2327;
    115 : E1E5;
    116 : 1165;
    117 : E790;
    118 : 2A56;
    119 : E0C1;
    120 : 1202;
    121 : E234;
    122 : 0399;
    123 : E334;
    124 : 1C4B;
    125 : DDFC;
    126 : 07E2;
    127 : 06F5;
    128 : FBED;
    129 : 14A9;
    130 : E7AD;
    131 : F81E;
    132 : 00BA;
    133 : 108F;
    134 : EDE3;
    135 : 1906;
    136 : CAD3;
    137 : 2932;
    138 : 0C0F;
    139 : EAB0;
    140 : F087;
    141 : EFB0;
    142 : 0AD1;
    143 : 080A;
    144 : 0BCB;
    145 : 057A;
    146 : 1281;
    147 : D7B4;
    148 : 1DD8;
    149 : D159;
    150 : FBFA;
    151 : F1AD;
    152 : F456;
    153 : FA1A;
    154 : 0FA4;
    155 : F9F6;
    156 : 0412;
    157 : 0198;
    158 : 0464;
    159 : EC23;
    160 : 0B27;
    161 : DB60;
    162 : 0FD0;
    163 : F850;
    164 : 0D22;
    165 : D8FA;
    166 : 0CE9;
    167 : E165;
    168 : F800;
    169 : F610;
    170 : 0DF6;
    171 : E6DE;
    172 : 1AEA;
    173 : D1FE;
    174 : FA92;
    175 : 11DB;
    176 : 0012;
    177 : 063F;
    178 : E2E7;
    179 : 104A;
    180 : 0FE6;
    181 : E941;
    182 : 0922;
    183 : DC1B;
    184 : 24FD;
    185 : F01A;
    186 : FC8A;
    187 : EEF0;
    188 : 11E1;
    189 : ED63;
    190 : 13A8;
    191 : DCA9;
    192 : 0406;
    193 : F210;
    194 : 0A9C;
    195 : DE1A;
    196 : 1B98;
    197 : CFB7;
    198 : F753;
    199 : 02D8;
    200 : F54F;
    201 : 13E1;
    202 : E509;
    203 : 0F1E;
    204 : 0407;
    205 : 0250;
    206 : FEA8;
    207 : E5F6;
    208 : 01FD;
    209 : EBDF;
    210 : F3D9;
    211 : F4B5;
    212 : E90A;
    213 : 1BCA;
    214 : E23E;
    215 : 1C5C;
    216 : 07EB;
    217 : FE0C;
    218 : EEFD;
    219 : 18DC;
    220 : D9EA;
    221 : 1CB4;
    222 : 12A6;
    223 : 02CF;
    224 : 0099;
    225 : E899;
    226 : 1316;
    227 : EEDD;
    228 : FC09;
    229 : F436;
    230 : 052A;
    231 : 036C;
    232 : 0D97;
    233 : 05F2;
    234 : 2813;
    235 : EBBB;
    236 : 16D6;
    237 : E9DD;
    238 : 1471;
    239 : E3F3;
    240 : F7BF;
    241 : 046B;
    242 : 0CDA;
    243 : E356;
    244 : 070F;
    245 : D6BD;
    246 : F803;
    247 : F6E6;
    248 : 0376;
    249 : E57D;
    250 : 388F;
    251 : D214;
    252 : 02F8;
    253 : E891;
    254 : 1539;
    255 : DAB3;
    256 : 36CE;
    257 : C79E;
    258 : 07D9;
    259 : 12D9;
    260 : F584;
    261 : 1111;
    262 : DC07;
    263 : 215C;
    264 : FC08;
    265 : F1EE;
    266 : 0E22;
    267 : 0477;
    268 : 019F;
    269 : FA0B;
    270 : FF00;
    271 : F496;
    272 : E853;
    273 : 2062;
    274 : DE76;
    275 : 24FF;
    276 : F434;
    277 : 1071;
    278 : F326;
    279 : 05E0;
    280 : F088;
    281 : 0000;
    282 : 05DE;
    283 : F391;
    284 : FCBC;
    285 : 0010;
    286 : 0452;
    287 : 0FA5;
    288 : E446;
    289 : 0ACA;
    290 : F4C8;
    291 : 13F4;
    292 : D5C0;
    293 : 279C;
    294 : 13EE;
    295 : EF70;
    296 : 1694;
    297 : E629;
    298 : 0D86;
    299 : EC12;
    300 : D89A;
    301 : 0C7D;
    302 : FBC6;
    303 : 148F;
    304 : DE3C;
    305 : FC0F;
    306 : F3F3;
    307 : FA48;
    308 : F492;
    309 : F3B4;
    310 : 1026;
    311 : F3F3;
    312 : 0449;
    313 : F630;
    314 : 10D8;
    315 : F03A;
    316 : 243A;
    317 : DA79;
    318 : 18F5;
    319 : E82C;
    320 : 160F;
    321 : E8C0;
    322 : 0610;
    323 : E2E3;
    324 : 0E40;
    325 : 00CC;
    326 : 05C1;
    327 : E857;
    328 : 07E4;
    329 : DD65;
    330 : 07F2;
    331 : F02C;
    332 : 01FC;
    333 : 0AC1;
    334 : F7A8;
    335 : 13DD;
    336 : F20F;
    337 : FA0A;
    338 : FF7B;
    339 : 115C;
    340 : F506;
    341 : 15E8;
    342 : 0707;
    343 : 0B73;
    344 : F529;
    345 : F8A8;
    346 : F76D;
    347 : 0101;
    348 : F738;
    349 : 01C6;
    350 : F425;
    351 : 08DB;
    352 : D923;
    353 : 1306;
    354 : EBE7;
    355 : 04A0;
    356 : F611;
    357 : F2AA;
    358 : 04DE;
    359 : FBFB;
    360 : 0280;
    361 : EE4C;
    362 : 081D;
    363 : E026;
    364 : 2A6F;
    365 : E283;
    366 : F41C;
    367 : F543;
    368 : 1194;
    369 : 00FB;
    370 : 0D83;
    371 : F026;
    372 : F625;
    373 : 0F56;
    374 : F97F;
    375 : 16E8;
    376 : EB51;
    377 : F03A;
    378 : 0000;
    379 : 03D2;
    380 : DD98;
    381 : 2B43;
    382 : D493;
    383 : 2C55;
END;
