WIDTH=16;
DEPTH=384;

ADDRESS_RADIX=DEC;
DATA_RADIX=HEX;

CONTENT BEGIN
    0 : 1017;
    1 : F414;
    2 : 16EF;
    3 : E624;
    4 : 231A;
    5 : C9B2;
    6 : 09FA;
    7 : 0110;
    8 : 03E4;
    9 : EBBF;
    10 : 013C;
    11 : E213;
    12 : F7DD;
    13 : 11B2;
    14 : 14DD;
    15 : F681;
    16 : 0E29;
    17 : 0823;
    18 : 1D40;
    19 : F823;
    20 : 2573;
    21 : DDA7;
    22 : 28D9;
    23 : CDDB;
    24 : F3DF;
    25 : FE19;
    26 : 1177;
    27 : 060A;
    28 : 1460;
    29 : F5E5;
    30 : F07C;
    31 : F885;
    32 : 06CF;
    33 : EAFA;
    34 : 1E23;
    35 : F746;
    36 : FE00;
    37 : 04D8;
    38 : 0940;
    39 : E894;
    40 : FFE4;
    41 : 0200;
    42 : EFC8;
    43 : 0F4C;
    44 : 0E89;
    45 : 04F1;
    46 : 057D;
    47 : DF90;
    48 : F7F7;
    49 : 0CAB;
    50 : 0171;
    51 : 121C;
    52 : DE8A;
    53 : 1C21;
    54 : 0000;
    55 : F4BC;
    56 : 10D8;
    57 : F2B9;
    58 : 2C0C;
    59 : F479;
    60 : FBF9;
    61 : 10E5;
    62 : FCFD;
    63 : 1FAA;
    64 : E1FC;
    65 : 243C;
    66 : 06CF;
    67 : F61C;
    68 : 07F2;
    69 : F907;
    70 : 174B;
    71 : EBD0;
    72 : FA08;
    73 : 0FC2;
    74 : 0838;
    75 : E5C4;
    76 : 04D7;
    77 : F213;
    78 : FD0C;
    79 : FF16;
    80 : F906;
    81 : 23B0;
    82 : 0492;
    83 : 09C3;
    84 : F188;
    85 : FE62;
    86 : F870;
    87 : 159E;
    88 : FB9B;
    89 : 0E78;
    90 : F2E7;
    91 : 146B;
    92 : 08E7;
    93 : 0BCB;
    94 : EE69;
    95 : FC79;
    96 : 0838;
    97 : F698;
    98 : 27D7;
    99 : D755;
    100 : 2BFE;
    101 : D0BC;
    102 : 188E;
    103 : EBCF;
    104 : 05A9;
    105 : FAE2;
    106 : 2601;
    107 : E1E3;
    108 : E90A;
    109 : 1DF1;
    110 : F78B;
    111 : 20AD;
    112 : D28B;
    113 : 30EA;
    114 : F3DA;
    115 : 122C;
    116 : 0CB0;
    117 : FE9D;
    118 : 075E;
    119 : 0819;
    120 : 03F2;
    121 : 035D;
    122 : 0094;
    123 : EAD6;
    124 : 21E3;
    125 : E06C;
    126 : EF71;
    127 : 0171;
    128 : EA20;
    129 : 2DAC;
    130 : E903;
    131 : 1AE9;
    132 : 0B29;
    133 : E70B;
    134 : 178D;
    135 : E432;
    136 : 3127;
    137 : E23D;
    138 : 1C7A;
    139 : FB0D;
    140 : 1A34;
    141 : D8B4;
    142 : 2B28;
    143 : CF2E;
    144 : FC4C;
    145 : F5F6;
    146 : 07B1;
    147 : FB4C;
    148 : 1125;
    149 : 1636;
    150 : FCF3;
    151 : 0CEC;
    152 : 0D9B;
    153 : EBCF;
    154 : 0049;
    155 : EEB8;
    156 : E543;
    157 : 0463;
    158 : FB5D;
    159 : 1611;
    160 : FF32;
    161 : 041D;
    162 : F352;
    163 : 0608;
    164 : DA76;
    165 : 3171;
    166 : D8A5;
    167 : 2E7D;
    168 : EF4C;
    169 : 07CD;
    170 : 11C1;
    171 : 0CAC;
    172 : 089B;
    173 : F2D7;
    174 : 114A;
    175 : F0BD;
    176 : 03D2;
    177 : F16A;
    178 : 17F8;
    179 : 05C3;
    180 : 1040;
    181 : 07CD;
    182 : 11FC;
    183 : E88B;
    184 : 1415;
    185 : FBF0;
    186 : 118A;
    187 : 03AD;
    188 : FDEB;
    189 : FF6E;
    190 : 0D0E;
    191 : EE76;
    192 : 1168;
    193 : 09E6;
    194 : FB97;
    195 : 03A6;
    196 : 04E7;
    197 : 1547;
    198 : F04E;
    199 : 1BEF;
    200 : F13C;
    201 : 253F;
    202 : F0B5;
    203 : 1EE3;
    204 : FF84;
    205 : 07AB;
    206 : FDA7;
    207 : 0512;
    208 : 1DB9;
    209 : 01F0;
    210 : 0806;
    211 : FAE5;
    212 : 0E1B;
    213 : E120;
    214 : 19D8;
    215 : CFDE;
    216 : 1634;
    217 : 0296;
    218 : F9B8;
    219 : 0AEF;
    220 : 030F;
    221 : 0DB8;
    222 : FC2A;
    223 : F6D3;
    224 : 180D;
    225 : EB07;
    226 : 1F1D;
    227 : EAE6;
    228 : 0000;
    229 : 0E46;
    230 : 1461;
    231 : F229;
    232 : 1819;
    233 : DAC2;
    234 : 17EF;
    235 : ED37;
    236 : 0C42;
    237 : FD25;
    238 : 2874;
    239 : F408;
    240 : 0E0D;
    241 : E71D;
    242 : F704;
    243 : 0628;
    244 : 0422;
    245 : 0A09;
    246 : E424;
    247 : 1F8D;
    248 : F7D8;
    249 : 2107;
    250 : C07F;
    251 : 39B5;
    252 : 0FE2;
    253 : 0900;
    254 : 0923;
    255 : EA5B;
    256 : 2075;
    257 : C46F;
    258 : FC0D;
    259 : F513;
    260 : 0554;
    261 : 01F9;
    262 : 232E;
    263 : DC75;
    264 : 0BB9;
    265 : FD42;
    266 : 0B50;
    267 : F00F;
    268 : 10A7;
    269 : 0BB9;
    270 : 1027;
    271 : 0DB7;
    272 : 0905;
    273 : 1280;
    274 : F4AD;
    275 : 0814;
    276 : 03EF;
    277 : EE6B;
    278 : F726;
    279 : EC93;
    280 : 0E76;
    281 : F434;
    282 : 13F4;
    283 : F94B;
    284 : 06AD;
    285 : F862;
    286 : FBD5;
    287 : 09FA;
    288 : 0000;
    289 : 0711;
    290 : FEA6;
    291 : ED00;
    292 : 251F;
    293 : E48F;
    294 : EED8;
    295 : 0341;
    296 : 0DF5;
    297 : 057B;
    298 : 1574;
    299 : 0102;
    300 : F2D6;
    301 : FD98;
    302 : 0D24;
    303 : EDB0;
    304 : 18B4;
    305 : 0000;
    306 : D078;
    307 : 2AC5;
    308 : F761;
    309 : 2037;
    310 : D155;
    311 : 17C4;
    312 : 11F1;
    313 : 05B3;
    314 : 0D68;
    315 : E41A;
    316 : 0BA9;
    317 : F806;
    318 : 0000;
    319 : F886;
    320 : 116A;
    321 : E610;
    322 : 32C6;
    323 : CDF2;
    324 : F5A5;
    325 : F3FD;
    326 : F42A;
    327 : 1437;
    328 : EF9B;
    329 : 14B6;
    330 : 013B;
    331 : 0EAD;
    332 : 063B;
    333 : EDA4;
    334 : 0984;
    335 : F627;
    336 : 07EB;
    337 : 0FE2;
    338 : 012F;
    339 : EA12;
    340 : FF9D;
    341 : 13CC;
    342 : FBEF;
    343 : 03E9;
    344 : FF34;
    345 : 1A51;
    346 : 01A3;
    347 : 1147;
    348 : 0000;
    349 : 0B2A;
    350 : EACF;
    351 : 1417;
    352 : F9EF;
    353 : 07F7;
    354 : 0590;
    355 : ED47;
    356 : 1B8C;
    357 : EE3D;
    358 : 0DFE;
    359 : DEA3;
    360 : EFE7;
    361 : 1ABA;
    362 : 0D73;
    363 : F7EF;
    364 : FE06;
    365 : E9DD;
    366 : 060D;
    367 : FC8B;
    368 : 0F71;
    369 : F006;
    370 : 0595;
    371 : EBD5;
    372 : 29E2;
    373 : E19E;
    374 : 149D;
    375 : EEAA;
    376 : 2993;
    377 : ECF6;
    378 : EFC4;
    379 : 12A6;
    380 : 14CD;
    381 : FEA0;
    382 : 0941;
    383 : EFC4;
END;
