WIDTH=16;
DEPTH=384;

ADDRESS_RADIX=DEC;
DATA_RADIX=HEX;

CONTENT BEGIN
    0 : EFFE;
    1 : FAF6;
    2 : EF95;
    3 : 0BDA;
    4 : DCBE;
    5 : 1802;
    6 : 0FFF;
    7 : ED27;
    8 : F9AD;
    9 : FD95;
    10 : 008F;
    11 : 1FFE;
    12 : 12EF;
    13 : DFA7;
    14 : 02EF;
    15 : E59C;
    16 : 0AEB;
    17 : ED11;
    18 : 0400;
    19 : F400;
    20 : FF78;
    21 : 0AEA;
    22 : 0A3B;
    23 : F09E;
    24 : 0403;
    25 : 033C;
    26 : 006D;
    27 : F2D9;
    28 : 02BC;
    29 : EBF3;
    30 : FBF2;
    31 : 133E;
    32 : 03A4;
    33 : FBCD;
    34 : FCB0;
    35 : E5A5;
    36 : F1DB;
    37 : F2E3;
    38 : F40F;
    39 : 04F8;
    40 : F78C;
    41 : 0E25;
    42 : 06E3;
    43 : E6E6;
    44 : 1883;
    45 : DE05;
    46 : 2855;
    47 : D0C4;
    48 : F603;
    49 : F841;
    50 : 030A;
    51 : 1027;
    52 : F385;
    53 : 13FA;
    54 : FD20;
    55 : 0D2D;
    56 : F863;
    57 : 0B9D;
    58 : D662;
    59 : 17F3;
    60 : 0C02;
    61 : E7CA;
    62 : 02A0;
    63 : 11AB;
    64 : F65E;
    65 : 0100;
    66 : FF01;
    67 : EA05;
    68 : FEEF;
    69 : 0D64;
    70 : C904;
    71 : 20E3;
    72 : F9A4;
    73 : F295;
    74 : EEDC;
    75 : 08E9;
    76 : EF8E;
    77 : 1D43;
    78 : 01EA;
    79 : 11E1;
    80 : F37C;
    81 : 09FC;
    82 : DF13;
    83 : 05BF;
    84 : F0EB;
    85 : 193E;
    86 : EA5E;
    87 : 1C55;
    88 : D220;
    89 : 1E2B;
    90 : 0000;
    91 : F994;
    92 : FF09;
    93 : F82F;
    94 : 1AC7;
    95 : 09EF;
    96 : 0200;
    97 : F5EF;
    98 : F468;
    99 : 1468;
    100 : DDBF;
    101 : 1680;
    102 : EFED;
    103 : 2192;
    104 : F67A;
    105 : E4DE;
    106 : FEED;
    107 : F3F2;
    108 : F7E1;
    109 : FB69;
    110 : DE96;
    111 : 189B;
    112 : DCC0;
    113 : 207C;
    114 : 0A02;
    115 : EC20;
    116 : ED7E;
    117 : 03DB;
    118 : EB0E;
    119 : 0200;
    120 : EC1D;
    121 : F83A;
    122 : FEED;
    123 : FC8B;
    124 : 0094;
    125 : F411;
    126 : E296;
    127 : 24E2;
    128 : F6C9;
    129 : 08D4;
    130 : DAA1;
    131 : 1262;
    132 : 1C1B;
    133 : 0518;
    134 : 08DF;
    135 : FC5E;
    136 : FC41;
    137 : EDEE;
    138 : FBFC;
    139 : FD72;
    140 : FC02;
    141 : 0D05;
    142 : 048C;
    143 : 1619;
    144 : E974;
    145 : 18D3;
    146 : 0F98;
    147 : F0CD;
    148 : FCF2;
    149 : F656;
    150 : FD18;
    151 : E6E7;
    152 : 0AC7;
    153 : ECB5;
    154 : 3134;
    155 : DA3C;
    156 : 0B3F;
    157 : F6EB;
    158 : 0529;
    159 : FDB5;
    160 : 00B7;
    161 : E681;
    162 : 0C5A;
    163 : FE90;
    164 : 1BBB;
    165 : E37A;
    166 : 1A63;
    167 : D25B;
    168 : F7FC;
    169 : F7B3;
    170 : 0022;
    171 : 0B75;
    172 : 0A20;
    173 : EBF6;
    174 : 060B;
    175 : 030F;
    176 : 019C;
    177 : DFD4;
    178 : FF4E;
    179 : 060B;
    180 : 0406;
    181 : EEFC;
    182 : F73D;
    183 : 1063;
    184 : DC0F;
    185 : 2432;
    186 : EB18;
    187 : 172D;
    188 : F802;
    189 : 212A;
    190 : DECE;
    191 : 11EC;
    192 : 0CE5;
    193 : E21D;
    194 : 1822;
    195 : DD5F;
    196 : 2196;
    197 : D658;
    198 : 2404;
    199 : E870;
    200 : FEC1;
    201 : ED9C;
    202 : 0268;
    203 : EFFE;
    204 : 27F9;
    205 : F0CA;
    206 : 0BAF;
    207 : EBAA;
    208 : 08FF;
    209 : F801;
    210 : FDF9;
    211 : F9C9;
    212 : ECF9;
    213 : 1466;
    214 : E751;
    215 : 0E2F;
    216 : 17FE;
    217 : E8FD;
    218 : FB4B;
    219 : 091B;
    220 : F30A;
    221 : 0300;
    222 : FE7D;
    223 : 07A2;
    224 : 0948;
    225 : EA9E;
    226 : 05F4;
    227 : EFE2;
    228 : 021D;
    229 : F1C9;
    230 : F57C;
    231 : 09C0;
    232 : 13A3;
    233 : F9AA;
    234 : 1003;
    235 : FD16;
    236 : 07C3;
    237 : E989;
    238 : 2020;
    239 : D3F8;
    240 : 0826;
    241 : FD92;
    242 : 0E4B;
    243 : DCC4;
    244 : 0182;
    245 : F3C7;
    246 : 0000;
    247 : E8A7;
    248 : 065A;
    249 : 1531;
    250 : EFA8;
    251 : 2807;
    252 : 01F8;
    253 : F062;
    254 : 1140;
    255 : E1BB;
    256 : 47BF;
    257 : D330;
    258 : 0285;
    259 : 0B9E;
    260 : 04B0;
    261 : E4FA;
    262 : FB27;
    263 : F4EA;
    264 : 0CDF;
    265 : E487;
    266 : 17FA;
    267 : DF70;
    268 : 2405;
    269 : D963;
    270 : E3D0;
    271 : 04F9;
    272 : DCE3;
    273 : 327B;
    274 : D080;
    275 : 3A64;
    276 : 0A03;
    277 : EE94;
    278 : 1673;
    279 : FD06;
    280 : F476;
    281 : F3FC;
    282 : EBF0;
    283 : F57B;
    284 : FE72;
    285 : 130B;
    286 : E33B;
    287 : 1814;
    288 : 04FB;
    289 : F8AB;
    290 : FF4A;
    291 : 190E;
    292 : DC99;
    293 : 0EF1;
    294 : F618;
    295 : 10B6;
    296 : FADB;
    297 : 0FC6;
    298 : DACB;
    299 : 0D5F;
    300 : F011;
    301 : 045E;
    302 : 0497;
    303 : 089C;
    304 : DF18;
    305 : 21DB;
    306 : EEE4;
    307 : F424;
    308 : F4FC;
    309 : 09F5;
    310 : F8FE;
    311 : 0000;
    312 : F6A9;
    313 : FC1A;
    314 : 0F6A;
    315 : EFDD;
    316 : 2AC0;
    317 : D6E8;
    318 : 1604;
    319 : E906;
    320 : FBEF;
    321 : F173;
    322 : FC04;
    323 : EBFD;
    324 : 03D0;
    325 : 1539;
    326 : F1C0;
    327 : 0D45;
    328 : DE17;
    329 : 29F2;
    330 : 0000;
    331 : 0368;
    332 : EFC7;
    333 : 038D;
    334 : F46E;
    335 : 07FF;
    336 : F7DF;
    337 : FAFC;
    338 : EC54;
    339 : 2363;
    340 : ECF2;
    341 : 1A6A;
    342 : 0C25;
    343 : EFA9;
    344 : 1524;
    345 : D81F;
    346 : 1962;
    347 : C140;
    348 : FBF4;
    349 : F590;
    350 : EF28;
    351 : 0C3E;
    352 : E9F9;
    353 : 0817;
    354 : 20EF;
    355 : E8E5;
    356 : 0D7C;
    357 : F4DC;
    358 : 229F;
    359 : E671;
    360 : 23F7;
    361 : E0C4;
    362 : F695;
    363 : ECC2;
    364 : 1649;
    365 : 0FFC;
    366 : FBF8;
    367 : F38C;
    368 : EE9B;
    369 : 20D0;
    370 : E4A5;
    371 : 0810;
    372 : 03E7;
    373 : 144D;
    374 : EE0B;
    375 : 0976;
    376 : D67A;
    377 : 0F9D;
    378 : FC03;
    379 : 062D;
    380 : 0F28;
    381 : 0816;
    382 : 1745;
    383 : FC03;
END;
