WIDTH=16;
DEPTH=384;

ADDRESS_RADIX=DEC;
DATA_RADIX=HEX;

CONTENT BEGIN
    0 : 13C5;
    1 : F22F;
    2 : 0E20;
    3 : EE13;
    4 : 1E57;
    5 : CC9A;
    6 : F915;
    7 : 0D0F;
    8 : 047F;
    9 : F6FD;
    10 : 0361;
    11 : 04F1;
    12 : 1B41;
    13 : EA12;
    14 : 1C11;
    15 : D99C;
    16 : 31D7;
    17 : C801;
    18 : F44B;
    19 : 1422;
    20 : F31F;
    21 : 0545;
    22 : F1DE;
    23 : 03E7;
    24 : F888;
    25 : 06D3;
    26 : F6EA;
    27 : 148F;
    28 : EFFF;
    29 : 15E9;
    30 : 086D;
    31 : 0609;
    32 : E843;
    33 : 1562;
    34 : E869;
    35 : 22B1;
    36 : 040C;
    37 : 0BEC;
    38 : 1578;
    39 : EAF1;
    40 : 165F;
    41 : E7BB;
    42 : F67F;
    43 : 0700;
    44 : FB26;
    45 : 051D;
    46 : E790;
    47 : 0D4F;
    48 : 0BEB;
    49 : 0491;
    50 : 1296;
    51 : E1CA;
    52 : 274E;
    53 : CC5C;
    54 : 0000;
    55 : 017B;
    56 : F93B;
    57 : 18E0;
    58 : F2D8;
    59 : 1E11;
    60 : FA09;
    61 : 1474;
    62 : D8BA;
    63 : 372F;
    64 : BDFF;
    65 : 3FA2;
    66 : E445;
    67 : 0839;
    68 : FD79;
    69 : 0693;
    70 : 0948;
    71 : F814;
    72 : 1012;
    73 : F9D5;
    74 : 1AF1;
    75 : ED35;
    76 : 1941;
    77 : E3E1;
    78 : 0000;
    79 : F55C;
    80 : FC44;
    81 : 064A;
    82 : FBD4;
    83 : 0EA7;
    84 : F886;
    85 : F7CB;
    86 : 0188;
    87 : 05B5;
    88 : FC28;
    89 : 0D76;
    90 : 07F7;
    91 : 00D3;
    92 : 10F0;
    93 : DB7C;
    94 : 25C2;
    95 : CE3B;
    96 : F866;
    97 : 0C0F;
    98 : FAB9;
    99 : 0573;
    100 : EC8C;
    101 : 079A;
    102 : E7D4;
    103 : FEF4;
    104 : 04B8;
    105 : 1394;
    106 : 0FF7;
    107 : E7D4;
    108 : 1D0D;
    109 : F6F0;
    110 : 15C3;
    111 : ED76;
    112 : 16F2;
    113 : E3F3;
    114 : F5B4;
    115 : 0B8D;
    116 : 0176;
    117 : F956;
    118 : FCA9;
    119 : 00FB;
    120 : E03C;
    121 : 1EF3;
    122 : EBA2;
    123 : 2545;
    124 : D3B0;
    125 : 29B1;
    126 : 0205;
    127 : FBC5;
    128 : F303;
    129 : 1B18;
    130 : D934;
    131 : 368E;
    132 : 0000;
    133 : F4FC;
    134 : 0D66;
    135 : 0AD2;
    136 : 0946;
    137 : 0000;
    138 : 0B88;
    139 : 102F;
    140 : 036E;
    141 : FF01;
    142 : F988;
    143 : 0F60;
    144 : 0CB3;
    145 : F1CA;
    146 : 0BD3;
    147 : E2DC;
    148 : 3C50;
    149 : C852;
    150 : E960;
    151 : 2097;
    152 : F818;
    153 : 164C;
    154 : E34E;
    155 : 1A5A;
    156 : EE89;
    157 : 0670;
    158 : 0A2C;
    159 : 02EF;
    160 : 0BD9;
    161 : 027F;
    162 : 0204;
    163 : 0010;
    164 : FF01;
    165 : 134D;
    166 : 0727;
    167 : F3E9;
    168 : 01FB;
    169 : 0834;
    170 : 0C4B;
    171 : E000;
    172 : 23E2;
    173 : F813;
    174 : 14EC;
    175 : E910;
    176 : 17C5;
    177 : EA3D;
    178 : 204B;
    179 : DDC4;
    180 : F574;
    181 : 0C97;
    182 : 0BB4;
    183 : 14E0;
    184 : 0062;
    185 : F0EF;
    186 : 0DD3;
    187 : 0983;
    188 : 03FD;
    189 : E86E;
    190 : 2712;
    191 : EA46;
    192 : F289;
    193 : 059B;
    194 : 01FA;
    195 : F849;
    196 : 058C;
    197 : 065E;
    198 : FA97;
    199 : 0BBF;
    200 : 036A;
    201 : F265;
    202 : 14E2;
    203 : FB93;
    204 : FCFD;
    205 : 0082;
    206 : 08D4;
    207 : 0C41;
    208 : 1539;
    209 : FAFB;
    210 : 0400;
    211 : 1682;
    212 : FED6;
    213 : 1535;
    214 : E98A;
    215 : 2C03;
    216 : 03F8;
    217 : F6B7;
    218 : 2172;
    219 : EE58;
    220 : 2754;
    221 : E436;
    222 : 0B7A;
    223 : ECC7;
    224 : 12C3;
    225 : F397;
    226 : 17D7;
    227 : DE6D;
    228 : FC0B;
    229 : F844;
    230 : FADE;
    231 : F195;
    232 : FBA3;
    233 : E844;
    234 : FE05;
    235 : F5B6;
    236 : 0B76;
    237 : FA09;
    238 : 201F;
    239 : E7BD;
    240 : EFD0;
    241 : 0968;
    242 : FA89;
    243 : 15D8;
    244 : ED66;
    245 : 246B;
    246 : F4BF;
    247 : 173C;
    248 : F6E7;
    249 : 0EE4;
    250 : EA3C;
    251 : 1700;
    252 : F5FD;
    253 : 1261;
    254 : FE82;
    255 : 138D;
    256 : 0035;
    257 : EBFA;
    258 : FE04;
    259 : F6AF;
    260 : 131C;
    261 : F6D6;
    262 : 2086;
    263 : EC28;
    264 : 0BEB;
    265 : F310;
    266 : 120B;
    267 : E42D;
    268 : 1410;
    269 : F01C;
    270 : F3FB;
    271 : 0F7F;
    272 : 0A62;
    273 : 01AB;
    274 : FB15;
    275 : EFF9;
    276 : 0FD2;
    277 : F7BA;
    278 : EE1D;
    279 : FA47;
    280 : 07AF;
    281 : FC0B;
    282 : F610;
    283 : 10F0;
    284 : FC14;
    285 : 19ED;
    286 : E0FE;
    287 : 1FCD;
    288 : 0BE8;
    289 : F57C;
    290 : 0BA6;
    291 : E28B;
    292 : 244D;
    293 : D84F;
    294 : 0000;
    295 : 0EF0;
    296 : F9EF;
    297 : 0D06;
    298 : 0B20;
    299 : FF02;
    300 : 0FC3;
    301 : F691;
    302 : F978;
    303 : FC0A;
    304 : 0108;
    305 : 13B3;
    306 : 0D88;
    307 : 04E6;
    308 : 0EEB;
    309 : E10E;
    310 : 28DD;
    311 : D5E8;
    312 : 01FC;
    313 : 04BA;
    314 : 06A0;
    315 : E3CE;
    316 : 0BC0;
    317 : 05F3;
    318 : 0B6E;
    319 : F252;
    320 : 10AB;
    321 : F15A;
    322 : 26B5;
    323 : E554;
    324 : F9D2;
    325 : 0173;
    326 : E730;
    327 : 29A5;
    328 : DCDE;
    329 : 38A8;
    330 : FC15;
    331 : 083B;
    332 : FE38;
    333 : FC11;
    334 : ED79;
    335 : 1977;
    336 : 0000;
    337 : 0274;
    338 : F5BA;
    339 : FB98;
    340 : F022;
    341 : 0ECA;
    342 : 090B;
    343 : F3C7;
    344 : 0930;
    345 : 0EDE;
    346 : FCAD;
    347 : F675;
    348 : 0FCF;
    349 : F04C;
    350 : 09E7;
    351 : E661;
    352 : 3085;
    353 : C4B8;
    354 : 07B7;
    355 : FE78;
    356 : 09DC;
    357 : F63C;
    358 : 067A;
    359 : 07B7;
    360 : 05E1;
    361 : 0FD7;
    362 : F305;
    363 : 0362;
    364 : F3AD;
    365 : 05E1;
    366 : 0101;
    367 : FC00;
    368 : 0786;
    369 : 077F;
    370 : FF31;
    371 : E5F2;
    372 : FBF7;
    373 : 062A;
    374 : FA35;
    375 : 221C;
    376 : F004;
    377 : 142E;
    378 : FA11;
    379 : FF42;
    380 : 160E;
    381 : DC43;
    382 : 16C4;
    383 : EC37;
END;
