WIDTH=16;
DEPTH=384;

ADDRESS_RADIX=DEC;
DATA_RADIX=HEX;

CONTENT BEGIN
    0 : 0000;
    1 : F642;
    2 : 0A9C;
    3 : FEEF;
    4 : F936;
    5 : F413;
    6 : 102C;
    7 : FB81;
    8 : ED60;
    9 : 20EE;
    10 : E3B9;
    11 : 2C78;
    12 : E9D8;
    13 : 005E;
    14 : EF65;
    15 : 22C4;
    16 : D806;
    17 : 203A;
    18 : E818;
    19 : 05A7;
    20 : F2D1;
    21 : 1F48;
    22 : E999;
    23 : 07F8;
    24 : FA21;
    25 : 0BA0;
    26 : FE07;
    27 : FE38;
    28 : EAD9;
    29 : 1D5B;
    30 : 081B;
    31 : FEAF;
    32 : 1986;
    33 : F2E1;
    34 : 0AB5;
    35 : E7AF;
    36 : 0000;
    37 : 05DA;
    38 : EEDE;
    39 : 1D0F;
    40 : EE36;
    41 : 1D17;
    42 : F413;
    43 : F38C;
    44 : 0EC9;
    45 : E398;
    46 : 16AE;
    47 : D447;
    48 : DFE3;
    49 : 1223;
    50 : E691;
    51 : 0B82;
    52 : F065;
    53 : 0C0B;
    54 : 0CB7;
    55 : 049B;
    56 : 2313;
    57 : CDDE;
    58 : 35AB;
    59 : C8E8;
    60 : 0FB0;
    61 : E4B9;
    62 : 149B;
    63 : DA8E;
    64 : 3523;
    65 : CA13;
    66 : 03FF;
    67 : F4F2;
    68 : 02EB;
    69 : EB5E;
    70 : 11BF;
    71 : E00B;
    72 : F17B;
    73 : 007B;
    74 : E987;
    75 : 0BBB;
    76 : 06D9;
    77 : 084C;
    78 : 0000;
    79 : 0BB4;
    80 : 005D;
    81 : E5BC;
    82 : 015E;
    83 : EBE1;
    84 : F80D;
    85 : 0FAB;
    86 : 07FD;
    87 : FBF7;
    88 : 0F74;
    89 : E42F;
    90 : 0906;
    91 : F056;
    92 : F729;
    93 : 0D53;
    94 : 0621;
    95 : 0B47;
    96 : F492;
    97 : 029A;
    98 : F78F;
    99 : 06AD;
    100 : EEE5;
    101 : FC31;
    102 : 0000;
    103 : 043E;
    104 : 016F;
    105 : F528;
    106 : FB6F;
    107 : E7E1;
    108 : 0DFF;
    109 : F852;
    110 : FB4F;
    111 : F4EA;
    112 : FC1F;
    113 : F601;
    114 : E06C;
    115 : 0D94;
    116 : EBC8;
    117 : 221E;
    118 : D278;
    119 : 13BC;
    120 : 07F6;
    121 : F951;
    122 : 0764;
    123 : F2C2;
    124 : FF37;
    125 : 03FB;
    126 : F475;
    127 : 1138;
    128 : F9C6;
    129 : 08B2;
    130 : DB91;
    131 : 2E2D;
    132 : 07BB;
    133 : 0484;
    134 : EAD3;
    135 : 1927;
    136 : CF78;
    137 : 304E;
    138 : EFA4;
    139 : 0BAF;
    140 : E108;
    141 : 1ECE;
    142 : E380;
    143 : 2CFE;
    144 : 1841;
    145 : F716;
    146 : 18E4;
    147 : F182;
    148 : 1571;
    149 : E7BF;
    150 : 07E5;
    151 : F6A9;
    152 : 00DC;
    153 : EDBB;
    154 : 1F8F;
    155 : 0000;
    156 : 0C0C;
    157 : FB53;
    158 : 065E;
    159 : E96F;
    160 : 1640;
    161 : F1B2;
    162 : EB8D;
    163 : 07D4;
    164 : F734;
    165 : 0F2B;
    166 : D6CA;
    167 : 1D64;
    168 : F434;
    169 : F13E;
    170 : 091C;
    171 : DFD7;
    172 : 2685;
    173 : D8AF;
    174 : 17C5;
    175 : FE8A;
    176 : 008B;
    177 : 19AC;
    178 : E706;
    179 : 0FD9;
    180 : 1370;
    181 : F8E0;
    182 : F419;
    183 : 0FF8;
    184 : DAB3;
    185 : 22FD;
    186 : 09CC;
    187 : F6CE;
    188 : 0DD4;
    189 : EE66;
    190 : 2427;
    191 : E688;
    192 : E417;
    193 : 0564;
    194 : FB1F;
    195 : F811;
    196 : F888;
    197 : 0DF5;
    198 : 0000;
    199 : F54E;
    200 : 0F47;
    201 : F6B4;
    202 : FE7F;
    203 : 0000;
    204 : 037A;
    205 : F8B0;
    206 : 0859;
    207 : 107E;
    208 : EC92;
    209 : FE82;
    210 : F014;
    211 : 0BAC;
    212 : F6EC;
    213 : 1F0F;
    214 : D681;
    215 : 3BB4;
    216 : FE05;
    217 : EF9D;
    218 : 0594;
    219 : EE79;
    220 : 0588;
    221 : 05F0;
    222 : 03F9;
    223 : 09AF;
    224 : EB95;
    225 : 06BB;
    226 : ED32;
    227 : 0FE5;
    228 : FC2D;
    229 : F883;
    230 : 0178;
    231 : FEA7;
    232 : 2082;
    233 : E728;
    234 : F7F9;
    235 : 051B;
    236 : 07A6;
    237 : EE5A;
    238 : 256C;
    239 : D7DD;
    240 : 0408;
    241 : 0F0A;
    242 : 0134;
    243 : E51D;
    244 : 0A54;
    245 : 0408;
    246 : F8DA;
    247 : EF65;
    248 : 0633;
    249 : 0251;
    250 : 143B;
    251 : F8DA;
    252 : FE0F;
    253 : F6D2;
    254 : 05DB;
    255 : FC24;
    256 : 05F5;
    257 : 09B6;
    258 : E844;
    259 : 1C36;
    260 : 051D;
    261 : 0EBC;
    262 : E1C6;
    263 : 15C1;
    264 : F800;
    265 : 0E3C;
    266 : EB19;
    267 : 0310;
    268 : E61A;
    269 : 1000;
    270 : 1006;
    271 : FFAE;
    272 : F2AB;
    273 : F371;
    274 : 0B1F;
    275 : F7FD;
    276 : 0374;
    277 : F952;
    278 : FB25;
    279 : 0F71;
    280 : E5BB;
    281 : 095F;
    282 : 18F9;
    283 : EAB8;
    284 : 01F4;
    285 : E672;
    286 : 1A49;
    287 : D00D;
    288 : DD11;
    289 : 0FDA;
    290 : FB81;
    291 : 10E9;
    292 : D754;
    293 : 1918;
    294 : EDED;
    295 : 132C;
    296 : 05FA;
    297 : F416;
    298 : 0438;
    299 : E5E5;
    300 : 0E06;
    301 : F4E6;
    302 : FF7A;
    303 : ECC5;
    304 : 05CB;
    305 : 0C05;
    306 : F00E;
    307 : FC76;
    308 : F8D1;
    309 : 0346;
    310 : F535;
    311 : 15ED;
    312 : 180B;
    313 : F89D;
    314 : F6D7;
    315 : 0F34;
    316 : 0249;
    317 : 1007;
    318 : FD0F;
    319 : F35E;
    320 : FAB6;
    321 : 0556;
    322 : EE99;
    323 : 1496;
    324 : 0E46;
    325 : F608;
    326 : 10D1;
    327 : DA90;
    328 : 1F15;
    329 : DB4B;
    330 : F639;
    331 : 1232;
    332 : EE0D;
    333 : 0E22;
    334 : EB1F;
    335 : 05DE;
    336 : 01F1;
    337 : F9DD;
    338 : FA72;
    339 : 04E9;
    340 : FEE2;
    341 : 0000;
    342 : F768;
    343 : 0D6E;
    344 : 08F9;
    345 : D911;
    346 : 0DA4;
    347 : F45F;
    348 : FC02;
    349 : F58B;
    350 : F9C0;
    351 : EC38;
    352 : 1034;
    353 : EC09;
    354 : 0DE7;
    355 : F78D;
    356 : F4F8;
    357 : 0740;
    358 : 0623;
    359 : F80E;
    360 : F3FB;
    361 : F2B8;
    362 : F988;
    363 : 1C82;
    364 : ED97;
    365 : 240E;
    366 : 0707;
    367 : F4CA;
    368 : F591;
    369 : 0276;
    370 : 03B1;
    371 : 0D0C;
    372 : 0E56;
    373 : 12FE;
    374 : 0D77;
    375 : F4A4;
    376 : 09A6;
    377 : F3B6;
    378 : 01FD;
    379 : 059C;
    380 : FE9C;
    381 : 1362;
    382 : F958;
    383 : 07F6;
END;
