WIDTH=16;
DEPTH=384;

ADDRESS_RADIX=DEC;
DATA_RADIX=HEX;

CONTENT BEGIN
    0 : 14F8;
    1 : FF13;
    2 : F353;
    3 : 01D3;
    4 : F808;
    5 : 04FE;
    6 : F00C;
    7 : 0D86;
    8 : 01BB;
    9 : FC09;
    10 : E3BA;
    11 : 19ED;
    12 : 03FC;
    13 : 03D9;
    14 : 160F;
    15 : ED95;
    16 : 16C8;
    17 : F011;
    18 : F765;
    19 : 0B83;
    20 : 11FA;
    21 : F134;
    22 : 1063;
    23 : DA0B;
    24 : 0C18;
    25 : FF68;
    26 : ED66;
    27 : F215;
    28 : 0830;
    29 : F3E8;
    30 : F02F;
    31 : EDCD;
    32 : 08D7;
    33 : 02A0;
    34 : FA4D;
    35 : 0FD1;
    36 : 0FA5;
    37 : F609;
    38 : 1C60;
    39 : D1EB;
    40 : 2788;
    41 : C6CF;
    42 : 03E5;
    43 : 0BF1;
    44 : EC0B;
    45 : 1F8E;
    46 : E2F8;
    47 : FC1B;
    48 : 096E;
    49 : FD04;
    50 : 09CF;
    51 : 0083;
    52 : 00FD;
    53 : E82E;
    54 : E450;
    55 : 01C9;
    56 : 01F3;
    57 : 02C8;
    58 : 085B;
    59 : FA11;
    60 : 0304;
    61 : 0840;
    62 : F662;
    63 : FC55;
    64 : 011B;
    65 : 0000;
    66 : 0000;
    67 : F6FD;
    68 : 1497;
    69 : F31B;
    70 : 1F9A;
    71 : E67C;
    72 : F72B;
    73 : 122B;
    74 : F60A;
    75 : 102C;
    76 : DFC8;
    77 : 1E6B;
    78 : 0000;
    79 : E684;
    80 : F216;
    81 : 0D9C;
    82 : F45F;
    83 : 0A3D;
    84 : DEBE;
    85 : 062A;
    86 : E33B;
    87 : 20D5;
    88 : E262;
    89 : 256A;
    90 : DEA8;
    91 : 1914;
    92 : F156;
    93 : 1E28;
    94 : C687;
    95 : 1F62;
    96 : EFF1;
    97 : 169A;
    98 : FE7A;
    99 : FB43;
    100 : 0144;
    101 : F5F6;
    102 : F2BF;
    103 : F681;
    104 : F922;
    105 : 1477;
    106 : F9AB;
    107 : 0941;
    108 : EA39;
    109 : 12D3;
    110 : 0916;
    111 : 0C8C;
    112 : FA4E;
    113 : EE2E;
    114 : FB14;
    115 : 0E51;
    116 : EAE7;
    117 : 2598;
    118 : D2CF;
    119 : 1E81;
    120 : E694;
    121 : 0FCD;
    122 : EB09;
    123 : 1E60;
    124 : D36B;
    125 : 1F4A;
    126 : 0000;
    127 : FA5A;
    128 : FC4C;
    129 : 0321;
    130 : F8E9;
    131 : 17D5;
    132 : FE0B;
    133 : EAE3;
    134 : 151B;
    135 : DC11;
    136 : 3BAE;
    137 : CF10;
    138 : 0AA7;
    139 : 0D8F;
    140 : 01DF;
    141 : F731;
    142 : FF19;
    143 : F823;
    144 : E9CF;
    145 : F98D;
    146 : EBE1;
    147 : 21D8;
    148 : DF9F;
    149 : 1E42;
    150 : FC04;
    151 : 13A1;
    152 : F5C1;
    153 : FEFB;
    154 : E9C3;
    155 : 0EF0;
    156 : 0DC7;
    157 : ED39;
    158 : 05AF;
    159 : EE31;
    160 : 135A;
    161 : FC10;
    162 : E3E9;
    163 : 03B9;
    164 : F041;
    165 : 1F70;
    166 : E4F0;
    167 : 0C0A;
    168 : 0C1A;
    169 : FFDA;
    170 : 021F;
    171 : E963;
    172 : 193E;
    173 : 0811;
    174 : EC2C;
    175 : F895;
    176 : 09E4;
    177 : 0F46;
    178 : 04EF;
    179 : FC09;
    180 : FC10;
    181 : 0B4E;
    182 : FF4A;
    183 : 13F6;
    184 : E983;
    185 : 1B93;
    186 : F805;
    187 : 0739;
    188 : F9F3;
    189 : 00D0;
    190 : F17F;
    191 : 04FD;
    192 : 06F3;
    193 : 01AD;
    194 : F1B8;
    195 : 1ADA;
    196 : F5F6;
    197 : 03F8;
    198 : 046C;
    199 : 04A5;
    200 : 0791;
    201 : F633;
    202 : 20CB;
    203 : E287;
    204 : E61F;
    205 : 1331;
    206 : EDA2;
    207 : 1A0F;
    208 : F22B;
    209 : 15E6;
    210 : FC12;
    211 : 035D;
    212 : FF42;
    213 : 009C;
    214 : F0AE;
    215 : F048;
    216 : F40F;
    217 : 0BB9;
    218 : F170;
    219 : 0E1F;
    220 : EE69;
    221 : 0BF1;
    222 : 01FD;
    223 : F3E0;
    224 : F54E;
    225 : 1438;
    226 : E24B;
    227 : 1FD1;
    228 : 091A;
    229 : 0320;
    230 : 0108;
    231 : F69C;
    232 : F6B2;
    233 : FDFA;
    234 : 0406;
    235 : F4B3;
    236 : F94B;
    237 : FA80;
    238 : 168A;
    239 : F1E9;
    240 : 027C;
    241 : F451;
    242 : FE93;
    243 : 0573;
    244 : 093F;
    245 : FC07;
    246 : F9ED;
    247 : 0F82;
    248 : 00C5;
    249 : E065;
    250 : 0526;
    251 : E5AE;
    252 : 0413;
    253 : FF01;
    254 : 0F1F;
    255 : E055;
    256 : 1A27;
    257 : C6F0;
    258 : 1402;
    259 : E9D9;
    260 : 02EA;
    261 : EEC7;
    262 : 1B46;
    263 : F3FF;
    264 : 1221;
    265 : F201;
    266 : 01D3;
    267 : E3BD;
    268 : 1EB4;
    269 : E5D0;
    270 : 061C;
    271 : 0090;
    272 : 1D1C;
    273 : D266;
    274 : 2A9C;
    275 : C2E3;
    276 : 03F5;
    277 : EFE2;
    278 : F961;
    279 : 024B;
    280 : 0A15;
    281 : E44B;
    282 : FC0D;
    283 : 03B7;
    284 : 03A7;
    285 : 03FA;
    286 : 05D6;
    287 : DC74;
    288 : F809;
    289 : 10C7;
    290 : ED90;
    291 : 1612;
    292 : F49D;
    293 : 07F7;
    294 : EE19;
    295 : FE96;
    296 : F599;
    297 : 0729;
    298 : F5C5;
    299 : 1CD7;
    300 : FD1A;
    301 : F2C8;
    302 : 0B7E;
    303 : EA5E;
    304 : 1DEF;
    305 : EBB4;
    306 : 0AE1;
    307 : 048D;
    308 : 03C4;
    309 : 0298;
    310 : F9EF;
    311 : F02D;
    312 : 1430;
    313 : F6F1;
    314 : 0CE9;
    315 : F2CD;
    316 : 0184;
    317 : F1DF;
    318 : 0200;
    319 : FA50;
    320 : F2E8;
    321 : 16C9;
    322 : F686;
    323 : 0200;
    324 : 1B08;
    325 : DFAE;
    326 : FD79;
    327 : E496;
    328 : 2463;
    329 : ECFB;
    330 : F3E8;
    331 : 0E80;
    332 : FA61;
    333 : F533;
    334 : 08CC;
    335 : EBD8;
    336 : 28D4;
    337 : F8DB;
    338 : 0424;
    339 : E862;
    340 : 1763;
    341 : E1D2;
    342 : 0000;
    343 : EF1F;
    344 : 0102;
    345 : FE9B;
    346 : 0693;
    347 : E86B;
    348 : F812;
    349 : 0229;
    350 : 014F;
    351 : 0E1C;
    352 : EB57;
    353 : 1FB7;
    354 : 03F7;
    355 : F218;
    356 : 0A06;
    357 : 0382;
    358 : ED5B;
    359 : FA0E;
    360 : EA32;
    361 : 0DDC;
    362 : 0880;
    363 : 0513;
    364 : EB43;
    365 : 09E9;
    366 : 0609;
    367 : 026E;
    368 : F88F;
    369 : F923;
    370 : F63F;
    371 : 0102;
    372 : 03D4;
    373 : E1C2;
    374 : 0E31;
    375 : F182;
    376 : 0EC1;
    377 : FC2C;
    378 : 0E20;
    379 : 026F;
    380 : F66F;
    381 : E901;
    382 : F5BB;
    383 : F7EE;
END;
