WIDTH=16;
DEPTH=384;

ADDRESS_RADIX=DEC;
DATA_RADIX=HEX;

CONTENT BEGIN
    0 : E2DC;
    1 : 1148;
    2 : F681;
    3 : 1203;
    4 : E1B4;
    5 : 155F;
    6 : 07FD;
    7 : FE2A;
    8 : 0AEA;
    9 : FBF2;
    10 : 0834;
    11 : 0BFB;
    12 : FC23;
    13 : E6CC;
    14 : 1493;
    15 : DCAE;
    16 : 2BF9;
    17 : E6E2;
    18 : F9EB;
    19 : 073F;
    20 : FAEF;
    21 : 1C50;
    22 : FD1A;
    23 : FBF2;
    24 : 05C2;
    25 : 1572;
    26 : F1C6;
    27 : 188C;
    28 : CEF0;
    29 : 35BA;
    30 : EE58;
    31 : 133B;
    32 : FFC8;
    33 : 08EE;
    34 : DAE9;
    35 : 1D6D;
    36 : 051D;
    37 : 0154;
    38 : EDF3;
    39 : 18F7;
    40 : EDAE;
    41 : 27E2;
    42 : 0000;
    43 : F875;
    44 : 1516;
    45 : E008;
    46 : 26F3;
    47 : CCD9;
    48 : 05E3;
    49 : FBD1;
    50 : 071C;
    51 : F1FC;
    52 : 0B7D;
    53 : 07D9;
    54 : 069C;
    55 : 1602;
    56 : F108;
    57 : 10D8;
    58 : D219;
    59 : 201B;
    60 : FD2F;
    61 : ECA0;
    62 : 133C;
    63 : F198;
    64 : 2ED9;
    65 : E010;
    66 : E8BF;
    67 : 0468;
    68 : FA39;
    69 : 0D39;
    70 : EE96;
    71 : 13B7;
    72 : 0C2A;
    73 : E18E;
    74 : 045A;
    75 : 0DF6;
    76 : F811;
    77 : 1854;
    78 : 0000;
    79 : 0B1C;
    80 : 20F4;
    81 : D205;
    82 : 2B49;
    83 : DFE2;
    84 : F642;
    85 : 12DA;
    86 : F4B3;
    87 : 0661;
    88 : F16D;
    89 : 09BE;
    90 : 0000;
    91 : 046D;
    92 : 0470;
    93 : FC76;
    94 : 0B55;
    95 : 08B4;
    96 : F91F;
    97 : FB8F;
    98 : 0B6F;
    99 : EF9E;
    100 : 0B00;
    101 : EF4B;
    102 : 2098;
    103 : E928;
    104 : 2213;
    105 : E12E;
    106 : 2255;
    107 : DB55;
    108 : F1DC;
    109 : 0EDB;
    110 : FB2C;
    111 : 13E0;
    112 : F3E1;
    113 : 1A44;
    114 : EBF3;
    115 : 0988;
    116 : F587;
    117 : 1567;
    118 : DEA2;
    119 : 180F;
    120 : 0FBB;
    121 : 036D;
    122 : F46B;
    123 : FA99;
    124 : FE56;
    125 : FA1A;
    126 : 1500;
    127 : F8E6;
    128 : 17E6;
    129 : F335;
    130 : FCFD;
    131 : DFF9;
    132 : 0203;
    133 : 0BE5;
    134 : FC2D;
    135 : 1AD9;
    136 : F03C;
    137 : 0000;
    138 : 081B;
    139 : FC45;
    140 : FAB4;
    141 : 1651;
    142 : F596;
    143 : 1649;
    144 : 01FC;
    145 : 0E79;
    146 : 09E5;
    147 : EB49;
    148 : 13D7;
    149 : EC24;
    150 : 0DA1;
    151 : F8E3;
    152 : 0338;
    153 : EC3B;
    154 : 2901;
    155 : F644;
    156 : 04F3;
    157 : EB81;
    158 : 21E9;
    159 : D625;
    160 : 2FA8;
    161 : D000;
    162 : 0BD9;
    163 : FC35;
    164 : 155A;
    165 : DFB0;
    166 : 2A77;
    167 : E45B;
    168 : F099;
    169 : F450;
    170 : 0203;
    171 : 00FD;
    172 : 02BB;
    173 : E8E6;
    174 : 0550;
    175 : FAB6;
    176 : 10A5;
    177 : 07E5;
    178 : 005C;
    179 : F2D9;
    180 : F06F;
    181 : 063A;
    182 : F458;
    183 : 1231;
    184 : E6F1;
    185 : 0BAD;
    186 : 0000;
    187 : 068F;
    188 : F79C;
    189 : F1BC;
    190 : 0C24;
    191 : F81F;
    192 : 09CB;
    193 : F05F;
    194 : FFBC;
    195 : F335;
    196 : 1916;
    197 : E880;
    198 : D5DB;
    199 : 21C4;
    200 : ED77;
    201 : 2093;
    202 : C611;
    203 : 227C;
    204 : 166D;
    205 : EE5F;
    206 : 211A;
    207 : D99B;
    208 : 14B2;
    209 : D325;
    210 : F24C;
    211 : FE57;
    212 : FB45;
    213 : 05B9;
    214 : EFFF;
    215 : 09CA;
    216 : 0BCA;
    217 : D185;
    218 : 20BC;
    219 : F51D;
    220 : 1859;
    221 : E86C;
    222 : FE7C;
    223 : 08FB;
    224 : 0CCC;
    225 : FDCE;
    226 : 133C;
    227 : E842;
    228 : EF04;
    229 : FDE8;
    230 : E3C1;
    231 : 2360;
    232 : EEF0;
    233 : 197B;
    234 : 0DAF;
    235 : 0D90;
    236 : FC58;
    237 : 0C35;
    238 : F589;
    239 : EC73;
    240 : 0000;
    241 : 0616;
    242 : 1034;
    243 : EADB;
    244 : 1DFB;
    245 : FC08;
    246 : F927;
    247 : F51E;
    248 : FE3C;
    249 : 036F;
    250 : 11C8;
    251 : 08CE;
    252 : 0000;
    253 : F0C8;
    254 : E854;
    255 : 1ED3;
    256 : F340;
    257 : 153B;
    258 : 07E8;
    259 : 0D24;
    260 : 017E;
    261 : F577;
    262 : F199;
    263 : EC3C;
    264 : 07DE;
    265 : 08C8;
    266 : F46C;
    267 : FAC6;
    268 : F02F;
    269 : 0000;
    270 : 0000;
    271 : E930;
    272 : 1A3B;
    273 : D71A;
    274 : 4262;
    275 : B9B6;
    276 : 03D3;
    277 : 19CC;
    278 : F037;
    279 : 186E;
    280 : CC25;
    281 : 2642;
    282 : EBE3;
    283 : 0835;
    284 : FA90;
    285 : 1852;
    286 : D7E2;
    287 : 1823;
    288 : 061D;
    289 : 06E5;
    290 : 17F7;
    291 : 012F;
    292 : FE68;
    293 : EDAA;
    294 : 0F3D;
    295 : F3DB;
    296 : 128A;
    297 : FA77;
    298 : F81D;
    299 : E597;
    300 : 070F;
    301 : 0374;
    302 : 03AD;
    303 : 0B4B;
    304 : FD9E;
    305 : 070F;
    306 : F1E1;
    307 : 0482;
    308 : 133F;
    309 : FFB3;
    310 : 1D61;
    311 : D7A7;
    312 : F80E;
    313 : 0296;
    314 : F225;
    315 : 08C9;
    316 : 009D;
    317 : 07F2;
    318 : F3E5;
    319 : FFEB;
    320 : 0B89;
    321 : 037E;
    322 : 00E2;
    323 : 0204;
    324 : E7EE;
    325 : 1803;
    326 : 0397;
    327 : 0728;
    328 : D76A;
    329 : 1D15;
    330 : 03EB;
    331 : 079A;
    332 : EC0B;
    333 : 12F0;
    334 : F662;
    335 : 177F;
    336 : 0417;
    337 : EBFF;
    338 : F9E5;
    339 : 0D65;
    340 : 0184;
    341 : 20B5;
    342 : 1AC9;
    343 : 0396;
    344 : 03BC;
    345 : EF52;
    346 : 03D6;
    347 : E635;
    348 : 0630;
    349 : FEFF;
    350 : E676;
    351 : 1FBD;
    352 : E068;
    353 : 2941;
    354 : EBF0;
    355 : 04E9;
    356 : FC7C;
    357 : 0A90;
    358 : 060B;
    359 : 0807;
    360 : F7C6;
    361 : F4D5;
    362 : E548;
    363 : 3333;
    364 : D77E;
    365 : 2E48;
    366 : 0F67;
    367 : DF9F;
    368 : 0CB7;
    369 : EE1E;
    370 : 3067;
    371 : CC03;
    372 : F24B;
    373 : 1F97;
    374 : F9C1;
    375 : 12BA;
    376 : D91C;
    377 : 1A6F;
    378 : FD09;
    379 : F544;
    380 : 0D43;
    381 : FB93;
    382 : 26F9;
    383 : F422;
END;
