WIDTH=16;
DEPTH=384;

ADDRESS_RADIX=DEC;
DATA_RADIX=HEX;

CONTENT BEGIN
    0 : FC04;
    1 : 0AC1;
    2 : F288;
    3 : FF32;
    4 : 028B;
    5 : 0DF1;
    6 : 0AE3;
    7 : 0474;
    8 : F583;
    9 : FE5F;
    10 : EBD3;
    11 : 17C0;
    12 : EAF8;
    13 : 1738;
    14 : F4FD;
    15 : 0C7D;
    16 : DD4A;
    17 : 1D43;
    18 : 0E6C;
    19 : F918;
    20 : 01AC;
    21 : 0047;
    22 : 0450;
    23 : F24C;
    24 : 03F6;
    25 : F43D;
    26 : 1385;
    27 : F9F0;
    28 : 1165;
    29 : FC0A;
    30 : EF7D;
    31 : 02B6;
    32 : F26E;
    33 : 0D10;
    34 : 0568;
    35 : 0A52;
    36 : 080E;
    37 : 0655;
    38 : 0E9C;
    39 : FF54;
    40 : 00DB;
    41 : 0000;
    42 : 0BE0;
    43 : 008A;
    44 : F399;
    45 : 042D;
    46 : E8AB;
    47 : 1DB1;
    48 : F60C;
    49 : 0F28;
    50 : F770;
    51 : 152D;
    52 : E7F7;
    53 : 09F4;
    54 : F77E;
    55 : 00CE;
    56 : EBC4;
    57 : 185D;
    58 : F572;
    59 : 312F;
    60 : F636;
    61 : 1148;
    62 : 01E0;
    63 : 0FAB;
    64 : F35C;
    65 : F8E0;
    66 : FC07;
    67 : 00E6;
    68 : 00C6;
    69 : 04BF;
    70 : 01B8;
    71 : F01B;
    72 : F079;
    73 : 2461;
    74 : EE7F;
    75 : 2121;
    76 : CDE9;
    77 : 1F0E;
    78 : 0C24;
    79 : F190;
    80 : FAF1;
    81 : 16CB;
    82 : EEA8;
    83 : 246B;
    84 : EBF2;
    85 : F681;
    86 : 067E;
    87 : 0D59;
    88 : F273;
    89 : 0201;
    90 : 1252;
    91 : FFB3;
    92 : 1670;
    93 : F367;
    94 : 0DAD;
    95 : E380;
    96 : 27E3;
    97 : E5AA;
    98 : 0B17;
    99 : EC91;
    100 : 196B;
    101 : E215;
    102 : 0401;
    103 : F4C3;
    104 : FAE5;
    105 : 0486;
    106 : 035A;
    107 : F5FD;
    108 : 29DC;
    109 : F00A;
    110 : 012B;
    111 : EA8C;
    112 : 1213;
    113 : F609;
    114 : 0201;
    115 : 0418;
    116 : 04DD;
    117 : 10BD;
    118 : F9BB;
    119 : 1407;
    120 : FBFC;
    121 : FC9B;
    122 : 05BE;
    123 : 13F2;
    124 : FF5F;
    125 : 1010;
    126 : F7CA;
    127 : 0400;
    128 : EDF2;
    129 : 1C8A;
    130 : E5F6;
    131 : 3354;
    132 : 0BE3;
    133 : F1FC;
    134 : 04E6;
    135 : E776;
    136 : 0BD7;
    137 : F39F;
    138 : FF03;
    139 : 02F9;
    140 : FBD3;
    141 : FE45;
    142 : F061;
    143 : 01FA;
    144 : 0F33;
    145 : F177;
    146 : F4FB;
    147 : 20C8;
    148 : F0AE;
    149 : FAEF;
    150 : 226F;
    151 : 0437;
    152 : FCF0;
    153 : F1BF;
    154 : 0548;
    155 : F983;
    156 : FDFF;
    157 : F3DF;
    158 : F18F;
    159 : 0705;
    160 : EC1B;
    161 : 0D09;
    162 : EF36;
    163 : FC8D;
    164 : 022D;
    165 : F995;
    166 : 0188;
    167 : FA13;
    168 : 0C3E;
    169 : F6F7;
    170 : 2286;
    171 : E70A;
    172 : 1EB0;
    173 : DF5C;
    174 : F416;
    175 : F1CE;
    176 : FB9C;
    177 : F1FA;
    178 : 0366;
    179 : F80F;
    180 : EC02;
    181 : 0582;
    182 : F0C3;
    183 : 20D3;
    184 : E68D;
    185 : 0BFF;
    186 : FB48;
    187 : 0E03;
    188 : F601;
    189 : 01AD;
    190 : F1F4;
    191 : 1163;
    192 : E856;
    193 : 1148;
    194 : F244;
    195 : 1B3C;
    196 : D1F5;
    197 : 13B8;
    198 : F412;
    199 : F844;
    200 : 0D7C;
    201 : 0020;
    202 : 0AF7;
    203 : 01FD;
    204 : 08E6;
    205 : EBED;
    206 : 04A8;
    207 : EB39;
    208 : 24C3;
    209 : F520;
    210 : 1BF7;
    211 : F159;
    212 : FE21;
    213 : EB90;
    214 : 0A11;
    215 : E00A;
    216 : F03E;
    217 : 13CA;
    218 : E2C6;
    219 : 2ED5;
    220 : C906;
    221 : 2B55;
    222 : F430;
    223 : FAF4;
    224 : 051A;
    225 : FC8D;
    226 : 073B;
    227 : E470;
    228 : 08F4;
    229 : 0639;
    230 : 0161;
    231 : 1420;
    232 : EA77;
    233 : 05F8;
    234 : F100;
    235 : FE16;
    236 : E147;
    237 : 22C8;
    238 : EB6E;
    239 : 314A;
    240 : F0ED;
    241 : E816;
    242 : 0814;
    243 : 16A0;
    244 : F40F;
    245 : F1EE;
    246 : 136A;
    247 : 034A;
    248 : 1731;
    249 : D6B5;
    250 : 1AF4;
    251 : D92B;
    252 : F5FC;
    253 : 18D4;
    254 : 0842;
    255 : 035C;
    256 : F48A;
    257 : 0C04;
    258 : 0C4B;
    259 : E26B;
    260 : F24C;
    261 : 0B3E;
    262 : 10C5;
    263 : EF9C;
    264 : FC01;
    265 : F2D7;
    266 : 03AD;
    267 : 05D8;
    268 : 0234;
    269 : 13FB;
    270 : F9FA;
    271 : 16A2;
    272 : EB7A;
    273 : 15DE;
    274 : DA69;
    275 : 279B;
    276 : 02B4;
    277 : F306;
    278 : 018F;
    279 : 1456;
    280 : 0638;
    281 : FAE8;
    282 : F630;
    283 : 00CC;
    284 : FB4D;
    285 : 045F;
    286 : EAC2;
    287 : 1D70;
    288 : 139F;
    289 : ECD5;
    290 : 0462;
    291 : EF58;
    292 : 1958;
    293 : 0DBC;
    294 : F3D1;
    295 : F46D;
    296 : EF83;
    297 : 226A;
    298 : F555;
    299 : 081F;
    300 : 040B;
    301 : 01E0;
    302 : E9F6;
    303 : 26D9;
    304 : D68F;
    305 : 1F54;
    306 : FC0E;
    307 : 048B;
    308 : FDDA;
    309 : FFFD;
    310 : F7FE;
    311 : EC48;
    312 : FA1C;
    313 : 0AEC;
    314 : 03E5;
    315 : FDB6;
    316 : 0333;
    317 : F049;
    318 : FBFD;
    319 : F984;
    320 : 046A;
    321 : 1936;
    322 : F0D3;
    323 : 0403;
    324 : 0A66;
    325 : F1E3;
    326 : F450;
    327 : 1401;
    328 : 0A70;
    329 : F7AF;
    330 : 0F4E;
    331 : EBD3;
    332 : 1260;
    333 : E662;
    334 : 2210;
    335 : D688;
    336 : FD85;
    337 : 0865;
    338 : FB0D;
    339 : 1D10;
    340 : DE6F;
    341 : 16CF;
    342 : 0BE0;
    343 : F420;
    344 : FED6;
    345 : F0C2;
    346 : 2A47;
    347 : DE5B;
    348 : F75E;
    349 : 12E1;
    350 : F48C;
    351 : 0D47;
    352 : E780;
    353 : 1BD1;
    354 : 1EDC;
    355 : FAB4;
    356 : FC1C;
    357 : F48C;
    358 : F5F1;
    359 : 06F8;
    360 : EBEF;
    361 : 12B5;
    362 : 0659;
    363 : E741;
    364 : 003E;
    365 : E3E8;
    366 : FF06;
    367 : 1959;
    368 : EE64;
    369 : 23E8;
    370 : CEFC;
    371 : 1B5C;
    372 : 0000;
    373 : E607;
    374 : 02EB;
    375 : EF06;
    376 : 1B56;
    377 : D89E;
    378 : FA09;
    379 : 1BE0;
    380 : F9B2;
    381 : 19B2;
    382 : E659;
    383 : 21CD;
END;
