WIDTH=16;
DEPTH=384;

ADDRESS_RADIX=DEC;
DATA_RADIX=HEX;

CONTENT BEGIN
    0 : 1C3C;
    1 : FDED;
    2 : 0A48;
    3 : FB0F;
    4 : F0C4;
    5 : 0811;
    6 : FA16;
    7 : 192B;
    8 : F6E1;
    9 : FEC8;
    10 : F391;
    11 : 0000;
    12 : FE75;
    13 : F33C;
    14 : F015;
    15 : 11DC;
    16 : E707;
    17 : 1BCB;
    18 : 0F01;
    19 : FBE6;
    20 : 01E7;
    21 : EA33;
    22 : 01F0;
    23 : F87F;
    24 : 04A5;
    25 : FEA0;
    26 : FE27;
    27 : EF82;
    28 : F2EE;
    29 : 080B;
    30 : 0400;
    31 : F293;
    32 : 0D55;
    33 : E01E;
    34 : 1E8D;
    35 : BFF9;
    36 : 18D7;
    37 : 0A41;
    38 : F1CC;
    39 : F976;
    40 : F47C;
    41 : 0BAD;
    42 : EEA2;
    43 : 1648;
    44 : FC5B;
    45 : 06E2;
    46 : E22E;
    47 : 134C;
    48 : F3ED;
    49 : 0E17;
    50 : 1196;
    51 : F7F9;
    52 : 0EA2;
    53 : D7C1;
    54 : 0806;
    55 : 0415;
    56 : 0D69;
    57 : FBEA;
    58 : 0F5D;
    59 : EFF4;
    60 : F832;
    61 : F3C9;
    62 : 1682;
    63 : F63C;
    64 : 1C64;
    65 : F44C;
    66 : F66C;
    67 : 05CF;
    68 : FA51;
    69 : 1904;
    70 : 039E;
    71 : 07D0;
    72 : E70F;
    73 : 02D5;
    74 : FFA4;
    75 : FF9A;
    76 : 097C;
    77 : F668;
    78 : F372;
    79 : 006D;
    80 : F79A;
    81 : 175C;
    82 : F550;
    83 : 1215;
    84 : FBEF;
    85 : FC57;
    86 : EF56;
    87 : 1E6F;
    88 : FB7F;
    89 : 0411;
    90 : ECDE;
    91 : 2C6C;
    92 : ED71;
    93 : 186F;
    94 : D8D8;
    95 : 25C6;
    96 : 03FF;
    97 : F608;
    98 : 0575;
    99 : E801;
    100 : 06DB;
    101 : DC06;
    102 : F082;
    103 : FA8F;
    104 : 07DA;
    105 : 0881;
    106 : 05B2;
    107 : FE80;
    108 : FDFF;
    109 : FFAC;
    110 : 07C8;
    111 : FBA9;
    112 : F7F3;
    113 : EDF4;
    114 : F433;
    115 : 1DCE;
    116 : EBB8;
    117 : 1D7F;
    118 : D58D;
    119 : 1D80;
    120 : F7F9;
    121 : 07CF;
    122 : 0E4E;
    123 : 0306;
    124 : EED4;
    125 : 0C0A;
    126 : 0200;
    127 : FF45;
    128 : 0ADF;
    129 : 008C;
    130 : 0744;
    131 : FC00;
    132 : 18C6;
    133 : F6E1;
    134 : FCD1;
    135 : FBC3;
    136 : 1D60;
    137 : ED2C;
    138 : 0605;
    139 : FA8E;
    140 : 0659;
    141 : ED52;
    142 : FD04;
    143 : E5EB;
    144 : E9FD;
    145 : 0249;
    146 : 0DA9;
    147 : 0BB8;
    148 : 0F71;
    149 : EDFD;
    150 : 05F3;
    151 : 0C7E;
    152 : F391;
    153 : 17D0;
    154 : DD92;
    155 : 29A8;
    156 : 0000;
    157 : FA31;
    158 : FA4F;
    159 : 1509;
    160 : 0E75;
    161 : F1D4;
    162 : 11D5;
    163 : EBDB;
    164 : FAF4;
    165 : F0BC;
    166 : 1626;
    167 : 07ED;
    168 : F3EA;
    169 : 03EC;
    170 : E428;
    171 : 2556;
    172 : DAAC;
    173 : 182C;
    174 : 0F71;
    175 : FB97;
    176 : E7B6;
    177 : 1AA8;
    178 : ED09;
    179 : 253E;
    180 : 042C;
    181 : 02C2;
    182 : 2418;
    183 : C812;
    184 : 2835;
    185 : E2CF;
    186 : 2FB2;
    187 : E8EB;
    188 : 1485;
    189 : D916;
    190 : 3466;
    191 : DC3B;
    192 : EBF3;
    193 : FDFE;
    194 : 0340;
    195 : 0DFC;
    196 : FA42;
    197 : 2015;
    198 : F812;
    199 : 1A76;
    200 : FDB0;
    201 : 0B84;
    202 : E74D;
    203 : 23AF;
    204 : 13F9;
    205 : FB5A;
    206 : 056A;
    207 : EE11;
    208 : 0042;
    209 : 0BFC;
    210 : 0BEC;
    211 : 08B1;
    212 : F99B;
    213 : 179E;
    214 : E8F5;
    215 : FA0A;
    216 : 13BF;
    217 : EBEF;
    218 : 00D1;
    219 : F62D;
    220 : 2449;
    221 : D688;
    222 : 1E3A;
    223 : F07D;
    224 : 04A9;
    225 : F33B;
    226 : 18EF;
    227 : E8F6;
    228 : 05EF;
    229 : F7E3;
    230 : 0492;
    231 : FECA;
    232 : 0422;
    233 : 03F4;
    234 : E8E5;
    235 : 0B8E;
    236 : FFBD;
    237 : 0117;
    238 : F434;
    239 : 13C5;
    240 : DB11;
    241 : 02DC;
    242 : E3D7;
    243 : 2FF0;
    244 : D6E1;
    245 : 313E;
    246 : EBEF;
    247 : 0ACE;
    248 : EC6B;
    249 : 1D0F;
    250 : DC34;
    251 : 100E;
    252 : 07F4;
    253 : F9FE;
    254 : 0482;
    255 : E519;
    256 : 1718;
    257 : 07F4;
    258 : FC04;
    259 : 09F8;
    260 : EF38;
    261 : F260;
    262 : FDCC;
    263 : 07F7;
    264 : 0FF7;
    265 : 0B9B;
    266 : 018E;
    267 : F004;
    268 : 0E30;
    269 : FC02;
    270 : E80A;
    271 : 1933;
    272 : FB05;
    273 : 1462;
    274 : EBEC;
    275 : FA02;
    276 : F62E;
    277 : 0DFB;
    278 : F20F;
    279 : 1550;
    280 : D716;
    281 : 1792;
    282 : 0947;
    283 : FAF3;
    284 : 1DDE;
    285 : CDE1;
    286 : 2D6C;
    287 : B6CE;
    288 : 07E1;
    289 : 04C2;
    290 : FE06;
    291 : 074E;
    292 : DC72;
    293 : 1F86;
    294 : 15E1;
    295 : F922;
    296 : 04D7;
    297 : EEB3;
    298 : 1F29;
    299 : D63A;
    300 : 0207;
    301 : EFD1;
    302 : F91B;
    303 : 0C73;
    304 : 037B;
    305 : F3D4;
    306 : FDFE;
    307 : 0D82;
    308 : 04A6;
    309 : EF0D;
    310 : 040C;
    311 : E9EE;
    312 : EFFB;
    313 : 00AC;
    314 : F8BC;
    315 : 20B7;
    316 : CD0B;
    317 : 4414;
    318 : F41B;
    319 : F3EB;
    320 : 07C1;
    321 : DDD6;
    322 : 2A6D;
    323 : D85B;
    324 : FBF5;
    325 : F4B8;
    326 : F5D3;
    327 : 13DA;
    328 : E613;
    329 : 1435;
    330 : 0FF9;
    331 : FD63;
    332 : 0924;
    333 : E84B;
    334 : 1957;
    335 : D413;
    336 : 0200;
    337 : F6D8;
    338 : FCB4;
    339 : 18BA;
    340 : F767;
    341 : 0401;
    342 : 0FFC;
    343 : 0017;
    344 : 03A1;
    345 : EBDF;
    346 : 126D;
    347 : DE08;
    348 : F5E0;
    349 : F508;
    350 : F257;
    351 : 20AC;
    352 : EC0C;
    353 : 0E2D;
    354 : 136F;
    355 : DF88;
    356 : 2347;
    357 : DE28;
    358 : 2481;
    359 : CF6C;
    360 : 11E1;
    361 : ED94;
    362 : 1074;
    363 : DD28;
    364 : 17EA;
    365 : EC22;
    366 : 07BB;
    367 : F0EC;
    368 : 0F41;
    369 : EE31;
    370 : 2D05;
    371 : E113;
    372 : FF09;
    373 : FFC5;
    374 : FD27;
    375 : 024C;
    376 : E78C;
    377 : 153D;
    378 : 07E9;
    379 : FB45;
    380 : 047E;
    381 : F514;
    382 : 070A;
    383 : 0BDE;
END;
