WIDTH=16;
DEPTH=384;

ADDRESS_RADIX=DEC;
DATA_RADIX=HEX;

CONTENT BEGIN
    0 : 2020;
    1 : F55B;
    2 : 1402;
    3 : E01C;
    4 : 2D22;
    5 : D7D8;
    6 : 1944;
    7 : EBCF;
    8 : 1BEE;
    9 : D542;
    10 : 28DE;
    11 : C666;
    12 : 0800;
    13 : FF45;
    14 : FC3F;
    15 : 0FDE;
    16 : F38E;
    17 : 0CFF;
    18 : 0C06;
    19 : 0487;
    20 : 0E41;
    21 : 13DE;
    22 : F230;
    23 : 0804;
    24 : 19CC;
    25 : F053;
    26 : 14DF;
    27 : E35D;
    28 : 2882;
    29 : DE44;
    30 : EDF3;
    31 : 04C3;
    32 : 08F4;
    33 : FB30;
    34 : F741;
    35 : 140F;
    36 : 077A;
    37 : 0F73;
    38 : 006C;
    39 : F485;
    40 : 0CF0;
    41 : EAD2;
    42 : F627;
    43 : 1683;
    44 : E2F0;
    45 : 32F9;
    46 : BA6E;
    47 : 3723;
    48 : 11D1;
    49 : 0333;
    50 : F21D;
    51 : 0255;
    52 : EB7A;
    53 : 1AB9;
    54 : F40A;
    55 : F7FA;
    56 : 0C7C;
    57 : FDB5;
    58 : 03D7;
    59 : 03FD;
    60 : D9F9;
    61 : 0FE2;
    62 : F755;
    63 : 18DC;
    64 : E394;
    65 : 1A04;
    66 : 1932;
    67 : EC04;
    68 : FF0F;
    69 : 1655;
    70 : FD28;
    71 : 060C;
    72 : 1202;
    73 : FCC6;
    74 : 03A5;
    75 : 0A9E;
    76 : F0D1;
    77 : 1002;
    78 : EC08;
    79 : F7F7;
    80 : 09E4;
    81 : 0435;
    82 : 0406;
    83 : 09FC;
    84 : 0DD2;
    85 : EFB4;
    86 : 03D2;
    87 : E8D3;
    88 : 253F;
    89 : E068;
    90 : 0705;
    91 : 0023;
    92 : 10DA;
    93 : EC68;
    94 : 13BB;
    95 : EDF2;
    96 : F609;
    97 : 1636;
    98 : F5B6;
    99 : 1E56;
    100 : CFCE;
    101 : 37D0;
    102 : 0C0C;
    103 : F7B3;
    104 : F7CD;
    105 : 0A55;
    106 : F478;
    107 : 1818;
    108 : 0401;
    109 : 0B52;
    110 : 0659;
    111 : 03DD;
    112 : EA61;
    113 : 1805;
    114 : E817;
    115 : 1D1A;
    116 : F3D6;
    117 : 2336;
    118 : D554;
    119 : 25DB;
    120 : F7FC;
    121 : 02AC;
    122 : 0772;
    123 : 0CB2;
    124 : F15D;
    125 : 1008;
    126 : FBEE;
    127 : FA34;
    128 : 0E25;
    129 : E81F;
    130 : 1DCC;
    131 : E639;
    132 : 0CD6;
    133 : EEED;
    134 : 0B1F;
    135 : E25F;
    136 : 2B7C;
    137 : DD71;
    138 : 15BE;
    139 : F64B;
    140 : 0E84;
    141 : EF7E;
    142 : 0D93;
    143 : DA13;
    144 : 060C;
    145 : EFB0;
    146 : FF55;
    147 : 19FD;
    148 : F805;
    149 : 050A;
    150 : 0505;
    151 : F8DB;
    152 : 103E;
    153 : E37D;
    154 : 17CF;
    155 : DEE1;
    156 : 0BFB;
    157 : F313;
    158 : F141;
    159 : FEF1;
    160 : 0219;
    161 : 0000;
    162 : F32D;
    163 : 0D4F;
    164 : E852;
    165 : 253A;
    166 : D6E8;
    167 : 4126;
    168 : 0813;
    169 : FBCC;
    170 : F06D;
    171 : 1FDB;
    172 : F1A3;
    173 : 0D1F;
    174 : 0BEA;
    175 : F1CC;
    176 : FBE3;
    177 : FE35;
    178 : 0FFF;
    179 : EC24;
    180 : F5E5;
    181 : 07EB;
    182 : 0EA4;
    183 : E732;
    184 : 1E10;
    185 : CD7B;
    186 : 0BFC;
    187 : 0286;
    188 : 092F;
    189 : FCE8;
    190 : 08C5;
    191 : 0BFC;
    192 : 07F1;
    193 : FC5C;
    194 : 04CB;
    195 : ED78;
    196 : 1312;
    197 : 07F1;
    198 : 0000;
    199 : 0291;
    200 : F4F7;
    201 : F15A;
    202 : 0784;
    203 : 0000;
    204 : 0000;
    205 : F7DF;
    206 : 0C6F;
    207 : EDD5;
    208 : 2294;
    209 : 07E4;
    210 : E1DC;
    211 : 1161;
    212 : 0F94;
    213 : 06A2;
    214 : F240;
    215 : F1EF;
    216 : 15E3;
    217 : F97A;
    218 : F474;
    219 : F9A7;
    220 : 03F3;
    221 : 03FB;
    222 : 0BEB;
    223 : F5EB;
    224 : 130B;
    225 : ED24;
    226 : 2534;
    227 : E431;
    228 : F826;
    229 : 0E13;
    230 : F002;
    231 : 0C48;
    232 : E227;
    233 : 2063;
    234 : 03F5;
    235 : E5AC;
    236 : 0845;
    237 : E62F;
    238 : 29BB;
    239 : D870;
    240 : F08A;
    241 : EB86;
    242 : 0369;
    243 : 00A8;
    244 : 0BD1;
    245 : E6E0;
    246 : 2A2B;
    247 : F062;
    248 : 15C9;
    249 : DE47;
    250 : 1CEA;
    251 : DBDB;
    252 : F21A;
    253 : 16DE;
    254 : F7B7;
    255 : 125C;
    256 : EA5E;
    257 : 1FC4;
    258 : EA20;
    259 : FBD5;
    260 : F894;
    261 : FFAE;
    262 : FA31;
    263 : 0DEB;
    264 : 0E00;
    265 : EB27;
    266 : 0CB4;
    267 : 0162;
    268 : 09D6;
    269 : 0200;
    270 : 07FC;
    271 : 0251;
    272 : 05C7;
    273 : E47E;
    274 : 0924;
    275 : FC02;
    276 : 13A5;
    277 : E773;
    278 : 0AB7;
    279 : F765;
    280 : 0936;
    281 : F824;
    282 : FC18;
    283 : 058F;
    284 : FEB7;
    285 : 075E;
    286 : EF9C;
    287 : F82F;
    288 : EC30;
    289 : FC91;
    290 : FCCC;
    291 : 0162;
    292 : F741;
    293 : 0000;
    294 : 11E8;
    295 : EC50;
    296 : 1ACE;
    297 : E74C;
    298 : 2BF3;
    299 : DC31;
    300 : F212;
    301 : F5CB;
    302 : F9DC;
    303 : 0085;
    304 : F74B;
    305 : 07F6;
    306 : FE06;
    307 : 12C7;
    308 : F864;
    309 : 0FE5;
    310 : E606;
    311 : 1F9B;
    312 : F9FB;
    313 : 04F5;
    314 : 0D06;
    315 : 05B5;
    316 : FDD3;
    317 : F4F7;
    318 : F3F8;
    319 : 00E4;
    320 : FBF1;
    321 : 0619;
    322 : 1709;
    323 : E7F0;
    324 : F408;
    325 : F80B;
    326 : EFF0;
    327 : FE96;
    328 : 0E0A;
    329 : 07FB;
    330 : 0986;
    331 : FD66;
    332 : 141A;
    333 : E0EF;
    334 : 2152;
    335 : D5E6;
    336 : F9F8;
    337 : 01AE;
    338 : 0FCC;
    339 : FF45;
    340 : 07FC;
    341 : E2DA;
    342 : 09F5;
    343 : F828;
    344 : F0DD;
    345 : 0952;
    346 : F0FE;
    347 : 0FEE;
    348 : 0D16;
    349 : F198;
    350 : 076C;
    351 : F0AD;
    352 : 1EAC;
    353 : E4FF;
    354 : FCFE;
    355 : F9FF;
    356 : 0B25;
    357 : 0904;
    358 : EEE0;
    359 : F9FC;
    360 : EFFC;
    361 : 1110;
    362 : 0190;
    363 : 1499;
    364 : D97C;
    365 : 2A0A;
    366 : 0000;
    367 : FF62;
    368 : F9A3;
    369 : 0C75;
    370 : DFF2;
    371 : 1FAC;
    372 : 0804;
    373 : F7E6;
    374 : FBBE;
    375 : 0D73;
    376 : FA6B;
    377 : F8FC;
    378 : EE24;
    379 : 1619;
    380 : F598;
    381 : 009F;
    382 : EFB1;
    383 : 09EC;
END;
