WIDTH=16;
DEPTH=384;

ADDRESS_RADIX=DEC;
DATA_RADIX=HEX;

CONTENT BEGIN
    0 : EFD2;
    1 : 0A0C;
    2 : F4C8;
    3 : F50D;
    4 : 011E;
    5 : F7E9;
    6 : 0A1D;
    7 : F56A;
    8 : FA29;
    9 : F4C8;
    10 : F891;
    11 : F7E9;
    12 : 0DF9;
    13 : FBA6;
    14 : 127D;
    15 : D46A;
    16 : 37A4;
    17 : C590;
    18 : FC4B;
    19 : FCA1;
    20 : FA8A;
    21 : 1223;
    22 : ED54;
    23 : 0A81;
    24 : 0C1E;
    25 : F0A0;
    26 : 2149;
    27 : C890;
    28 : 3700;
    29 : CB7F;
    30 : F3D9;
    31 : 07E6;
    32 : EC9C;
    33 : 0343;
    34 : 00F7;
    35 : 0206;
    36 : 06E9;
    37 : 0AFC;
    38 : EE39;
    39 : 20B0;
    40 : DAC6;
    41 : 1674;
    42 : F423;
    43 : F4F1;
    44 : 00E8;
    45 : 0D02;
    46 : F4DD;
    47 : EC3B;
    48 : 1C51;
    49 : EF91;
    50 : F8E4;
    51 : E8D7;
    52 : 0CEF;
    53 : 0C23;
    54 : 07E9;
    55 : F0FC;
    56 : 0891;
    57 : 1536;
    58 : F896;
    59 : 0BDE;
    60 : 0818;
    61 : 03B3;
    62 : F959;
    63 : F084;
    64 : 14B1;
    65 : D37B;
    66 : 0611;
    67 : 0745;
    68 : F2FE;
    69 : F6D3;
    70 : 0470;
    71 : FDFA;
    72 : 0FB3;
    73 : 0506;
    74 : EDD8;
    75 : 1055;
    76 : DD75;
    77 : 2740;
    78 : F816;
    79 : F288;
    80 : F8F8;
    81 : 18E8;
    82 : E8F3;
    83 : F816;
    84 : EBC4;
    85 : 072F;
    86 : EAB8;
    87 : 0430;
    88 : E751;
    89 : 1B51;
    90 : 2062;
    91 : F941;
    92 : 1151;
    93 : D477;
    94 : 3026;
    95 : D580;
    96 : 0FCF;
    97 : FA04;
    98 : FD1C;
    99 : 0ED0;
    100 : EF7F;
    101 : 03F4;
    102 : F564;
    103 : 0439;
    104 : F8E5;
    105 : FA92;
    106 : F790;
    107 : 0F29;
    108 : 1844;
    109 : F562;
    110 : F8D1;
    111 : F100;
    112 : FFCD;
    113 : 1844;
    114 : FC0C;
    115 : 04B1;
    116 : F417;
    117 : 19D0;
    118 : E520;
    119 : 18B8;
    120 : F4E4;
    121 : FAA9;
    122 : 0D2F;
    123 : E934;
    124 : 174F;
    125 : E980;
    126 : 1A42;
    127 : F2A4;
    128 : 09F9;
    129 : DDD7;
    130 : 2776;
    131 : E2B6;
    132 : 0C28;
    133 : F6E5;
    134 : 115A;
    135 : E08A;
    136 : 261B;
    137 : DD90;
    138 : FD0C;
    139 : 0FD8;
    140 : DCD9;
    141 : 22CC;
    142 : C78C;
    143 : 3529;
    144 : EFD2;
    145 : FC8C;
    146 : FCF6;
    147 : E0BF;
    148 : 0C4E;
    149 : E3B0;
    150 : F1D6;
    151 : 0A3D;
    152 : FD23;
    153 : E49C;
    154 : 08E5;
    155 : F9EE;
    156 : F818;
    157 : F093;
    158 : F917;
    159 : 0505;
    160 : F41F;
    161 : F030;
    162 : EFD2;
    163 : 10AB;
    164 : E4C1;
    165 : F4EA;
    166 : F2CD;
    167 : 040C;
    168 : 184C;
    169 : F87C;
    170 : 073F;
    171 : DE7F;
    172 : 1EC3;
    173 : EBC1;
    174 : F5DF;
    175 : F8E7;
    176 : 007C;
    177 : 05B8;
    178 : F0B4;
    179 : 06CB;
    180 : 277F;
    181 : DA96;
    182 : 1411;
    183 : D4C0;
    184 : 2D26;
    185 : C033;
    186 : 03F4;
    187 : F516;
    188 : 02F3;
    189 : FF18;
    190 : 09EC;
    191 : E74D;
    192 : 0EFE;
    193 : EC4F;
    194 : 10F4;
    195 : E22E;
    196 : 180E;
    197 : E01D;
    198 : E824;
    199 : 1621;
    200 : ECF6;
    201 : 0D27;
    202 : F0E7;
    203 : 0FE8;
    204 : 122D;
    205 : F639;
    206 : FCD1;
    207 : F724;
    208 : 0699;
    209 : 0205;
    210 : F7E9;
    211 : 167A;
    212 : E8ED;
    213 : F8D2;
    214 : F0F1;
    215 : 0C22;
    216 : F137;
    217 : 15B4;
    218 : ECAD;
    219 : 1F49;
    220 : D82C;
    221 : 382E;
    222 : EFC1;
    223 : 03F0;
    224 : 0385;
    225 : F06D;
    226 : FE2A;
    227 : 0A27;
    228 : F899;
    229 : 0DF1;
    230 : EF90;
    231 : 123C;
    232 : E32E;
    233 : 1FD6;
    234 : 0000;
    235 : FCDB;
    236 : FCC4;
    237 : F941;
    238 : 14E5;
    239 : DBB5;
    240 : EDD2;
    241 : 0661;
    242 : E4B5;
    243 : 155E;
    244 : E468;
    245 : 1E4C;
    246 : 0412;
    247 : FBB6;
    248 : 15A9;
    249 : D811;
    250 : 2AC3;
    251 : D134;
    252 : 0C25;
    253 : F7F0;
    254 : 0332;
    255 : EAA9;
    256 : 0236;
    257 : 0613;
    258 : EC16;
    259 : 06C8;
    260 : F389;
    261 : 0810;
    262 : F8FC;
    263 : 1925;
    264 : F3E2;
    265 : 039F;
    266 : 085E;
    267 : D962;
    268 : 17A7;
    269 : F5E7;
    270 : 1BD3;
    271 : 0127;
    272 : F65D;
    273 : EA9C;
    274 : 00E0;
    275 : FEFD;
    276 : 07E0;
    277 : 097C;
    278 : E179;
    279 : 18AE;
    280 : E290;
    281 : 0FBF;
    282 : 0FD3;
    283 : FC0E;
    284 : F107;
    285 : 091F;
    286 : EDFF;
    287 : 03F5;
    288 : 162D;
    289 : E53A;
    290 : 0EBB;
    291 : E532;
    292 : 23A1;
    293 : E3C7;
    294 : 102E;
    295 : F024;
    296 : F6B7;
    297 : F52A;
    298 : 0403;
    299 : 1233;
    300 : 07E9;
    301 : F807;
    302 : 090F;
    303 : FCEE;
    304 : FD58;
    305 : 03F4;
    306 : F5E3;
    307 : 0024;
    308 : 1746;
    309 : E4C6;
    310 : 19A7;
    311 : E3AF;
    312 : D098;
    313 : 16CE;
    314 : F149;
    315 : 18A9;
    316 : DCC3;
    317 : 0FCD;
    318 : E851;
    319 : 11D8;
    320 : E56C;
    321 : 14BA;
    322 : E0C2;
    323 : 19A8;
    324 : 1A49;
    325 : ECAB;
    326 : F6A6;
    327 : F348;
    328 : 13DB;
    329 : E5B7;
    330 : EF37;
    331 : FABF;
    332 : 0DA7;
    333 : FC52;
    334 : 0B2A;
    335 : F524;
    336 : 13AF;
    337 : FF4C;
    338 : FD26;
    339 : FD00;
    340 : 04B8;
    341 : 0BCF;
    342 : FCFA;
    343 : 07D6;
    344 : F84E;
    345 : FEEF;
    346 : 03BE;
    347 : 0A94;
    348 : EB41;
    349 : 068C;
    350 : 04B0;
    351 : 0E32;
    352 : F63F;
    353 : FE06;
    354 : 0D59;
    355 : F718;
    356 : F982;
    357 : 146B;
    358 : F197;
    359 : FD09;
    360 : 0ACE;
    361 : F8BE;
    362 : FE45;
    363 : FBEC;
    364 : ED4B;
    365 : 02F2;
    366 : 07EB;
    367 : FD0F;
    368 : 053B;
    369 : F8DD;
    370 : F9AC;
    371 : 0BE1;
    372 : 0BD0;
    373 : F625;
    374 : 08C4;
    375 : F16A;
    376 : 1AF5;
    377 : EC51;
    378 : 040C;
    379 : EC4C;
    380 : 092A;
    381 : E4B3;
    382 : 1AAA;
    383 : CF74;
END;
