WIDTH=16;
DEPTH=384;

ADDRESS_RADIX=DEC;
DATA_RADIX=HEX;

CONTENT BEGIN
    0 : 0FDF;
    1 : FD9E;
    2 : 0CEB;
    3 : 11CE;
    4 : FDCB;
    5 : 01FC;
    6 : F82D;
    7 : 18F9;
    8 : F4DA;
    9 : 01A9;
    10 : ECC3;
    11 : 1E51;
    12 : F5F5;
    13 : 201D;
    14 : ECB5;
    15 : FE1E;
    16 : 0824;
    17 : 1011;
    18 : E92D;
    19 : 1FDD;
    20 : EE8A;
    21 : 1054;
    22 : E1B8;
    23 : 0B69;
    24 : 0000;
    25 : F25D;
    26 : F039;
    27 : FAB6;
    28 : FBA0;
    29 : FC02;
    30 : ED4E;
    31 : 0CEB;
    32 : E632;
    33 : 2BB1;
    34 : D917;
    35 : 3389;
    36 : 0DA3;
    37 : 0917;
    38 : FFF7;
    39 : 02CF;
    40 : F4C1;
    41 : EC85;
    42 : F79A;
    43 : 0942;
    44 : 01DB;
    45 : 0E18;
    46 : ECB3;
    47 : 02F7;
    48 : E667;
    49 : 1E62;
    50 : F18F;
    51 : 1B1E;
    52 : CFBC;
    53 : 2371;
    54 : E7AD;
    55 : 0B2B;
    56 : E6F0;
    57 : 2832;
    58 : D907;
    59 : 288A;
    60 : E5F2;
    61 : 107C;
    62 : F720;
    63 : FDE7;
    64 : F60A;
    65 : 0C06;
    66 : E03D;
    67 : 11CA;
    68 : FDB7;
    69 : FB7B;
    70 : 0AC9;
    71 : 0BE9;
    72 : 184E;
    73 : F975;
    74 : 15FE;
    75 : E0F9;
    76 : 2C53;
    77 : D370;
    78 : 2727;
    79 : D66C;
    80 : 1485;
    81 : DA46;
    82 : 3F74;
    83 : DCC4;
    84 : FBBF;
    85 : F242;
    86 : F401;
    87 : 0F2E;
    88 : 02D1;
    89 : FBBF;
    90 : FC14;
    91 : 1BE1;
    92 : FA03;
    93 : 1455;
    94 : DED0;
    95 : 197C;
    96 : 07E5;
    97 : 1354;
    98 : F0F8;
    99 : 1D6B;
    100 : DE67;
    101 : 2F5D;
    102 : F9EA;
    103 : 04C2;
    104 : FB53;
    105 : 0F2A;
    106 : 1B94;
    107 : 0616;
    108 : 1A3A;
    109 : 0713;
    110 : FF62;
    111 : E34C;
    112 : 13D2;
    113 : EBD4;
    114 : EE32;
    115 : 1907;
    116 : FB64;
    117 : 1419;
    118 : E991;
    119 : 134A;
    120 : F284;
    121 : 1231;
    122 : F24F;
    123 : 0F96;
    124 : DE20;
    125 : 296B;
    126 : 040B;
    127 : EB05;
    128 : F638;
    129 : 1048;
    130 : F403;
    131 : 040B;
    132 : 1162;
    133 : ECC8;
    134 : F765;
    135 : FF9B;
    136 : 146C;
    137 : FF7F;
    138 : 102F;
    139 : 0800;
    140 : 02CA;
    141 : F494;
    142 : 0153;
    143 : E3AE;
    144 : F9F7;
    145 : FC22;
    146 : F655;
    147 : FC2D;
    148 : 1642;
    149 : F9F7;
    150 : 0414;
    151 : 0A98;
    152 : 0503;
    153 : F5D8;
    154 : EC2B;
    155 : 1051;
    156 : 07F2;
    157 : F2FD;
    158 : 0639;
    159 : 0CD2;
    160 : 08B5;
    161 : 0000;
    162 : 1C1A;
    163 : EBF4;
    164 : 0098;
    165 : 0A9D;
    166 : 1214;
    167 : 0404;
    168 : 0201;
    169 : FD2E;
    170 : 0093;
    171 : EEF8;
    172 : 0886;
    173 : F3FC;
    174 : 003F;
    175 : EF62;
    176 : FC43;
    177 : 0321;
    178 : 0021;
    179 : 0A6B;
    180 : 157D;
    181 : 09AE;
    182 : F9CC;
    183 : 0351;
    184 : F807;
    185 : 157D;
    186 : 1201;
    187 : E765;
    188 : 0C12;
    189 : E7BF;
    190 : 1E4B;
    191 : E7FF;
    192 : EEAB;
    193 : 0955;
    194 : FA3A;
    195 : 12D3;
    196 : F499;
    197 : 1306;
    198 : 03F8;
    199 : 0D60;
    200 : F0A6;
    201 : 0827;
    202 : F66F;
    203 : 29A7;
    204 : 0000;
    205 : 0DEF;
    206 : ECA6;
    207 : 19BB;
    208 : E619;
    209 : 0FC4;
    210 : 0E3A;
    211 : 0D8A;
    212 : 1192;
    213 : E720;
    214 : 24C8;
    215 : E594;
    216 : F1FB;
    217 : 0FF9;
    218 : F233;
    219 : 14B6;
    220 : F7CC;
    221 : 0602;
    222 : FCFE;
    223 : FE79;
    224 : F71E;
    225 : 0F7C;
    226 : F68B;
    227 : 110C;
    228 : 0605;
    229 : 0453;
    230 : FFCF;
    231 : E4AC;
    232 : FF7F;
    233 : F7F9;
    234 : 0BFD;
    235 : FDEB;
    236 : EC57;
    237 : 0882;
    238 : E6EA;
    239 : 13FC;
    240 : EFEA;
    241 : FCA4;
    242 : EFBE;
    243 : F342;
    244 : 173A;
    245 : FBFB;
    246 : 0FF3;
    247 : 0551;
    248 : FF6E;
    249 : FAF7;
    250 : E93C;
    251 : 17EC;
    252 : EDFC;
    253 : 0789;
    254 : 0152;
    255 : F32F;
    256 : FDAF;
    257 : EFFC;
    258 : 07DE;
    259 : E71F;
    260 : 14D4;
    261 : E00D;
    262 : 2DB3;
    263 : E087;
    264 : F1A2;
    265 : 054B;
    266 : 0976;
    267 : F919;
    268 : FFEC;
    269 : F992;
    270 : 0816;
    271 : 12F5;
    272 : 0921;
    273 : F1AE;
    274 : 0CB7;
    275 : F3DF;
    276 : 0000;
    277 : F756;
    278 : 0416;
    279 : 04A1;
    280 : F6B0;
    281 : 07EC;
    282 : F05E;
    283 : 2214;
    284 : F2D2;
    285 : 1838;
    286 : EC96;
    287 : 0BB9;
    288 : 09F1;
    289 : 031E;
    290 : FA5C;
    291 : 225B;
    292 : E90F;
    293 : 1DD2;
    294 : 0FA5;
    295 : EAA3;
    296 : 1145;
    297 : EB44;
    298 : 27F5;
    299 : DEC1;
    300 : FBF8;
    301 : 03B1;
    302 : F309;
    303 : FE1E;
    304 : 116D;
    305 : FDFC;
    306 : 0811;
    307 : 0B79;
    308 : F913;
    309 : EC3C;
    310 : F41D;
    311 : 060D;
    312 : 07EB;
    313 : F948;
    314 : 034B;
    315 : 087A;
    316 : F60B;
    317 : F322;
    318 : 1420;
    319 : FBB2;
    320 : F1AD;
    321 : F8E7;
    322 : 1873;
    323 : E7DA;
    324 : 102A;
    325 : E4CC;
    326 : FCBA;
    327 : 1051;
    328 : 0E35;
    329 : EFD6;
    330 : F41D;
    331 : 1A75;
    332 : E89B;
    333 : 25D0;
    334 : BFD8;
    335 : 4B4B;
    336 : FC13;
    337 : FF92;
    338 : F76D;
    339 : 1114;
    340 : E4D7;
    341 : 0000;
    342 : 09FA;
    343 : FC32;
    344 : F5B5;
    345 : 1AF4;
    346 : E591;
    347 : 23EC;
    348 : 0000;
    349 : 058C;
    350 : F27C;
    351 : 1C8C;
    352 : F1F8;
    353 : FC00;
    354 : F741;
    355 : 06FD;
    356 : 00B4;
    357 : E71A;
    358 : 01F7;
    359 : FD40;
    360 : 07F5;
    361 : 0BF9;
    362 : FF49;
    363 : 0F26;
    364 : EB0B;
    365 : 0FEA;
    366 : F414;
    367 : 050E;
    368 : FF0F;
    369 : 07AF;
    370 : FBFE;
    371 : EC21;
    372 : E823;
    373 : F71F;
    374 : 0890;
    375 : 0414;
    376 : 0B08;
    377 : EC1D;
    378 : 09E4;
    379 : F768;
    380 : FDB9;
    381 : 0BF7;
    382 : F1C2;
    383 : F324;
END;
