WIDTH=16;
DEPTH=384;

ADDRESS_RADIX=DEC;
DATA_RADIX=HEX;

CONTENT BEGIN
    0 : 0BEB;
    1 : F8E3;
    2 : F934;
    3 : EDD6;
    4 : FED0;
    5 : 13DD;
    6 : 0A39;
    7 : F6B0;
    8 : F8ED;
    9 : 161D;
    10 : F693;
    11 : 20B5;
    12 : 1632;
    13 : E52C;
    14 : FAD0;
    15 : 0C0D;
    16 : F198;
    17 : 060E;
    18 : 1F84;
    19 : E9C7;
    20 : 0867;
    21 : EE97;
    22 : 1C2E;
    23 : F42E;
    24 : 15DD;
    25 : 00E8;
    26 : FD9C;
    27 : F340;
    28 : 065E;
    29 : FE03;
    30 : E3F4;
    31 : 0D71;
    32 : 06B1;
    33 : 102D;
    34 : DC3A;
    35 : 1C0C;
    36 : ED9A;
    37 : EAF7;
    38 : EF66;
    39 : 1D5F;
    40 : DF83;
    41 : 28E4;
    42 : 01FC;
    43 : F7A8;
    44 : FA90;
    45 : FE4B;
    46 : 0088;
    47 : FE04;
    48 : FE05;
    49 : F760;
    50 : 06A5;
    51 : EA32;
    52 : 1E84;
    53 : EA38;
    54 : F005;
    55 : 110B;
    56 : 029E;
    57 : EBF9;
    58 : FE31;
    59 : EC06;
    60 : EBBC;
    61 : F650;
    62 : EC5E;
    63 : 2282;
    64 : C7C7;
    65 : 206C;
    66 : EFEE;
    67 : F44D;
    68 : 0A0C;
    69 : 04CC;
    70 : F9EE;
    71 : DFDC;
    72 : F7FC;
    73 : F245;
    74 : EFED;
    75 : 0696;
    76 : F25A;
    77 : 0C05;
    78 : 184A;
    79 : FF65;
    80 : 12D6;
    81 : FC0F;
    82 : F7F4;
    83 : FBF4;
    84 : EDE1;
    85 : 0BEE;
    86 : 10F3;
    87 : 05C4;
    88 : F853;
    89 : E5D3;
    90 : 0DC3;
    91 : E9C3;
    92 : 08A0;
    93 : E93F;
    94 : 2C02;
    95 : E37E;
    96 : 05F0;
    97 : ECAE;
    98 : 08D5;
    99 : EA19;
    100 : 12B0;
    101 : E054;
    102 : F804;
    103 : 0816;
    104 : 0810;
    105 : 16EA;
    106 : EB22;
    107 : E80D;
    108 : 09DF;
    109 : F25C;
    110 : 06B0;
    111 : F421;
    112 : 0CDE;
    113 : 03F3;
    114 : FC71;
    115 : EAD7;
    116 : 19DA;
    117 : E3FA;
    118 : 2CC4;
    119 : C53B;
    120 : E43B;
    121 : 02BA;
    122 : F8B6;
    123 : EA83;
    124 : 08D0;
    125 : F419;
    126 : FC05;
    127 : 1280;
    128 : 0319;
    129 : FBE0;
    130 : 014D;
    131 : E81E;
    132 : E82C;
    133 : 1241;
    134 : FE5F;
    135 : 0C39;
    136 : ED9A;
    137 : F80F;
    138 : DF39;
    139 : 02A3;
    140 : F309;
    141 : 178E;
    142 : F12F;
    143 : 1895;
    144 : 19B4;
    145 : 0102;
    146 : 0DB3;
    147 : E813;
    148 : 135B;
    149 : D8B1;
    150 : 17E5;
    151 : DD3F;
    152 : 0F20;
    153 : 0373;
    154 : 1DEC;
    155 : FC04;
    156 : 09DC;
    157 : F8E2;
    158 : F7A8;
    159 : FF83;
    160 : EED7;
    161 : 01F9;
    162 : FA04;
    163 : 03B0;
    164 : 03C2;
    165 : 138F;
    166 : E49F;
    167 : 05FC;
    168 : 0BDD;
    169 : E707;
    170 : 0033;
    171 : EB0D;
    172 : 1430;
    173 : E451;
    174 : 0401;
    175 : FFB8;
    176 : 076B;
    177 : DFB9;
    178 : 1663;
    179 : D7F2;
    180 : FA0D;
    181 : 07C8;
    182 : FADF;
    183 : F25E;
    184 : 0561;
    185 : 13D3;
    186 : 13A7;
    187 : FE38;
    188 : 0593;
    189 : FD22;
    190 : F6BE;
    191 : 1795;
    192 : E5F9;
    193 : 0864;
    194 : EFD5;
    195 : 265E;
    196 : CB33;
    197 : 33ED;
    198 : F610;
    199 : F4FF;
    200 : 0F2F;
    201 : F58C;
    202 : 05F9;
    203 : D445;
    204 : 0200;
    205 : F922;
    206 : 0953;
    207 : FF6A;
    208 : F490;
    209 : 0200;
    210 : 0FF8;
    211 : EE6D;
    212 : 02A3;
    213 : 0412;
    214 : FF46;
    215 : 09FB;
    216 : F525;
    217 : F1EC;
    218 : 114F;
    219 : F3A4;
    220 : 10AF;
    221 : E94E;
    222 : FD00;
    223 : 05B5;
    224 : 1CF7;
    225 : D2ED;
    226 : 3EB7;
    227 : BE09;
    228 : 01F8;
    229 : F2D5;
    230 : 002E;
    231 : 0086;
    232 : 0FB7;
    233 : 09D9;
    234 : F425;
    235 : 07EB;
    236 : F5C0;
    237 : 08FD;
    238 : EA72;
    239 : 0000;
    240 : 083F;
    241 : F841;
    242 : 1496;
    243 : E860;
    244 : 0E8D;
    245 : E743;
    246 : 0FE0;
    247 : F28A;
    248 : FC3C;
    249 : FEC3;
    250 : 01B0;
    251 : 1BC8;
    252 : 0CDA;
    253 : F91F;
    254 : F032;
    255 : 194B;
    256 : F6E3;
    257 : 17AB;
    258 : FF11;
    259 : 0167;
    260 : FAFF;
    261 : 0869;
    262 : D668;
    263 : 174B;
    264 : 0BE0;
    265 : EF0F;
    266 : 04DB;
    267 : F20F;
    268 : 1DD5;
    269 : CC8A;
    270 : FE00;
    271 : EBE1;
    272 : 0AD3;
    273 : 01DF;
    274 : 0C6A;
    275 : FE00;
    276 : F3F5;
    277 : 0192;
    278 : F985;
    279 : 1D5B;
    280 : E78E;
    281 : F3F5;
    282 : 1E31;
    283 : E878;
    284 : 0F24;
    285 : F1A7;
    286 : 1480;
    287 : E95B;
    288 : 0202;
    289 : F1D4;
    290 : 0756;
    291 : 060E;
    292 : EDD8;
    293 : F577;
    294 : 03FF;
    295 : FD29;
    296 : 0FDE;
    297 : E2E4;
    298 : 0CBF;
    299 : E607;
    300 : 0614;
    301 : FAEA;
    302 : 20D3;
    303 : D1C4;
    304 : 32B1;
    305 : C542;
    306 : 074F;
    307 : F5CE;
    308 : EB70;
    309 : 1C75;
    310 : E743;
    311 : 1D3B;
    312 : FDD7;
    313 : 0E5F;
    314 : EC88;
    315 : 21A4;
    316 : E69A;
    317 : 2A9B;
    318 : F412;
    319 : 02CB;
    320 : EFEE;
    321 : 1ACD;
    322 : D589;
    323 : 17DC;
    324 : 1870;
    325 : 0246;
    326 : 04EA;
    327 : 08D1;
    328 : F1F8;
    329 : F786;
    330 : FE05;
    331 : FF1F;
    332 : FB9D;
    333 : 012A;
    334 : 02BD;
    335 : FE05;
    336 : 03F4;
    337 : 009A;
    338 : 0895;
    339 : E28C;
    340 : 4048;
    341 : CC9B;
    342 : 0C07;
    343 : F6EB;
    344 : 01F9;
    345 : 14E7;
    346 : E4F5;
    347 : 180E;
    348 : 0AEB;
    349 : FB52;
    350 : FC72;
    351 : F815;
    352 : 0197;
    353 : 0575;
    354 : F605;
    355 : 0514;
    356 : 0135;
    357 : 0588;
    358 : 0F43;
    359 : F406;
    360 : 0307;
    361 : ECC8;
    362 : FEDA;
    363 : 1C18;
    364 : FE8C;
    365 : 0307;
    366 : F3E1;
    367 : F3CC;
    368 : F481;
    369 : 2269;
    370 : CE38;
    371 : 40A5;
    372 : FA0D;
    373 : 0DFA;
    374 : FEE1;
    375 : 0DAE;
    376 : DB6C;
    377 : 21B4;
    378 : EFED;
    379 : 0CE9;
    380 : 012F;
    381 : 13A3;
    382 : 020C;
    383 : FBFB;
END;
