WIDTH=16;
DEPTH=384;

ADDRESS_RADIX=DEC;
DATA_RADIX=HEX;

CONTENT BEGIN
    0 : 0000;
    1 : 1149;
    2 : E848;
    3 : 0F84;
    4 : F5F2;
    5 : 07F1;
    6 : F40E;
    7 : 16E8;
    8 : 05A8;
    9 : 0A21;
    10 : F356;
    11 : 1BE0;
    12 : F20B;
    13 : 1116;
    14 : FE2C;
    15 : 1579;
    16 : F19B;
    17 : 19EC;
    18 : E4E3;
    19 : 1366;
    20 : FAE4;
    21 : 02F4;
    22 : F17C;
    23 : 05CF;
    24 : F7FA;
    25 : 071F;
    26 : EB7A;
    27 : 2869;
    28 : CFE4;
    29 : 4030;
    30 : 0000;
    31 : FA9B;
    32 : 0C7D;
    33 : 1134;
    34 : 0834;
    35 : 07FF;
    36 : 12CE;
    37 : 0B4D;
    38 : 00CB;
    39 : EDAF;
    40 : 091F;
    41 : F276;
    42 : F40A;
    43 : 0EFF;
    44 : 04AD;
    45 : 0B08;
    46 : F1E7;
    47 : 1FE5;
    48 : F5F6;
    49 : 0FC1;
    50 : 0E8C;
    51 : E14F;
    52 : 2394;
    53 : D3D2;
    54 : F3FB;
    55 : FF71;
    56 : EEF6;
    57 : FCEF;
    58 : 03DC;
    59 : 0803;
    60 : 0207;
    61 : 06AF;
    62 : 0C99;
    63 : F52D;
    64 : 0913;
    65 : 0207;
    66 : 0BF9;
    67 : FF7E;
    68 : FF8A;
    69 : EE4D;
    70 : 189C;
    71 : F407;
    72 : 0A21;
    73 : 0F63;
    74 : 0919;
    75 : F2CC;
    76 : 15F4;
    77 : EEC8;
    78 : EFDC;
    79 : F3FD;
    80 : F2C1;
    81 : 1920;
    82 : F15A;
    83 : 1229;
    84 : EBD1;
    85 : FDE5;
    86 : F6A8;
    87 : 176D;
    88 : 03C1;
    89 : F7ED;
    90 : 0000;
    91 : 096F;
    92 : 0797;
    93 : F753;
    94 : F532;
    95 : 0000;
    96 : 180C;
    97 : F8E5;
    98 : 0C38;
    99 : E191;
    100 : 2656;
    101 : C7E5;
    102 : 0C15;
    103 : F055;
    104 : FD78;
    105 : 0E3D;
    106 : 0372;
    107 : 1C30;
    108 : F1EC;
    109 : 0D60;
    110 : 0A84;
    111 : EF4D;
    112 : 1692;
    113 : DFD2;
    114 : 0E05;
    115 : 0171;
    116 : 101C;
    117 : E5B2;
    118 : 2740;
    119 : EBF9;
    120 : EF08;
    121 : 13E6;
    122 : 00DC;
    123 : FBE5;
    124 : FBD2;
    125 : 03FE;
    126 : 17F8;
    127 : E6B0;
    128 : F422;
    129 : F38C;
    130 : 11F7;
    131 : 05FE;
    132 : EFD4;
    133 : 032E;
    134 : EA91;
    135 : 2D8D;
    136 : E7B7;
    137 : 1438;
    138 : 104B;
    139 : 08E4;
    140 : 1DCA;
    141 : D81F;
    142 : 30E0;
    143 : CD17;
    144 : E254;
    145 : FFAB;
    146 : F295;
    147 : 23A3;
    148 : E879;
    149 : 22B9;
    150 : ECD4;
    151 : 10EC;
    152 : 193C;
    153 : FAD8;
    154 : FD7B;
    155 : E9CD;
    156 : F015;
    157 : 0827;
    158 : 0650;
    159 : 0342;
    160 : 12B2;
    161 : E81F;
    162 : F4D5;
    163 : 057C;
    164 : F740;
    165 : 0E23;
    166 : FE99;
    167 : 103F;
    168 : F7F3;
    169 : 11F4;
    170 : 0232;
    171 : F75F;
    172 : F8A1;
    173 : 131E;
    174 : FC18;
    175 : F53A;
    176 : 0BDF;
    177 : EBE1;
    178 : 25D6;
    179 : DCD8;
    180 : FFC3;
    181 : 14A5;
    182 : F3BB;
    183 : 0D07;
    184 : EF9B;
    185 : 22E4;
    186 : F3FF;
    187 : FED6;
    188 : F5A8;
    189 : 1429;
    190 : E461;
    191 : 1002;
    192 : 0E01;
    193 : 0AB5;
    194 : 0BEA;
    195 : DDD2;
    196 : 3467;
    197 : EBFE;
    198 : 0000;
    199 : 0EB7;
    200 : E820;
    201 : 03B4;
    202 : F849;
    203 : 0FF9;
    204 : F410;
    205 : 0E72;
    206 : 0023;
    207 : FBB8;
    208 : 0960;
    209 : F410;
    210 : FA82;
    211 : 0A0B;
    212 : 08A7;
    213 : FA9D;
    214 : 13AD;
    215 : EB88;
    216 : F80A;
    217 : 0CD8;
    218 : FFD6;
    219 : 03C7;
    220 : 0715;
    221 : EC19;
    222 : 03EC;
    223 : E4A4;
    224 : 1BBE;
    225 : DB20;
    226 : 35FB;
    227 : CB90;
    228 : 01FE;
    229 : 1299;
    230 : 0523;
    231 : 0CA4;
    232 : EE31;
    233 : 03FC;
    234 : FE00;
    235 : FE84;
    236 : 0808;
    237 : EBD4;
    238 : 20A5;
    239 : D408;
    240 : 147F;
    241 : EFE6;
    242 : 02C1;
    243 : F720;
    244 : 1C59;
    245 : EE6E;
    246 : 0205;
    247 : 0423;
    248 : 1100;
    249 : F4B0;
    250 : 063C;
    251 : EBD0;
    252 : 07FB;
    253 : FC6B;
    254 : F8B9;
    255 : FB32;
    256 : EC2E;
    257 : F805;
    258 : F608;
    259 : 04D3;
    260 : FAE3;
    261 : F305;
    262 : 19C5;
    263 : 06FA;
    264 : FD01;
    265 : 0CAC;
    266 : FB91;
    267 : F852;
    268 : F31D;
    269 : 05FE;
    270 : FA04;
    271 : 1EBB;
    272 : 0132;
    273 : 0C96;
    274 : FF16;
    275 : FF01;
    276 : 0000;
    277 : 0A73;
    278 : E774;
    279 : 0045;
    280 : FFAA;
    281 : 1004;
    282 : 1424;
    283 : FE94;
    284 : 071C;
    285 : E068;
    286 : 25FF;
    287 : D7B8;
    288 : 0FFC;
    289 : 08DA;
    290 : FBB8;
    291 : F30B;
    292 : 1181;
    293 : 08FE;
    294 : F5FC;
    295 : 0927;
    296 : F77D;
    297 : 1D60;
    298 : E75A;
    299 : 2910;
    300 : E3A7;
    301 : 1204;
    302 : E6A1;
    303 : 2D72;
    304 : D6CF;
    305 : 287F;
    306 : F837;
    307 : 124A;
    308 : F603;
    309 : 0DF8;
    310 : 00C8;
    311 : EC88;
    312 : F818;
    313 : 04CE;
    314 : FCD3;
    315 : 0704;
    316 : FBE6;
    317 : E455;
    318 : F000;
    319 : 0995;
    320 : F7A8;
    321 : 2016;
    322 : F03F;
    323 : 0400;
    324 : F073;
    325 : 0486;
    326 : E4E8;
    327 : 2503;
    328 : D38E;
    329 : 345C;
    330 : DC13;
    331 : 1186;
    332 : F1F4;
    333 : 1DD0;
    334 : C97D;
    335 : 25EC;
    336 : 060D;
    337 : 033E;
    338 : 06AC;
    339 : F900;
    340 : FACF;
    341 : 0204;
    342 : FDFE;
    343 : 033F;
    344 : ED0E;
    345 : 04A3;
    346 : F370;
    347 : 0E0D;
    348 : 03E9;
    349 : 101E;
    350 : F44B;
    351 : 077F;
    352 : 05F4;
    353 : 0000;
    354 : FBFE;
    355 : FE83;
    356 : 0D48;
    357 : F674;
    358 : FADB;
    359 : F7FD;
    360 : 0F17;
    361 : 009A;
    362 : 0BC6;
    363 : E2FD;
    364 : 1B0F;
    365 : CEB5;
    366 : FCFC;
    367 : 0806;
    368 : 0F90;
    369 : E02F;
    370 : 10EB;
    371 : F5F2;
    372 : F37B;
    373 : 05D2;
    374 : E970;
    375 : 1A88;
    376 : F68E;
    377 : 14DD;
    378 : F84C;
    379 : FB6E;
    380 : FE3C;
    381 : FDA2;
    382 : E6E5;
    383 : 06F5;
END;
