WIDTH=16;
DEPTH=384;

ADDRESS_RADIX=DEC;
DATA_RADIX=HEX;

CONTENT BEGIN
    0 : 0103;
    1 : ECCC;
    2 : 0A26;
    3 : D6F1;
    4 : 121D;
    5 : ECC2;
    6 : 061A;
    7 : E76B;
    8 : F44F;
    9 : F9A5;
    10 : 04D7;
    11 : 0C33;
    12 : 0B32;
    13 : F162;
    14 : F8AE;
    15 : ED10;
    16 : 06AF;
    17 : FF5E;
    18 : 101D;
    19 : E89D;
    20 : 0576;
    21 : E2DE;
    22 : 285E;
    23 : CFAA;
    24 : 0000;
    25 : F55C;
    26 : 0093;
    27 : FFDA;
    28 : F54A;
    29 : EC4A;
    30 : FE07;
    31 : 08AB;
    32 : 0148;
    33 : FD32;
    34 : 07A5;
    35 : E65A;
    36 : 0A0C;
    37 : EA6A;
    38 : 03DE;
    39 : E838;
    40 : 1A00;
    41 : EAE6;
    42 : F423;
    43 : F4B6;
    44 : FB5B;
    45 : 050D;
    46 : FE46;
    47 : E846;
    48 : F815;
    49 : 04CF;
    50 : EBC1;
    51 : 2467;
    52 : DA7E;
    53 : 3379;
    54 : 040E;
    55 : 039F;
    56 : E94F;
    57 : EE6B;
    58 : EF8D;
    59 : FBF2;
    60 : EE29;
    61 : FF78;
    62 : F732;
    63 : 0D1C;
    64 : E2A4;
    65 : 2D98;
    66 : 1CA6;
    67 : F51B;
    68 : 131C;
    69 : D4C2;
    70 : 2F0A;
    71 : D714;
    72 : 0213;
    73 : 01BB;
    74 : F103;
    75 : 02C2;
    76 : 0DD9;
    77 : 0000;
    78 : F43E;
    79 : 1D54;
    80 : E92C;
    81 : 1126;
    82 : CC52;
    83 : 2ACD;
    84 : 0000;
    85 : 1380;
    86 : F948;
    87 : F29B;
    88 : 0370;
    89 : E797;
    90 : 11DB;
    91 : EE00;
    92 : FB17;
    93 : FD41;
    94 : 13C5;
    95 : EC29;
    96 : 11A8;
    97 : EDAD;
    98 : 03C2;
    99 : F6CC;
    100 : 0E0C;
    101 : EE58;
    102 : FBE4;
    103 : 032D;
    104 : 082C;
    105 : D769;
    106 : 1C7A;
    107 : D4DE;
    108 : 081A;
    109 : F8DA;
    110 : EB60;
    111 : 0CF0;
    112 : F61D;
    113 : F3D9;
    114 : FA15;
    115 : F8D9;
    116 : FA0C;
    117 : 1822;
    118 : E96C;
    119 : FC0E;
    120 : EFC3;
    121 : FEE2;
    122 : EFF9;
    123 : 0451;
    124 : ED99;
    125 : 081E;
    126 : 10A2;
    127 : FB2A;
    128 : 0E46;
    129 : E7F0;
    130 : 0ED8;
    131 : EB36;
    132 : 1B8F;
    133 : F15C;
    134 : 0B14;
    135 : D7D6;
    136 : 10BF;
    137 : E03F;
    138 : F9BF;
    139 : 02EC;
    140 : E783;
    141 : 0E26;
    142 : F46D;
    143 : 1D2F;
    144 : E8B2;
    145 : 134D;
    146 : F785;
    147 : F7B4;
    148 : E712;
    149 : 0F33;
    150 : EAB1;
    151 : F745;
    152 : F646;
    153 : F9C5;
    154 : FEC0;
    155 : 0922;
    156 : 0000;
    157 : F97D;
    158 : 0DE4;
    159 : ED83;
    160 : 0A73;
    161 : D960;
    162 : 0713;
    163 : 08F8;
    164 : F4AA;
    165 : FAFF;
    166 : F15D;
    167 : 0B9F;
    168 : 101D;
    169 : FC9D;
    170 : 0382;
    171 : E8DD;
    172 : 21BA;
    173 : EBDC;
    174 : 08FD;
    175 : FE92;
    176 : 0795;
    177 : F605;
    178 : 0477;
    179 : E10C;
    180 : 1876;
    181 : EFDE;
    182 : EF69;
    183 : 00E6;
    184 : EC00;
    185 : 24B2;
    186 : 00FC;
    187 : F504;
    188 : FEBE;
    189 : 0522;
    190 : F4E6;
    191 : 01F9;
    192 : F82C;
    193 : F265;
    194 : 0DB4;
    195 : ECE0;
    196 : 184D;
    197 : D106;
    198 : FDF5;
    199 : FBF7;
    200 : 1508;
    201 : D7FC;
    202 : 2526;
    203 : C9CF;
    204 : 0827;
    205 : FEB7;
    206 : 0EE2;
    207 : D2FD;
    208 : 304A;
    209 : C0D5;
    210 : 0DBE;
    211 : E980;
    212 : 09C5;
    213 : E472;
    214 : 2F08;
    215 : E005;
    216 : F41F;
    217 : FEF5;
    218 : F01F;
    219 : 0C60;
    220 : EF92;
    221 : FC0A;
    222 : 0E39;
    223 : EDA8;
    224 : 0985;
    225 : D66A;
    226 : 21BA;
    227 : D861;
    228 : 0000;
    229 : FAF6;
    230 : F6F9;
    231 : F523;
    232 : 1B33;
    233 : E7AD;
    234 : 1CC9;
    235 : E648;
    236 : 19A0;
    237 : CC04;
    238 : 294F;
    239 : C87D;
    240 : F5D7;
    241 : 165D;
    242 : F5DD;
    243 : F020;
    244 : F82B;
    245 : 0208;
    246 : 186E;
    247 : F24E;
    248 : F2CE;
    249 : FB80;
    250 : 0C24;
    251 : 1664;
    252 : 128D;
    253 : E42D;
    254 : FF66;
    255 : F83B;
    256 : 090D;
    257 : F34F;
    258 : 125C;
    259 : 0EEB;
    260 : FD76;
    261 : E250;
    262 : 11E0;
    263 : E98F;
    264 : 1B73;
    265 : F99E;
    266 : 0695;
    267 : DEB0;
    268 : 1DFB;
    269 : DAA4;
    270 : 0304;
    271 : ECDF;
    272 : 19B2;
    273 : CC0A;
    274 : 4435;
    275 : C933;
    276 : 0208;
    277 : 005A;
    278 : 1121;
    279 : E95D;
    280 : 09E1;
    281 : EDB4;
    282 : F41F;
    283 : 0491;
    284 : F74F;
    285 : 1CEE;
    286 : DC60;
    287 : 2B8F;
    288 : FDF7;
    289 : 0AD6;
    290 : FD2C;
    291 : E4DE;
    292 : 1920;
    293 : DB5A;
    294 : 07DF;
    295 : 0273;
    296 : 00BA;
    297 : 134E;
    298 : DE66;
    299 : 179C;
    300 : 0E76;
    301 : F540;
    302 : 033A;
    303 : F0BB;
    304 : 0176;
    305 : F9CD;
    306 : F6FE;
    307 : 0436;
    308 : E7BD;
    309 : 1965;
    310 : E0E4;
    311 : 290A;
    312 : 03F3;
    313 : F1E9;
    314 : FDED;
    315 : 0761;
    316 : FDB6;
    317 : FA14;
    318 : 00FC;
    319 : FCAB;
    320 : 0129;
    321 : 0D99;
    322 : ED00;
    323 : FB53;
    324 : 03DF;
    325 : 029F;
    326 : 03F2;
    327 : F14B;
    328 : FCDE;
    329 : F107;
    330 : 081C;
    331 : F49E;
    332 : 002D;
    333 : F00F;
    334 : FA4B;
    335 : 1038;
    336 : 1B58;
    337 : EC41;
    338 : 12FF;
    339 : DDF2;
    340 : 2CB3;
    341 : E0C0;
    342 : 0000;
    343 : 0592;
    344 : FD2E;
    345 : ECFC;
    346 : 003C;
    347 : F3C8;
    348 : 07DF;
    349 : EA14;
    350 : 0FC5;
    351 : F88E;
    352 : 0B96;
    353 : E863;
    354 : F42F;
    355 : FBA9;
    356 : 05FA;
    357 : F0A4;
    358 : 1AFA;
    359 : E275;
    360 : 07CF;
    361 : E6C0;
    362 : 0B02;
    363 : F562;
    364 : 216D;
    365 : EA87;
    366 : F82A;
    367 : FD6A;
    368 : 0AF5;
    369 : F95D;
    370 : 1720;
    371 : FC15;
    372 : FA3B;
    373 : 0FB4;
    374 : F5CE;
    375 : 04C4;
    376 : DCAD;
    377 : 2863;
    378 : ED2F;
    379 : FEB4;
    380 : EFEC;
    381 : 177A;
    382 : D84E;
    383 : 21AB;
END;
