WIDTH=16;
DEPTH=384;

ADDRESS_RADIX=DEC;
DATA_RADIX=HEX;

CONTENT BEGIN
    0 : FC19;
    1 : E9BD;
    2 : 0484;
    3 : F718;
    4 : FF64;
    5 : E898;
    6 : E2D3;
    7 : FBA1;
    8 : EDD7;
    9 : 1587;
    10 : ED40;
    11 : 14D7;
    12 : 0FCF;
    13 : F852;
    14 : 0544;
    15 : E296;
    16 : 264C;
    17 : D486;
    18 : 0957;
    19 : EB2F;
    20 : 0EAE;
    21 : F2C2;
    22 : 1BAD;
    23 : F887;
    24 : 0F0F;
    25 : 0193;
    26 : 1101;
    27 : E296;
    28 : 23DC;
    29 : DD73;
    30 : 0F53;
    31 : 0DF3;
    32 : 033E;
    33 : F05D;
    34 : 0DF7;
    35 : F668;
    36 : 03F1;
    37 : E7C1;
    38 : FB41;
    39 : F016;
    40 : 219A;
    41 : EC49;
    42 : 0316;
    43 : FA1E;
    44 : EACE;
    45 : 0F41;
    46 : EDE0;
    47 : 21F6;
    48 : F63B;
    49 : F153;
    50 : 0FC8;
    51 : E2B1;
    52 : 2F8A;
    53 : D7F2;
    54 : 180C;
    55 : F8AD;
    56 : 0B1E;
    57 : E23B;
    58 : 1ED3;
    59 : CFE9;
    60 : 0C44;
    61 : 0842;
    62 : E158;
    63 : 2227;
    64 : D29C;
    65 : 3B49;
    66 : F3FE;
    67 : 0495;
    68 : 0514;
    69 : 141C;
    70 : E309;
    71 : 0801;
    72 : 074D;
    73 : FB71;
    74 : 0B95;
    75 : EFCE;
    76 : 3049;
    77 : E10D;
    78 : F817;
    79 : 13CC;
    80 : FBDD;
    81 : F9BF;
    82 : E7D1;
    83 : 0BDD;
    84 : 058D;
    85 : FD78;
    86 : 2238;
    87 : D98E;
    88 : 20F0;
    89 : C378;
    90 : D68D;
    91 : 089C;
    92 : E6BD;
    93 : 20A5;
    94 : E513;
    95 : 254E;
    96 : F41E;
    97 : FAA1;
    98 : 0CAE;
    99 : FA9B;
    100 : 094B;
    101 : 07EC;
    102 : 0000;
    103 : 0F6B;
    104 : 012F;
    105 : 046D;
    106 : E520;
    107 : 1985;
    108 : 0103;
    109 : E8D9;
    110 : FC28;
    111 : 16BA;
    112 : FB1F;
    113 : 0103;
    114 : F949;
    115 : F0BD;
    116 : 0565;
    117 : FCD9;
    118 : FF5A;
    119 : 03D6;
    120 : 13F2;
    121 : F23D;
    122 : F662;
    123 : 0514;
    124 : 077B;
    125 : F00B;
    126 : F7D2;
    127 : 0674;
    128 : 1483;
    129 : E731;
    130 : 0ED1;
    131 : 0000;
    132 : 2A81;
    133 : F60A;
    134 : 0EE5;
    135 : E136;
    136 : 1BF4;
    137 : D47C;
    138 : EBCF;
    139 : EAD0;
    140 : 0280;
    141 : 1068;
    142 : 0BF9;
    143 : E7C5;
    144 : FE03;
    145 : 0A2B;
    146 : 026A;
    147 : F929;
    148 : FD23;
    149 : E622;
    150 : 05E3;
    151 : E7DE;
    152 : FCE4;
    153 : E90A;
    154 : 11C7;
    155 : F630;
    156 : EE1D;
    157 : 12B3;
    158 : FA72;
    159 : 0D39;
    160 : E2AA;
    161 : 1AF4;
    162 : 03E9;
    163 : 0D7A;
    164 : F660;
    165 : 169A;
    166 : D4AB;
    167 : 271C;
    168 : F3EA;
    169 : 014B;
    170 : 0119;
    171 : 1E94;
    172 : DB11;
    173 : 284A;
    174 : 0C12;
    175 : 04C8;
    176 : 099F;
    177 : 013A;
    178 : 01A5;
    179 : E8DE;
    180 : 0000;
    181 : 0093;
    182 : EF12;
    183 : 18DC;
    184 : DA91;
    185 : 35BE;
    186 : 0807;
    187 : FDE4;
    188 : 05E6;
    189 : 0980;
    190 : FBBC;
    191 : 0807;
    192 : F3F5;
    193 : FEB8;
    194 : 0626;
    195 : 0959;
    196 : EB7E;
    197 : 0E0D;
    198 : EFF1;
    199 : 0D1A;
    200 : F5B3;
    201 : 1BBC;
    202 : E56B;
    203 : 0A09;
    204 : EFED;
    205 : 0924;
    206 : 07F3;
    207 : 1789;
    208 : EB30;
    209 : 0E11;
    210 : 13BB;
    211 : F004;
    212 : FBC8;
    213 : FF9E;
    214 : 010C;
    215 : 1F91;
    216 : E80A;
    217 : 10F9;
    218 : F285;
    219 : 1D16;
    220 : E3D6;
    221 : 0000;
    222 : E906;
    223 : 1874;
    224 : F2AD;
    225 : 27C9;
    226 : C9DD;
    227 : 36F2;
    228 : EA35;
    229 : F946;
    230 : 0BD1;
    231 : FD74;
    232 : 1E73;
    233 : DE51;
    234 : 0000;
    235 : 1170;
    236 : 0256;
    237 : 0CEB;
    238 : EB63;
    239 : 280E;
    240 : 247D;
    241 : 05DE;
    242 : 0969;
    243 : E8F9;
    244 : 1088;
    245 : EAB7;
    246 : F39D;
    247 : 0AF4;
    248 : DB41;
    249 : 288C;
    250 : E645;
    251 : 2528;
    252 : 0D18;
    253 : F1E2;
    254 : 0152;
    255 : 0E1C;
    256 : 07D8;
    257 : 0204;
    258 : 0BD3;
    259 : 06CE;
    260 : FF1C;
    261 : 0441;
    262 : E2DF;
    263 : 1F88;
    264 : 0FFF;
    265 : F712;
    266 : 0587;
    267 : 01CC;
    268 : F9F0;
    269 : 0800;
    270 : FE89;
    271 : E5B9;
    272 : 1BFC;
    273 : D15A;
    274 : 46BF;
    275 : C46C;
    276 : 19E4;
    277 : 00FB;
    278 : 1238;
    279 : DD6C;
    280 : 24E1;
    281 : E61C;
    282 : 0B42;
    283 : F3EA;
    284 : F696;
    285 : 1A1B;
    286 : F94D;
    287 : FBE8;
    288 : 0B68;
    289 : FEEB;
    290 : 0028;
    291 : F00E;
    292 : 05C3;
    293 : 06F1;
    294 : F7F9;
    295 : 0074;
    296 : 0633;
    297 : 0F35;
    298 : EF24;
    299 : F7F9;
    300 : EBC4;
    301 : 1E67;
    302 : E302;
    303 : 2F63;
    304 : BE6E;
    305 : 3DAA;
    306 : 069B;
    307 : F01D;
    308 : 0843;
    309 : F648;
    310 : 2285;
    311 : EA4C;
    312 : 0C29;
    313 : F4DF;
    314 : F732;
    315 : 153B;
    316 : FC2A;
    317 : 040E;
    318 : 0D7F;
    319 : F032;
    320 : 17B2;
    321 : E776;
    322 : 0717;
    323 : E3B6;
    324 : 0A51;
    325 : 1679;
    326 : 0C67;
    327 : F683;
    328 : FEBB;
    329 : F6B7;
    330 : 03F1;
    331 : F460;
    332 : 050E;
    333 : EE9D;
    334 : 2C7C;
    335 : D894;
    336 : F95E;
    337 : F2E7;
    338 : 0DFB;
    339 : 055D;
    340 : 0D7E;
    341 : F19B;
    342 : 0C05;
    343 : F9AF;
    344 : 16C1;
    345 : DCDA;
    346 : 1B54;
    347 : EFF9;
    348 : F130;
    349 : 0C36;
    350 : 007D;
    351 : 0319;
    352 : F304;
    353 : 03F3;
    354 : DFCD;
    355 : 0350;
    356 : 0157;
    357 : 1A3B;
    358 : FBD1;
    359 : F7F3;
    360 : FBF4;
    361 : 0562;
    362 : F75D;
    363 : 1F3F;
    364 : FCAA;
    365 : 1F60;
    366 : FA7A;
    367 : F313;
    368 : 074C;
    369 : 0A26;
    370 : FEA7;
    371 : 0000;
    372 : F9DB;
    373 : 0BC6;
    374 : 16FD;
    375 : E352;
    376 : 2174;
    377 : D3FA;
    378 : 07B1;
    379 : EB5D;
    380 : 1812;
    381 : E1A6;
    382 : 3497;
    383 : D989;
END;
