WIDTH=16;
DEPTH=384;

ADDRESS_RADIX=DEC;
DATA_RADIX=HEX;

CONTENT BEGIN
    0 : 01FB;
    1 : F390;
    2 : F4EC;
    3 : 1063;
    4 : D3DD;
    5 : 2B8F;
    6 : 050A;
    7 : F26C;
    8 : F129;
    9 : 1717;
    10 : E695;
    11 : 2143;
    12 : E7EF;
    13 : F4CB;
    14 : F3BE;
    15 : 17B2;
    16 : D7F9;
    17 : 160F;
    18 : EB4F;
    19 : 0EE8;
    20 : D8CE;
    21 : 2893;
    22 : D2E5;
    23 : 2D86;
    24 : EC28;
    25 : 10F0;
    26 : F18C;
    27 : 05DD;
    28 : E449;
    29 : 09EC;
    30 : 168A;
    31 : 04DF;
    32 : FF68;
    33 : FA8C;
    34 : F904;
    35 : F67C;
    36 : E70D;
    37 : FA4F;
    38 : E8B0;
    39 : 144D;
    40 : EE9D;
    41 : 1D1B;
    42 : 1209;
    43 : E5F9;
    44 : 0668;
    45 : E0EE;
    46 : 17A8;
    47 : D5EA;
    48 : FE04;
    49 : EDD6;
    50 : 025B;
    51 : 06D2;
    52 : 05C1;
    53 : F417;
    54 : 07FB;
    55 : FFE6;
    56 : 07F3;
    57 : FD3E;
    58 : E0E9;
    59 : 0FF5;
    60 : FC03;
    61 : F50E;
    62 : 018F;
    63 : 13A4;
    64 : E798;
    65 : 23E1;
    66 : 07F5;
    67 : F599;
    68 : ECA7;
    69 : 1CAB;
    70 : D493;
    71 : 09F3;
    72 : E9E3;
    73 : FC8A;
    74 : F50E;
    75 : 1424;
    76 : F72C;
    77 : 0608;
    78 : 0904;
    79 : 13F5;
    80 : F7B5;
    81 : FAA1;
    82 : EF6B;
    83 : 08A4;
    84 : FA15;
    85 : 0F11;
    86 : FA29;
    87 : 173D;
    88 : D7C2;
    89 : 10C5;
    90 : FE02;
    91 : EC8E;
    92 : FF6E;
    93 : 11A7;
    94 : F929;
    95 : 1BE9;
    96 : 0D0A;
    97 : ED7E;
    98 : 069B;
    99 : E4AD;
    100 : 11B9;
    101 : EDF2;
    102 : 1819;
    103 : 0F29;
    104 : F0BF;
    105 : EE91;
    106 : F0D3;
    107 : 0000;
    108 : 11F8;
    109 : F0B6;
    110 : 1671;
    111 : DEEE;
    112 : 2E2D;
    113 : DA10;
    114 : 0BE9;
    115 : F434;
    116 : EADC;
    117 : 225A;
    118 : C08B;
    119 : 3F86;
    120 : EE09;
    121 : 0D55;
    122 : E469;
    123 : 28E2;
    124 : D5D6;
    125 : 21F0;
    126 : 0000;
    127 : 194D;
    128 : EF96;
    129 : 11EA;
    130 : D8F5;
    131 : 1995;
    132 : EC16;
    133 : 12C6;
    134 : 0B5E;
    135 : FDD3;
    136 : E4A2;
    137 : 13EA;
    138 : F819;
    139 : EA77;
    140 : 097C;
    141 : FF7A;
    142 : 0721;
    143 : FC0D;
    144 : 010A;
    145 : 0114;
    146 : 15C9;
    147 : E350;
    148 : 1293;
    149 : DDBE;
    150 : 0795;
    151 : E33A;
    152 : 1762;
    153 : ED92;
    154 : 3008;
    155 : E578;
    156 : F48F;
    157 : F591;
    158 : 104C;
    159 : EE10;
    160 : 0915;
    161 : DCA4;
    162 : 01F9;
    163 : 08BF;
    164 : FDB0;
    165 : 0C69;
    166 : F20B;
    167 : FD0A;
    168 : F015;
    169 : FBFE;
    170 : 0935;
    171 : 1031;
    172 : E925;
    173 : 1BDB;
    174 : FA07;
    175 : 00DF;
    176 : 0DDB;
    177 : 038A;
    178 : EFBB;
    179 : 03FB;
    180 : FC19;
    181 : F456;
    182 : FED1;
    183 : FEC5;
    184 : FAA7;
    185 : E4B1;
    186 : FE05;
    187 : 0E54;
    188 : F11F;
    189 : 1EF9;
    190 : DFF7;
    191 : 11D0;
    192 : 0BBD;
    193 : E889;
    194 : 198F;
    195 : DFFD;
    196 : 1C04;
    197 : E49B;
    198 : 0000;
    199 : F1B6;
    200 : FEE2;
    201 : FA7A;
    202 : F2E2;
    203 : E7FF;
    204 : F45C;
    205 : 0960;
    206 : ED1F;
    207 : 2406;
    208 : CA64;
    209 : 2672;
    210 : 01FE;
    211 : F2A2;
    212 : E89F;
    213 : 2C98;
    214 : BF3E;
    215 : 45AC;
    216 : 0543;
    217 : F21C;
    218 : E477;
    219 : 2EEA;
    220 : C471;
    221 : 2A59;
    222 : E839;
    223 : 175D;
    224 : 0356;
    225 : 0200;
    226 : EE29;
    227 : 1FB4;
    228 : 01FC;
    229 : F52F;
    230 : 0B3E;
    231 : 09DC;
    232 : 1557;
    233 : FA0B;
    234 : 0C09;
    235 : 071D;
    236 : F8B5;
    237 : F88F;
    238 : 129E;
    239 : EDF2;
    240 : 1CCE;
    241 : F318;
    242 : 0EA1;
    243 : E87A;
    244 : 0217;
    245 : E95E;
    246 : ED69;
    247 : F5F1;
    248 : FF1A;
    249 : 0037;
    250 : 0C90;
    251 : 0873;
    252 : EE0D;
    253 : 0A34;
    254 : FDAD;
    255 : 1586;
    256 : F4EF;
    257 : 2DDF;
    258 : 161E;
    259 : 0CBE;
    260 : F7F0;
    261 : EF4B;
    262 : 001F;
    263 : E9E2;
    264 : FC05;
    265 : FC1B;
    266 : EE80;
    267 : 1DB2;
    268 : DC2F;
    269 : 23D5;
    270 : FA02;
    271 : EED3;
    272 : EC3A;
    273 : 1F02;
    274 : DE5E;
    275 : 1BF5;
    276 : 060E;
    277 : FA01;
    278 : 0F9E;
    279 : D9AE;
    280 : 1F0B;
    281 : C779;
    282 : 0E3D;
    283 : DE0D;
    284 : 12C9;
    285 : E7C4;
    286 : 160B;
    287 : D73F;
    288 : 207C;
    289 : EC00;
    290 : 17DA;
    291 : DD7E;
    292 : 1C42;
    293 : E393;
    294 : 0208;
    295 : FE76;
    296 : 0F94;
    297 : E583;
    298 : FC0F;
    299 : EDB5;
    300 : F827;
    301 : FEBE;
    302 : EB83;
    303 : 1D97;
    304 : D22E;
    305 : 0FB2;
    306 : F614;
    307 : F618;
    308 : 0653;
    309 : 06A4;
    310 : 06E6;
    311 : 00FE;
    312 : 0FA1;
    313 : F666;
    314 : 115B;
    315 : E816;
    316 : 275B;
    317 : F448;
    318 : 0000;
    319 : ED62;
    320 : 0C7F;
    321 : F8C5;
    322 : FF21;
    323 : F224;
    324 : EC4D;
    325 : 1D04;
    326 : EEF1;
    327 : 0A3A;
    328 : E16C;
    329 : 1C91;
    330 : EE29;
    331 : 0FDA;
    332 : F8FA;
    333 : 05E6;
    334 : F8D0;
    335 : 0E3F;
    336 : 0202;
    337 : F743;
    338 : F5D3;
    339 : F99A;
    340 : 0AAC;
    341 : F9FA;
    342 : 1011;
    343 : FCC1;
    344 : F1CB;
    345 : EF95;
    346 : F390;
    347 : 0000;
    348 : F7F6;
    349 : 0170;
    350 : F604;
    351 : 0151;
    352 : E6A6;
    353 : 1E26;
    354 : 0BE8;
    355 : EB96;
    356 : 1022;
    357 : 0118;
    358 : 2156;
    359 : EC28;
    360 : E8A1;
    361 : 0976;
    362 : E556;
    363 : 2D87;
    364 : DDDA;
    365 : 3C50;
    366 : EE58;
    367 : EF91;
    368 : 0997;
    369 : FAA2;
    370 : 0EE8;
    371 : EA6B;
    372 : E1CD;
    373 : 1E34;
    374 : FC52;
    375 : F2E4;
    376 : E95F;
    377 : 0A11;
    378 : F403;
    379 : 081C;
    380 : E7CA;
    381 : 26FF;
    382 : D4E4;
    383 : 3075;
END;
