WIDTH=16;
DEPTH=384;

ADDRESS_RADIX=DEC;
DATA_RADIX=HEX;

CONTENT BEGIN
    0 : FFA4;
    1 : F1AD;
    2 : 0077;
    3 : 022B;
    4 : F0DA;
    5 : 0764;
    6 : 03E7;
    7 : F566;
    8 : FE58;
    9 : FEE8;
    10 : 1773;
    11 : EA89;
    12 : F226;
    13 : EFFA;
    14 : FC20;
    15 : 06FC;
    16 : F19F;
    17 : 0000;
    18 : 0C05;
    19 : F03D;
    20 : 06F7;
    21 : 08B7;
    22 : 0F5A;
    23 : E7F7;
    24 : F5DF;
    25 : 083A;
    26 : 14CC;
    27 : F648;
    28 : 047B;
    29 : FBF3;
    30 : 17BC;
    31 : 028A;
    32 : FC1A;
    33 : 1AE8;
    34 : DB0C;
    35 : 1BB1;
    36 : F140;
    37 : FB58;
    38 : FB92;
    39 : 0B35;
    40 : 0856;
    41 : 12D1;
    42 : F257;
    43 : F659;
    44 : 0D42;
    45 : E7A2;
    46 : 14E3;
    47 : F5C1;
    48 : 0000;
    49 : F6A8;
    50 : F433;
    51 : 06B1;
    52 : 0BC1;
    53 : F404;
    54 : FC0A;
    55 : 090A;
    56 : FB21;
    57 : F85F;
    58 : E0D0;
    59 : 0F57;
    60 : 173C;
    61 : E585;
    62 : 0169;
    63 : FD8C;
    64 : 1D7C;
    65 : D946;
    66 : 07EF;
    67 : F54C;
    68 : 0275;
    69 : F8B0;
    70 : F0E1;
    71 : 13D5;
    72 : 0BD4;
    73 : EBD8;
    74 : FABB;
    75 : F447;
    76 : 18E5;
    77 : EC49;
    78 : F640;
    79 : 0AC2;
    80 : F624;
    81 : 169B;
    82 : CE89;
    83 : 1D3F;
    84 : FDF5;
    85 : FE88;
    86 : 16A4;
    87 : F875;
    88 : FAA2;
    89 : ED9C;
    90 : 0E70;
    91 : E559;
    92 : 0EAB;
    93 : E992;
    94 : 2F7C;
    95 : D69D;
    96 : 0BE0;
    97 : E59D;
    98 : 00F2;
    99 : EA5D;
    100 : 1E56;
    101 : DC5F;
    102 : F83C;
    103 : 0C1E;
    104 : 05E1;
    105 : FDCD;
    106 : F6F3;
    107 : EE87;
    108 : F872;
    109 : EF83;
    110 : 1A92;
    111 : E841;
    112 : 2AF7;
    113 : E1CA;
    114 : F5F8;
    115 : FD3B;
    116 : EAF9;
    117 : 141F;
    118 : D9CE;
    119 : 2019;
    120 : 1B9E;
    121 : EC2C;
    122 : 08CF;
    123 : E6A6;
    124 : 0E80;
    125 : 03F2;
    126 : 081C;
    127 : 093A;
    128 : 0D3B;
    129 : EA58;
    130 : FE5F;
    131 : 040E;
    132 : ECEC;
    133 : 11EE;
    134 : F5E9;
    135 : 0929;
    136 : D9ED;
    137 : 1BAA;
    138 : 15D7;
    139 : EA9D;
    140 : EE61;
    141 : F270;
    142 : 141F;
    143 : FE04;
    144 : FC01;
    145 : 1807;
    146 : 0099;
    147 : EEC7;
    148 : 08B6;
    149 : F005;
    150 : EACB;
    151 : 0FEE;
    152 : CF14;
    153 : 4108;
    154 : CB67;
    155 : 3B62;
    156 : FA75;
    157 : 0109;
    158 : FB40;
    159 : 07FB;
    160 : D718;
    161 : 18F3;
    162 : 0200;
    163 : FE72;
    164 : 026D;
    165 : EEE2;
    166 : FEC7;
    167 : EE01;
    168 : 081D;
    169 : EF66;
    170 : FBEC;
    171 : 17BE;
    172 : D563;
    173 : 30AE;
    174 : 0C7D;
    175 : FD82;
    176 : 21E8;
    177 : DFE2;
    178 : 26EF;
    179 : D235;
    180 : EC86;
    181 : FB4D;
    182 : 0B6D;
    183 : ED4E;
    184 : 089B;
    185 : F836;
    186 : 0CDA;
    187 : 0447;
    188 : FB06;
    189 : FE1F;
    190 : F213;
    191 : FD09;
    192 : FAB2;
    193 : F1CB;
    194 : 0401;
    195 : EE96;
    196 : F770;
    197 : 02B7;
    198 : EE29;
    199 : 02F9;
    200 : 01D9;
    201 : 0513;
    202 : E23B;
    203 : 17C9;
    204 : 11E2;
    205 : 0290;
    206 : FC33;
    207 : ECF9;
    208 : FD17;
    209 : F01B;
    210 : 0A84;
    211 : F1AA;
    212 : 01A2;
    213 : F0B3;
    214 : 1F0B;
    215 : E3CA;
    216 : E5DB;
    217 : FB6E;
    218 : 090F;
    219 : 1438;
    220 : E6E8;
    221 : 141C;
    222 : D614;
    223 : 225B;
    224 : F85A;
    225 : 1CB5;
    226 : D818;
    227 : 1FF1;
    228 : E801;
    229 : FC07;
    230 : F31E;
    231 : 0403;
    232 : 0713;
    233 : 0000;
    234 : 0C1D;
    235 : FE60;
    236 : 1497;
    237 : E439;
    238 : 1978;
    239 : D9A5;
    240 : 1481;
    241 : EFBE;
    242 : 1821;
    243 : D91A;
    244 : 13F5;
    245 : E34B;
    246 : 0EF5;
    247 : EDD9;
    248 : 0A80;
    249 : F8BC;
    250 : 2342;
    251 : 0000;
    252 : F3A8;
    253 : 0319;
    254 : E2EE;
    255 : 3090;
    256 : D7AC;
    257 : 2927;
    258 : F9FD;
    259 : FFC2;
    260 : 0D36;
    261 : 0CE6;
    262 : E333;
    263 : F3FA;
    264 : 0C0D;
    265 : FA9A;
    266 : 0173;
    267 : 19AE;
    268 : E9CC;
    269 : 1011;
    270 : F5FB;
    271 : F642;
    272 : 0247;
    273 : 08AB;
    274 : 05EC;
    275 : 1007;
    276 : E9DE;
    277 : 1C36;
    278 : F67C;
    279 : 1882;
    280 : D7D0;
    281 : 23B1;
    282 : 0C21;
    283 : EE2D;
    284 : F3FB;
    285 : 051F;
    286 : F10B;
    287 : 10E1;
    288 : 0000;
    289 : 05D2;
    290 : 040A;
    291 : ED51;
    292 : F9EE;
    293 : 0BF6;
    294 : FE4F;
    295 : F7FF;
    296 : 15D1;
    297 : DA46;
    298 : 1092;
    299 : DF56;
    300 : F41C;
    301 : 06D5;
    302 : FF38;
    303 : 0F91;
    304 : DCB1;
    305 : 19C4;
    306 : 04AC;
    307 : FE38;
    308 : E732;
    309 : 2929;
    310 : EAD7;
    311 : 234D;
    312 : F796;
    313 : 0F0F;
    314 : E428;
    315 : 2320;
    316 : E867;
    317 : 23C3;
    318 : 00FD;
    319 : 0164;
    320 : F7F5;
    321 : 1101;
    322 : DE64;
    323 : 1870;
    324 : FFC3;
    325 : 1217;
    326 : F3CC;
    327 : 174F;
    328 : C2F7;
    329 : 29FE;
    330 : 1C03;
    331 : FBC0;
    332 : 09AA;
    333 : 014B;
    334 : 16F0;
    335 : 0000;
    336 : F1FF;
    337 : FE18;
    338 : FBF1;
    339 : 076B;
    340 : 017A;
    341 : 0400;
    342 : ECBF;
    343 : 082B;
    344 : EFFB;
    345 : 0B84;
    346 : D408;
    347 : 171B;
    348 : 0FDB;
    349 : EFF2;
    350 : F934;
    351 : F42C;
    352 : F5EE;
    353 : 0EDE;
    354 : F7FC;
    355 : F7FF;
    356 : 1002;
    357 : 061C;
    358 : 15D6;
    359 : F7FC;
    360 : 0FE4;
    361 : EEFD;
    362 : F785;
    363 : FF9F;
    364 : 1383;
    365 : 17D6;
    366 : 09B3;
    367 : E38E;
    368 : 0782;
    369 : F3AD;
    370 : 1461;
    371 : FC1F;
    372 : 1007;
    373 : 0296;
    374 : 0C7A;
    375 : 0AAC;
    376 : E951;
    377 : 0000;
    378 : 0000;
    379 : FA13;
    380 : F4F2;
    381 : EE62;
    382 : 0BD8;
    383 : F811;
END;
