WIDTH=16;
DEPTH=384;

ADDRESS_RADIX=DEC;
DATA_RADIX=HEX;

CONTENT BEGIN
    0 : FA8B;
    1 : FAC3;
    2 : EC99;
    3 : 241D;
    4 : C4CA;
    5 : 27B2;
    6 : F1EC;
    7 : F4F6;
    8 : EFA9;
    9 : FE71;
    10 : F0F8;
    11 : 1017;
    12 : FC06;
    13 : F0DF;
    14 : 0E30;
    15 : 080F;
    16 : 097B;
    17 : F80B;
    18 : 1815;
    19 : F1FF;
    20 : EC9B;
    21 : FBA6;
    22 : F61B;
    23 : 1C19;
    24 : FAF4;
    25 : 06F0;
    26 : 0B0B;
    27 : E517;
    28 : 0D02;
    29 : F8EF;
    30 : 0D5A;
    31 : 0EF3;
    32 : 1062;
    33 : D9A5;
    34 : 2289;
    35 : D432;
    36 : 0E00;
    37 : E708;
    38 : FBF4;
    39 : 0E16;
    40 : 03C5;
    41 : 1600;
    42 : 0200;
    43 : E588;
    44 : 0EFB;
    45 : D75F;
    46 : 2017;
    47 : C7FA;
    48 : 0802;
    49 : E724;
    50 : 02DB;
    51 : E35D;
    52 : 2054;
    53 : D7F4;
    54 : 081D;
    55 : 092B;
    56 : 0CAF;
    57 : DD2F;
    58 : 15C7;
    59 : CD48;
    60 : 1C2D;
    61 : E29F;
    62 : F7FA;
    63 : 0244;
    64 : F905;
    65 : 0E17;
    66 : 0000;
    67 : F69A;
    68 : 0303;
    69 : 0F41;
    70 : F0B3;
    71 : 0BF3;
    72 : F3ED;
    73 : ED25;
    74 : F576;
    75 : 18B4;
    76 : D80B;
    77 : 4064;
    78 : FA01;
    79 : 1470;
    80 : FA09;
    81 : FC48;
    82 : EEC1;
    83 : FA01;
    84 : 15EE;
    85 : 0955;
    86 : 0619;
    87 : FDF8;
    88 : F771;
    89 : F608;
    90 : FC55;
    91 : F19D;
    92 : E82C;
    93 : 121F;
    94 : E954;
    95 : 2530;
    96 : EC1D;
    97 : 029C;
    98 : FF1B;
    99 : 0B16;
    100 : E95D;
    101 : 1FD2;
    102 : 1C2F;
    103 : 0B87;
    104 : FD6B;
    105 : F0D9;
    106 : F248;
    107 : 101B;
    108 : 0DE8;
    109 : F6DD;
    110 : 00FB;
    111 : 053F;
    112 : FF48;
    113 : 0000;
    114 : DECC;
    115 : 07B2;
    116 : E1EC;
    117 : 1C70;
    118 : C70E;
    119 : 2EE0;
    120 : EA10;
    121 : 07C8;
    122 : FCB5;
    123 : 118C;
    124 : E3B5;
    125 : 29E2;
    126 : FAFD;
    127 : 0DFB;
    128 : 093E;
    129 : FD41;
    130 : F829;
    131 : EDF3;
    132 : 01ED;
    133 : 116B;
    134 : E6F6;
    135 : 166D;
    136 : D35A;
    137 : 20B6;
    138 : FBFE;
    139 : F55D;
    140 : F679;
    141 : 160F;
    142 : F681;
    143 : 1289;
    144 : 2897;
    145 : F7E4;
    146 : 10BA;
    147 : D93F;
    148 : 183C;
    149 : E59E;
    150 : 103C;
    151 : F024;
    152 : F0C2;
    153 : 1D88;
    154 : F224;
    155 : 30B4;
    156 : 1C62;
    157 : E784;
    158 : 0C5E;
    159 : E9EA;
    160 : 037C;
    161 : 0000;
    162 : F5D9;
    163 : 1A4A;
    164 : EE56;
    165 : 182F;
    166 : D730;
    167 : 27A4;
    168 : 01F0;
    169 : EA56;
    170 : 0854;
    171 : F17B;
    172 : 049F;
    173 : F74A;
    174 : 0BBE;
    175 : 02EC;
    176 : FA99;
    177 : 01FF;
    178 : E876;
    179 : 1970;
    180 : FA03;
    181 : F5D4;
    182 : 0558;
    183 : F529;
    184 : 013F;
    185 : E60F;
    186 : F11F;
    187 : 0FDF;
    188 : FA1D;
    189 : 157B;
    190 : E048;
    191 : 17CE;
    192 : E3F0;
    193 : 075A;
    194 : EE8C;
    195 : 1DC9;
    196 : DDF2;
    197 : 0805;
    198 : 0808;
    199 : EB5E;
    200 : 1568;
    201 : DEDE;
    202 : 0A88;
    203 : E7E7;
    204 : F415;
    205 : 02E5;
    206 : F72A;
    207 : 0F08;
    208 : EB96;
    209 : 0000;
    210 : 19FD;
    211 : D895;
    212 : 140C;
    213 : DF47;
    214 : 214D;
    215 : CD06;
    216 : 0402;
    217 : F5B3;
    218 : EE5D;
    219 : EFDC;
    220 : FA66;
    221 : F7FB;
    222 : FC16;
    223 : 115D;
    224 : F82C;
    225 : 0A2A;
    226 : F1F4;
    227 : FC16;
    228 : 0406;
    229 : F0EC;
    230 : F5A4;
    231 : 18A0;
    232 : EC47;
    233 : 2C44;
    234 : 0000;
    235 : FD74;
    236 : 132D;
    237 : D710;
    238 : 4092;
    239 : BBDD;
    240 : FB19;
    241 : 1AB9;
    242 : F114;
    243 : 22D0;
    244 : CCDC;
    245 : 2C1D;
    246 : 1C1E;
    247 : E960;
    248 : F1F9;
    249 : FC73;
    250 : 1153;
    251 : 2023;
    252 : EFA6;
    253 : FAE5;
    254 : F5E3;
    255 : 0A4C;
    256 : F46B;
    257 : 167B;
    258 : 09D9;
    259 : 01D0;
    260 : FA8D;
    261 : 1188;
    262 : DD89;
    263 : F627;
    264 : FA04;
    265 : F615;
    266 : F8C5;
    267 : 0F6B;
    268 : E719;
    269 : 13F1;
    270 : 0C02;
    271 : EB8F;
    272 : FABF;
    273 : FB83;
    274 : 043A;
    275 : 1603;
    276 : 0609;
    277 : FD2F;
    278 : 05F0;
    279 : E05E;
    280 : 12A2;
    281 : DBCD;
    282 : 1BD3;
    283 : E9B7;
    284 : 1679;
    285 : D810;
    286 : 1FFD;
    287 : E42D;
    288 : 1022;
    289 : EC7E;
    290 : 1183;
    291 : E051;
    292 : 188D;
    293 : D21E;
    294 : 03ED;
    295 : 0477;
    296 : FFD0;
    297 : FE78;
    298 : E1F8;
    299 : 178E;
    300 : 0B36;
    301 : F7B7;
    302 : EA9B;
    303 : 1B86;
    304 : D087;
    305 : 18DC;
    306 : 0403;
    307 : ECB3;
    308 : F7B3;
    309 : FE50;
    310 : 009F;
    311 : 0605;
    312 : ECE7;
    313 : 0702;
    314 : EE1B;
    315 : 1F1D;
    316 : DCB9;
    317 : 2A37;
    318 : F40E;
    319 : FD3A;
    320 : FB0F;
    321 : 0F2A;
    322 : CE6F;
    323 : 37BF;
    324 : 09F4;
    325 : 01BE;
    326 : 0A32;
    327 : 05A8;
    328 : F1F6;
    329 : FB06;
    330 : 182C;
    331 : FD73;
    332 : 0B8D;
    333 : EEA5;
    334 : 1275;
    335 : FBF9;
    336 : FBD3;
    337 : 0A38;
    338 : EF9D;
    339 : 10C9;
    340 : EF77;
    341 : 3222;
    342 : 0000;
    343 : 00A1;
    344 : F0C3;
    345 : 09E3;
    346 : E88C;
    347 : FC1E;
    348 : DE0B;
    349 : FDD1;
    350 : FE9B;
    351 : 119F;
    352 : E085;
    353 : 18F8;
    354 : F80D;
    355 : F749;
    356 : 1692;
    357 : FD9F;
    358 : 1FEA;
    359 : F01A;
    360 : 0000;
    361 : E5DD;
    362 : FA21;
    363 : F424;
    364 : 0FEE;
    365 : F3FF;
    366 : FE00;
    367 : EA6A;
    368 : FA47;
    369 : 0FF9;
    370 : EB50;
    371 : 1C02;
    372 : F1FB;
    373 : 0E20;
    374 : 10FD;
    375 : FF3A;
    376 : F4F1;
    377 : E5F7;
    378 : 1AD1;
    379 : F5FD;
    380 : 044E;
    381 : 02E5;
    382 : 12AC;
    383 : EA27;
END;
