WIDTH=16;
DEPTH=384;

ADDRESS_RADIX=DEC;
DATA_RADIX=HEX;

CONTENT BEGIN
    0 : 0000;
    1 : 0953;
    2 : 0B92;
    3 : EC45;
    4 : 2D71;
    5 : DA7F;
    6 : 0715;
    7 : 0009;
    8 : 15BD;
    9 : E928;
    10 : 1401;
    11 : E5B2;
    12 : F5CA;
    13 : 0FD7;
    14 : 1593;
    15 : F547;
    16 : 0D09;
    17 : F0AF;
    18 : 0387;
    19 : FB36;
    20 : 18B6;
    21 : E74A;
    22 : 21C3;
    23 : D9AF;
    24 : E235;
    25 : 095A;
    26 : F8F5;
    27 : 0AE3;
    28 : F077;
    29 : 0DE7;
    30 : F1B4;
    31 : 0370;
    32 : F80B;
    33 : 0FE9;
    34 : 0153;
    35 : 1262;
    36 : F9F5;
    37 : 1235;
    38 : 037E;
    39 : 0C9F;
    40 : E4E8;
    41 : 1220;
    42 : F040;
    43 : 161E;
    44 : F0E0;
    45 : 16C6;
    46 : F0AF;
    47 : 03F0;
    48 : 07DD;
    49 : 078C;
    50 : FCB8;
    51 : F76E;
    52 : 0909;
    53 : EC58;
    54 : EDC6;
    55 : 008C;
    56 : 0C36;
    57 : 0E0E;
    58 : 1B09;
    59 : E9B9;
    60 : 07E2;
    61 : 0C46;
    62 : 0596;
    63 : FC57;
    64 : 0101;
    65 : 07E2;
    66 : F5DB;
    67 : 0263;
    68 : 018C;
    69 : 1C95;
    70 : F241;
    71 : F9EA;
    72 : 0C55;
    73 : 0F6B;
    74 : 010D;
    75 : F4B5;
    76 : F576;
    77 : 0766;
    78 : F2CB;
    79 : F23B;
    80 : 1351;
    81 : EC8D;
    82 : 245F;
    83 : DE0A;
    84 : 041B;
    85 : F2C4;
    86 : F84C;
    87 : 1818;
    88 : 01FC;
    89 : FDF3;
    90 : 0000;
    91 : F7AA;
    92 : 1DE7;
    93 : EA41;
    94 : 1B83;
    95 : D2DB;
    96 : FB13;
    97 : FEE2;
    98 : 13D6;
    99 : DB3D;
    100 : 3047;
    101 : DF7D;
    102 : 0509;
    103 : EDF2;
    104 : 114B;
    105 : E355;
    106 : 2DD5;
    107 : DE30;
    108 : 13B9;
    109 : 072F;
    110 : 0494;
    111 : E78F;
    112 : 0B2F;
    113 : 0BD6;
    114 : 1235;
    115 : F5FC;
    116 : 082C;
    117 : 08BF;
    118 : 09CC;
    119 : EBC6;
    120 : F5E2;
    121 : 0BB7;
    122 : 07D9;
    123 : 0904;
    124 : 0C64;
    125 : 0818;
    126 : FC14;
    127 : F77C;
    128 : 01B7;
    129 : 1CCB;
    130 : FE26;
    131 : 04B0;
    132 : FF02;
    133 : 0410;
    134 : F192;
    135 : 0CD8;
    136 : F883;
    137 : 190C;
    138 : F23E;
    139 : 09FA;
    140 : 15FE;
    141 : 0075;
    142 : 01BD;
    143 : E1F0;
    144 : E767;
    145 : 050E;
    146 : F704;
    147 : 21DC;
    148 : EA56;
    149 : 1A22;
    150 : F81C;
    151 : 0348;
    152 : FE3D;
    153 : F219;
    154 : F1FF;
    155 : 0000;
    156 : 01F0;
    157 : FB5C;
    158 : 1182;
    159 : E0E4;
    160 : 2A7B;
    161 : E6EC;
    162 : 038D;
    163 : EBE4;
    164 : 04CC;
    165 : 1056;
    166 : F615;
    167 : 0186;
    168 : 1438;
    169 : F28A;
    170 : 1D27;
    171 : E288;
    172 : 3166;
    173 : E3B2;
    174 : EE69;
    175 : 0128;
    176 : 0087;
    177 : F65D;
    178 : 07D9;
    179 : 04E3;
    180 : E3DD;
    181 : 1195;
    182 : 001B;
    183 : 198A;
    184 : F246;
    185 : 1297;
    186 : 06CF;
    187 : 08A9;
    188 : FAF5;
    189 : 0AB4;
    190 : F7F0;
    191 : 1949;
    192 : F917;
    193 : 0C74;
    194 : 069C;
    195 : E674;
    196 : 17D4;
    197 : F131;
    198 : EDBE;
    199 : 0043;
    200 : 013D;
    201 : 10C3;
    202 : 0512;
    203 : F5DB;
    204 : F379;
    205 : FC16;
    206 : 0E0B;
    207 : 0B06;
    208 : 19FE;
    209 : F3DA;
    210 : 0818;
    211 : 049A;
    212 : 1516;
    213 : EAAB;
    214 : 0CE4;
    215 : F3DC;
    216 : 0DF6;
    217 : 0354;
    218 : 188E;
    219 : E948;
    220 : 37CB;
    221 : D421;
    222 : FDEB;
    223 : FEB5;
    224 : 0C05;
    225 : DF32;
    226 : 2292;
    227 : EB2A;
    228 : FC02;
    229 : 0C4A;
    230 : 0D8A;
    231 : EE6D;
    232 : 12A8;
    233 : D41B;
    234 : E590;
    235 : 01BA;
    236 : F4D9;
    237 : 1934;
    238 : F1D8;
    239 : 1867;
    240 : 1299;
    241 : E8D7;
    242 : 0DF2;
    243 : F5B4;
    244 : 2299;
    245 : DF93;
    246 : 01FB;
    247 : 1106;
    248 : 04EF;
    249 : F10A;
    250 : EF05;
    251 : 01FB;
    252 : F4ED;
    253 : 19DE;
    254 : FA28;
    255 : 28EE;
    256 : DC3C;
    257 : 1829;
    258 : F355;
    259 : 0433;
    260 : DA25;
    261 : 2E1B;
    262 : DED0;
    263 : 32AB;
    264 : F43F;
    265 : 02EA;
    266 : FF92;
    267 : FC4C;
    268 : 0C82;
    269 : F635;
    270 : 0CE5;
    271 : FFD9;
    272 : 1B69;
    273 : D693;
    274 : 2BA7;
    275 : BD8E;
    276 : 0EE1;
    277 : E938;
    278 : 13E9;
    279 : ED71;
    280 : 2638;
    281 : E015;
    282 : 040C;
    283 : 1313;
    284 : 08C3;
    285 : 0B1D;
    286 : 01CC;
    287 : 143B;
    288 : 03E9;
    289 : F30B;
    290 : 0270;
    291 : ED8C;
    292 : 2653;
    293 : E888;
    294 : 04BD;
    295 : FF8A;
    296 : 0CA7;
    297 : F526;
    298 : 28A7;
    299 : F778;
    300 : 09F7;
    301 : EFE7;
    302 : 0AFF;
    303 : FF49;
    304 : 0F10;
    305 : EA14;
    306 : F1DF;
    307 : 0E86;
    308 : 0344;
    309 : 16F3;
    310 : E35E;
    311 : 1A3D;
    312 : 0801;
    313 : FF0F;
    314 : 0740;
    315 : 00AA;
    316 : 060E;
    317 : DFFB;
    318 : F215;
    319 : 033C;
    320 : 1742;
    321 : F45C;
    322 : 15FF;
    323 : FC06;
    324 : E7EC;
    325 : 0A3C;
    326 : E82B;
    327 : 28AA;
    328 : E2DF;
    329 : 2AEB;
    330 : F05F;
    331 : 1938;
    332 : F08D;
    333 : 16C4;
    334 : E79E;
    335 : 2608;
    336 : FBE1;
    337 : 058C;
    338 : 1EEF;
    339 : ECFD;
    340 : 1D0E;
    341 : DBED;
    342 : F423;
    343 : 0AB3;
    344 : F292;
    345 : 0541;
    346 : 06E4;
    347 : 07E9;
    348 : 27AF;
    349 : F21E;
    350 : 16E1;
    351 : E372;
    352 : 2C22;
    353 : EC28;
    354 : FBEE;
    355 : 0A1D;
    356 : 1CD8;
    357 : F51E;
    358 : 0E00;
    359 : EDB1;
    360 : F20A;
    361 : 2424;
    362 : EF4A;
    363 : 2672;
    364 : C5F9;
    365 : 23E5;
    366 : F208;
    367 : 2288;
    368 : EC69;
    369 : 2E14;
    370 : C5C1;
    371 : 31E3;
    372 : CC5A;
    373 : 146C;
    374 : E325;
    375 : 3797;
    376 : D689;
    377 : 2D74;
    378 : F829;
    379 : 07B1;
    380 : F8B7;
    381 : FF43;
    382 : ECD8;
    383 : 0BC2;
END;
