WIDTH=16;
DEPTH=384;

ADDRESS_RADIX=DEC;
DATA_RADIX=HEX;

CONTENT BEGIN
    0 : EC51;
    1 : 1BE1;
    2 : EA0F;
    3 : 20A6;
    4 : D6D3;
    5 : 13AF;
    6 : EA8E;
    7 : 20D2;
    8 : E8C0;
    9 : 155B;
    10 : DDA5;
    11 : 26FD;
    12 : D7D3;
    13 : 0C6F;
    14 : ECF6;
    15 : 0DFD;
    16 : ED42;
    17 : 1416;
    18 : 0000;
    19 : 0510;
    20 : 05EA;
    21 : FCF3;
    22 : F5A8;
    23 : 0FCD;
    24 : 1020;
    25 : F5C1;
    26 : 0187;
    27 : E542;
    28 : 24C6;
    29 : D3A7;
    30 : 1B98;
    31 : F407;
    32 : 0359;
    33 : FF8B;
    34 : 0C4C;
    35 : F330;
    36 : F233;
    37 : 1770;
    38 : F41E;
    39 : 18BB;
    40 : D59B;
    41 : 2D59;
    42 : 13C0;
    43 : F8FA;
    44 : 0601;
    45 : 00DE;
    46 : FC82;
    47 : 0000;
    48 : 15C7;
    49 : 0115;
    50 : 0BDA;
    51 : F71F;
    52 : 07E3;
    53 : EC34;
    54 : EFF8;
    55 : 0241;
    56 : 0BAA;
    57 : E947;
    58 : 1905;
    59 : E3F2;
    60 : 03F2;
    61 : F388;
    62 : FF33;
    63 : 0593;
    64 : F405;
    65 : 17AF;
    66 : 0ADE;
    67 : F0B2;
    68 : 03DE;
    69 : 05FB;
    70 : 14D9;
    71 : EC3E;
    72 : 00C0;
    73 : FBAF;
    74 : 01C0;
    75 : F52C;
    76 : 04CA;
    77 : F9FF;
    78 : 02E5;
    79 : F1C5;
    80 : 0132;
    81 : FA05;
    82 : 0304;
    83 : F847;
    84 : 00DD;
    85 : F4B1;
    86 : 01C0;
    87 : 0939;
    88 : 0B9A;
    89 : F363;
    90 : F75D;
    91 : 1266;
    92 : F570;
    93 : 05E7;
    94 : E58F;
    95 : 1EB6;
    96 : 1609;
    97 : 0422;
    98 : F1A0;
    99 : 0357;
    100 : F12D;
    101 : 200D;
    102 : FA1B;
    103 : F59D;
    104 : 147C;
    105 : DCF0;
    106 : 30ED;
    107 : DE97;
    108 : 0DBE;
    109 : 0768;
    110 : FE21;
    111 : 01DC;
    112 : F6CB;
    113 : 01F7;
    114 : 107F;
    115 : 08D0;
    116 : F5F7;
    117 : FCEC;
    118 : F931;
    119 : 02F3;
    120 : 03F6;
    121 : 0857;
    122 : 0E3C;
    123 : 0097;
    124 : 0504;
    125 : F41E;
    126 : FBF8;
    127 : 07E7;
    128 : F12D;
    129 : ED94;
    130 : 0EBF;
    131 : F7EF;
    132 : 0709;
    133 : FB3F;
    134 : F6B4;
    135 : 0054;
    136 : 074D;
    137 : 04C6;
    138 : F817;
    139 : 06FC;
    140 : 0618;
    141 : F717;
    142 : 0DC1;
    143 : DC66;
    144 : EEF0;
    145 : 0316;
    146 : 0546;
    147 : 0DFC;
    148 : FF2D;
    149 : 00ED;
    150 : 2C88;
    151 : F314;
    152 : 0E3D;
    153 : E0AF;
    154 : 1A5D;
    155 : DF9D;
    156 : EB95;
    157 : 1611;
    158 : DBED;
    159 : 16D2;
    160 : F2E9;
    161 : 146B;
    162 : 07DA;
    163 : ECCB;
    164 : 166D;
    165 : D90B;
    166 : 3379;
    167 : D6C6;
    168 : 0909;
    169 : FCA8;
    170 : EE69;
    171 : 058A;
    172 : F8DC;
    173 : 0A0A;
    174 : EB9E;
    175 : 082F;
    176 : DC1F;
    177 : 22B4;
    178 : D7BE;
    179 : 30EB;
    180 : FA15;
    181 : 107B;
    182 : 021A;
    183 : 0691;
    184 : F8F6;
    185 : 09DD;
    186 : 0000;
    187 : FA5C;
    188 : F169;
    189 : 058E;
    190 : F6FC;
    191 : FBFE;
    192 : EBE9;
    193 : 04FA;
    194 : 010D;
    195 : EDCE;
    196 : 21A1;
    197 : E3E0;
    198 : F604;
    199 : 108D;
    200 : F5BD;
    201 : 013F;
    202 : F207;
    203 : 05FD;
    204 : FB8C;
    205 : 08A9;
    206 : F4BE;
    207 : 0454;
    208 : EE0B;
    209 : 15C5;
    210 : 0810;
    211 : FAF1;
    212 : 01E6;
    213 : F0F9;
    214 : 1522;
    215 : D3A5;
    216 : FD82;
    217 : F52A;
    218 : 0D3A;
    219 : E69D;
    220 : 22C6;
    221 : E690;
    222 : ED39;
    223 : FEE0;
    224 : 007B;
    225 : 07E8;
    226 : FF1B;
    227 : 09C2;
    228 : F041;
    229 : 1602;
    230 : EC19;
    231 : 18CB;
    232 : D68F;
    233 : 3525;
    234 : 1293;
    235 : F0E0;
    236 : 0F3D;
    237 : EAE5;
    238 : 22A3;
    239 : DCCF;
    240 : 0CD9;
    241 : F1A2;
    242 : 0F91;
    243 : DFC6;
    244 : 39EC;
    245 : CB9F;
    246 : 0373;
    247 : EEF6;
    248 : 0A4B;
    249 : F815;
    250 : 1581;
    251 : E85B;
    252 : FDFC;
    253 : FFF2;
    254 : F391;
    255 : F545;
    256 : FE18;
    257 : F7F0;
    258 : 182D;
    259 : F15B;
    260 : 099C;
    261 : E139;
    262 : 0E0C;
    263 : F7F1;
    264 : FA10;
    265 : 0441;
    266 : 0DC8;
    267 : F91C;
    268 : 0817;
    269 : F41F;
    270 : F033;
    271 : 0BC2;
    272 : 094D;
    273 : 0175;
    274 : 0A28;
    275 : FC0D;
    276 : FC12;
    277 : FAB2;
    278 : 0572;
    279 : F97F;
    280 : FA7A;
    281 : 0FB9;
    282 : F830;
    283 : 163E;
    284 : FA82;
    285 : 0487;
    286 : EA81;
    287 : 1B58;
    288 : E877;
    289 : 1B11;
    290 : E48B;
    291 : 2630;
    292 : DABE;
    293 : 1B75;
    294 : 0375;
    295 : FE8A;
    296 : FD72;
    297 : 1336;
    298 : EBBC;
    299 : 01BA;
    300 : 0C24;
    301 : F056;
    302 : ECAA;
    303 : 0644;
    304 : FD65;
    305 : 0E2B;
    306 : F5E7;
    307 : 113B;
    308 : F84F;
    309 : EAA7;
    310 : 062C;
    311 : F9F1;
    312 : ED0A;
    313 : 01A2;
    314 : 00C4;
    315 : F849;
    316 : F2A8;
    317 : 19F2;
    318 : 02F9;
    319 : FE2E;
    320 : FA9E;
    321 : FEE8;
    322 : 05F2;
    323 : 0DDF;
    324 : 01F8;
    325 : F074;
    326 : 14C9;
    327 : F226;
    328 : 1B4D;
    329 : E666;
    330 : 1230;
    331 : EED6;
    332 : 05DC;
    333 : DCC2;
    334 : 1080;
    335 : DFAA;
    336 : F1FD;
    337 : FEF0;
    338 : F4AE;
    339 : 014A;
    340 : E182;
    341 : 290A;
    342 : 0102;
    343 : F788;
    344 : 08B9;
    345 : E217;
    346 : 0F2D;
    347 : E84C;
    348 : EEAA;
    349 : 19B3;
    350 : EDC4;
    351 : 1A6D;
    352 : F4CD;
    353 : 17C6;
    354 : 06BE;
    355 : FFC9;
    356 : FBCD;
    357 : 0058;
    358 : F528;
    359 : 0A98;
    360 : F349;
    361 : 04AA;
    362 : FF0F;
    363 : 0E62;
    364 : E848;
    365 : 0895;
    366 : FBFF;
    367 : FF96;
    368 : F54F;
    369 : 01A7;
    370 : 0428;
    371 : E7FA;
    372 : 01FA;
    373 : F4D8;
    374 : 14F7;
    375 : FDC6;
    376 : 0EBE;
    377 : F22C;
    378 : F423;
    379 : 06C4;
    380 : 0177;
    381 : 1333;
    382 : F5B4;
    383 : FE06;
END;
