WIDTH=16;
DEPTH=384;

ADDRESS_RADIX=DEC;
DATA_RADIX=HEX;

CONTENT BEGIN
    0 : EFC9;
    1 : 0D6F;
    2 : 0405;
    3 : F994;
    4 : 06CE;
    5 : 0558;
    6 : 00BD;
    7 : 0F9E;
    8 : F862;
    9 : 026A;
    10 : FA97;
    11 : 0B1A;
    12 : 0573;
    13 : F630;
    14 : 1587;
    15 : E371;
    16 : 28D8;
    17 : D6E1;
    18 : 061A;
    19 : FD18;
    20 : 1299;
    21 : E940;
    22 : 12F5;
    23 : EBAA;
    24 : E98D;
    25 : 03C6;
    26 : 06EF;
    27 : 007D;
    28 : F5D6;
    29 : 0A7A;
    30 : 10E5;
    31 : F6A7;
    32 : 115D;
    33 : DBAE;
    34 : 3A47;
    35 : D04C;
    36 : 1103;
    37 : FF8C;
    38 : 0251;
    39 : E6AE;
    40 : 124D;
    41 : F7FF;
    42 : F02F;
    43 : 145C;
    44 : F85A;
    45 : 039C;
    46 : FC05;
    47 : 09E3;
    48 : F610;
    49 : 16B9;
    50 : FF28;
    51 : FD56;
    52 : 07B5;
    53 : 027C;
    54 : 11C8;
    55 : FA16;
    56 : FBF7;
    57 : 0201;
    58 : 0B25;
    59 : E84B;
    60 : 16E6;
    61 : FEA0;
    62 : FFB7;
    63 : FB28;
    64 : 0D82;
    65 : 00FF;
    66 : 1600;
    67 : FF99;
    68 : EE4B;
    69 : 0B21;
    70 : F8D2;
    71 : 1280;
    72 : 01FC;
    73 : 0400;
    74 : F40F;
    75 : 0BD5;
    76 : F947;
    77 : 03F9;
    78 : F40E;
    79 : FAA7;
    80 : 17A6;
    81 : D860;
    82 : 3909;
    83 : BC4F;
    84 : 15D3;
    85 : F21A;
    86 : 1166;
    87 : F485;
    88 : 2274;
    89 : EA2D;
    90 : 0BF2;
    91 : 0A47;
    92 : FC9E;
    93 : 0F53;
    94 : DFF1;
    95 : 27D1;
    96 : 17E9;
    97 : 00A8;
    98 : 000B;
    99 : 03DC;
    100 : 01BB;
    101 : 0FF0;
    102 : 0804;
    103 : F22E;
    104 : 02DB;
    105 : 150B;
    106 : FE42;
    107 : 0C06;
    108 : 07FF;
    109 : 0A59;
    110 : 101F;
    111 : 07CA;
    112 : 0667;
    113 : 0BFE;
    114 : FE80;
    115 : 0C3E;
    116 : FD07;
    117 : F36F;
    118 : 1165;
    119 : FA01;
    120 : EC04;
    121 : 1523;
    122 : 0CB9;
    123 : 0B1B;
    124 : FB34;
    125 : 0BFE;
    126 : 0403;
    127 : FCAC;
    128 : F750;
    129 : 1498;
    130 : F477;
    131 : 1813;
    132 : F9FA;
    133 : 0449;
    134 : EF72;
    135 : 2292;
    136 : E7DB;
    137 : 1414;
    138 : F206;
    139 : 0335;
    140 : 065A;
    141 : FBA4;
    142 : 04D2;
    143 : EE08;
    144 : E3FB;
    145 : 0313;
    146 : 015D;
    147 : 128E;
    148 : FF1E;
    149 : 0000;
    150 : F00B;
    151 : 1A14;
    152 : 04CC;
    153 : 0F1E;
    154 : DE4B;
    155 : 2BE3;
    156 : 13DB;
    157 : EE40;
    158 : 1322;
    159 : D6E0;
    160 : 39C3;
    161 : BC7F;
    162 : DE8C;
    163 : 11FF;
    164 : 03AC;
    165 : 082F;
    166 : FC09;
    167 : 1154;
    168 : 0FFE;
    169 : 0869;
    170 : FCA1;
    171 : F73C;
    172 : 0564;
    173 : 17FE;
    174 : 0D67;
    175 : FB63;
    176 : 0913;
    177 : E8D5;
    178 : 25CB;
    179 : E92A;
    180 : 07A9;
    181 : 06DA;
    182 : FDA7;
    183 : 0E5F;
    184 : 0036;
    185 : 016F;
    186 : 03FF;
    187 : F822;
    188 : 07C3;
    189 : 0C29;
    190 : FBB5;
    191 : 07FE;
    192 : FC00;
    193 : 1870;
    194 : FFBA;
    195 : 2421;
    196 : FD60;
    197 : 1400;
    198 : E815;
    199 : 10BB;
    200 : 0057;
    201 : 0782;
    202 : EE57;
    203 : 23E1;
    204 : 0FF0;
    205 : 0A31;
    206 : FC5F;
    207 : 0F7F;
    208 : EFB4;
    209 : 05FA;
    210 : 03FE;
    211 : FBDE;
    212 : 0BCC;
    213 : E42D;
    214 : 2FCE;
    215 : C026;
    216 : 0000;
    217 : 04E8;
    218 : FFB3;
    219 : F423;
    220 : 000E;
    221 : 1BF1;
    222 : 0000;
    223 : FFBB;
    224 : E305;
    225 : 28E4;
    226 : CC8A;
    227 : 448C;
    228 : F907;
    229 : 00EF;
    230 : 0459;
    231 : FB97;
    232 : F73D;
    233 : FA06;
    234 : 13FD;
    235 : F0BF;
    236 : 0C59;
    237 : 0586;
    238 : F4C0;
    239 : FA01;
    240 : 040B;
    241 : 04FB;
    242 : EED3;
    243 : 1B20;
    244 : DE7A;
    245 : 3692;
    246 : 0401;
    247 : FBB1;
    248 : 062D;
    249 : E5BC;
    250 : 149F;
    251 : 0801;
    252 : 1305;
    253 : ED20;
    254 : 116B;
    255 : E0CB;
    256 : 23CC;
    257 : CC33;
    258 : 05F9;
    259 : FB14;
    260 : 1B26;
    261 : D1E2;
    262 : 3978;
    263 : D233;
    264 : FA07;
    265 : 10E3;
    266 : FC9F;
    267 : 1141;
    268 : E968;
    269 : 01FE;
    270 : F982;
    271 : 0B16;
    272 : EF76;
    273 : 1A73;
    274 : DBE3;
    275 : 28F3;
    276 : 1C0D;
    277 : E74E;
    278 : 2426;
    279 : D7D0;
    280 : 2E03;
    281 : DBF0;
    282 : 0AAD;
    283 : 07D3;
    284 : F99F;
    285 : 1161;
    286 : F459;
    287 : 07F2;
    288 : F00A;
    289 : 0D46;
    290 : 0055;
    291 : 1585;
    292 : E269;
    293 : 21EC;
    294 : 0DD4;
    295 : F9A5;
    296 : 03D0;
    297 : FC1F;
    298 : 03C8;
    299 : 05ED;
    300 : 0000;
    301 : FFA2;
    302 : 0F84;
    303 : 005D;
    304 : 1283;
    305 : 03FD;
    306 : E25C;
    307 : 1677;
    308 : F505;
    309 : 10F7;
    310 : E08B;
    311 : 13C3;
    312 : 0000;
    313 : FBF4;
    314 : 0C3A;
    315 : F7B9;
    316 : 0B95;
    317 : F1FF;
    318 : 0000;
    319 : 0470;
    320 : 03F8;
    321 : F3FD;
    322 : 0ED9;
    323 : 05FD;
    324 : FA00;
    325 : FE5C;
    326 : F9BB;
    327 : 0B47;
    328 : E9F1;
    329 : 0800;
    330 : 0EFE;
    331 : FD5E;
    332 : 00F0;
    333 : 1FFB;
    334 : EC9F;
    335 : 04FF;
    336 : 13FF;
    337 : F9C1;
    338 : 0824;
    339 : EFCD;
    340 : F871;
    341 : 17FF;
    342 : F801;
    343 : 0793;
    344 : FFE8;
    345 : 19FC;
    346 : E1D3;
    347 : 17FC;
    348 : E916;
    349 : 1366;
    350 : FFBF;
    351 : FA95;
    352 : 0536;
    353 : 0878;
    354 : 07FF;
    355 : 07D2;
    356 : F416;
    357 : E7DE;
    358 : 0B93;
    359 : FC00;
    360 : E407;
    361 : 085D;
    362 : 081D;
    363 : 0FCA;
    364 : F45C;
    365 : 0BFD;
    366 : FC01;
    367 : 0783;
    368 : F3D8;
    369 : F81A;
    370 : F796;
    371 : 0BFE;
    372 : 03FE;
    373 : 0384;
    374 : FF6B;
    375 : 0482;
    376 : FC5A;
    377 : 1FF0;
    378 : 0DEC;
    379 : EBB3;
    380 : 0BE0;
    381 : EE21;
    382 : 0420;
    383 : F80B;
END;
