WIDTH=16;
DEPTH=384;

ADDRESS_RADIX=DEC;
DATA_RADIX=HEX;

CONTENT BEGIN
    0 : 0000;
    1 : 0094;
    2 : 117E;
    3 : D7D1;
    4 : 24B5;
    5 : F1CA;
    6 : DF4F;
    7 : 1D51;
    8 : E918;
    9 : 1C69;
    10 : CFE6;
    11 : 2863;
    12 : 0816;
    13 : FA3A;
    14 : 0CDD;
    15 : D073;
    16 : 2CCE;
    17 : F3DF;
    18 : E8B0;
    19 : 1822;
    20 : E668;
    21 : 1372;
    22 : DE85;
    23 : 136E;
    24 : F5EC;
    25 : F839;
    26 : 0EC2;
    27 : DAD8;
    28 : 16CC;
    29 : F3E8;
    30 : F5E4;
    31 : FBA3;
    32 : EF9C;
    33 : F1BB;
    34 : FEA0;
    35 : 0611;
    36 : 0E41;
    37 : F812;
    38 : 010E;
    39 : 079A;
    40 : F7AE;
    41 : F530;
    42 : FF04;
    43 : 0BEC;
    44 : 0594;
    45 : 0BD1;
    46 : 0135;
    47 : FD0C;
    48 : 0000;
    49 : 093A;
    50 : 0D94;
    51 : EC27;
    52 : 0D6E;
    53 : FBF0;
    54 : 0A1C;
    55 : FF91;
    56 : F047;
    57 : EF27;
    58 : 00C4;
    59 : FDFA;
    60 : 0000;
    61 : FE89;
    62 : 0903;
    63 : E060;
    64 : 31F3;
    65 : C95B;
    66 : 0408;
    67 : 0292;
    68 : 0085;
    69 : ED0D;
    70 : 23AB;
    71 : DBB4;
    72 : 060B;
    73 : F726;
    74 : F33E;
    75 : FE71;
    76 : EFD3;
    77 : 0E19;
    78 : EFE1;
    79 : FC10;
    80 : FC1F;
    81 : F583;
    82 : 1289;
    83 : EBD9;
    84 : E351;
    85 : 17B8;
    86 : DF35;
    87 : 1667;
    88 : ED29;
    89 : 1896;
    90 : 0FB5;
    91 : 09BD;
    92 : F63F;
    93 : 03BC;
    94 : E7FD;
    95 : 2357;
    96 : F35B;
    97 : 09D3;
    98 : 0B3C;
    99 : EB62;
    100 : 162A;
    101 : EF4F;
    102 : FB8B;
    103 : F94A;
    104 : 09D6;
    105 : E775;
    106 : 25B5;
    107 : DED0;
    108 : E47E;
    109 : 1702;
    110 : FAC2;
    111 : 11FC;
    112 : E0CF;
    113 : 1B43;
    114 : 0000;
    115 : 0C8B;
    116 : F915;
    117 : E645;
    118 : 1992;
    119 : EFCF;
    120 : 0A62;
    121 : F354;
    122 : 257A;
    123 : CFC6;
    124 : 2D6A;
    125 : C7F0;
    126 : 0BF6;
    127 : EC1C;
    128 : 0F6F;
    129 : DE42;
    130 : 2BDB;
    131 : EC11;
    132 : FE14;
    133 : EB44;
    134 : 1AC7;
    135 : E8D7;
    136 : 2B89;
    137 : E13C;
    138 : 09DE;
    139 : F934;
    140 : 0D7E;
    141 : 080E;
    142 : F2EA;
    143 : F429;
    144 : 0FF6;
    145 : EE50;
    146 : F39A;
    147 : 1609;
    148 : EB26;
    149 : 2BE5;
    150 : F863;
    151 : 0CDE;
    152 : EF63;
    153 : 1258;
    154 : E3F2;
    155 : FC31;
    156 : ED53;
    157 : 1D71;
    158 : EC09;
    159 : 026E;
    160 : FF75;
    161 : 1A6C;
    162 : 0DE2;
    163 : F709;
    164 : FBAB;
    165 : 19D8;
    166 : EF38;
    167 : 11D9;
    168 : 1043;
    169 : F556;
    170 : 01F0;
    171 : DB10;
    172 : 159C;
    173 : D75A;
    174 : F5C9;
    175 : 0116;
    176 : F30E;
    177 : 084F;
    178 : FE10;
    179 : 0621;
    180 : F83D;
    181 : 08CE;
    182 : F4D0;
    183 : 1074;
    184 : E1B9;
    185 : 23E4;
    186 : F9ED;
    187 : F561;
    188 : 03A2;
    189 : F774;
    190 : 0237;
    191 : F87C;
    192 : F65D;
    193 : 1984;
    194 : F067;
    195 : 151B;
    196 : F8C6;
    197 : 10CE;
    198 : 09DA;
    199 : 050D;
    200 : EFBA;
    201 : F838;
    202 : F2BE;
    203 : 11EF;
    204 : E0F0;
    205 : 1652;
    206 : E9EE;
    207 : 1B8D;
    208 : CE15;
    209 : 1F10;
    210 : F03F;
    211 : 17EA;
    212 : E691;
    213 : 278C;
    214 : DA30;
    215 : 2A37;
    216 : 0814;
    217 : F6A0;
    218 : 0681;
    219 : DCC0;
    220 : 1523;
    221 : FDFB;
    222 : 0C52;
    223 : F8EA;
    224 : E8CE;
    225 : 0A64;
    226 : F09A;
    227 : 0A44;
    228 : E93A;
    229 : 0625;
    230 : 0EB4;
    231 : FBEA;
    232 : FF86;
    233 : F028;
    234 : 03EB;
    235 : 048A;
    236 : F378;
    237 : 1673;
    238 : DE1A;
    239 : 1412;
    240 : 0E10;
    241 : F015;
    242 : FD31;
    243 : F05D;
    244 : 19D1;
    245 : EBE9;
    246 : 0E3F;
    247 : 0428;
    248 : F403;
    249 : 0AB1;
    250 : FD24;
    251 : 0C59;
    252 : F241;
    253 : 010D;
    254 : F6A2;
    255 : 1B41;
    256 : D84B;
    257 : 159A;
    258 : ED65;
    259 : 0C5A;
    260 : 01CD;
    261 : 0059;
    262 : F794;
    263 : 0E33;
    264 : F233;
    265 : 10AC;
    266 : 087C;
    267 : 0CEC;
    268 : EF04;
    269 : 01F9;
    270 : F7F1;
    271 : 05C7;
    272 : 00F7;
    273 : F6B9;
    274 : 050B;
    275 : 0204;
    276 : FEE3;
    277 : FB0E;
    278 : F04A;
    279 : 1070;
    280 : E7B8;
    281 : 1DA6;
    282 : 0BC2;
    283 : 0505;
    284 : FE12;
    285 : 1329;
    286 : F63A;
    287 : 07D7;
    288 : 0C47;
    289 : FD0A;
    290 : 0E09;
    291 : E2DB;
    292 : 1EEF;
    293 : D8E2;
    294 : 0A18;
    295 : FE56;
    296 : 04B7;
    297 : E0CA;
    298 : 2767;
    299 : CD87;
    300 : F7DE;
    301 : 0A9F;
    302 : E780;
    303 : 1E5B;
    304 : E94A;
    305 : 1454;
    306 : FBFE;
    307 : 163F;
    308 : EB70;
    309 : 0085;
    310 : E7FD;
    311 : 1C0E;
    312 : 03EA;
    313 : FF26;
    314 : E607;
    315 : 276A;
    316 : D6A6;
    317 : 0FA6;
    318 : FC7C;
    319 : 0729;
    320 : FC15;
    321 : FD18;
    322 : 0431;
    323 : 0606;
    324 : 0000;
    325 : F165;
    326 : FE53;
    327 : E358;
    328 : 0715;
    329 : EBD6;
    330 : F35A;
    331 : 069A;
    332 : F551;
    333 : 1815;
    334 : D548;
    335 : 16F7;
    336 : F92E;
    337 : F97D;
    338 : 0E32;
    339 : F3B3;
    340 : 01BB;
    341 : E810;
    342 : 0DD8;
    343 : FC1B;
    344 : 0250;
    345 : F86D;
    346 : 18E4;
    347 : EB3C;
    348 : 2059;
    349 : FDCC;
    350 : 00C4;
    351 : EC9C;
    352 : 1A25;
    353 : 0000;
    354 : 123C;
    355 : 0215;
    356 : 0053;
    357 : E2F5;
    358 : 14CE;
    359 : EDC4;
    360 : EFD4;
    361 : 038F;
    362 : FD34;
    363 : F262;
    364 : 0786;
    365 : F6E7;
    366 : 0BC9;
    367 : F949;
    368 : FD20;
    369 : 086F;
    370 : 0118;
    371 : EE53;
    372 : 0EB4;
    373 : FEEA;
    374 : FD19;
    375 : F478;
    376 : 17D6;
    377 : F2CE;
    378 : 1039;
    379 : F6C3;
    380 : 12EF;
    381 : D4B8;
    382 : 2E13;
    383 : C4EF;
END;
