WIDTH=16;
DEPTH=384;

ADDRESS_RADIX=DEC;
DATA_RADIX=HEX;

CONTENT BEGIN
    0 : 0394;
    1 : 13B6;
    2 : FCE9;
    3 : 0BAF;
    4 : 0E39;
    5 : F73D;
    6 : E7AD;
    7 : 2614;
    8 : F27E;
    9 : 0D75;
    10 : D66B;
    11 : 1C11;
    12 : 0ABD;
    13 : 09E8;
    14 : FAF4;
    15 : 0C96;
    16 : F913;
    17 : 0BB7;
    18 : FF63;
    19 : 10E1;
    20 : F3F4;
    21 : 1A19;
    22 : D0B8;
    23 : 294A;
    24 : F58D;
    25 : F9A7;
    26 : F2E4;
    27 : 147F;
    28 : E2F1;
    29 : 17E3;
    30 : E397;
    31 : FCEC;
    32 : EFFB;
    33 : 13DC;
    34 : FA84;
    35 : 040F;
    36 : 157D;
    37 : F959;
    38 : 16E4;
    39 : DFA0;
    40 : 0E4D;
    41 : D484;
    42 : ED4E;
    43 : 0D49;
    44 : F6A8;
    45 : 158B;
    46 : E3AA;
    47 : 1C88;
    48 : FDFD;
    49 : 096D;
    50 : 0686;
    51 : F187;
    52 : 1691;
    53 : D7C9;
    54 : 0000;
    55 : FBC0;
    56 : EC56;
    57 : 26AD;
    58 : EF2E;
    59 : 1C25;
    60 : 104F;
    61 : 087F;
    62 : 138F;
    63 : DC1B;
    64 : 2B79;
    65 : E376;
    66 : DE60;
    67 : 18D3;
    68 : F004;
    69 : 1DAF;
    70 : E708;
    71 : 2595;
    72 : 01E4;
    73 : 18D1;
    74 : F440;
    75 : 0D98;
    76 : E85A;
    77 : 2201;
    78 : FEF1;
    79 : E746;
    80 : FDEC;
    81 : 1B98;
    82 : F1B7;
    83 : 083D;
    84 : 0000;
    85 : F9F4;
    86 : FCE2;
    87 : 0147;
    88 : 1472;
    89 : 09B4;
    90 : 0DB5;
    91 : 0B1B;
    92 : F68D;
    93 : 1925;
    94 : DFAE;
    95 : 0AC5;
    96 : EC50;
    97 : 22E0;
    98 : DEB7;
    99 : 30ED;
    100 : C9C6;
    101 : 2F40;
    102 : 01BC;
    103 : F78D;
    104 : 0160;
    105 : EFE3;
    106 : 27CA;
    107 : EE67;
    108 : EBE3;
    109 : 10BC;
    110 : 086D;
    111 : EF8E;
    112 : 0F20;
    113 : E7DE;
    114 : 1926;
    115 : 0A16;
    116 : FC20;
    117 : EBBC;
    118 : 1813;
    119 : EFE7;
    120 : 1042;
    121 : 01F5;
    122 : 1AD9;
    123 : E119;
    124 : 2B1E;
    125 : E38C;
    126 : 0424;
    127 : F948;
    128 : DCB5;
    129 : 148C;
    130 : E8CB;
    131 : 232E;
    132 : FE03;
    133 : EFB2;
    134 : 10EE;
    135 : D74F;
    136 : 3140;
    137 : EC1F;
    138 : 0AA2;
    139 : 0A4A;
    140 : 070F;
    141 : E67F;
    142 : 04C7;
    143 : F661;
    144 : E367;
    145 : FACB;
    146 : E3D6;
    147 : 243D;
    148 : D48C;
    149 : 20AF;
    150 : F401;
    151 : 1129;
    152 : 08E5;
    153 : EA37;
    154 : FF36;
    155 : F237;
    156 : FDFE;
    157 : 06B8;
    158 : F699;
    159 : F338;
    160 : 1C96;
    161 : F1F0;
    162 : 1FA0;
    163 : E6A5;
    164 : 06D0;
    165 : EF63;
    166 : 2A12;
    167 : E25A;
    168 : 083C;
    169 : 0515;
    170 : 13EB;
    171 : E388;
    172 : 293C;
    173 : E330;
    174 : 05F0;
    175 : F293;
    176 : 0A5E;
    177 : E98C;
    178 : 2E33;
    179 : E840;
    180 : F12F;
    181 : 1832;
    182 : FD9A;
    183 : 1073;
    184 : FAB6;
    185 : 0375;
    186 : 1321;
    187 : F901;
    188 : EAFA;
    189 : 0979;
    190 : EFB3;
    191 : 1D33;
    192 : FC0C;
    193 : 042E;
    194 : 0258;
    195 : F99C;
    196 : 0E32;
    197 : E84B;
    198 : FC02;
    199 : 0574;
    200 : 09B2;
    201 : EC52;
    202 : 190C;
    203 : FC02;
    204 : E5CE;
    205 : 1C3E;
    206 : EF18;
    207 : 1CA9;
    208 : DD8A;
    209 : 2C7C;
    210 : EC4A;
    211 : 1268;
    212 : FA81;
    213 : 1330;
    214 : E8D9;
    215 : 07E2;
    216 : 08D3;
    217 : FD55;
    218 : 04AA;
    219 : FDA1;
    220 : 09B0;
    221 : EDDC;
    222 : 02B0;
    223 : F31D;
    224 : 0E9C;
    225 : EE94;
    226 : 27B9;
    227 : DA9E;
    228 : 2456;
    229 : 0009;
    230 : FD6F;
    231 : EA62;
    232 : FCE5;
    233 : FBF6;
    234 : DE56;
    235 : F995;
    236 : 05AD;
    237 : 100C;
    238 : F5D3;
    239 : FA0F;
    240 : EF38;
    241 : EA29;
    242 : 0B42;
    243 : F498;
    244 : 1E30;
    245 : DE6F;
    246 : E28A;
    247 : 19BD;
    248 : FE22;
    249 : 1236;
    250 : D191;
    251 : 235B;
    252 : 1A92;
    253 : E96C;
    254 : 1FC4;
    255 : CDE8;
    256 : 2015;
    257 : D309;
    258 : FE83;
    259 : F5B0;
    260 : 0099;
    261 : 115F;
    262 : 0402;
    263 : F78F;
    264 : 0200;
    265 : FE55;
    266 : F622;
    267 : FFE0;
    268 : F016;
    269 : 2808;
    270 : 142B;
    271 : 0732;
    272 : 0AAB;
    273 : ED4E;
    274 : 0710;
    275 : F7EF;
    276 : F413;
    277 : FAC1;
    278 : F533;
    279 : 127B;
    280 : EBDB;
    281 : 03FA;
    282 : 124D;
    283 : FEBF;
    284 : 236C;
    285 : C42A;
    286 : 42A7;
    287 : C70F;
    288 : F77B;
    289 : FF68;
    290 : 0219;
    291 : E625;
    292 : 18ED;
    293 : F87C;
    294 : F69F;
    295 : FBA7;
    296 : F6A5;
    297 : 0F15;
    298 : 00D0;
    299 : 1065;
    300 : 1001;
    301 : FB8C;
    302 : FF50;
    303 : F2C4;
    304 : 1744;
    305 : 0000;
    306 : 0F9C;
    307 : 0CCB;
    308 : F3D6;
    309 : 1805;
    310 : DD96;
    311 : 1F39;
    312 : 1840;
    313 : EAB9;
    314 : 0901;
    315 : EF03;
    316 : 0E91;
    317 : E3B5;
    318 : 0801;
    319 : F70A;
    320 : 11D2;
    321 : E223;
    322 : 2F36;
    323 : DFFB;
    324 : F3B3;
    325 : EFC2;
    326 : F041;
    327 : 0BF5;
    328 : F58F;
    329 : 1067;
    330 : 17F0;
    331 : F886;
    332 : 05DC;
    333 : F230;
    334 : 0942;
    335 : 0000;
    336 : FBF8;
    337 : 0AB6;
    338 : F6D9;
    339 : E8C3;
    340 : 058C;
    341 : F3E8;
    342 : F3C1;
    343 : 0CF2;
    344 : D3E5;
    345 : 2FEE;
    346 : D6B2;
    347 : 28D2;
    348 : F05C;
    349 : 1859;
    350 : F0E8;
    351 : 16C4;
    352 : EE52;
    353 : 1582;
    354 : F422;
    355 : 063D;
    356 : 0A3E;
    357 : FD7D;
    358 : F536;
    359 : 03F5;
    360 : FA14;
    361 : 0595;
    362 : 04DF;
    363 : 08D8;
    364 : E62B;
    365 : 01F9;
    366 : 1221;
    367 : 03E6;
    368 : FEFD;
    369 : F0DB;
    370 : 0A7E;
    371 : DFC5;
    372 : 0401;
    373 : E52C;
    374 : F81F;
    375 : 17C3;
    376 : F852;
    377 : F7FF;
    378 : DB1B;
    379 : 0C69;
    380 : F4B6;
    381 : 0F0E;
    382 : D94B;
    383 : 136B;
END;
