WIDTH=16;
DEPTH=384;

ADDRESS_RADIX=DEC;
DATA_RADIX=HEX;

CONTENT BEGIN
    0 : 0000;
    1 : FAAF;
    2 : 047F;
    3 : 10C0;
    4 : EA76;
    5 : 0776;
    6 : F006;
    7 : ECED;
    8 : 0181;
    9 : 0CAE;
    10 : FBCE;
    11 : F006;
    12 : E76B;
    13 : FD3B;
    14 : F8C1;
    15 : 1695;
    16 : E133;
    17 : 18D5;
    18 : 0A01;
    19 : F2FB;
    20 : F57C;
    21 : 20CD;
    22 : EFD0;
    23 : 1201;
    24 : F7EE;
    25 : 0DE5;
    26 : 0640;
    27 : E3CC;
    28 : 127E;
    29 : E7CA;
    30 : F829;
    31 : 13D2;
    32 : 016B;
    33 : 00F4;
    34 : 0416;
    35 : E0A5;
    36 : E1D1;
    37 : FCE2;
    38 : EEF3;
    39 : 200A;
    40 : E4F6;
    41 : 2981;
    42 : 0C01;
    43 : F66B;
    44 : EEC6;
    45 : 1B88;
    46 : D61F;
    47 : 3403;
    48 : 0FF5;
    49 : EF5D;
    50 : FAB8;
    51 : 176B;
    52 : E657;
    53 : 1BEE;
    54 : 0979;
    55 : 0DAB;
    56 : F1F3;
    57 : FBCD;
    58 : EA7B;
    59 : 11F2;
    60 : 0DE8;
    61 : E470;
    62 : 00E1;
    63 : 03CE;
    64 : 07EB;
    65 : E8E9;
    66 : 0FEA;
    67 : E3B6;
    68 : 08FA;
    69 : 0157;
    70 : 0130;
    71 : F410;
    72 : 07D8;
    73 : EEE8;
    74 : FD2E;
    75 : 00F8;
    76 : 15DD;
    77 : E09E;
    78 : 09D6;
    79 : 14CE;
    80 : F289;
    81 : 1D77;
    82 : CCF1;
    83 : 294F;
    84 : DB96;
    85 : 1E3C;
    86 : F8EB;
    87 : 156C;
    88 : C8DC;
    89 : 2BCB;
    90 : F5DB;
    91 : 04B3;
    92 : EB3C;
    93 : 1FFC;
    94 : EF4E;
    95 : 35C3;
    96 : F012;
    97 : EFE2;
    98 : FF19;
    99 : 1314;
    100 : E06B;
    101 : 03FB;
    102 : 020F;
    103 : 02F7;
    104 : 18A0;
    105 : CF1E;
    106 : 1FF1;
    107 : C44F;
    108 : EBF9;
    109 : FBF1;
    110 : FEEB;
    111 : E759;
    112 : 12AC;
    113 : E3F6;
    114 : 1A13;
    115 : C9BA;
    116 : 2554;
    117 : CCF6;
    118 : 2FC3;
    119 : C1D3;
    120 : D40E;
    121 : 0C12;
    122 : F537;
    123 : 1E0F;
    124 : D8AA;
    125 : 29F3;
    126 : 05CE;
    127 : 16C4;
    128 : 0150;
    129 : F36C;
    130 : FEB7;
    131 : F8EF;
    132 : 01F8;
    133 : 0C62;
    134 : F947;
    135 : 12B4;
    136 : DCC3;
    137 : 17A4;
    138 : 0083;
    139 : F247;
    140 : F116;
    141 : 08D7;
    142 : E8D8;
    143 : 1F22;
    144 : 1067;
    145 : 0727;
    146 : 1D92;
    147 : CC2E;
    148 : 2BA7;
    149 : CAB3;
    150 : FC01;
    151 : E5F9;
    152 : 007D;
    153 : 099C;
    154 : 0F8C;
    155 : EE04;
    156 : 081E;
    157 : F128;
    158 : 0C8A;
    159 : F5E2;
    160 : 0163;
    161 : F7E2;
    162 : 0000;
    163 : FF06;
    164 : 1522;
    165 : ED25;
    166 : 105A;
    167 : EF73;
    168 : F853;
    169 : F13C;
    170 : FC4D;
    171 : 0AB8;
    172 : F217;
    173 : 07CD;
    174 : F403;
    175 : FA57;
    176 : FACC;
    177 : FBC2;
    178 : DD13;
    179 : 0FFD;
    180 : 0B03;
    181 : F760;
    182 : F059;
    183 : 0026;
    184 : EBFC;
    185 : 0802;
    186 : 1012;
    187 : F746;
    188 : 0583;
    189 : E4AD;
    190 : 1647;
    191 : DBD9;
    192 : 0FC9;
    193 : E7C9;
    194 : 1223;
    195 : F80D;
    196 : 0EB4;
    197 : EC44;
    198 : F9FB;
    199 : F3BD;
    200 : 0373;
    201 : EED2;
    202 : FAB6;
    203 : EFF3;
    204 : F8FE;
    205 : 00BE;
    206 : 0743;
    207 : F005;
    208 : 0F76;
    209 : E1F6;
    210 : F00F;
    211 : FD0B;
    212 : F711;
    213 : 1F22;
    214 : D01A;
    215 : 2FD4;
    216 : F420;
    217 : F3D2;
    218 : 0235;
    219 : F82E;
    220 : 0F02;
    221 : D86C;
    222 : FC38;
    223 : 10CA;
    224 : F129;
    225 : 0B7C;
    226 : E504;
    227 : 12E7;
    228 : 1A16;
    229 : E4A8;
    230 : 08C4;
    231 : F59E;
    232 : 2437;
    233 : F118;
    234 : 0201;
    235 : 0103;
    236 : 0B42;
    237 : E0F2;
    238 : 2F88;
    239 : CBDA;
    240 : FA0A;
    241 : 06E7;
    242 : FD29;
    243 : FD44;
    244 : ED23;
    245 : FA0A;
    246 : FC05;
    247 : EAAC;
    248 : 0D91;
    249 : 0CD6;
    250 : 0AFC;
    251 : 0BF1;
    252 : FBEF;
    253 : 074E;
    254 : E31E;
    255 : 293E;
    256 : DAF7;
    257 : 39EF;
    258 : 168D;
    259 : F972;
    260 : 156C;
    261 : DA7E;
    262 : 1594;
    263 : DB1A;
    264 : 180C;
    265 : EFFD;
    266 : F6C1;
    267 : EF79;
    268 : 15EC;
    269 : E7F4;
    270 : F710;
    271 : F1F2;
    272 : 04A8;
    273 : 0285;
    274 : 0876;
    275 : 0000;
    276 : FDFC;
    277 : FF5C;
    278 : 0854;
    279 : E80A;
    280 : 0752;
    281 : E5C8;
    282 : F704;
    283 : F7DA;
    284 : 0077;
    285 : 11DE;
    286 : E7B8;
    287 : 0AFB;
    288 : 05FA;
    289 : F8FA;
    290 : 042D;
    291 : FC4A;
    292 : F28E;
    293 : 09F6;
    294 : F1E4;
    295 : 07D6;
    296 : 1209;
    297 : F22D;
    298 : 00F2;
    299 : F3E8;
    300 : 10F9;
    301 : EE32;
    302 : FCEF;
    303 : 02DF;
    304 : ED22;
    305 : 05A8;
    306 : 079D;
    307 : FACB;
    308 : 090E;
    309 : F51B;
    310 : 2BDF;
    311 : F0C6;
    312 : 03FA;
    313 : F802;
    314 : 05DA;
    315 : 0635;
    316 : 0669;
    317 : 03FA;
    318 : EE11;
    319 : FDF1;
    320 : F716;
    321 : 1D1F;
    322 : CB28;
    323 : 2FD3;
    324 : 1457;
    325 : 0250;
    326 : 0885;
    327 : F764;
    328 : 055E;
    329 : F5D4;
    330 : 0000;
    331 : 035C;
    332 : F780;
    333 : 1A92;
    334 : DDA0;
    335 : 339C;
    336 : F3F3;
    337 : FAF5;
    338 : F605;
    339 : 207A;
    340 : F019;
    341 : 0C0D;
    342 : 0000;
    343 : 00D3;
    344 : F8D2;
    345 : 1565;
    346 : E00E;
    347 : 02F4;
    348 : FC1F;
    349 : F54A;
    350 : 0227;
    351 : FC3C;
    352 : F925;
    353 : 1367;
    354 : 09C3;
    355 : EF5E;
    356 : 0E3A;
    357 : F31C;
    358 : 255B;
    359 : E98B;
    360 : EE3F;
    361 : F3CE;
    362 : FFEF;
    363 : FC69;
    364 : 16E5;
    365 : F81C;
    366 : EC00;
    367 : F043;
    368 : FDEB;
    369 : 1054;
    370 : F553;
    371 : FA00;
    372 : EBAA;
    373 : 1659;
    374 : F0AB;
    375 : 0FA3;
    376 : D8A3;
    377 : 1808;
    378 : F802;
    379 : 0273;
    380 : F6A5;
    381 : 1B96;
    382 : 0039;
    383 : F802;
END;
