WIDTH=16;
DEPTH=384;

ADDRESS_RADIX=DEC;
DATA_RADIX=HEX;

CONTENT BEGIN
    0 : 12D2;
    1 : E125;
    2 : 118C;
    3 : E48B;
    4 : 1C47;
    5 : D075;
    6 : 0470;
    7 : FC1C;
    8 : FAD6;
    9 : FABA;
    10 : 04EF;
    11 : 06E8;
    12 : F73E;
    13 : EA5E;
    14 : 182B;
    15 : F91C;
    16 : 15F3;
    17 : DDC6;
    18 : F844;
    19 : F3B8;
    20 : 0928;
    21 : F3DF;
    22 : 1E9E;
    23 : DD31;
    24 : 0C50;
    25 : FF9A;
    26 : 25F7;
    27 : CE8E;
    28 : 34C7;
    29 : C270;
    30 : F9EE;
    31 : 0AC1;
    32 : 1947;
    33 : 0A3A;
    34 : F335;
    35 : F3DC;
    36 : 07E6;
    37 : ECCB;
    38 : FA3C;
    39 : FE1B;
    40 : FD93;
    41 : 143E;
    42 : FEFD;
    43 : FDDA;
    44 : FAE2;
    45 : 1D37;
    46 : E0C4;
    47 : 1F55;
    48 : F4A0;
    49 : F7E3;
    50 : 05BE;
    51 : FCEF;
    52 : FFD9;
    53 : 12F5;
    54 : F76E;
    55 : 08D8;
    56 : 0F86;
    57 : 0DEE;
    58 : E35A;
    59 : F9B3;
    60 : 03E0;
    61 : F633;
    62 : 104B;
    63 : E4E8;
    64 : 1D44;
    65 : 07C0;
    66 : 03E8;
    67 : E9C0;
    68 : 17A7;
    69 : DEA5;
    70 : 22B4;
    71 : D11B;
    72 : 0839;
    73 : F8D1;
    74 : E3AB;
    75 : 35B6;
    76 : CCD4;
    77 : 45E4;
    78 : F7F8;
    79 : 0DB4;
    80 : 03BA;
    81 : 153B;
    82 : CF1F;
    83 : 2C2C;
    84 : 0E54;
    85 : 0538;
    86 : 1424;
    87 : F3B4;
    88 : 15EB;
    89 : DE39;
    90 : E57D;
    91 : 0B4E;
    92 : F2CA;
    93 : 1E4C;
    94 : EA4B;
    95 : 22AB;
    96 : 01F9;
    97 : F6A7;
    98 : 142A;
    99 : DEF4;
    100 : 20AD;
    101 : E656;
    102 : FD13;
    103 : 0BE0;
    104 : FE4A;
    105 : 07AB;
    106 : E6CB;
    107 : 05DA;
    108 : EB45;
    109 : 061E;
    110 : FADB;
    111 : FA22;
    112 : 0709;
    113 : 02F6;
    114 : 191E;
    115 : EB21;
    116 : 1666;
    117 : DBC3;
    118 : 3161;
    119 : C7DA;
    120 : EEE5;
    121 : FA2B;
    122 : 1323;
    123 : 02EF;
    124 : 0A4E;
    125 : ECE1;
    126 : 100B;
    127 : 0F5E;
    128 : F889;
    129 : F67B;
    130 : EAC5;
    131 : 1089;
    132 : 0708;
    133 : 0852;
    134 : 159F;
    135 : DB1F;
    136 : 2FEB;
    137 : C9C4;
    138 : 1E82;
    139 : E52D;
    140 : 046D;
    141 : EB9A;
    142 : 151B;
    143 : F041;
    144 : 146E;
    145 : F7CF;
    146 : 14AD;
    147 : F873;
    148 : 03ED;
    149 : EFA8;
    150 : F8D5;
    151 : EEE0;
    152 : F897;
    153 : 1915;
    154 : F389;
    155 : 147C;
    156 : 1615;
    157 : F61A;
    158 : 0BBA;
    159 : F14E;
    160 : 0BFB;
    161 : FBFC;
    162 : FBF5;
    163 : 10C6;
    164 : 0BA0;
    165 : FF4E;
    166 : FE4F;
    167 : 0E26;
    168 : FF0B;
    169 : EE95;
    170 : 16F2;
    171 : D926;
    172 : 3C5F;
    173 : BEE6;
    174 : 0000;
    175 : 0F9A;
    176 : 0C00;
    177 : ED22;
    178 : 0294;
    179 : 0C04;
    180 : F9F0;
    181 : FF49;
    182 : EC17;
    183 : 271D;
    184 : D4B2;
    185 : 2057;
    186 : E3D7;
    187 : 1908;
    188 : EA89;
    189 : 2E7A;
    190 : C377;
    191 : 2C40;
    192 : E8DC;
    193 : FF1B;
    194 : EFB2;
    195 : 27D9;
    196 : C972;
    197 : 31D8;
    198 : FDFE;
    199 : 004C;
    200 : FE22;
    201 : 14C6;
    202 : E2D3;
    203 : FDFE;
    204 : FD08;
    205 : 08CF;
    206 : FFEB;
    207 : F41C;
    208 : F129;
    209 : 0CDC;
    210 : F84E;
    211 : ECB9;
    212 : 05F5;
    213 : FAF5;
    214 : 04C3;
    215 : E138;
    216 : ECCD;
    217 : 04A3;
    218 : 0899;
    219 : 1AA3;
    220 : EC80;
    221 : 0815;
    222 : F7F9;
    223 : 10E7;
    224 : 03D1;
    225 : 094E;
    226 : 0AA6;
    227 : DFE5;
    228 : 0000;
    229 : E46D;
    230 : F877;
    231 : 0667;
    232 : 0414;
    233 : 080A;
    234 : F7FB;
    235 : 01F7;
    236 : 1EF2;
    237 : E5DE;
    238 : 235C;
    239 : CB59;
    240 : F9E8;
    241 : 0416;
    242 : 0E60;
    243 : EE92;
    244 : 0767;
    245 : FBF0;
    246 : EDEB;
    247 : F277;
    248 : 0905;
    249 : 062E;
    250 : FFE1;
    251 : 0A0C;
    252 : F251;
    253 : EF3E;
    254 : 02AB;
    255 : F462;
    256 : 1AB3;
    257 : F05C;
    258 : 0080;
    259 : 012C;
    260 : 09AC;
    261 : ED40;
    262 : F5EF;
    263 : 0080;
    264 : F8A1;
    265 : F9CB;
    266 : FB34;
    267 : 19A8;
    268 : E2F0;
    269 : 15AD;
    270 : 0F24;
    271 : E135;
    272 : 1886;
    273 : EC17;
    274 : 24A7;
    275 : F0DC;
    276 : 1560;
    277 : 0C12;
    278 : 0495;
    279 : F22A;
    280 : 0E7B;
    281 : F097;
    282 : FBF5;
    283 : 0724;
    284 : E967;
    285 : 1382;
    286 : E8B6;
    287 : 2056;
    288 : 0EE9;
    289 : F88C;
    290 : 0632;
    291 : EBCC;
    292 : 0817;
    293 : EFD9;
    294 : FC03;
    295 : 144A;
    296 : F346;
    297 : 1D83;
    298 : DC09;
    299 : 0000;
    300 : 175C;
    301 : 06EA;
    302 : F5F7;
    303 : 01FD;
    304 : F3A8;
    305 : 107A;
    306 : 0ABC;
    307 : EA5E;
    308 : 16C0;
    309 : DB63;
    310 : 2B67;
    311 : E0C6;
    312 : 0A20;
    313 : FA0D;
    314 : 02F7;
    315 : 202A;
    316 : 0ADA;
    317 : 040D;
    318 : F031;
    319 : 05A4;
    320 : FDD1;
    321 : F74B;
    322 : F6C4;
    323 : 03F4;
    324 : 065C;
    325 : 04E3;
    326 : 19E1;
    327 : DB1F;
    328 : 227E;
    329 : CA88;
    330 : 0000;
    331 : FCA6;
    332 : 026B;
    333 : 067A;
    334 : 1879;
    335 : E7E4;
    336 : F7E5;
    337 : FC49;
    338 : FEF0;
    339 : 0C49;
    340 : 0F20;
    341 : 1443;
    342 : 0603;
    343 : 0E5C;
    344 : 0462;
    345 : 0CB3;
    346 : EF59;
    347 : 0402;
    348 : 1B14;
    349 : DA06;
    350 : 244B;
    351 : D4D9;
    352 : 320E;
    353 : D195;
    354 : FF38;
    355 : FA1A;
    356 : EE9A;
    357 : 1884;
    358 : E8C3;
    359 : 2C44;
    360 : F3BF;
    361 : F2C6;
    362 : EAE1;
    363 : 285E;
    364 : D5B6;
    365 : 26CE;
    366 : EBD3;
    367 : EBCD;
    368 : 0B1E;
    369 : 0FF9;
    370 : F4F8;
    371 : 0812;
    372 : 10C6;
    373 : FD55;
    374 : 1E1A;
    375 : EB43;
    376 : 0ED4;
    377 : E2A5;
    378 : 0408;
    379 : F7F7;
    380 : FD7C;
    381 : 076E;
    382 : 2293;
    383 : E3C8;
END;
