WIDTH=16;
DEPTH=384;

ADDRESS_RADIX=DEC;
DATA_RADIX=HEX;

CONTENT BEGIN
    0 : 0BC5;
    1 : F20A;
    2 : 013E;
    3 : 001B;
    4 : 0211;
    5 : E09E;
    6 : 03C6;
    7 : E930;
    8 : 1D44;
    9 : DC65;
    10 : 2F3F;
    11 : E1D1;
    12 : 1058;
    13 : EB35;
    14 : 09FF;
    15 : F210;
    16 : 182B;
    17 : E77C;
    18 : 0789;
    19 : EB7F;
    20 : 0642;
    21 : 09AF;
    22 : 04DC;
    23 : F7F7;
    24 : 0A0B;
    25 : FCA1;
    26 : 063B;
    27 : E8ED;
    28 : 12AC;
    29 : D9D5;
    30 : ECEB;
    31 : 1ADC;
    32 : FBCD;
    33 : 01B6;
    34 : EC3D;
    35 : FC2F;
    36 : 1068;
    37 : E5F9;
    38 : F74C;
    39 : 0935;
    40 : FC92;
    41 : 1EC2;
    42 : EA32;
    43 : FA6F;
    44 : 0055;
    45 : F718;
    46 : F928;
    47 : 01FB;
    48 : 1721;
    49 : E8D4;
    50 : 008E;
    51 : FE30;
    52 : 074A;
    53 : 0B90;
    54 : EF3F;
    55 : 1579;
    56 : 0FEB;
    57 : F127;
    58 : EE43;
    59 : 10C1;
    60 : F7E6;
    61 : F798;
    62 : ED31;
    63 : 085A;
    64 : EADA;
    65 : 1C5C;
    66 : 1C21;
    67 : E6BB;
    68 : 186B;
    69 : ECE8;
    70 : 1C08;
    71 : E3DF;
    72 : DB3A;
    73 : FAC0;
    74 : F169;
    75 : 076B;
    76 : 0133;
    77 : 082C;
    78 : EDF4;
    79 : 1B45;
    80 : 0521;
    81 : EBB2;
    82 : F944;
    83 : F9FC;
    84 : FBCB;
    85 : 16DF;
    86 : 0BC6;
    87 : F2BE;
    88 : FDDA;
    89 : 086A;
    90 : F24C;
    91 : F698;
    92 : FF74;
    93 : FB4E;
    94 : 1024;
    95 : F636;
    96 : 15D7;
    97 : F305;
    98 : 10E3;
    99 : E013;
    100 : 274E;
    101 : E03C;
    102 : 14E2;
    103 : FDEF;
    104 : 2246;
    105 : D478;
    106 : 1B62;
    107 : EB1E;
    108 : 0FD8;
    109 : E830;
    110 : 0292;
    111 : F6C4;
    112 : 0922;
    113 : 01FB;
    114 : F7FE;
    115 : F761;
    116 : F40F;
    117 : 16BF;
    118 : D681;
    119 : 1906;
    120 : F8F3;
    121 : 0055;
    122 : F88C;
    123 : 07DB;
    124 : EFB5;
    125 : 192D;
    126 : FA1B;
    127 : 0D92;
    128 : FE3C;
    129 : FCFD;
    130 : EBE3;
    131 : FA1B;
    132 : EE3C;
    133 : 217B;
    134 : EEA1;
    135 : 2495;
    136 : CC72;
    137 : 2DC7;
    138 : EFED;
    139 : FB69;
    140 : 034B;
    141 : 092B;
    142 : 0885;
    143 : 1418;
    144 : EF08;
    145 : 127C;
    146 : 03AB;
    147 : 0533;
    148 : E75F;
    149 : 0B7B;
    150 : DF44;
    151 : F402;
    152 : F626;
    153 : 1CF8;
    154 : F655;
    155 : 082F;
    156 : E984;
    157 : 0864;
    158 : EA96;
    159 : 239F;
    160 : CF2F;
    161 : 2A08;
    162 : 0903;
    163 : FC9C;
    164 : 02C2;
    165 : ED83;
    166 : F957;
    167 : 0D04;
    168 : 05E5;
    169 : EFB9;
    170 : 002B;
    171 : F3A3;
    172 : 1789;
    173 : FA1B;
    174 : 0FE3;
    175 : 0142;
    176 : FE47;
    177 : F788;
    178 : 0C03;
    179 : D450;
    180 : EFDB;
    181 : 09BF;
    182 : F0BA;
    183 : 18FA;
    184 : CD45;
    185 : 3C8B;
    186 : E4F1;
    187 : 1265;
    188 : FAB7;
    189 : 1A17;
    190 : D911;
    191 : 2112;
    192 : 07E4;
    193 : ECE9;
    194 : FE8F;
    195 : FD5E;
    196 : FB5E;
    197 : FF03;
    198 : 1FCA;
    199 : EDEB;
    200 : 01A3;
    201 : F149;
    202 : F601;
    203 : 13DE;
    204 : 03FA;
    205 : F400;
    206 : 0D6C;
    207 : D98C;
    208 : 20DB;
    209 : BC67;
    210 : 0000;
    211 : FA23;
    212 : 0890;
    213 : FCAC;
    214 : 136C;
    215 : F413;
    216 : 0000;
    217 : E70B;
    218 : 0B67;
    219 : E236;
    220 : 1F70;
    221 : D088;
    222 : EC2A;
    223 : 19D6;
    224 : F8B7;
    225 : 0E33;
    226 : EC75;
    227 : 0DE2;
    228 : 0FE2;
    229 : E9E2;
    230 : F584;
    231 : F762;
    232 : 1241;
    233 : 0DE6;
    234 : 1A21;
    235 : EFCD;
    236 : 1FDA;
    237 : D8DC;
    238 : 3282;
    239 : CBBE;
    240 : 0000;
    241 : 0C76;
    242 : 1763;
    243 : D9C3;
    244 : 1491;
    245 : EF94;
    246 : FDF4;
    247 : F568;
    248 : EF62;
    249 : 220C;
    250 : FAF5;
    251 : 1063;
    252 : E176;
    253 : 0620;
    254 : F9DF;
    255 : 07DD;
    256 : FF93;
    257 : 1561;
    258 : F8A6;
    259 : 099B;
    260 : 1744;
    261 : EB9A;
    262 : 05EB;
    263 : E6CD;
    264 : 0000;
    265 : 011A;
    266 : F509;
    267 : 0DB9;
    268 : F8B5;
    269 : 0400;
    270 : E3FD;
    271 : F2A8;
    272 : F8B3;
    273 : 0615;
    274 : FC95;
    275 : 0400;
    276 : E247;
    277 : 20B2;
    278 : F08D;
    279 : 22AE;
    280 : C5E4;
    281 : 2B98;
    282 : FEF6;
    283 : 027B;
    284 : F33E;
    285 : 0DCA;
    286 : E7DE;
    287 : 1D13;
    288 : 0D53;
    289 : EED5;
    290 : 0EB3;
    291 : F240;
    292 : F7FE;
    293 : F330;
    294 : F774;
    295 : 0BD9;
    296 : 092E;
    297 : FF94;
    298 : EC5B;
    299 : FBFB;
    300 : F7F7;
    301 : FDF5;
    302 : 0D3E;
    303 : DCEA;
    304 : 1227;
    305 : E6E3;
    306 : 151F;
    307 : F390;
    308 : EE18;
    309 : 10D3;
    310 : F671;
    311 : 2605;
    312 : 0B33;
    313 : 0275;
    314 : F4D2;
    315 : 11F1;
    316 : 0343;
    317 : 1358;
    318 : E2F6;
    319 : 0305;
    320 : F551;
    321 : 1F07;
    322 : CF2E;
    323 : 220C;
    324 : 0795;
    325 : 0895;
    326 : FD58;
    327 : 011C;
    328 : E242;
    329 : 18A4;
    330 : 0AE0;
    331 : F41F;
    332 : 17FF;
    333 : DF21;
    334 : 3566;
    335 : CE3B;
    336 : 0000;
    337 : F88E;
    338 : F9B5;
    339 : FF62;
    340 : 0B4E;
    341 : 07F2;
    342 : E878;
    343 : 1501;
    344 : FAF5;
    345 : 0A53;
    346 : F3BD;
    347 : F828;
    348 : E44B;
    349 : FC12;
    350 : FF5E;
    351 : F61A;
    352 : FD03;
    353 : F816;
    354 : 05D6;
    355 : EBCE;
    356 : 1DF5;
    357 : E2E6;
    358 : 3EB5;
    359 : D249;
    360 : 07B8;
    361 : EB6E;
    362 : 09B6;
    363 : F13C;
    364 : 30E1;
    365 : D58B;
    366 : F5F1;
    367 : FB66;
    368 : FC86;
    369 : 04AC;
    370 : FC7C;
    371 : 2231;
    372 : 0ED4;
    373 : 0775;
    374 : FC04;
    375 : 0341;
    376 : DD15;
    377 : 1BCE;
    378 : 0000;
    379 : F85B;
    380 : FCBE;
    381 : 0A16;
    382 : 0E77;
    383 : EBE2;
END;
