WIDTH=16;
DEPTH=384;

ADDRESS_RADIX=DEC;
DATA_RADIX=HEX;

CONTENT BEGIN
    0 : EBA4;
    1 : F602;
    2 : FE85;
    3 : 1F36;
    4 : 0425;
    5 : FBEE;
    6 : EBD1;
    7 : EECD;
    8 : 0D98;
    9 : 0177;
    10 : 1907;
    11 : F426;
    12 : EF83;
    13 : 1269;
    14 : 2122;
    15 : F286;
    16 : 096F;
    17 : F3A2;
    18 : FB24;
    19 : EAE1;
    20 : 0D40;
    21 : FAA5;
    22 : 1910;
    23 : E4CC;
    24 : F853;
    25 : FE19;
    26 : 0CC1;
    27 : ECB4;
    28 : 205D;
    29 : 01EB;
    30 : E283;
    31 : 053E;
    32 : FD16;
    33 : 1877;
    34 : FE2A;
    35 : 1A70;
    36 : FF11;
    37 : E4FD;
    38 : 0529;
    39 : 03C3;
    40 : 0684;
    41 : F680;
    42 : 020F;
    43 : E6E2;
    44 : F983;
    45 : 11C9;
    46 : 04AF;
    47 : 0000;
    48 : 01FF;
    49 : E974;
    50 : 1620;
    51 : 009E;
    52 : 1A73;
    53 : F009;
    54 : 07CC;
    55 : F2DC;
    56 : FF9B;
    57 : 0398;
    58 : 0308;
    59 : 2314;
    60 : F8C7;
    61 : 1D30;
    62 : FFED;
    63 : 05E4;
    64 : EA89;
    65 : 11D1;
    66 : 0B4B;
    67 : 0C65;
    68 : 18EB;
    69 : D9B0;
    70 : 1D82;
    71 : DD1A;
    72 : 24F8;
    73 : FE93;
    74 : 214A;
    75 : DA39;
    76 : 29A5;
    77 : DB08;
    78 : 0605;
    79 : FA32;
    80 : 204F;
    81 : D2B8;
    82 : 1FF5;
    83 : D9DE;
    84 : 1627;
    85 : F94C;
    86 : 0921;
    87 : F1B7;
    88 : F207;
    89 : 0204;
    90 : EEEA;
    91 : F65D;
    92 : 07DF;
    93 : 0F25;
    94 : FD49;
    95 : 0608;
    96 : 07FD;
    97 : EBD8;
    98 : 09DE;
    99 : F71A;
    100 : 3136;
    101 : E175;
    102 : 0801;
    103 : FEF2;
    104 : FE84;
    105 : 2488;
    106 : CE05;
    107 : 3405;
    108 : EF5F;
    109 : 027A;
    110 : EA7F;
    111 : 1473;
    112 : FD4A;
    113 : 256A;
    114 : 05E3;
    115 : F168;
    116 : 09D6;
    117 : E77F;
    118 : 2AF5;
    119 : F631;
    120 : F1AE;
    121 : F771;
    122 : F8CF;
    123 : 18A3;
    124 : 0166;
    125 : 020C;
    126 : 0BE0;
    127 : EDBC;
    128 : 13AA;
    129 : FB1E;
    130 : 19D0;
    131 : F816;
    132 : FC07;
    133 : 0CFF;
    134 : F69B;
    135 : F487;
    136 : EF98;
    137 : 05F5;
    138 : FBF0;
    139 : F1A8;
    140 : FCF2;
    141 : 11DF;
    142 : 0518;
    143 : 0A27;
    144 : 0000;
    145 : FF28;
    146 : 0ECD;
    147 : F85A;
    148 : F464;
    149 : 0413;
    150 : FE09;
    151 : ED32;
    152 : 0F55;
    153 : F1BC;
    154 : 18E7;
    155 : DAA2;
    156 : 0C50;
    157 : 0BAF;
    158 : 19EA;
    159 : F9E2;
    160 : 0FAC;
    161 : EF96;
    162 : 0000;
    163 : 05CE;
    164 : 0026;
    165 : EAD1;
    166 : 085A;
    167 : E002;
    168 : E975;
    169 : 1769;
    170 : 0A20;
    171 : 0B5E;
    172 : F324;
    173 : F1B9;
    174 : FBFA;
    175 : FD7D;
    176 : 07C8;
    177 : F79A;
    178 : FB6D;
    179 : DBC6;
    180 : E425;
    181 : FEEB;
    182 : E862;
    183 : 223D;
    184 : EC62;
    185 : 2692;
    186 : 09EC;
    187 : F886;
    188 : 0F63;
    189 : DDD1;
    190 : 2976;
    191 : C673;
    192 : 10E7;
    193 : 1138;
    194 : F7A2;
    195 : EFE7;
    196 : FAD1;
    197 : 0000;
    198 : F7F2;
    199 : F3F8;
    200 : 0BD4;
    201 : 178A;
    202 : 0FE8;
    203 : 1424;
    204 : 0A6E;
    205 : EDB2;
    206 : FD0C;
    207 : 05FA;
    208 : 0349;
    209 : 135E;
    210 : 0BD5;
    211 : E69A;
    212 : FFB2;
    213 : EFB3;
    214 : 2919;
    215 : E074;
    216 : 1F82;
    217 : 03B6;
    218 : 0EE6;
    219 : EA20;
    220 : 15AB;
    221 : D6D7;
    222 : E1D9;
    223 : 0AB5;
    224 : EF44;
    225 : 21C8;
    226 : D600;
    227 : 2029;
    228 : FC05;
    229 : 07C7;
    230 : 0270;
    231 : F4C1;
    232 : 01D7;
    233 : E425;
    234 : 01FE;
    235 : 004D;
    236 : F152;
    237 : 11B6;
    238 : EC74;
    239 : 19E1;
    240 : FAB2;
    241 : 069A;
    242 : 0A56;
    243 : EAFF;
    244 : FD1E;
    245 : F76A;
    246 : 1440;
    247 : 003D;
    248 : 20FA;
    249 : D1CF;
    250 : 2F8F;
    251 : D16C;
    252 : F815;
    253 : 224F;
    254 : F4A2;
    255 : 1847;
    256 : E783;
    257 : 0BE1;
    258 : F7E8;
    259 : FCFA;
    260 : FE06;
    261 : 1549;
    262 : FDA0;
    263 : 1A4D;
    264 : 1824;
    265 : EE4F;
    266 : 087F;
    267 : 128E;
    268 : 070B;
    269 : 080C;
    270 : 01FB;
    271 : DAC3;
    272 : 08F8;
    273 : E834;
    274 : 175B;
    275 : E840;
    276 : 021A;
    277 : FF9F;
    278 : E5D3;
    279 : 257E;
    280 : F104;
    281 : 21A3;
    282 : 0206;
    283 : FC2C;
    284 : EFA9;
    285 : 0764;
    286 : FFF6;
    287 : 1C4E;
    288 : 081E;
    289 : E749;
    290 : 002F;
    291 : EBC2;
    292 : 1E54;
    293 : F99B;
    294 : 0000;
    295 : 03B7;
    296 : ECA6;
    297 : 0E86;
    298 : 0A10;
    299 : 1006;
    300 : E7B3;
    301 : 1A18;
    302 : 0827;
    303 : FEB7;
    304 : FC0A;
    305 : E3A6;
    306 : 13C0;
    307 : E4E8;
    308 : FAEB;
    309 : EBFD;
    310 : 1844;
    311 : 0BD9;
    312 : F802;
    313 : FCE1;
    314 : F9E7;
    315 : 131D;
    316 : DA21;
    317 : 27F8;
    318 : 141B;
    319 : FE79;
    320 : 0BAC;
    321 : E794;
    322 : 197D;
    323 : C3B0;
    324 : 0C32;
    325 : FF68;
    326 : 0E9A;
    327 : F042;
    328 : 072E;
    329 : FBEF;
    330 : 07CA;
    331 : F430;
    332 : 081C;
    333 : F343;
    334 : 1DA7;
    335 : 07CA;
    336 : 0475;
    337 : 0FA0;
    338 : F45C;
    339 : 00B7;
    340 : F8B8;
    341 : 140E;
    342 : F7D5;
    343 : FE2E;
    344 : F6FB;
    345 : 2078;
    346 : ECFE;
    347 : 2ADF;
    348 : F429;
    349 : 1589;
    350 : FDC9;
    351 : 19FF;
    352 : CFE4;
    353 : 2B6A;
    354 : E41E;
    355 : 1538;
    356 : FC2A;
    357 : 129E;
    358 : E3F5;
    359 : 01FE;
    360 : 13E8;
    361 : 106F;
    362 : FE4F;
    363 : 0CA5;
    364 : F31C;
    365 : 0FED;
    366 : FA0D;
    367 : 23E4;
    368 : F77C;
    369 : 235D;
    370 : DA9E;
    371 : 29A3;
    372 : 17BC;
    373 : E1D0;
    374 : FBEA;
    375 : F38C;
    376 : 1633;
    377 : 0BDE;
    378 : 0FD4;
    379 : FEF6;
    380 : 01FB;
    381 : FD08;
    382 : F65D;
    383 : 1FA7;
END;
