WIDTH=16;
DEPTH=384;

ADDRESS_RADIX=DEC;
DATA_RADIX=HEX;

CONTENT BEGIN
    0 : F609;
    1 : 1F4C;
    2 : F08A;
    3 : 24B2;
    4 : E202;
    5 : 17EA;
    6 : FC02;
    7 : 1256;
    8 : 0411;
    9 : 1021;
    10 : F265;
    11 : 23F1;
    12 : EE0D;
    13 : 086F;
    14 : 0872;
    15 : 02EB;
    16 : 07FC;
    17 : FF01;
    18 : 1DFD;
    19 : F55D;
    20 : 0E33;
    21 : E32F;
    22 : 2882;
    23 : CD04;
    24 : 02F9;
    25 : F356;
    26 : 0849;
    27 : EAC0;
    28 : 0DE2;
    29 : F2A1;
    30 : F3FE;
    31 : 0A22;
    32 : FB34;
    33 : 1122;
    34 : E136;
    35 : 3408;
    36 : 0FD6;
    37 : FF45;
    38 : 0B9F;
    39 : FB0F;
    40 : FD93;
    41 : 07EB;
    42 : FE07;
    43 : 0DAF;
    44 : FE1C;
    45 : 0435;
    46 : 06BE;
    47 : EA51;
    48 : F5FF;
    49 : 0B14;
    50 : 038B;
    51 : 13C0;
    52 : EE59;
    53 : 0000;
    54 : 0000;
    55 : FF3F;
    56 : FFB1;
    57 : EEEA;
    58 : 0906;
    59 : FA0C;
    60 : 1E03;
    61 : DE44;
    62 : 1617;
    63 : DAA4;
    64 : 31FE;
    65 : C7E9;
    66 : 07F4;
    67 : 00CD;
    68 : EAE9;
    69 : 168D;
    70 : E40D;
    71 : 2EB8;
    72 : EE3C;
    73 : 10B6;
    74 : FBCD;
    75 : 0406;
    76 : F34E;
    77 : 18F8;
    78 : F80B;
    79 : 03FE;
    80 : F512;
    81 : 1590;
    82 : F20E;
    83 : 0BF0;
    84 : E81C;
    85 : 1128;
    86 : E688;
    87 : 0011;
    88 : 0415;
    89 : 0BF2;
    90 : F418;
    91 : 10BA;
    92 : 11BF;
    93 : F2F5;
    94 : 08B1;
    95 : FC08;
    96 : F427;
    97 : 184B;
    98 : E7FA;
    99 : 1C38;
    100 : D935;
    101 : 2584;
    102 : E668;
    103 : 17B8;
    104 : EE36;
    105 : 175D;
    106 : E740;
    107 : 2FAD;
    108 : 155C;
    109 : 07B7;
    110 : F526;
    111 : FCEB;
    112 : FD25;
    113 : 0675;
    114 : F21C;
    115 : 14A6;
    116 : 01DF;
    117 : F030;
    118 : 0D40;
    119 : 007F;
    120 : 04F9;
    121 : 0FD9;
    122 : F59A;
    123 : FAF2;
    124 : F684;
    125 : 15DF;
    126 : 06D6;
    127 : FCC6;
    128 : 00CD;
    129 : F9A4;
    130 : 0A82;
    131 : 0000;
    132 : F09A;
    133 : FD5D;
    134 : 132E;
    135 : 05EF;
    136 : 0F1E;
    137 : ED9F;
    138 : 03F7;
    139 : 0A8F;
    140 : 03CC;
    141 : F2BA;
    142 : 14B1;
    143 : FE05;
    144 : 087B;
    145 : F6A2;
    146 : 089C;
    147 : F5BB;
    148 : 15D0;
    149 : F5A2;
    150 : FA10;
    151 : 0764;
    152 : F938;
    153 : 2032;
    154 : DE9E;
    155 : 0BE1;
    156 : E617;
    157 : 0B75;
    158 : F904;
    159 : 1235;
    160 : EBDB;
    161 : 17EB;
    162 : 05E9;
    163 : F2E4;
    164 : 0ED3;
    165 : F5EC;
    166 : 1B87;
    167 : E85E;
    168 : F201;
    169 : 07B8;
    170 : FBB7;
    171 : 15C2;
    172 : E614;
    173 : 158D;
    174 : 09FC;
    175 : 0188;
    176 : FD97;
    177 : FF41;
    178 : 1615;
    179 : EFD5;
    180 : F207;
    181 : 0EB8;
    182 : 0441;
    183 : 11F1;
    184 : F110;
    185 : 0DF9;
    186 : F412;
    187 : 01BE;
    188 : 0D55;
    189 : 0742;
    190 : FFDD;
    191 : F80C;
    192 : F810;
    193 : 07D1;
    194 : FC7D;
    195 : F81B;
    196 : 1976;
    197 : EC28;
    198 : 01FA;
    199 : FAE7;
    200 : F5D8;
    201 : 00AB;
    202 : EC80;
    203 : 0BDF;
    204 : 02F5;
    205 : FA76;
    206 : 0E6D;
    207 : F4C2;
    208 : 1A99;
    209 : DE79;
    210 : FE03;
    211 : FFAB;
    212 : 0D78;
    213 : DF15;
    214 : 1BFF;
    215 : F217;
    216 : 05F6;
    217 : 0014;
    218 : 044C;
    219 : E64D;
    220 : 2C9F;
    221 : DA3D;
    222 : 0E14;
    223 : 007D;
    224 : EB89;
    225 : 2718;
    226 : E30C;
    227 : 131B;
    228 : E8B3;
    229 : 0DCF;
    230 : EFD2;
    231 : 0CAF;
    232 : DFE1;
    233 : 193E;
    234 : 03FF;
    235 : 0329;
    236 : 0BC8;
    237 : E709;
    238 : 2818;
    239 : C40F;
    240 : FA03;
    241 : F851;
    242 : FBEA;
    243 : 1A3A;
    244 : EC18;
    245 : 11F6;
    246 : FB52;
    247 : 0317;
    248 : 039E;
    249 : 0017;
    250 : 0CDD;
    251 : F664;
    252 : 121E;
    253 : FF3A;
    254 : FF8D;
    255 : F2C4;
    256 : 0A4B;
    257 : F759;
    258 : F81F;
    259 : 0489;
    260 : F77B;
    261 : 08CC;
    262 : FF3A;
    263 : F03D;
    264 : EE32;
    265 : 1252;
    266 : E25F;
    267 : 29D1;
    268 : B60C;
    269 : 3B59;
    270 : 0BE4;
    271 : 0A41;
    272 : FB71;
    273 : FB7E;
    274 : 0AAB;
    275 : 0BE4;
    276 : E402;
    277 : 036A;
    278 : FF77;
    279 : 10D6;
    280 : F4BC;
    281 : F001;
    282 : 03F5;
    283 : 0729;
    284 : F4AB;
    285 : 1790;
    286 : E7FA;
    287 : 03F5;
    288 : F805;
    289 : 0E66;
    290 : F22B;
    291 : 283D;
    292 : EE4E;
    293 : 03FE;
    294 : 0BDF;
    295 : F7FE;
    296 : 0B54;
    297 : E7B3;
    298 : 2AB0;
    299 : D674;
    300 : FC07;
    301 : FE54;
    302 : FC4F;
    303 : F653;
    304 : 102B;
    305 : F416;
    306 : 0AF5;
    307 : FE0E;
    308 : 00EC;
    309 : E52D;
    310 : 1619;
    311 : EE12;
    312 : 07DE;
    313 : FFE9;
    314 : 05AB;
    315 : F540;
    316 : 0A94;
    317 : E66F;
    318 : 1BF2;
    319 : E715;
    320 : 2059;
    321 : F7DF;
    322 : 1209;
    323 : F406;
    324 : F78C;
    325 : 036A;
    326 : FAC1;
    327 : 1DD2;
    328 : E549;
    329 : 1562;
    330 : 1391;
    331 : EF81;
    332 : 0F53;
    333 : ED0E;
    334 : 148F;
    335 : F443;
    336 : E8FD;
    337 : 0D72;
    338 : F06B;
    339 : 1406;
    340 : D529;
    341 : 2284;
    342 : 1005;
    343 : FD55;
    344 : 074D;
    345 : 1501;
    346 : F9EF;
    347 : 0C04;
    348 : FA10;
    349 : FDC1;
    350 : 0E55;
    351 : E23B;
    352 : 2A91;
    353 : DA67;
    354 : 05AA;
    355 : 0793;
    356 : ECBC;
    357 : 2564;
    358 : D6A2;
    359 : 1F85;
    360 : F006;
    361 : 0478;
    362 : 10DB;
    363 : FB64;
    364 : 0792;
    365 : 0000;
    366 : F864;
    367 : FF52;
    368 : FA01;
    369 : 038B;
    370 : F6BB;
    371 : 0C5E;
    372 : ED3B;
    373 : 10D6;
    374 : F1FE;
    375 : 0CA3;
    376 : EDFE;
    377 : 1C67;
    378 : 0AD6;
    379 : FD26;
    380 : FE9F;
    381 : 06F4;
    382 : F316;
    383 : 05E9;
END;
