WIDTH=16;
DEPTH=384;

ADDRESS_RADIX=DEC;
DATA_RADIX=HEX;

CONTENT BEGIN
    0 : EEF6;
    1 : 0140;
    2 : 0AE6;
    3 : 186E;
    4 : 045B;
    5 : 0402;
    6 : F452;
    7 : 0EC9;
    8 : F568;
    9 : 0554;
    10 : FC1D;
    11 : FC1B;
    12 : FCE8;
    13 : 134F;
    14 : 13CF;
    15 : E00D;
    16 : 1B0B;
    17 : E638;
    18 : 0272;
    19 : 0A4F;
    20 : EE51;
    21 : 1098;
    22 : EC2D;
    23 : 1411;
    24 : 0884;
    25 : EA84;
    26 : 0211;
    27 : 0A68;
    28 : 0336;
    29 : 0201;
    30 : EB0F;
    31 : 0706;
    32 : E542;
    33 : 2A6A;
    34 : E5E6;
    35 : 2E11;
    36 : 0AFD;
    37 : 03ED;
    38 : FF97;
    39 : EEAA;
    40 : 0056;
    41 : F802;
    42 : 276E;
    43 : EEC7;
    44 : 0BA8;
    45 : E6D7;
    46 : 26B7;
    47 : F42C;
    48 : 10DF;
    49 : F965;
    50 : 02F8;
    51 : F782;
    52 : 0BD3;
    53 : F21C;
    54 : 0C35;
    55 : EE8B;
    56 : F198;
    57 : 079C;
    58 : 1CA6;
    59 : EBA7;
    60 : ED18;
    61 : 1627;
    62 : F5A1;
    63 : 0CEC;
    64 : D75D;
    65 : 12E8;
    66 : FE0B;
    67 : 18BC;
    68 : E964;
    69 : 284D;
    70 : D45D;
    71 : 291A;
    72 : 0207;
    73 : 1E3A;
    74 : 0787;
    75 : E948;
    76 : FA9C;
    77 : 0A23;
    78 : 2890;
    79 : DF8F;
    80 : 10C6;
    81 : E68C;
    82 : 32EF;
    83 : E4F5;
    84 : E408;
    85 : 09C0;
    86 : F1C9;
    87 : 036E;
    88 : FBDA;
    89 : 13FB;
    90 : FA53;
    91 : 18FA;
    92 : F670;
    93 : 06EF;
    94 : E4D6;
    95 : 1E44;
    96 : F616;
    97 : FC52;
    98 : 07F9;
    99 : EB0D;
    100 : 243E;
    101 : E242;
    102 : 137B;
    103 : E5AE;
    104 : FE39;
    105 : EF66;
    106 : 1A38;
    107 : EBC7;
    108 : F003;
    109 : 0A7C;
    110 : 03F3;
    111 : 08CA;
    112 : ECD6;
    113 : 19FB;
    114 : F7FB;
    115 : 0DE1;
    116 : FDE5;
    117 : 04E4;
    118 : 18B4;
    119 : EBF3;
    120 : FE0A;
    121 : FA5E;
    122 : 039E;
    123 : F6D5;
    124 : 15BC;
    125 : E684;
    126 : 09C4;
    127 : F554;
    128 : 016D;
    129 : F1D5;
    130 : 2764;
    131 : FE0C;
    132 : E74D;
    133 : 04AA;
    134 : FE56;
    135 : 0B6F;
    136 : F66A;
    137 : 11E2;
    138 : 0000;
    139 : 0FA2;
    140 : F115;
    141 : 13F8;
    142 : E992;
    143 : 0000;
    144 : EBDC;
    145 : FD57;
    146 : FB29;
    147 : 1810;
    148 : F36C;
    149 : 0A12;
    150 : E686;
    151 : 2319;
    152 : EDAC;
    153 : 256D;
    154 : CF7A;
    155 : 1D65;
    156 : 1BD3;
    157 : F2B7;
    158 : 11EB;
    159 : E089;
    160 : 291E;
    161 : EC20;
    162 : 1402;
    163 : EDCD;
    164 : 09CD;
    165 : 10AE;
    166 : F53B;
    167 : 0400;
    168 : 0827;
    169 : 0C1F;
    170 : 1151;
    171 : D4F7;
    172 : 2FD9;
    173 : C2DE;
    174 : 05F8;
    175 : F933;
    176 : 01BA;
    177 : 0325;
    178 : 0CFF;
    179 : E228;
    180 : 040F;
    181 : FC4A;
    182 : F6B2;
    183 : 1FDB;
    184 : F583;
    185 : 0B2A;
    186 : 1386;
    187 : F41C;
    188 : 001F;
    189 : 00C1;
    190 : FC94;
    191 : 176E;
    192 : 18F5;
    193 : 012D;
    194 : 1CE0;
    195 : E9B6;
    196 : 24E2;
    197 : EB34;
    198 : 0C2B;
    199 : FEA2;
    200 : F510;
    201 : 2A3E;
    202 : F8DD;
    203 : 1857;
    204 : 05FC;
    205 : F7F1;
    206 : 01B9;
    207 : 051E;
    208 : 2483;
    209 : 0000;
    210 : F50D;
    211 : 0D2A;
    212 : 0630;
    213 : E3CC;
    214 : 1D24;
    215 : FC05;
    216 : E810;
    217 : 1DC9;
    218 : 0832;
    219 : 0A46;
    220 : FF4E;
    221 : F00B;
    222 : F810;
    223 : F6EC;
    224 : FF7C;
    225 : EB9A;
    226 : 1336;
    227 : E830;
    228 : EC07;
    229 : 1B35;
    230 : 0CBB;
    231 : 1065;
    232 : E7DC;
    233 : 09FC;
    234 : D7E7;
    235 : 061C;
    236 : FBE9;
    237 : 150E;
    238 : FC1A;
    239 : 0805;
    240 : 1804;
    241 : E5C2;
    242 : 1822;
    243 : DCFC;
    244 : 2D02;
    245 : D0EE;
    246 : F3AB;
    247 : 1746;
    248 : 1612;
    249 : DB47;
    250 : 0393;
    251 : F785;
    252 : 0DF0;
    253 : 0C37;
    254 : F44A;
    255 : F4EC;
    256 : F868;
    257 : F210;
    258 : F5B7;
    259 : FF0B;
    260 : EDA3;
    261 : 2A0D;
    262 : F578;
    263 : 1CCD;
    264 : 0000;
    265 : F5C3;
    266 : 081A;
    267 : 04B1;
    268 : 0050;
    269 : 13F8;
    270 : 03FA;
    271 : 1901;
    272 : F4ED;
    273 : FE1C;
    274 : F558;
    275 : 0BED;
    276 : 0405;
    277 : F43A;
    278 : 023E;
    279 : 1A66;
    280 : FDDE;
    281 : 1C26;
    282 : 0802;
    283 : 06A4;
    284 : 0394;
    285 : 0E96;
    286 : 0A97;
    287 : 0401;
    288 : FC27;
    289 : F4A1;
    290 : 1354;
    291 : E12C;
    292 : 3646;
    293 : E6FC;
    294 : 0930;
    295 : EB29;
    296 : F52F;
    297 : 0FDA;
    298 : 0386;
    299 : 1570;
    300 : F803;
    301 : FF48;
    302 : 0E3D;
    303 : E020;
    304 : 1F50;
    305 : D00F;
    306 : 0404;
    307 : 0B77;
    308 : F526;
    309 : 240F;
    310 : DA25;
    311 : 302C;
    312 : DC99;
    313 : 169B;
    314 : F229;
    315 : 032D;
    316 : E5A6;
    317 : 07DE;
    318 : F214;
    319 : 10B6;
    320 : F51C;
    321 : FBE0;
    322 : 0356;
    323 : 03FA;
    324 : 0856;
    325 : F0F2;
    326 : 07AC;
    327 : E697;
    328 : 22BF;
    329 : F43B;
    330 : 03EC;
    331 : EE84;
    332 : 03D0;
    333 : F550;
    334 : 0970;
    335 : E48F;
    336 : 0814;
    337 : FF01;
    338 : 0DF3;
    339 : DEAC;
    340 : 2007;
    341 : BB52;
    342 : F9F0;
    343 : FEC6;
    344 : EFCE;
    345 : 04D1;
    346 : 18CC;
    347 : F9F0;
    348 : E533;
    349 : 182D;
    350 : 039D;
    351 : 0B03;
    352 : E592;
    353 : 16D5;
    354 : F822;
    355 : 0AEE;
    356 : F989;
    357 : 0151;
    358 : EA5B;
    359 : FE08;
    360 : F8F1;
    361 : 1570;
    362 : 0846;
    363 : EBB7;
    364 : F6ED;
    365 : 060D;
    366 : F47D;
    367 : 1C52;
    368 : 0BAB;
    369 : 054A;
    370 : F42D;
    371 : F57D;
    372 : D456;
    373 : 0DC2;
    374 : EADF;
    375 : 2A39;
    376 : E6DF;
    377 : 2996;
    378 : F71C;
    379 : 0E0A;
    380 : F556;
    381 : 145E;
    382 : DC79;
    383 : 15BC;
END;
