WIDTH=16;
DEPTH=384;

ADDRESS_RADIX=DEC;
DATA_RADIX=HEX;

CONTENT BEGIN
    0 : F807;
    1 : F7A9;
    2 : F171;
    3 : 1B59;
    4 : D384;
    5 : 11F1;
    6 : 0000;
    7 : F727;
    8 : FB63;
    9 : EF70;
    10 : 1DB8;
    11 : EE14;
    12 : E355;
    13 : F790;
    14 : 07EC;
    15 : 0CFC;
    16 : ED72;
    17 : 069B;
    18 : 0A02;
    19 : F7EF;
    20 : F470;
    21 : F266;
    22 : 0BDD;
    23 : 0601;
    24 : 03FC;
    25 : 0D2A;
    26 : F24B;
    27 : 0080;
    28 : F418;
    29 : 01FE;
    30 : 246A;
    31 : FE7A;
    32 : 058F;
    33 : E51D;
    34 : 0450;
    35 : FBF4;
    36 : EC49;
    37 : F154;
    38 : 09BA;
    39 : ECF0;
    40 : 1E4C;
    41 : EC49;
    42 : 041F;
    43 : FDF3;
    44 : F22C;
    45 : 0C8A;
    46 : DF38;
    47 : 3179;
    48 : F023;
    49 : F02E;
    50 : 1391;
    51 : E332;
    52 : 24A1;
    53 : D75B;
    54 : 2205;
    55 : F664;
    56 : 1EB5;
    57 : DD9C;
    58 : 2580;
    59 : D139;
    60 : F1E7;
    61 : F0A2;
    62 : F41F;
    63 : 16A2;
    64 : DD62;
    65 : 2C50;
    66 : F3F6;
    67 : EFB6;
    68 : 11B2;
    69 : DD19;
    70 : 1CC1;
    71 : CDD6;
    72 : 0000;
    73 : F501;
    74 : ED5E;
    75 : 0506;
    76 : FC18;
    77 : 0000;
    78 : 0228;
    79 : 0E43;
    80 : 139A;
    81 : D436;
    82 : 27A8;
    83 : D11A;
    84 : 0419;
    85 : 0F35;
    86 : 0F32;
    87 : E514;
    88 : 1C8F;
    89 : C6A3;
    90 : EBA3;
    91 : FBBE;
    92 : E524;
    93 : 29A7;
    94 : E24C;
    95 : 1C83;
    96 : F419;
    97 : EE63;
    98 : 0E13;
    99 : ECC2;
    100 : 0E87;
    101 : DE47;
    102 : 0A3C;
    103 : 0E36;
    104 : 0CBF;
    105 : E1E1;
    106 : 0575;
    107 : FBE8;
    108 : 13F1;
    109 : E69C;
    110 : 00D1;
    111 : F5F8;
    112 : 0F3A;
    113 : E415;
    114 : FC06;
    115 : F8E4;
    116 : F54A;
    117 : 0D71;
    118 : EDDB;
    119 : 01FD;
    120 : F408;
    121 : 04C6;
    122 : 0293;
    123 : 0C38;
    124 : F61D;
    125 : 1FEC;
    126 : 10BD;
    127 : F967;
    128 : 0FA8;
    129 : ED42;
    130 : 0557;
    131 : D628;
    132 : F627;
    133 : 156D;
    134 : F555;
    135 : 1E84;
    136 : D186;
    137 : 14AE;
    138 : F80A;
    139 : F06B;
    140 : 09A9;
    141 : 08A7;
    142 : 0568;
    143 : 0BF0;
    144 : F35C;
    145 : 1083;
    146 : 09D8;
    147 : F4E2;
    148 : E686;
    149 : 21B6;
    150 : E218;
    151 : 0617;
    152 : DA30;
    153 : 2010;
    154 : F705;
    155 : 222E;
    156 : 1FA6;
    157 : E2F2;
    158 : 0C6B;
    159 : EB62;
    160 : 08F2;
    161 : D10A;
    162 : 0990;
    163 : 08D6;
    164 : EDF7;
    165 : 0D0F;
    166 : E655;
    167 : 05BD;
    168 : FC48;
    169 : F1E3;
    170 : 0CC1;
    171 : F26D;
    172 : 0AE5;
    173 : 0000;
    174 : 065C;
    175 : FA3D;
    176 : 0E3C;
    177 : F1D8;
    178 : 024F;
    179 : ECEB;
    180 : F03E;
    181 : F995;
    182 : 030D;
    183 : FA14;
    184 : F35B;
    185 : 0BD1;
    186 : 0DF7;
    187 : 07CB;
    188 : EFBB;
    189 : 060E;
    190 : EB1F;
    191 : 1AEE;
    192 : F42A;
    193 : EEB1;
    194 : 16A4;
    195 : F20D;
    196 : 0CAB;
    197 : EC46;
    198 : 09F6;
    199 : F3B2;
    200 : 016F;
    201 : 133E;
    202 : DF6B;
    203 : 0BF4;
    204 : EE12;
    205 : 0150;
    206 : 055D;
    207 : 0B4A;
    208 : F268;
    209 : F40C;
    210 : 0000;
    211 : F839;
    212 : F2FD;
    213 : 17C3;
    214 : E641;
    215 : 0800;
    216 : 0000;
    217 : F79D;
    218 : F2E6;
    219 : 23F2;
    220 : CD91;
    221 : 3C13;
    222 : 1122;
    223 : F92E;
    224 : 07A0;
    225 : E62C;
    226 : 0BC9;
    227 : F5EC;
    228 : FBEE;
    229 : F556;
    230 : E838;
    231 : 29BC;
    232 : EC61;
    233 : 1B77;
    234 : 17FC;
    235 : FF35;
    236 : F776;
    237 : FF48;
    238 : 036C;
    239 : 1BFC;
    240 : E029;
    241 : 12E8;
    242 : 09D1;
    243 : 08FC;
    244 : F169;
    245 : E81E;
    246 : FA09;
    247 : EA9F;
    248 : FFF7;
    249 : E536;
    250 : 1ACF;
    251 : FA09;
    252 : 00C0;
    253 : F726;
    254 : FC9E;
    255 : 1413;
    256 : 07A2;
    257 : 0080;
    258 : F917;
    259 : 0E38;
    260 : FC11;
    261 : 1965;
    262 : D41B;
    263 : 08E3;
    264 : F401;
    265 : FA14;
    266 : FADD;
    267 : FBE8;
    268 : 0A62;
    269 : EC02;
    270 : F678;
    271 : FAF6;
    272 : EACB;
    273 : 1F6D;
    274 : DABB;
    275 : 31AA;
    276 : 05F8;
    277 : 04AB;
    278 : 0430;
    279 : 1292;
    280 : F042;
    281 : 03FB;
    282 : 0BE4;
    283 : EA5B;
    284 : 0A17;
    285 : E10C;
    286 : 1307;
    287 : F813;
    288 : 0A0C;
    289 : F21A;
    290 : 081C;
    291 : E0B3;
    292 : 135F;
    293 : D5CF;
    294 : 04F0;
    295 : 06BC;
    296 : F33E;
    297 : 078A;
    298 : DCE2;
    299 : 0CD7;
    300 : 102F;
    301 : F636;
    302 : 0872;
    303 : F83B;
    304 : 05D3;
    305 : FBF4;
    306 : F7F6;
    307 : F5A0;
    308 : F14A;
    309 : FD1C;
    310 : FC14;
    311 : 0000;
    312 : 136E;
    313 : F363;
    314 : 0DBA;
    315 : ED1F;
    316 : 24EE;
    317 : F458;
    318 : 0382;
    319 : F48F;
    320 : 0D9D;
    321 : E7B0;
    322 : 173D;
    323 : E6F3;
    324 : EBAB;
    325 : 1D90;
    326 : 0D2B;
    327 : F816;
    328 : 03D6;
    329 : F9F0;
    330 : 0DEC;
    331 : FA29;
    332 : FF8E;
    333 : FD37;
    334 : F86A;
    335 : 0FE9;
    336 : F36F;
    337 : F923;
    338 : F83D;
    339 : 173D;
    340 : EB9C;
    341 : 139B;
    342 : 07C7;
    343 : FED4;
    344 : F60B;
    345 : 0605;
    346 : DE28;
    347 : 0F8E;
    348 : FA00;
    349 : F568;
    350 : F8ED;
    351 : 09E4;
    352 : F30E;
    353 : 0000;
    354 : 07FA;
    355 : F57C;
    356 : FEEF;
    357 : F9F1;
    358 : 222F;
    359 : E416;
    360 : 06FC;
    361 : ECF5;
    362 : FC33;
    363 : EF97;
    364 : 22B4;
    365 : F506;
    366 : FA04;
    367 : E7B5;
    368 : 025C;
    369 : 094E;
    370 : FDB0;
    371 : FD02;
    372 : EE7B;
    373 : 1025;
    374 : F9A6;
    375 : 0ED5;
    376 : D230;
    377 : 1B40;
    378 : F271;
    379 : 09BB;
    380 : F3DC;
    381 : 0765;
    382 : F7AA;
    383 : 1A9D;
END;
