WIDTH=16;
DEPTH=384;

ADDRESS_RADIX=DEC;
DATA_RADIX=HEX;

CONTENT BEGIN
    0 : FE00;
    1 : 0D88;
    2 : F95F;
    3 : E9A0;
    4 : 19F6;
    5 : EFFC;
    6 : F32D;
    7 : 0E40;
    8 : 13D6;
    9 : EC45;
    10 : 06F2;
    11 : F550;
    12 : E3E8;
    13 : 1A37;
    14 : FE3D;
    15 : ECB9;
    16 : 0C29;
    17 : F9FB;
    18 : FBFD;
    19 : 0B6B;
    20 : FFE5;
    21 : E310;
    22 : 1C61;
    23 : E7F0;
    24 : 0E03;
    25 : EEA9;
    26 : 13A0;
    27 : DD78;
    28 : 1A62;
    29 : E7FB;
    30 : FBFC;
    31 : 09CD;
    32 : EE2D;
    33 : FCB0;
    34 : 250B;
    35 : F7F7;
    36 : 11E0;
    37 : 0B8B;
    38 : 00D8;
    39 : 0A63;
    40 : E2D0;
    41 : 13DD;
    42 : 0C5E;
    43 : 0290;
    44 : F1D9;
    45 : FB94;
    46 : 0620;
    47 : 037F;
    48 : 140D;
    49 : 0DF4;
    50 : 03FF;
    51 : EB20;
    52 : 1853;
    53 : FBFD;
    54 : 0816;
    55 : FB35;
    56 : EDF9;
    57 : 2D96;
    58 : E863;
    59 : 389B;
    60 : 10B8;
    61 : 0571;
    62 : FE28;
    63 : 07ED;
    64 : 0AAB;
    65 : EFC7;
    66 : E416;
    67 : 0A43;
    68 : 1721;
    69 : 09CA;
    70 : 0C63;
    71 : FC03;
    72 : 0812;
    73 : 0688;
    74 : 053D;
    75 : EC02;
    76 : 005E;
    77 : EFDC;
    78 : 0BD6;
    79 : EA6A;
    80 : 124D;
    81 : DD0D;
    82 : 2CD6;
    83 : FC0E;
    84 : F9FE;
    85 : FBE2;
    86 : FE69;
    87 : 12D1;
    88 : FC3A;
    89 : 180A;
    90 : 0BFC;
    91 : FC6A;
    92 : 0904;
    93 : 022C;
    94 : DD68;
    95 : 1BF7;
    96 : 0BE2;
    97 : 06CF;
    98 : FBED;
    99 : 071B;
    100 : F2EC;
    101 : 1FAF;
    102 : EC6C;
    103 : F1CC;
    104 : FD69;
    105 : 016E;
    106 : 0CE7;
    107 : F441;
    108 : 0FEB;
    109 : F610;
    110 : 0B7B;
    111 : F986;
    112 : 08E5;
    113 : FC05;
    114 : 0300;
    115 : 0078;
    116 : 0A89;
    117 : E38B;
    118 : 2242;
    119 : E4FE;
    120 : F029;
    121 : 0D64;
    122 : FDF9;
    123 : 04EF;
    124 : FBD6;
    125 : 0000;
    126 : F87E;
    127 : FC42;
    128 : 0109;
    129 : 15C8;
    130 : 0083;
    131 : 0581;
    132 : 0607;
    133 : 00CE;
    134 : F7B7;
    135 : 0B5D;
    136 : 08A9;
    137 : 0202;
    138 : 03F8;
    139 : 0497;
    140 : 015A;
    141 : 0E08;
    142 : F3F2;
    143 : E831;
    144 : 01A0;
    145 : E97A;
    146 : 0619;
    147 : F85F;
    148 : 17B1;
    149 : E9B9;
    150 : 1997;
    151 : 0625;
    152 : 0C14;
    153 : F0B9;
    154 : 0522;
    155 : ECCF;
    156 : FA04;
    157 : 0D71;
    158 : FC19;
    159 : F0E0;
    160 : 2217;
    161 : EE0D;
    162 : 1862;
    163 : EEA0;
    164 : FEB6;
    165 : ED72;
    166 : 1A81;
    167 : F290;
    168 : 110F;
    169 : 08FC;
    170 : 0DD5;
    171 : EC84;
    172 : 103F;
    173 : 0444;
    174 : 07E3;
    175 : F598;
    176 : 0BC3;
    177 : FCDE;
    178 : 0B70;
    179 : F81D;
    180 : E114;
    181 : 1B1D;
    182 : F670;
    183 : 057C;
    184 : F887;
    185 : 16F1;
    186 : 07F3;
    187 : F531;
    188 : 1303;
    189 : DC3E;
    190 : 3080;
    191 : EC21;
    192 : EE14;
    193 : 0DD4;
    194 : 0790;
    195 : FF63;
    196 : 0629;
    197 : 0DF1;
    198 : 0C77;
    199 : EE96;
    200 : 1883;
    201 : F6F7;
    202 : 1E7B;
    203 : E215;
    204 : F801;
    205 : 1484;
    206 : EBCD;
    207 : FF4E;
    208 : 05C5;
    209 : 0BFF;
    210 : 070C;
    211 : 068E;
    212 : 1422;
    213 : DEE3;
    214 : 2D43;
    215 : DDC4;
    216 : 10B9;
    217 : 0A24;
    218 : FF4C;
    219 : FB79;
    220 : 154F;
    221 : F305;
    222 : 0901;
    223 : F23B;
    224 : EE23;
    225 : 1ADA;
    226 : DF32;
    227 : 2104;
    228 : 05F2;
    229 : 1783;
    230 : F7A3;
    231 : 22B1;
    232 : D8F3;
    233 : 11D7;
    234 : F802;
    235 : 0736;
    236 : F35B;
    237 : 17C5;
    238 : E8AA;
    239 : 2FF3;
    240 : 0DF1;
    241 : F62C;
    242 : F970;
    243 : EDA2;
    244 : 1956;
    245 : F011;
    246 : 094A;
    247 : 107C;
    248 : E945;
    249 : 139E;
    250 : D319;
    251 : 24ED;
    252 : F002;
    253 : 10C6;
    254 : EA0E;
    255 : FB13;
    256 : E9A6;
    257 : 0DFE;
    258 : 1273;
    259 : DFE3;
    260 : 0B6C;
    261 : F1FF;
    262 : 2B2B;
    263 : DCF2;
    264 : F7FA;
    265 : 0341;
    266 : 1808;
    267 : EF07;
    268 : 0C0C;
    269 : F7FA;
    270 : 0FF5;
    271 : 040C;
    272 : 09E7;
    273 : 012B;
    274 : FD5A;
    275 : FE01;
    276 : 0200;
    277 : F940;
    278 : 19F4;
    279 : D11A;
    280 : 34A7;
    281 : D5FE;
    282 : EB39;
    283 : 0E7D;
    284 : F53C;
    285 : 1781;
    286 : E46D;
    287 : 20A6;
    288 : E3F7;
    289 : 11FE;
    290 : EEF6;
    291 : 2407;
    292 : DED9;
    293 : 240B;
    294 : F45E;
    295 : F30B;
    296 : 08C5;
    297 : F292;
    298 : 2B14;
    299 : D74A;
    300 : E60A;
    301 : 11C2;
    302 : FAFE;
    303 : 0807;
    304 : 01C8;
    305 : 0000;
    306 : 0000;
    307 : 09E6;
    308 : 076A;
    309 : 13C5;
    310 : D9D9;
    311 : 15DF;
    312 : 0000;
    313 : F852;
    314 : 0809;
    315 : 0EFB;
    316 : E61D;
    317 : 03FD;
    318 : DC29;
    319 : 276E;
    320 : E39F;
    321 : 1F65;
    322 : E3A8;
    323 : 2FCA;
    324 : DE44;
    325 : 0B4A;
    326 : DC36;
    327 : 2352;
    328 : D6E6;
    329 : 2E63;
    330 : F10D;
    331 : FB64;
    332 : 081F;
    333 : 05F8;
    334 : 073F;
    335 : EC12;
    336 : F428;
    337 : 08AE;
    338 : FBFD;
    339 : 06F7;
    340 : D900;
    341 : 277B;
    342 : FC02;
    343 : 04F6;
    344 : FB0C;
    345 : FDFB;
    346 : 0C13;
    347 : F605;
    348 : 0409;
    349 : 0AF1;
    350 : 0C4E;
    351 : EAB4;
    352 : 22B8;
    353 : F3E4;
    354 : 1406;
    355 : F7E7;
    356 : F5A0;
    357 : E96F;
    358 : F3E0;
    359 : 0000;
    360 : 2425;
    361 : 024B;
    362 : 0095;
    363 : F286;
    364 : EC99;
    365 : 0808;
    366 : 1C3E;
    367 : 0C26;
    368 : 0E72;
    369 : E28F;
    370 : 2308;
    371 : F1E1;
    372 : 0102;
    373 : ED84;
    374 : EDD0;
    375 : 0427;
    376 : F846;
    377 : 1534;
    378 : 03FD;
    379 : FBD2;
    380 : 0980;
    381 : 0788;
    382 : F91B;
    383 : FE02;
END;
