WIDTH=16;
DEPTH=384;

ADDRESS_RADIX=DEC;
DATA_RADIX=HEX;

CONTENT BEGIN
    0 : 0000;
    1 : F000;
    2 : 06D4;
    3 : EB86;
    4 : 1682;
    5 : D414;
    6 : 01ED;
    7 : E851;
    8 : 0E3E;
    9 : F7AB;
    10 : 1DD6;
    11 : E8E7;
    12 : F016;
    13 : EC95;
    14 : 1255;
    15 : 07C8;
    16 : F894;
    17 : FC06;
    18 : FC0D;
    19 : F4A9;
    20 : 09E6;
    21 : E89D;
    22 : 1165;
    23 : 0FCE;
    24 : FE07;
    25 : 0F23;
    26 : EDF6;
    27 : 21F2;
    28 : D0CF;
    29 : 3B33;
    30 : F603;
    31 : 108F;
    32 : 00F8;
    33 : FC51;
    34 : EF30;
    35 : FC01;
    36 : 17FB;
    37 : DCEF;
    38 : 0167;
    39 : 127B;
    40 : 084E;
    41 : 0000;
    42 : F9EE;
    43 : FC4E;
    44 : E3BC;
    45 : 2AA4;
    46 : BCB0;
    47 : 44CF;
    48 : 0BEE;
    49 : DEDD;
    50 : 0C4A;
    51 : E7E4;
    52 : 1DC7;
    53 : D63F;
    54 : 0000;
    55 : 0E26;
    56 : 007B;
    57 : FD98;
    58 : EF4F;
    59 : 0DB0;
    60 : F404;
    61 : F09C;
    62 : 0026;
    63 : 13EF;
    64 : E2E0;
    65 : 15F8;
    66 : FE10;
    67 : F401;
    68 : F209;
    69 : 1023;
    70 : D3BF;
    71 : 28A7;
    72 : 0606;
    73 : EC8F;
    74 : F762;
    75 : 1E9D;
    76 : ED70;
    77 : 1A19;
    78 : 0E23;
    79 : 108E;
    80 : 0492;
    81 : E574;
    82 : 0A77;
    83 : DFB0;
    84 : F42A;
    85 : 19C7;
    86 : FDB8;
    87 : 15F8;
    88 : DB4D;
    89 : 12BE;
    90 : F072;
    91 : F16D;
    92 : 090A;
    93 : F12A;
    94 : 11C2;
    95 : 1755;
    96 : F3EB;
    97 : FAE4;
    98 : E890;
    99 : 1BA6;
    100 : CEAE;
    101 : 223B;
    102 : 0607;
    103 : 032A;
    104 : 0C40;
    105 : FE31;
    106 : ECD1;
    107 : E9E8;
    108 : 0205;
    109 : F62E;
    110 : EF2D;
    111 : 1400;
    112 : DD2B;
    113 : 286C;
    114 : E00F;
    115 : 0103;
    116 : EED8;
    117 : 274C;
    118 : C88E;
    119 : 23EF;
    120 : E49F;
    121 : F883;
    122 : 0606;
    123 : FC3E;
    124 : 0B60;
    125 : E0B6;
    126 : 0A1D;
    127 : 0DFF;
    128 : 0285;
    129 : EEC3;
    130 : 0000;
    131 : ECC9;
    132 : FE13;
    133 : 1018;
    134 : 03CB;
    135 : ECF4;
    136 : 01DF;
    137 : F804;
    138 : FC00;
    139 : E9DB;
    140 : FF2B;
    141 : 0EA5;
    142 : FA4B;
    143 : 0A00;
    144 : 061E;
    145 : 07A5;
    146 : 19A2;
    147 : F0CE;
    148 : 07B9;
    149 : E787;
    150 : 0413;
    151 : ED5A;
    152 : F62B;
    153 : 1202;
    154 : 1135;
    155 : F9E4;
    156 : 1050;
    157 : E223;
    158 : 1196;
    159 : D875;
    160 : 1932;
    161 : C2D2;
    162 : D8DB;
    163 : 2145;
    164 : F735;
    165 : 16AC;
    166 : D5F1;
    167 : 1D5C;
    168 : 0000;
    169 : F2FC;
    170 : E90E;
    171 : 0D2A;
    172 : EB84;
    173 : 0C43;
    174 : 080E;
    175 : F932;
    176 : 015D;
    177 : F935;
    178 : ECE4;
    179 : 0407;
    180 : EF3E;
    181 : 07FF;
    182 : F212;
    183 : 1E04;
    184 : D659;
    185 : 2337;
    186 : 080D;
    187 : F771;
    188 : 138C;
    189 : D682;
    190 : 1DE1;
    191 : EFE7;
    192 : FC81;
    193 : EB5C;
    194 : 08F5;
    195 : EB57;
    196 : 0502;
    197 : F0C3;
    198 : FD04;
    199 : F9B8;
    200 : F918;
    201 : 1885;
    202 : D0AE;
    203 : 14A8;
    204 : 0000;
    205 : FBC3;
    206 : EF05;
    207 : 032A;
    208 : EA59;
    209 : F7FC;
    210 : 1179;
    211 : E5AA;
    212 : 027F;
    213 : ED47;
    214 : 06A4;
    215 : F783;
    216 : 0000;
    217 : E5D7;
    218 : 0CF7;
    219 : DF60;
    220 : 0D41;
    221 : EDFF;
    222 : 080E;
    223 : 0A2C;
    224 : 023A;
    225 : E5FB;
    226 : 06F2;
    227 : 060A;
    228 : F918;
    229 : E6A4;
    230 : FA4B;
    231 : 04C9;
    232 : 04A6;
    233 : 028F;
    234 : 03F3;
    235 : 0386;
    236 : 0B13;
    237 : F320;
    238 : 0A6B;
    239 : 03F3;
    240 : 1075;
    241 : FB0B;
    242 : 1259;
    243 : F42B;
    244 : F0EF;
    245 : 041D;
    246 : 0807;
    247 : EF23;
    248 : EDB1;
    249 : F49F;
    250 : 1C2C;
    251 : F3F5;
    252 : 12A4;
    253 : DE72;
    254 : 115D;
    255 : E47D;
    256 : 285F;
    257 : DEA4;
    258 : 041E;
    259 : 0E59;
    260 : 1110;
    261 : F11F;
    262 : FBED;
    263 : FBE2;
    264 : F315;
    265 : 03DA;
    266 : 0287;
    267 : 0493;
    268 : FBDC;
    269 : 15DC;
    270 : F7FC;
    271 : F044;
    272 : F682;
    273 : EB9D;
    274 : 19BC;
    275 : EFF8;
    276 : E0B3;
    277 : 1622;
    278 : F017;
    279 : 1224;
    280 : DCE4;
    281 : 0FA7;
    282 : FC14;
    283 : ECC2;
    284 : 0B61;
    285 : E946;
    286 : 1873;
    287 : D6D6;
    288 : 05F9;
    289 : FBDE;
    290 : E9BA;
    291 : 0AA5;
    292 : DF4C;
    293 : 0FEE;
    294 : 0403;
    295 : 02ED;
    296 : 01C3;
    297 : F85E;
    298 : D9DF;
    299 : 1612;
    300 : EC96;
    301 : 064E;
    302 : F4A4;
    303 : 1154;
    304 : E6C9;
    305 : FC1E;
    306 : EDBF;
    307 : F9DC;
    308 : EC0C;
    309 : 2589;
    310 : DC93;
    311 : 3232;
    312 : 0C04;
    313 : 0723;
    314 : F9E0;
    315 : 2037;
    316 : F511;
    317 : 240B;
    318 : FDFE;
    319 : EEFB;
    320 : 0486;
    321 : DCA1;
    322 : 0E91;
    323 : E3E1;
    324 : 0BFA;
    325 : 10E5;
    326 : F2B4;
    327 : FB21;
    328 : F77F;
    329 : FC02;
    330 : FD7F;
    331 : 0A9B;
    332 : F1DA;
    333 : FACE;
    334 : 0027;
    335 : 0F49;
    336 : F4B8;
    337 : F4FC;
    338 : 14C2;
    339 : E9B6;
    340 : 1F9A;
    341 : F0F5;
    342 : EDD0;
    343 : FFD5;
    344 : 0B5F;
    345 : E0C1;
    346 : 08E2;
    347 : E6BD;
    348 : EBE1;
    349 : F899;
    350 : EADC;
    351 : 0F72;
    352 : D64A;
    353 : 141F;
    354 : FC01;
    355 : 0020;
    356 : F6AE;
    357 : 138B;
    358 : 0250;
    359 : 0000;
    360 : EC10;
    361 : F75C;
    362 : 05E9;
    363 : 1022;
    364 : 0661;
    365 : 0BF7;
    366 : FD7F;
    367 : E795;
    368 : FA32;
    369 : 0772;
    370 : EB97;
    371 : 1506;
    372 : F823;
    373 : 1AFD;
    374 : E96F;
    375 : 08ED;
    376 : CE05;
    377 : 1798;
    378 : 0DDB;
    379 : FEFA;
    380 : 0A89;
    381 : FB94;
    382 : 1C71;
    383 : F02A;
END;
