WIDTH=16;
DEPTH=384;

ADDRESS_RADIX=DEC;
DATA_RADIX=HEX;

CONTENT BEGIN
    0 : FE01;
    1 : FDAE;
    2 : F642;
    3 : 21E8;
    4 : D30C;
    5 : 25F2;
    6 : 01A0;
    7 : FAC6;
    8 : DF56;
    9 : 2143;
    10 : D591;
    11 : 3377;
    12 : 11EE;
    13 : EA39;
    14 : F8E6;
    15 : ED78;
    16 : 0777;
    17 : EE12;
    18 : 0561;
    19 : FC7C;
    20 : ECA5;
    21 : 2387;
    22 : E38B;
    23 : 1E4E;
    24 : 0603;
    25 : 1109;
    26 : 011A;
    27 : F0FB;
    28 : 122F;
    29 : EFF7;
    30 : 041D;
    31 : 0655;
    32 : 170C;
    33 : DCE8;
    34 : 1301;
    35 : E333;
    36 : 03C0;
    37 : E725;
    38 : 0997;
    39 : F9F6;
    40 : 16F4;
    41 : 0000;
    42 : 0400;
    43 : FBEC;
    44 : 0167;
    45 : 0ABB;
    46 : FA88;
    47 : 1000;
    48 : D9CA;
    49 : 0F01;
    50 : EF4E;
    51 : 1CC1;
    52 : DF93;
    53 : 1A25;
    54 : 14E7;
    55 : F7C9;
    56 : 2174;
    57 : D1EB;
    58 : 1F60;
    59 : CDD5;
    60 : 1A0A;
    61 : D760;
    62 : 0D6D;
    63 : F646;
    64 : 056D;
    65 : F890;
    66 : 03FF;
    67 : F46C;
    68 : FE44;
    69 : EFFE;
    70 : FD98;
    71 : F803;
    72 : EDD5;
    73 : F204;
    74 : FBB4;
    75 : 1031;
    76 : F16B;
    77 : 2455;
    78 : 031C;
    79 : 10D6;
    80 : 0BFB;
    81 : F31E;
    82 : 09BA;
    83 : DED7;
    84 : F7F5;
    85 : 13E7;
    86 : 01B4;
    87 : F220;
    88 : EEDB;
    89 : 1C25;
    90 : 0929;
    91 : E123;
    92 : 069B;
    93 : F477;
    94 : 1E16;
    95 : EE88;
    96 : 07FF;
    97 : E6F0;
    98 : 03D2;
    99 : 0E49;
    100 : E8A2;
    101 : 0BFE;
    102 : 00FE;
    103 : 0EF4;
    104 : 0739;
    105 : 10F0;
    106 : ED57;
    107 : F11F;
    108 : FD04;
    109 : EFBA;
    110 : 0578;
    111 : E9BD;
    112 : 0D59;
    113 : FC05;
    114 : 07F8;
    115 : F39D;
    116 : 03ED;
    117 : F448;
    118 : 143E;
    119 : DE23;
    120 : FA07;
    121 : F6CE;
    122 : 117D;
    123 : FCA8;
    124 : 1313;
    125 : DF28;
    126 : F082;
    127 : 165F;
    128 : FEDE;
    129 : 056C;
    130 : E70B;
    131 : F841;
    132 : 03F6;
    133 : 06A7;
    134 : F368;
    135 : 02BE;
    136 : E24D;
    137 : 07EC;
    138 : 09BB;
    139 : DAAC;
    140 : 119E;
    141 : E849;
    142 : 1C2B;
    143 : EC8A;
    144 : E8F0;
    145 : 26EC;
    146 : E716;
    147 : 2496;
    148 : CAE0;
    149 : 1AE8;
    150 : 0E6E;
    151 : E4F1;
    152 : 08D7;
    153 : F0EE;
    154 : 2F0D;
    155 : E324;
    156 : E3FE;
    157 : 0A30;
    158 : FDFA;
    159 : F65D;
    160 : F0BC;
    161 : FC00;
    162 : F7FB;
    163 : 083D;
    164 : F9D8;
    165 : E63D;
    166 : FD1D;
    167 : EFF6;
    168 : F8F3;
    169 : F3AC;
    170 : FF4E;
    171 : 1650;
    172 : FAC5;
    173 : 0102;
    174 : F801;
    175 : 07A3;
    176 : 0A11;
    177 : 065B;
    178 : EF2E;
    179 : 0FFE;
    180 : EE02;
    181 : 00F7;
    182 : E9F2;
    183 : 067A;
    184 : E8C0;
    185 : 17FD;
    186 : FC10;
    187 : 0DE7;
    188 : E8D5;
    189 : 135A;
    190 : D38D;
    191 : 17A1;
    192 : 06EA;
    193 : E396;
    194 : 1519;
    195 : DD49;
    196 : 2266;
    197 : D292;
    198 : FA42;
    199 : FCC3;
    200 : 065F;
    201 : 13F4;
    202 : DF4D;
    203 : FD01;
    204 : E449;
    205 : 0805;
    206 : F07B;
    207 : 1786;
    208 : C724;
    209 : 13CC;
    210 : 0201;
    211 : F9FB;
    212 : 0174;
    213 : 1AB3;
    214 : F1DD;
    215 : 1006;
    216 : 17DD;
    217 : E66C;
    218 : 0350;
    219 : EAFA;
    220 : 0F43;
    221 : E823;
    222 : FC21;
    223 : 0478;
    224 : 217C;
    225 : D0A5;
    226 : 399D;
    227 : C335;
    228 : FBE7;
    229 : F575;
    230 : E999;
    231 : 25CB;
    232 : E6FE;
    233 : 312B;
    234 : FD03;
    235 : 0458;
    236 : FA6B;
    237 : FDAD;
    238 : F5CA;
    239 : 126F;
    240 : EC10;
    241 : 1061;
    242 : 0A93;
    243 : 0D91;
    244 : E36B;
    245 : 13F0;
    246 : F400;
    247 : F3E6;
    248 : F265;
    249 : FA0B;
    250 : 1AF0;
    251 : EC00;
    252 : FD09;
    253 : F97C;
    254 : 02A0;
    255 : F58A;
    256 : 1A49;
    257 : 0000;
    258 : F74E;
    259 : 15DE;
    260 : FA54;
    261 : FCA2;
    262 : E483;
    263 : 1065;
    264 : 12E5;
    265 : F261;
    266 : 13AD;
    267 : DD91;
    268 : 3822;
    269 : D63D;
    270 : 0200;
    271 : E31C;
    272 : 035A;
    273 : 12B6;
    274 : F386;
    275 : 0C03;
    276 : 0759;
    277 : F905;
    278 : 0E01;
    279 : F04C;
    280 : 06DF;
    281 : E1DA;
    282 : 0AF2;
    283 : EA57;
    284 : 03F3;
    285 : 02C4;
    286 : FF79;
    287 : ED98;
    288 : FC06;
    289 : 0A7F;
    290 : FD30;
    291 : 18F4;
    292 : E669;
    293 : FA09;
    294 : 1C8C;
    295 : E84A;
    296 : 1D79;
    297 : D65C;
    298 : 1387;
    299 : D11A;
    300 : F2F1;
    301 : 0D9E;
    302 : E6BF;
    303 : 1D0C;
    304 : D46D;
    305 : 2195;
    306 : FCD8;
    307 : FDAB;
    308 : EB02;
    309 : 109E;
    310 : F32C;
    311 : 1C66;
    312 : F1C1;
    313 : 059A;
    314 : F881;
    315 : 0B8F;
    316 : 028E;
    317 : 061B;
    318 : F859;
    319 : FB21;
    320 : F4DC;
    321 : 0B58;
    322 : E6AB;
    323 : FC2D;
    324 : 0000;
    325 : 0906;
    326 : 0E24;
    327 : E125;
    328 : 16C1;
    329 : CAE6;
    330 : 0FF9;
    331 : FE8C;
    332 : FC62;
    333 : F7BC;
    334 : 17C8;
    335 : DC0F;
    336 : 03F4;
    337 : FB31;
    338 : 0AB7;
    339 : FD7B;
    340 : 2515;
    341 : FC0C;
    342 : F6DB;
    343 : 02A8;
    344 : 0DCE;
    345 : F892;
    346 : FA17;
    347 : F9E7;
    348 : 0C15;
    349 : F7BF;
    350 : F73E;
    351 : 0EEC;
    352 : EF5D;
    353 : 182A;
    354 : EB69;
    355 : 018E;
    356 : 0185;
    357 : 00A2;
    358 : 0A7A;
    359 : 197E;
    360 : E7F2;
    361 : EB7A;
    362 : 0497;
    363 : 1387;
    364 : 04E4;
    365 : F3F9;
    366 : 03F3;
    367 : E6EA;
    368 : 1671;
    369 : F96A;
    370 : 173F;
    371 : F426;
    372 : 133A;
    373 : 04E3;
    374 : 0702;
    375 : E65C;
    376 : 0E1C;
    377 : DE9B;
    378 : FC08;
    379 : F6BC;
    380 : 0B77;
    381 : E7CA;
    382 : 1E6C;
    383 : FB0A;
END;
