WIDTH=16;
DEPTH=384;

ADDRESS_RADIX=DEC;
DATA_RADIX=HEX;

CONTENT BEGIN
    0 : 145F;
    1 : F861;
    2 : 0ABC;
    3 : E86C;
    4 : 0821;
    5 : 0413;
    6 : FF0E;
    7 : 12AE;
    8 : E923;
    9 : 10FF;
    10 : DA49;
    11 : 2868;
    12 : FA00;
    13 : 1143;
    14 : ECB7;
    15 : 20AF;
    16 : E6AB;
    17 : 2400;
    18 : FC0E;
    19 : 0ABA;
    20 : FE7E;
    21 : 08CA;
    22 : EEC7;
    23 : 0FC9;
    24 : 0B2A;
    25 : F811;
    26 : 0FE9;
    27 : E0C5;
    28 : 1DCF;
    29 : DAB4;
    30 : 0405;
    31 : F6C8;
    32 : 09CD;
    33 : E794;
    34 : 182E;
    35 : DFD6;
    36 : 0811;
    37 : 1804;
    38 : F256;
    39 : F0FB;
    40 : 04DA;
    41 : F7EF;
    42 : F5A6;
    43 : 0B3B;
    44 : 0025;
    45 : FED2;
    46 : F441;
    47 : 0A5A;
    48 : F3DC;
    49 : 12FE;
    50 : 0A67;
    51 : D8C8;
    52 : 15F8;
    53 : 0818;
    54 : 0E10;
    55 : 0036;
    56 : 0636;
    57 : F326;
    58 : 1BBA;
    59 : D9D3;
    60 : 0180;
    61 : 0623;
    62 : F49B;
    63 : 0D1C;
    64 : FCC0;
    65 : 147A;
    66 : E78B;
    67 : 1262;
    68 : F39D;
    69 : 1514;
    70 : F168;
    71 : 2230;
    72 : FE03;
    73 : 024B;
    74 : F503;
    75 : 16B3;
    76 : F42C;
    77 : 0A71;
    78 : 0FD3;
    79 : FBAC;
    80 : 0871;
    81 : E322;
    82 : 3152;
    83 : DA94;
    84 : 040A;
    85 : FAE5;
    86 : F6BF;
    87 : FEBE;
    88 : 0A48;
    89 : F1DF;
    90 : F14E;
    91 : 227C;
    92 : E530;
    93 : 251F;
    94 : CA2F;
    95 : 32F0;
    96 : F469;
    97 : 0720;
    98 : FC25;
    99 : 06B1;
    100 : E686;
    101 : 13BA;
    102 : 082B;
    103 : FDF5;
    104 : DF8B;
    105 : 0B84;
    106 : F866;
    107 : 0C41;
    108 : ECBB;
    109 : 0E61;
    110 : 0691;
    111 : EDC8;
    112 : 0B80;
    113 : EDBF;
    114 : 1C5B;
    115 : F745;
    116 : 0A46;
    117 : E8FF;
    118 : 15D9;
    119 : F7E6;
    120 : 08A5;
    121 : 0C2C;
    122 : F123;
    123 : 0F58;
    124 : D8DF;
    125 : 1FB2;
    126 : 0DD5;
    127 : F950;
    128 : F88F;
    129 : 04E9;
    130 : 0383;
    131 : F22B;
    132 : 2510;
    133 : EB2C;
    134 : 0604;
    135 : E075;
    136 : 3118;
    137 : DCF1;
    138 : F5D6;
    139 : 02F3;
    140 : 1527;
    141 : D00D;
    142 : 323A;
    143 : BEF0;
    144 : F325;
    145 : 044A;
    146 : 0353;
    147 : 0385;
    148 : 0A30;
    149 : 0376;
    150 : FCE8;
    151 : 04A5;
    152 : 07EB;
    153 : F37D;
    154 : F4F1;
    155 : 0738;
    156 : 1F92;
    157 : F751;
    158 : 0FD7;
    159 : DBD3;
    160 : 3B06;
    161 : DC7C;
    162 : FEFD;
    163 : 0792;
    164 : E5CB;
    165 : 28F0;
    166 : D9A8;
    167 : 38BB;
    168 : 079B;
    169 : FB96;
    170 : 18EE;
    171 : D376;
    172 : 3ADB;
    173 : C42F;
    174 : DFE6;
    175 : 217E;
    176 : EA3C;
    177 : 230B;
    178 : DF73;
    179 : 3B30;
    180 : FBED;
    181 : 09E9;
    182 : 0505;
    183 : EBF0;
    184 : 1614;
    185 : E995;
    186 : 122B;
    187 : FA41;
    188 : ED2A;
    189 : 0016;
    190 : 016E;
    191 : 1430;
    192 : 05DB;
    193 : F125;
    194 : 1806;
    195 : DF87;
    196 : 3717;
    197 : DAEC;
    198 : 03F3;
    199 : 04EC;
    200 : 009C;
    201 : FCBC;
    202 : ECE2;
    203 : 1BA7;
    204 : 14DB;
    205 : 0294;
    206 : 086A;
    207 : FAE7;
    208 : FF5C;
    209 : F317;
    210 : FA77;
    211 : 17E8;
    212 : F7E9;
    213 : FAED;
    214 : 0B0A;
    215 : 0589;
    216 : 0207;
    217 : 024E;
    218 : F020;
    219 : 00C8;
    220 : 060D;
    221 : 0207;
    222 : EC14;
    223 : F9BC;
    224 : F4CC;
    225 : 1A7D;
    226 : E4BE;
    227 : 0000;
    228 : 04F3;
    229 : F5A8;
    230 : 0302;
    231 : 1233;
    232 : EC00;
    233 : 01FB;
    234 : FBF2;
    235 : F82D;
    236 : 046A;
    237 : EECE;
    238 : 01F2;
    239 : EDC2;
    240 : FB90;
    241 : 0793;
    242 : 0809;
    243 : 027A;
    244 : 14B5;
    245 : F231;
    246 : F714;
    247 : 1612;
    248 : E7CE;
    249 : 1C8E;
    250 : E6A6;
    251 : 3507;
    252 : FC01;
    253 : F122;
    254 : 0599;
    255 : F3D9;
    256 : 0240;
    257 : 0000;
    258 : F00F;
    259 : 0BBB;
    260 : 01EE;
    261 : F783;
    262 : 0674;
    263 : F00F;
    264 : DE06;
    265 : 19E9;
    266 : EC26;
    267 : 0FAA;
    268 : D0F3;
    269 : 1A6D;
    270 : 0C18;
    271 : 0C6B;
    272 : 05B7;
    273 : E386;
    274 : 25D6;
    275 : F3E8;
    276 : 2471;
    277 : FCB4;
    278 : 0682;
    279 : E0B1;
    280 : 1695;
    281 : F7E7;
    282 : 1CC9;
    283 : EDBF;
    284 : 2059;
    285 : C67F;
    286 : 376A;
    287 : C66D;
    288 : E677;
    289 : 1C53;
    290 : FD08;
    291 : 037C;
    292 : EA80;
    293 : 0FB7;
    294 : FE09;
    295 : 0A1A;
    296 : F81A;
    297 : 0747;
    298 : 03F1;
    299 : EC5E;
    300 : FBEC;
    301 : 0B24;
    302 : E84B;
    303 : 1B4B;
    304 : EDA2;
    305 : 104E;
    306 : 0000;
    307 : FA5C;
    308 : 1D05;
    309 : E2B5;
    310 : 1545;
    311 : E6BC;
    312 : F4A2;
    313 : 01F8;
    314 : FAF2;
    315 : 0AE8;
    316 : F133;
    317 : 0BDD;
    318 : FA07;
    319 : 16DB;
    320 : E160;
    321 : 2DE6;
    322 : D259;
    323 : 49AE;
    324 : 03F6;
    325 : F33B;
    326 : 1CEA;
    327 : CEE0;
    328 : 33C8;
    329 : E448;
    330 : F238;
    331 : 03C6;
    332 : EE48;
    333 : 18F8;
    334 : D0DF;
    335 : 1F80;
    336 : 16AD;
    337 : EC2C;
    338 : 08C9;
    339 : DDF6;
    340 : 1974;
    341 : E449;
    342 : 0209;
    343 : 01D1;
    344 : 0C95;
    345 : EAB1;
    346 : 10CC;
    347 : F5D2;
    348 : 1E0F;
    349 : F4AC;
    350 : 08AD;
    351 : E070;
    352 : 2BE4;
    353 : E9F5;
    354 : 13CD;
    355 : FDF7;
    356 : 01C6;
    357 : 155F;
    358 : EDA9;
    359 : 0BE1;
    360 : 0CC6;
    361 : FA29;
    362 : 01C3;
    363 : FAB7;
    364 : 0DAB;
    365 : E47C;
    366 : 2051;
    367 : F5DB;
    368 : F0DC;
    369 : FE5D;
    370 : FC20;
    371 : 245C;
    372 : 0FDD;
    373 : F5F0;
    374 : 0157;
    375 : 17E2;
    376 : F9AF;
    377 : 03F7;
    378 : 13AC;
    379 : E30F;
    380 : 150B;
    381 : EE4C;
    382 : 10D0;
    383 : EE4C;
END;
