WIDTH=16;
DEPTH=384;

ADDRESS_RADIX=DEC;
DATA_RADIX=HEX;

CONTENT BEGIN
    0 : FBFE;
    1 : FDA3;
    2 : 1A80;
    3 : D659;
    4 : 2B55;
    5 : F3FA;
    6 : 0C42;
    7 : F2F1;
    8 : 1DF2;
    9 : CE73;
    10 : 2DC5;
    11 : D723;
    12 : DC86;
    13 : 19BF;
    14 : F338;
    15 : 1578;
    16 : E04D;
    17 : 1B98;
    18 : E434;
    19 : 062E;
    20 : 0AFE;
    21 : 08A3;
    22 : ECF8;
    23 : FA0B;
    24 : 0352;
    25 : EA21;
    26 : FEBC;
    27 : FF73;
    28 : 03DE;
    29 : FCED;
    30 : 0BC0;
    31 : E89E;
    32 : 0ED1;
    33 : F7B7;
    34 : 1029;
    35 : EC6A;
    36 : F7F9;
    37 : 0F1A;
    38 : EF3E;
    39 : F5AF;
    40 : F7C4;
    41 : FBFD;
    42 : 0A12;
    43 : F838;
    44 : 058B;
    45 : EE43;
    46 : 0E5C;
    47 : EC5C;
    48 : F719;
    49 : 1142;
    50 : F30D;
    51 : 1CB2;
    52 : E09E;
    53 : 10D1;
    54 : F3FB;
    55 : FD2A;
    56 : EF71;
    57 : 2085;
    58 : DA94;
    59 : 2B11;
    60 : F01C;
    61 : 0636;
    62 : 0F39;
    63 : 0990;
    64 : F9F5;
    65 : 01FD;
    66 : EBF5;
    67 : 077A;
    68 : 064A;
    69 : E68F;
    70 : 1F79;
    71 : D3E8;
    72 : F801;
    73 : 1601;
    74 : EBA1;
    75 : FD71;
    76 : F2D7;
    77 : 07FF;
    78 : 012D;
    79 : F6C5;
    80 : 06F3;
    81 : 0153;
    82 : 136D;
    83 : E9AD;
    84 : F033;
    85 : FF7E;
    86 : 057A;
    87 : FF5C;
    88 : F541;
    89 : 1F9A;
    90 : 0000;
    91 : 08C5;
    92 : FA36;
    93 : FBBD;
    94 : FE53;
    95 : 0000;
    96 : F5F8;
    97 : 053C;
    98 : 0584;
    99 : EA5A;
    100 : 16C3;
    101 : EBF0;
    102 : F911;
    103 : FAB2;
    104 : FE1D;
    105 : F87B;
    106 : 0F3E;
    107 : FC0A;
    108 : FC8D;
    109 : 10D1;
    110 : EE48;
    111 : 1C75;
    112 : E0AD;
    113 : 2280;
    114 : 0000;
    115 : 0A4F;
    116 : F6BF;
    117 : 062F;
    118 : 069B;
    119 : EC75;
    120 : 1622;
    121 : EC66;
    122 : 10BC;
    123 : DA03;
    124 : 311D;
    125 : C3A3;
    126 : 175A;
    127 : DC1C;
    128 : 0AA4;
    129 : DB98;
    130 : 2D63;
    131 : D545;
    132 : F407;
    133 : F413;
    134 : F5AD;
    135 : 0F27;
    136 : EA53;
    137 : 07FB;
    138 : 03F4;
    139 : 0CF7;
    140 : FB3E;
    141 : 0D99;
    142 : E59B;
    143 : 1F9E;
    144 : 13AF;
    145 : EBDD;
    146 : 0CFC;
    147 : E7F6;
    148 : 2079;
    149 : E861;
    150 : FBDB;
    151 : F4AD;
    152 : 1CF9;
    153 : D128;
    154 : 241F;
    155 : BDAF;
    156 : 05E2;
    157 : FD07;
    158 : F617;
    159 : 11CB;
    160 : EDC9;
    161 : 138C;
    162 : FC07;
    163 : 0274;
    164 : 0167;
    165 : F379;
    166 : 0337;
    167 : 0BEB;
    168 : 0457;
    169 : F6EF;
    170 : 1481;
    171 : D951;
    172 : 3361;
    173 : CDF5;
    174 : 0AFD;
    175 : FDB6;
    176 : F353;
    177 : 113B;
    178 : F4F8;
    179 : 16FA;
    180 : EC38;
    181 : 0C70;
    182 : F8D0;
    183 : 13BF;
    184 : F60E;
    185 : FE06;
    186 : F027;
    187 : 0DFF;
    188 : EEAE;
    189 : 1A18;
    190 : D814;
    191 : 1BBC;
    192 : 0BCE;
    193 : 03C1;
    194 : F91E;
    195 : 07BD;
    196 : 01C6;
    197 : F043;
    198 : F80D;
    199 : 006C;
    200 : FE37;
    201 : 1A80;
    202 : F6A8;
    203 : F414;
    204 : 1B61;
    205 : EF70;
    206 : 0200;
    207 : F722;
    208 : 1417;
    209 : 03E9;
    210 : FC0C;
    211 : 0EB3;
    212 : F6DD;
    213 : 0FE7;
    214 : EC1E;
    215 : 1DA6;
    216 : F7F8;
    217 : 0DBC;
    218 : EED2;
    219 : F604;
    220 : 029A;
    221 : 0404;
    222 : F406;
    223 : FD9D;
    224 : EDC7;
    225 : 16ED;
    226 : DA62;
    227 : 17F5;
    228 : F43F;
    229 : 12F0;
    230 : FB97;
    231 : 0536;
    232 : FA0E;
    233 : EC6A;
    234 : 0809;
    235 : FAD6;
    236 : F223;
    237 : F8C5;
    238 : F1E4;
    239 : 0607;
    240 : 0BED;
    241 : E2F5;
    242 : 1101;
    243 : D7C6;
    244 : 1F28;
    245 : F413;
    246 : F72A;
    247 : 1119;
    248 : FB7E;
    249 : 0816;
    250 : EABC;
    251 : 10B1;
    252 : 07D1;
    253 : 0EA5;
    254 : EFAD;
    255 : 1515;
    256 : E333;
    257 : F82F;
    258 : 2079;
    259 : EABA;
    260 : 072A;
    261 : EDE6;
    262 : 260A;
    263 : E27B;
    264 : 1013;
    265 : F54C;
    266 : 0685;
    267 : DE47;
    268 : 2554;
    269 : CFC7;
    270 : 0FDF;
    271 : F86E;
    272 : 04BE;
    273 : 0C00;
    274 : F5B1;
    275 : FE04;
    276 : F5D6;
    277 : FA8E;
    278 : 062B;
    279 : 0575;
    280 : 0E76;
    281 : F4D8;
    282 : 198C;
    283 : EE21;
    284 : 0B8B;
    285 : DDFB;
    286 : 272E;
    287 : D43F;
    288 : 15F9;
    289 : F610;
    290 : FBC8;
    291 : F919;
    292 : F9C9;
    293 : 17F8;
    294 : DC05;
    295 : 1A50;
    296 : EA16;
    297 : 16CA;
    298 : E4E0;
    299 : 23FB;
    300 : 0A79;
    301 : FE1B;
    302 : F73E;
    303 : EE88;
    304 : 179F;
    305 : F543;
    306 : F450;
    307 : 0CD6;
    308 : EFB0;
    309 : 096B;
    310 : F07C;
    311 : 06D2;
    312 : 081A;
    313 : 0114;
    314 : 099E;
    315 : E113;
    316 : FE44;
    317 : 0000;
    318 : 0A09;
    319 : FF60;
    320 : F231;
    321 : FEA6;
    322 : FF6E;
    323 : FBFC;
    324 : FF09;
    325 : F6D1;
    326 : 0867;
    327 : F0E5;
    328 : 1427;
    329 : EEA7;
    330 : F611;
    331 : 0697;
    332 : F693;
    333 : 0266;
    334 : F08E;
    335 : 03F9;
    336 : 09DE;
    337 : 0980;
    338 : FB48;
    339 : 113E;
    340 : DC37;
    341 : 13BC;
    342 : F99D;
    343 : 03D4;
    344 : EC23;
    345 : 224E;
    346 : E28A;
    347 : 1F60;
    348 : EE24;
    349 : 0539;
    350 : 048B;
    351 : 1512;
    352 : E853;
    353 : 0771;
    354 : F5FF;
    355 : 016E;
    356 : 0AC5;
    357 : F003;
    358 : 12C2;
    359 : D9FD;
    360 : 04E6;
    361 : 1245;
    362 : E0D4;
    363 : 2BC3;
    364 : BCD2;
    365 : 3EB0;
    366 : EB98;
    367 : 0619;
    368 : 13AF;
    369 : E10D;
    370 : 20E6;
    371 : C6DC;
    372 : 07FC;
    373 : EF9D;
    374 : F932;
    375 : 1F85;
    376 : E9E1;
    377 : 0000;
    378 : FBFD;
    379 : 1040;
    380 : EEE7;
    381 : F9EF;
    382 : FA88;
    383 : FBFD;
END;
