WIDTH=16;
DEPTH=384;

ADDRESS_RADIX=DEC;
DATA_RADIX=HEX;

CONTENT BEGIN
    0 : FE05;
    1 : 04D0;
    2 : F776;
    3 : 12C4;
    4 : E66B;
    5 : 21A6;
    6 : F638;
    7 : 05A0;
    8 : 035C;
    9 : FCFF;
    10 : FBDE;
    11 : 0FA6;
    12 : F040;
    13 : 06E1;
    14 : 010E;
    15 : 0534;
    16 : 080A;
    17 : E471;
    18 : 1F5C;
    19 : F1E1;
    20 : 052E;
    21 : F54F;
    22 : 18C0;
    23 : F248;
    24 : F53A;
    25 : 0749;
    26 : F974;
    27 : 08D9;
    28 : FE69;
    29 : F635;
    30 : 1423;
    31 : F8A3;
    32 : FD1D;
    33 : F136;
    34 : FF5B;
    35 : 1423;
    36 : 060F;
    37 : F3BC;
    38 : 1F99;
    39 : CAA7;
    40 : 41C5;
    41 : C775;
    42 : 0804;
    43 : F778;
    44 : F54D;
    45 : 011B;
    46 : 011E;
    47 : EFF8;
    48 : F034;
    49 : 08E1;
    50 : 0516;
    51 : F565;
    52 : 1B56;
    53 : DC75;
    54 : EFF4;
    55 : 037B;
    56 : F945;
    57 : FD26;
    58 : 0CDE;
    59 : E3EC;
    60 : F039;
    61 : 00CF;
    62 : 0AD2;
    63 : 0547;
    64 : 0262;
    65 : EA4E;
    66 : EE45;
    67 : 13C8;
    68 : F363;
    69 : 13DB;
    70 : E472;
    71 : 2472;
    72 : FDFC;
    73 : FBB7;
    74 : 113E;
    75 : DD11;
    76 : 1E1F;
    77 : EDDE;
    78 : FDFC;
    79 : 02FD;
    80 : F10F;
    81 : F72F;
    82 : FF40;
    83 : 0811;
    84 : 0810;
    85 : 02E7;
    86 : 0933;
    87 : DD0E;
    88 : 27D9;
    89 : EDDD;
    90 : F24F;
    91 : 0F4A;
    92 : FE7A;
    93 : FC93;
    94 : 0012;
    95 : 0178;
    96 : 02BC;
    97 : F8FC;
    98 : FDF4;
    99 : FB81;
    100 : F873;
    101 : 039B;
    102 : FB42;
    103 : FC83;
    104 : FF20;
    105 : 021E;
    106 : F75B;
    107 : 0132;
    108 : 03EC;
    109 : FA36;
    110 : 0131;
    111 : 011A;
    112 : F3AF;
    113 : 0DBA;
    114 : 0C00;
    115 : F656;
    116 : 0947;
    117 : E927;
    118 : 0970;
    119 : 0400;
    120 : 0604;
    121 : F94B;
    122 : 0B93;
    123 : E8D6;
    124 : 128F;
    125 : F1F8;
    126 : E65C;
    127 : FFE6;
    128 : 06EF;
    129 : 0735;
    130 : FF01;
    131 : F039;
    132 : 0BDA;
    133 : FAB5;
    134 : E951;
    135 : 1EF0;
    136 : E7ED;
    137 : 0BDA;
    138 : EEBB;
    139 : 08DF;
    140 : 1009;
    141 : 0197;
    142 : 0979;
    143 : EF3A;
    144 : 03EA;
    145 : 05DF;
    146 : 0CB9;
    147 : F58D;
    148 : 0FD3;
    149 : 03EA;
    150 : FE09;
    151 : 11E0;
    152 : EBC5;
    153 : 1A77;
    154 : DD87;
    155 : 330D;
    156 : 09F3;
    157 : 0992;
    158 : E921;
    159 : 1148;
    160 : E2B2;
    161 : 2BC5;
    162 : EE2E;
    163 : 1B81;
    164 : E160;
    165 : 2AE2;
    166 : CFC2;
    167 : 4157;
    168 : E764;
    169 : 15D6;
    170 : FDD8;
    171 : 0414;
    172 : F120;
    173 : 12DB;
    174 : 1728;
    175 : 0448;
    176 : FBED;
    177 : F35D;
    178 : 0CAA;
    179 : FAF7;
    180 : 05EA;
    181 : 056B;
    182 : 0536;
    183 : 086E;
    184 : 0D7D;
    185 : 0000;
    186 : 0F85;
    187 : EAB9;
    188 : 08C1;
    189 : F5A4;
    190 : 0291;
    191 : 03E1;
    192 : EBF5;
    193 : 1649;
    194 : ECF1;
    195 : 016D;
    196 : F61F;
    197 : 140B;
    198 : 0BE0;
    199 : F62B;
    200 : 0B3C;
    201 : EF39;
    202 : 2010;
    203 : D86B;
    204 : F338;
    205 : 1903;
    206 : EEC7;
    207 : 1F53;
    208 : D6BC;
    209 : 2A46;
    210 : F20F;
    211 : 0165;
    212 : 0816;
    213 : ED62;
    214 : 19E7;
    215 : EA18;
    216 : 0000;
    217 : 06AB;
    218 : E4FF;
    219 : 0153;
    220 : F0D0;
    221 : 0C08;
    222 : F7F4;
    223 : F966;
    224 : 06F4;
    225 : E758;
    226 : 0FD3;
    227 : E3D7;
    228 : 0409;
    229 : FDC3;
    230 : 0155;
    231 : E8F0;
    232 : 16F5;
    233 : E3C2;
    234 : FB98;
    235 : FD0C;
    236 : FB08;
    237 : 0837;
    238 : EA83;
    239 : 08D0;
    240 : D864;
    241 : 1806;
    242 : F514;
    243 : 0560;
    244 : EB62;
    245 : 0BE2;
    246 : FE11;
    247 : 01AA;
    248 : F571;
    249 : 070A;
    250 : FF22;
    251 : 05CE;
    252 : E281;
    253 : 14B2;
    254 : E79A;
    255 : 1CAB;
    256 : D282;
    257 : 2753;
    258 : EC67;
    259 : 0511;
    260 : 0147;
    261 : F939;
    262 : 0B23;
    263 : E490;
    264 : 0BD4;
    265 : FB01;
    266 : F982;
    267 : 0106;
    268 : F400;
    269 : 1B99;
    270 : 0407;
    271 : 055F;
    272 : F129;
    273 : FD2A;
    274 : 05EE;
    275 : F7F2;
    276 : FC00;
    277 : FC7E;
    278 : 034F;
    279 : F12A;
    280 : 154E;
    281 : DE02;
    282 : F42B;
    283 : 0862;
    284 : 015E;
    285 : 10B5;
    286 : FA68;
    287 : F232;
    288 : 0FCC;
    289 : EC06;
    290 : 1125;
    291 : F137;
    292 : 0BCF;
    293 : F427;
    294 : F839;
    295 : F9AD;
    296 : 04F5;
    297 : F96E;
    298 : 10BE;
    299 : D53C;
    300 : 0408;
    301 : FF88;
    302 : 0925;
    303 : DD1C;
    304 : 2FE7;
    305 : EFE1;
    306 : F7F7;
    307 : 0BD2;
    308 : F98A;
    309 : FAED;
    310 : FC77;
    311 : 1618;
    312 : DA7B;
    313 : 19BC;
    314 : E95F;
    315 : 24CA;
    316 : CF93;
    317 : 2F65;
    318 : 066A;
    319 : 0665;
    320 : F8C4;
    321 : 1956;
    322 : EEDD;
    323 : 0A5D;
    324 : E89F;
    325 : 0347;
    326 : F193;
    327 : 0CDE;
    328 : E0EC;
    329 : 07CB;
    330 : 0409;
    331 : FE59;
    332 : 054F;
    333 : E0EA;
    334 : 2805;
    335 : D7AA;
    336 : 0C18;
    337 : FE10;
    338 : 0142;
    339 : E905;
    340 : 1910;
    341 : 0408;
    342 : F66D;
    343 : 070D;
    344 : FC4B;
    345 : F188;
    346 : 07A3;
    347 : 058B;
    348 : FC0F;
    349 : 098E;
    350 : 00A3;
    351 : 071F;
    352 : FA50;
    353 : 11BB;
    354 : 13AF;
    355 : F6DC;
    356 : F95E;
    357 : 10CE;
    358 : E4F0;
    359 : 1F7E;
    360 : E84D;
    361 : 1951;
    362 : E178;
    363 : 28BD;
    364 : DF42;
    365 : 19AD;
    366 : E458;
    367 : 0C41;
    368 : F145;
    369 : 1EE3;
    370 : DDC2;
    371 : 15BB;
    372 : 0C10;
    373 : EC9A;
    374 : 208D;
    375 : CE75;
    376 : 434D;
    377 : C214;
    378 : F53E;
    379 : 0324;
    380 : F100;
    381 : 110C;
    382 : D5BC;
    383 : 223C;
END;
