WIDTH=16;
DEPTH=384;

ADDRESS_RADIX=DEC;
DATA_RADIX=HEX;

CONTENT BEGIN
    0 : E6F9;
    1 : 200B;
    2 : F9D5;
    3 : 11F4;
    4 : F2C1;
    5 : 280B;
    6 : 2901;
    7 : FB7C;
    8 : 1719;
    9 : E2B8;
    10 : 259F;
    11 : E34C;
    12 : 0000;
    13 : 04A9;
    14 : 0BA5;
    15 : F430;
    16 : 16C7;
    17 : D999;
    18 : 13FA;
    19 : 04DF;
    20 : 05A4;
    21 : E442;
    22 : 2F6B;
    23 : CC0F;
    24 : 1E54;
    25 : E6EF;
    26 : 0240;
    27 : 0418;
    28 : 158B;
    29 : E739;
    30 : 123F;
    31 : F423;
    32 : F715;
    33 : 1CFC;
    34 : F733;
    35 : 1A5B;
    36 : 07F7;
    37 : 13B6;
    38 : F41F;
    39 : 25D2;
    40 : D181;
    41 : 23D7;
    42 : 0000;
    43 : 0DBC;
    44 : F5AB;
    45 : 0E0F;
    46 : EB6A;
    47 : 158D;
    48 : E81B;
    49 : 1584;
    50 : FD7A;
    51 : F29B;
    52 : FB12;
    53 : 03FB;
    54 : F844;
    55 : FE10;
    56 : 1136;
    57 : E716;
    58 : 30C2;
    59 : D389;
    60 : 0200;
    61 : 08DB;
    62 : 05D2;
    63 : F422;
    64 : 0E5E;
    65 : E805;
    66 : F60E;
    67 : 126C;
    68 : FED0;
    69 : EF24;
    70 : 1C7E;
    71 : F411;
    72 : 141D;
    73 : 00CC;
    74 : 0C68;
    75 : E9A4;
    76 : 12BD;
    77 : EDE6;
    78 : 1018;
    79 : EBA3;
    80 : FFF8;
    81 : 1606;
    82 : FF7D;
    83 : 1824;
    84 : FEFC;
    85 : F2F4;
    86 : F7B6;
    87 : 1178;
    88 : F638;
    89 : 1C6E;
    90 : EDF7;
    91 : 178E;
    92 : 0661;
    93 : EBB1;
    94 : F558;
    95 : 0E07;
    96 : 08F1;
    97 : 114F;
    98 : 0605;
    99 : F2F3;
    100 : 1FD6;
    101 : FD05;
    102 : F073;
    103 : F91F;
    104 : F7AA;
    105 : 14BA;
    106 : FA16;
    107 : 161D;
    108 : 1236;
    109 : 01DB;
    110 : 0C13;
    111 : E745;
    112 : 24DB;
    113 : DDB3;
    114 : 0BF1;
    115 : 05D6;
    116 : 04FD;
    117 : E904;
    118 : 2F2C;
    119 : D437;
    120 : E019;
    121 : 16ED;
    122 : FBB2;
    123 : 160E;
    124 : EBA7;
    125 : 07FA;
    126 : 0C21;
    127 : EC64;
    128 : FCD3;
    129 : 1913;
    130 : FB47;
    131 : 1232;
    132 : 17C9;
    133 : EB81;
    134 : FDEF;
    135 : F62C;
    136 : 2A10;
    137 : DA57;
    138 : F7E3;
    139 : 1172;
    140 : 0C4B;
    141 : F9E3;
    142 : FAEB;
    143 : 0615;
    144 : EAB2;
    145 : 020D;
    146 : F3BB;
    147 : 20E7;
    148 : F4E1;
    149 : 1B64;
    150 : 0BFD;
    151 : 10E3;
    152 : FB34;
    153 : EADE;
    154 : 02E9;
    155 : E408;
    156 : FBF5;
    157 : 0A2D;
    158 : F782;
    159 : 1653;
    160 : E65E;
    161 : 307E;
    162 : 1B51;
    163 : F7A0;
    164 : 075F;
    165 : F2B1;
    166 : 2445;
    167 : FC19;
    168 : FBF0;
    169 : 166C;
    170 : 0695;
    171 : F712;
    172 : 16EA;
    173 : DF7E;
    174 : F3BE;
    175 : 0C2D;
    176 : DA89;
    177 : 3B89;
    178 : D245;
    179 : 2CF2;
    180 : FA0F;
    181 : 0685;
    182 : FF19;
    183 : FC9E;
    184 : 03FC;
    185 : 13CF;
    186 : 08F5;
    187 : FDC4;
    188 : F1BD;
    189 : 0345;
    190 : F68B;
    191 : 18E2;
    192 : E22D;
    193 : 1B2C;
    194 : FF48;
    195 : F8A1;
    196 : 0313;
    197 : 05F7;
    198 : 03FB;
    199 : 0408;
    200 : F112;
    201 : F8F3;
    202 : 07F5;
    203 : F410;
    204 : 0AE0;
    205 : 0B4E;
    206 : EB4E;
    207 : 10AB;
    208 : D9F4;
    209 : 2D7A;
    210 : FF81;
    211 : 07F3;
    212 : 116D;
    213 : EFEC;
    214 : 227A;
    215 : E0BE;
    216 : 03F7;
    217 : 0E6D;
    218 : F764;
    219 : 0E58;
    220 : EE2F;
    221 : 27A3;
    222 : 10CB;
    223 : E909;
    224 : 09B7;
    225 : E34F;
    226 : 2088;
    227 : EF35;
    228 : 030D;
    229 : FE2D;
    230 : 0D94;
    231 : F8F9;
    232 : F289;
    233 : F553;
    234 : FD11;
    235 : FE89;
    236 : EF6A;
    237 : 136B;
    238 : CCDC;
    239 : 2916;
    240 : EBB6;
    241 : 0914;
    242 : F5D6;
    243 : 2240;
    244 : F444;
    245 : 1F73;
    246 : 1C11;
    247 : FDE6;
    248 : 0E13;
    249 : 0BAD;
    250 : F278;
    251 : 0000;
    252 : F805;
    253 : FA66;
    254 : 01E4;
    255 : 0805;
    256 : E231;
    257 : FE01;
    258 : 0424;
    259 : F7BB;
    260 : F341;
    261 : 10CA;
    262 : 05DE;
    263 : FBDC;
    264 : EA92;
    265 : 12E1;
    266 : F1E3;
    267 : 11EA;
    268 : DDF8;
    269 : 1761;
    270 : F40A;
    271 : 0D35;
    272 : 0D35;
    273 : F4B2;
    274 : FBFB;
    275 : 13EF;
    276 : E7E6;
    277 : 0E45;
    278 : 0046;
    279 : 1593;
    280 : FE54;
    281 : F7F7;
    282 : 0CAD;
    283 : 0F0A;
    284 : 0EA9;
    285 : F338;
    286 : 2B23;
    287 : EAE0;
    288 : E7F6;
    289 : 0977;
    290 : 027D;
    291 : 0A4B;
    292 : FEA8;
    293 : 0201;
    294 : 0000;
    295 : F5F6;
    296 : 086E;
    297 : 0988;
    298 : FD2A;
    299 : 140A;
    300 : 0A10;
    301 : FE25;
    302 : FC2A;
    303 : 1FE6;
    304 : F6DD;
    305 : 0406;
    306 : 07F6;
    307 : 128B;
    308 : FDA5;
    309 : F893;
    310 : F972;
    311 : 10EA;
    312 : F940;
    313 : 03BF;
    314 : FEFD;
    315 : 0102;
    316 : F114;
    317 : 08AE;
    318 : F403;
    319 : 1E67;
    320 : E8E9;
    321 : 1CEB;
    322 : ECCE;
    323 : 1FF9;
    324 : 08FA;
    325 : F2FA;
    326 : EFF9;
    327 : FE4B;
    328 : F857;
    329 : 09F9;
    330 : 1162;
    331 : FC2A;
    332 : F987;
    333 : 07DA;
    334 : FD3E;
    335 : FE4F;
    336 : 100A;
    337 : F976;
    338 : 09C9;
    339 : 0400;
    340 : EDAB;
    341 : F9FC;
    342 : 0608;
    343 : 043B;
    344 : 00E1;
    345 : 0EF6;
    346 : 1714;
    347 : EDE9;
    348 : 23ED;
    349 : FAF4;
    350 : 0560;
    351 : EB82;
    352 : 24D0;
    353 : DB13;
    354 : 11F1;
    355 : FB64;
    356 : 035D;
    357 : EC91;
    358 : F5CF;
    359 : FE02;
    360 : F418;
    361 : 147F;
    362 : FDEC;
    363 : FC16;
    364 : F1C4;
    365 : 0000;
    366 : 05FD;
    367 : FE5F;
    368 : 04A5;
    369 : 013A;
    370 : F0C0;
    371 : 07FC;
    372 : FAE8;
    373 : EE49;
    374 : F807;
    375 : 1111;
    376 : FC0A;
    377 : 0D3F;
    378 : 1179;
    379 : E524;
    380 : 149A;
    381 : D986;
    382 : 1FC0;
    383 : CF2A;
END;
