WIDTH=16;
DEPTH=384;

ADDRESS_RADIX=DEC;
DATA_RADIX=HEX;

CONTENT BEGIN
    0 : E966;
    1 : 1012;
    2 : E3C2;
    3 : 2C4B;
    4 : D9EE;
    5 : 335E;
    6 : FCFD;
    7 : F38D;
    8 : 0922;
    9 : 0CF0;
    10 : 0AE4;
    11 : F577;
    12 : 0DF0;
    13 : FFCC;
    14 : 106B;
    15 : DD4A;
    16 : 3320;
    17 : C446;
    18 : F551;
    19 : FE8F;
    20 : FCF7;
    21 : 01CA;
    22 : FD15;
    23 : 03E3;
    24 : FC01;
    25 : FAFC;
    26 : 0CD6;
    27 : 02AF;
    28 : 04DB;
    29 : 0FFC;
    30 : 09E7;
    31 : FEE8;
    32 : F155;
    33 : 0A52;
    34 : FF60;
    35 : 07EC;
    36 : F3DF;
    37 : FC5E;
    38 : F095;
    39 : 22E7;
    40 : FE8B;
    41 : FBF5;
    42 : 11AC;
    43 : F905;
    44 : FE99;
    45 : F742;
    46 : 1383;
    47 : 09D1;
    48 : FCFB;
    49 : F666;
    50 : F60B;
    51 : 2174;
    52 : E154;
    53 : 2543;
    54 : FDFF;
    55 : 0BB3;
    56 : FD55;
    57 : 1021;
    58 : 02AF;
    59 : 0402;
    60 : 02FE;
    61 : 0431;
    62 : 0FD3;
    63 : EFFF;
    64 : 1CD9;
    65 : D41D;
    66 : 0608;
    67 : FE87;
    68 : 0EED;
    69 : FE9B;
    70 : F4A8;
    71 : 0608;
    72 : 0BED;
    73 : FCE3;
    74 : 1254;
    75 : F150;
    76 : 1215;
    77 : FC06;
    78 : FC03;
    79 : 0726;
    80 : FA4F;
    81 : 150A;
    82 : CE2E;
    83 : 37DA;
    84 : E417;
    85 : 114C;
    86 : F9B6;
    87 : 1E88;
    88 : CA3B;
    89 : 31D6;
    90 : E810;
    91 : FE6D;
    92 : 0903;
    93 : 0248;
    94 : 0109;
    95 : 0FF5;
    96 : 0BB8;
    97 : F045;
    98 : 0104;
    99 : F9B9;
    100 : 1998;
    101 : F15A;
    102 : FCF9;
    103 : F68D;
    104 : 1AF9;
    105 : E69C;
    106 : 2348;
    107 : DCB1;
    108 : 027F;
    109 : FC05;
    110 : 03BF;
    111 : 05AC;
    112 : 0DB8;
    113 : FD81;
    114 : F8F4;
    115 : 04AF;
    116 : FAFB;
    117 : 1A98;
    118 : F7E3;
    119 : 060A;
    120 : 07F6;
    121 : FFA1;
    122 : 0CA2;
    123 : FEE5;
    124 : 1459;
    125 : FC05;
    126 : 0202;
    127 : 0325;
    128 : 0988;
    129 : 11F1;
    130 : 075D;
    131 : 0606;
    132 : E60C;
    133 : 1431;
    134 : F56D;
    135 : 22ED;
    136 : D1CD;
    137 : 26EE;
    138 : E494;
    139 : 065A;
    140 : FD5D;
    141 : FD2A;
    142 : 0E9C;
    143 : 0000;
    144 : 03F4;
    145 : FF9A;
    146 : F4AA;
    147 : 14AE;
    148 : E056;
    149 : 10CF;
    150 : E3D5;
    151 : 0A8A;
    152 : F922;
    153 : 1C54;
    154 : E4FB;
    155 : 283E;
    156 : 0000;
    157 : 0714;
    158 : 1A33;
    159 : F9EC;
    160 : 0764;
    161 : F5DB;
    162 : 07F1;
    163 : 01D3;
    164 : 04F2;
    165 : 0082;
    166 : F4E2;
    167 : 0FE2;
    168 : EE49;
    169 : 1526;
    170 : FBE3;
    171 : FC57;
    172 : F701;
    173 : 1390;
    174 : F231;
    175 : 025F;
    176 : 08FB;
    177 : F8D1;
    178 : 0CCC;
    179 : E854;
    180 : 067C;
    181 : F5E6;
    182 : 04C4;
    183 : 05C4;
    184 : 19CE;
    185 : EA0D;
    186 : 12D5;
    187 : FA4A;
    188 : 08E0;
    189 : ECCC;
    190 : 1B1E;
    191 : E15E;
    192 : DC17;
    193 : 17ED;
    194 : F6F3;
    195 : 20A2;
    196 : CBFD;
    197 : 1BEE;
    198 : 0407;
    199 : 056F;
    200 : F91B;
    201 : 1F89;
    202 : EF0D;
    203 : 101C;
    204 : 0040;
    205 : FB2B;
    206 : 0A2B;
    207 : FCF4;
    208 : 0BE3;
    209 : EF61;
    210 : FBEC;
    211 : 07A5;
    212 : E42C;
    213 : 2FB8;
    214 : E1EA;
    215 : 24B8;
    216 : 0802;
    217 : 083D;
    218 : 1565;
    219 : E4BC;
    220 : 2A18;
    221 : DBF9;
    222 : 0806;
    223 : 0185;
    224 : ED9E;
    225 : 21D1;
    226 : CF76;
    227 : 402E;
    228 : 11B1;
    229 : 07F6;
    230 : FFBF;
    231 : 0398;
    232 : 075D;
    233 : 01F7;
    234 : F276;
    235 : 00E8;
    236 : 0B5B;
    237 : F244;
    238 : 1BBA;
    239 : D763;
    240 : 1820;
    241 : 07D9;
    242 : 0B75;
    243 : FC38;
    244 : 094E;
    245 : FBFB;
    246 : FC01;
    247 : 1041;
    248 : 05E0;
    249 : 0577;
    250 : 10A0;
    251 : 13FD;
    252 : F828;
    253 : 0A20;
    254 : 01E1;
    255 : F9C2;
    256 : 0947;
    257 : F04F;
    258 : 09D8;
    259 : F573;
    260 : 131D;
    261 : D8C7;
    262 : 3557;
    263 : C102;
    264 : DA21;
    265 : 0FFE;
    266 : EF75;
    267 : 19E5;
    268 : D938;
    269 : 29DC;
    270 : F69C;
    271 : EFDB;
    272 : 07B9;
    273 : F9CC;
    274 : 0E0E;
    275 : FCA5;
    276 : 1DA4;
    277 : FCFD;
    278 : 04D7;
    279 : 0072;
    280 : 161F;
    281 : FC0C;
    282 : 0D68;
    283 : F3D3;
    284 : F0CC;
    285 : FF32;
    286 : 0136;
    287 : 1161;
    288 : F3DE;
    289 : 1506;
    290 : EABE;
    291 : 2AE4;
    292 : DDBD;
    293 : 40B4;
    294 : EDFA;
    295 : 12A7;
    296 : F196;
    297 : 1DD2;
    298 : E93D;
    299 : 1807;
    300 : 1048;
    301 : FA41;
    302 : 176D;
    303 : E81E;
    304 : 1246;
    305 : F7DC;
    306 : 1436;
    307 : EF8A;
    308 : FA3C;
    309 : 1F56;
    310 : F561;
    311 : 1436;
    312 : E405;
    313 : 1A97;
    314 : EDCE;
    315 : 1D93;
    316 : DEA5;
    317 : 1BFB;
    318 : 0000;
    319 : 1615;
    320 : E40B;
    321 : 1409;
    322 : DE47;
    323 : 16F1;
    324 : E9AA;
    325 : 17C4;
    326 : FE0B;
    327 : 0C97;
    328 : E467;
    329 : 1459;
    330 : 0C0C;
    331 : FCBD;
    332 : FD4A;
    333 : 1440;
    334 : 005A;
    335 : 0606;
    336 : 0000;
    337 : F691;
    338 : 1999;
    339 : EFC6;
    340 : 120E;
    341 : E20C;
    342 : 0A77;
    343 : FAF4;
    344 : 086B;
    345 : 01FA;
    346 : 18F4;
    347 : EC90;
    348 : E960;
    349 : 141E;
    350 : FD9E;
    351 : 028C;
    352 : F575;
    353 : 0000;
    354 : DFFF;
    355 : 28D9;
    356 : E9EA;
    357 : 2F6D;
    358 : D9E5;
    359 : 3601;
    360 : F5FA;
    361 : 07B8;
    362 : F9CB;
    363 : 1BA2;
    364 : FC50;
    365 : F1F7;
    366 : 1504;
    367 : 03B3;
    368 : F8B3;
    369 : 1E3F;
    370 : EC37;
    371 : 0A02;
    372 : 17DE;
    373 : F724;
    374 : 0B22;
    375 : F6C4;
    376 : 218E;
    377 : E1CD;
    378 : 03DC;
    379 : 02DF;
    380 : 0D5E;
    381 : F22A;
    382 : 1807;
    383 : 0000;
END;
