WIDTH=16;
DEPTH=384;

ADDRESS_RADIX=DEC;
DATA_RADIX=HEX;

CONTENT BEGIN
    0 : DF1A;
    1 : 0AE1;
    2 : F526;
    3 : 1E9F;
    4 : E000;
    5 : 0BF6;
    6 : FDF6;
    7 : F88D;
    8 : F1E9;
    9 : 17F8;
    10 : F482;
    11 : 020A;
    12 : DB95;
    13 : FE88;
    14 : F2AF;
    15 : 1956;
    16 : DE2C;
    17 : 1030;
    18 : F2E7;
    19 : 025F;
    20 : F764;
    21 : 106A;
    22 : 01B1;
    23 : 0A13;
    24 : 0A35;
    25 : 08F3;
    26 : 1385;
    27 : E1F3;
    28 : 21DD;
    29 : C6D8;
    30 : F91F;
    31 : 1BEF;
    32 : FC5E;
    33 : 1337;
    34 : E5BC;
    35 : 09D3;
    36 : EB9F;
    37 : 0058;
    38 : EE27;
    39 : 1774;
    40 : EFEB;
    41 : 1875;
    42 : 0FE1;
    43 : E21A;
    44 : 093F;
    45 : FE73;
    46 : F8C4;
    47 : F810;
    48 : 09E5;
    49 : EE29;
    50 : 04B2;
    51 : FFAA;
    52 : 104D;
    53 : E8E0;
    54 : 1C5C;
    55 : EE54;
    56 : 15D5;
    57 : F5EE;
    58 : F78E;
    59 : EFCB;
    60 : 0FF9;
    61 : EDE7;
    62 : F27C;
    63 : ED4D;
    64 : 0965;
    65 : F405;
    66 : 05F7;
    67 : ED41;
    68 : FDD8;
    69 : 0011;
    70 : EAEB;
    71 : 13E2;
    72 : 1A1D;
    73 : DD53;
    74 : FFE2;
    75 : 11BC;
    76 : FC4D;
    77 : 0607;
    78 : 0817;
    79 : 14CF;
    80 : 0944;
    81 : EE69;
    82 : 0A24;
    83 : EFD2;
    84 : 0E56;
    85 : 0111;
    86 : 19CF;
    87 : D55A;
    88 : 2188;
    89 : D0E6;
    90 : 1829;
    91 : E863;
    92 : FA34;
    93 : 197D;
    94 : 037D;
    95 : 1422;
    96 : FE03;
    97 : FD3C;
    98 : F6DD;
    99 : 0DDA;
    100 : E7FE;
    101 : 15E3;
    102 : 02D5;
    103 : 0EC8;
    104 : 17EA;
    105 : EB79;
    106 : 10E0;
    107 : D381;
    108 : 07FA;
    109 : EB1E;
    110 : 0A59;
    111 : 054D;
    112 : 05D5;
    113 : F00B;
    114 : 0FF4;
    115 : ED9D;
    116 : 09CE;
    117 : 01EB;
    118 : 013F;
    119 : F806;
    120 : D762;
    121 : 0B81;
    122 : F7C0;
    123 : 1759;
    124 : DC02;
    125 : 24DB;
    126 : EFB7;
    127 : 13DF;
    128 : 0AEB;
    129 : E4CD;
    130 : 067E;
    131 : E177;
    132 : F7FD;
    133 : 02E5;
    134 : FD0F;
    135 : F294;
    136 : F936;
    137 : EBF9;
    138 : EA3A;
    139 : F987;
    140 : 0C7C;
    141 : FEE8;
    142 : 0453;
    143 : 11D1;
    144 : F707;
    145 : 0B4B;
    146 : 0ABA;
    147 : 0CEA;
    148 : E4E2;
    149 : 06FA;
    150 : F5E7;
    151 : EDAB;
    152 : FCF5;
    153 : 12BA;
    154 : 0C49;
    155 : F9F1;
    156 : 1F56;
    157 : E33C;
    158 : 1E9E;
    159 : DD1D;
    160 : 1B36;
    161 : D638;
    162 : 1825;
    163 : F8FC;
    164 : 0F7E;
    165 : FC48;
    166 : FB74;
    167 : F1EA;
    168 : F427;
    169 : EE4E;
    170 : 09E9;
    171 : 0015;
    172 : 0348;
    173 : 05EC;
    174 : 10D8;
    175 : FF6A;
    176 : 12A5;
    177 : ED60;
    178 : 0292;
    179 : FBCA;
    180 : 0FEB;
    181 : E547;
    182 : 13B7;
    183 : F434;
    184 : 03EA;
    185 : F015;
    186 : F00A;
    187 : 0745;
    188 : 041D;
    189 : 0D91;
    190 : E394;
    191 : 1BEE;
    192 : DB49;
    193 : 03ED;
    194 : EAB3;
    195 : 110E;
    196 : DA35;
    197 : 187A;
    198 : FF00;
    199 : F35F;
    200 : 0D37;
    201 : E48E;
    202 : 04B8;
    203 : F0F9;
    204 : F887;
    205 : FC94;
    206 : FE93;
    207 : 0E19;
    208 : C44A;
    209 : 1E63;
    210 : 0300;
    211 : F14F;
    212 : EBFE;
    213 : 0A91;
    214 : DC22;
    215 : 2441;
    216 : F404;
    217 : E737;
    218 : 0B04;
    219 : 0AB7;
    220 : F382;
    221 : EC07;
    222 : 0FB5;
    223 : 0088;
    224 : 02EC;
    225 : FCFE;
    226 : 028F;
    227 : EC58;
    228 : EC26;
    229 : F56B;
    230 : FF5C;
    231 : FD1D;
    232 : 0EF2;
    233 : 0C74;
    234 : 13F7;
    235 : 0220;
    236 : 05E8;
    237 : 11C0;
    238 : 029D;
    239 : 01FF;
    240 : EC60;
    241 : 15F3;
    242 : F63B;
    243 : 1D3F;
    244 : D7CA;
    245 : 03ED;
    246 : F564;
    247 : F59D;
    248 : E18D;
    249 : 26EE;
    250 : DAF7;
    251 : 295F;
    252 : FD4C;
    253 : F4BD;
    254 : EDB1;
    255 : 1772;
    256 : EFFB;
    257 : 217E;
    258 : 136C;
    259 : FFBA;
    260 : F9DD;
    261 : 0CB3;
    262 : EE15;
    263 : ED8D;
    264 : 1428;
    265 : EC54;
    266 : 052C;
    267 : EFA7;
    268 : 0F2E;
    269 : F013;
    270 : F800;
    271 : E948;
    272 : FB69;
    273 : 0C4B;
    274 : F1F8;
    275 : 0000;
    276 : 1074;
    277 : F0CF;
    278 : 220A;
    279 : D9CD;
    280 : 2707;
    281 : D2C2;
    282 : FA22;
    283 : F14B;
    284 : F52D;
    285 : 0E54;
    286 : E083;
    287 : 213D;
    288 : E4B0;
    289 : 0326;
    290 : 08F0;
    291 : F903;
    292 : F4A2;
    293 : F5E2;
    294 : 13F6;
    295 : 058C;
    296 : F7B3;
    297 : FA0A;
    298 : F822;
    299 : F505;
    300 : 0606;
    301 : F565;
    302 : 04B0;
    303 : E4EE;
    304 : 09A4;
    305 : E5E7;
    306 : EFAA;
    307 : F5E1;
    308 : 0CAF;
    309 : F89D;
    310 : 1886;
    311 : E7FA;
    312 : FB0C;
    313 : FF9C;
    314 : 025E;
    315 : 022A;
    316 : 1736;
    317 : F31F;
    318 : 01FF;
    319 : E7F1;
    320 : FDF3;
    321 : 19C9;
    322 : E09B;
    323 : F803;
    324 : F7FC;
    325 : 14C8;
    326 : 1025;
    327 : 0154;
    328 : 061A;
    329 : F3FA;
    330 : FA04;
    331 : 04F5;
    332 : FA92;
    333 : 1F10;
    334 : EA7D;
    335 : 1472;
    336 : FA18;
    337 : F546;
    338 : 0C68;
    339 : FB5D;
    340 : 1F21;
    341 : 0000;
    342 : 0B30;
    343 : FED1;
    344 : 0DD7;
    345 : E92D;
    346 : 16BA;
    347 : D855;
    348 : 11D8;
    349 : E98B;
    350 : 10FE;
    351 : DCFE;
    352 : 28F1;
    353 : C682;
    354 : DB38;
    355 : 1334;
    356 : EAC5;
    357 : 1D38;
    358 : E4B7;
    359 : 28DF;
    360 : F888;
    361 : ED39;
    362 : FCAC;
    363 : ED32;
    364 : 19C0;
    365 : 00FF;
    366 : 078D;
    367 : EBF3;
    368 : F699;
    369 : 1C3D;
    370 : E3F6;
    371 : 182B;
    372 : E8E2;
    373 : 26C5;
    374 : E341;
    375 : 2FBD;
    376 : B027;
    377 : 3DA5;
    378 : 09FF;
    379 : F7E0;
    380 : F43E;
    381 : F78A;
    382 : 0B30;
    383 : 09FF;
END;
