WIDTH=16;
DEPTH=384;

ADDRESS_RADIX=DEC;
DATA_RADIX=HEX;

CONTENT BEGIN
    0 : ECAB;
    1 : 0B98;
    2 : F505;
    3 : 087B;
    4 : EA1C;
    5 : 1C09;
    6 : 0C16;
    7 : ED1B;
    8 : F727;
    9 : 0304;
    10 : EDB6;
    11 : 203A;
    12 : F1B9;
    13 : F8C3;
    14 : F660;
    15 : 061B;
    16 : E797;
    17 : 1C8D;
    18 : FEFD;
    19 : FD63;
    20 : EDF1;
    21 : FE54;
    22 : 0299;
    23 : 173D;
    24 : F827;
    25 : FCE5;
    26 : 02F5;
    27 : 0621;
    28 : F576;
    29 : F33F;
    30 : F409;
    31 : 0842;
    32 : 08B5;
    33 : F59B;
    34 : F673;
    35 : FE02;
    36 : 0413;
    37 : F765;
    38 : DED2;
    39 : 06CA;
    40 : F70C;
    41 : 1C84;
    42 : FC0C;
    43 : EB64;
    44 : 0017;
    45 : 0FF8;
    46 : F156;
    47 : F229;
    48 : 0182;
    49 : EFC3;
    50 : 01D1;
    51 : E5DD;
    52 : 1CD8;
    53 : EF6C;
    54 : 0828;
    55 : F5CF;
    56 : 2375;
    57 : DE9D;
    58 : 0FDF;
    59 : DB4D;
    60 : 0BAD;
    61 : E99B;
    62 : FBC0;
    63 : 026C;
    64 : F699;
    65 : 0F91;
    66 : 01AE;
    67 : 003E;
    68 : EB11;
    69 : 1A48;
    70 : CD41;
    71 : 25B6;
    72 : 0DE5;
    73 : E68A;
    74 : 0323;
    75 : F2FD;
    76 : 2230;
    77 : EC27;
    78 : F6D3;
    79 : 121E;
    80 : 08F1;
    81 : E823;
    82 : 0189;
    83 : F9E2;
    84 : FDFA;
    85 : 05AA;
    86 : 00C8;
    87 : F332;
    88 : F37C;
    89 : F5E4;
    90 : 13CB;
    91 : EAD6;
    92 : FFA5;
    93 : 1043;
    94 : 0D39;
    95 : FE05;
    96 : EC3B;
    97 : FA7E;
    98 : EF86;
    99 : 1BAF;
    100 : CCBC;
    101 : 2886;
    102 : E3B3;
    103 : 21F6;
    104 : F3F7;
    105 : 1051;
    106 : D2DA;
    107 : 313A;
    108 : 0408;
    109 : F855;
    110 : F21E;
    111 : F205;
    112 : 1441;
    113 : F7EF;
    114 : 0409;
    115 : F2E8;
    116 : E89F;
    117 : 05AE;
    118 : EA50;
    119 : 0409;
    120 : F8F2;
    121 : 001C;
    122 : F5CD;
    123 : EE84;
    124 : 0357;
    125 : 050A;
    126 : ECB7;
    127 : 0EB8;
    128 : FF4E;
    129 : 02F9;
    130 : ECC0;
    131 : ECB7;
    132 : FDF4;
    133 : FBF3;
    134 : 16F3;
    135 : D041;
    136 : 1F01;
    137 : D061;
    138 : FBFE;
    139 : FB4E;
    140 : E911;
    141 : 24C9;
    142 : D2CB;
    143 : 4224;
    144 : 03F1;
    145 : 0D60;
    146 : EF4A;
    147 : 072C;
    148 : E35E;
    149 : 03F1;
    150 : F9F6;
    151 : F1B8;
    152 : F289;
    153 : 1377;
    154 : ED0D;
    155 : 1420;
    156 : 0418;
    157 : FA72;
    158 : 0B58;
    159 : E7D2;
    160 : 1679;
    161 : D606;
    162 : 03E0;
    163 : FF07;
    164 : F501;
    165 : 16D8;
    166 : DF2E;
    167 : 03E0;
    168 : F618;
    169 : F12E;
    170 : FC44;
    171 : 140C;
    172 : D7E1;
    173 : 19C1;
    174 : E37B;
    175 : 135D;
    176 : 013A;
    177 : F546;
    178 : F454;
    179 : 0EE4;
    180 : 1CAF;
    181 : F1D7;
    182 : F812;
    183 : F076;
    184 : 06E2;
    185 : FE7E;
    186 : EA5D;
    187 : 091A;
    188 : F763;
    189 : 14BF;
    190 : EED7;
    191 : FC11;
    192 : 0C0A;
    193 : F070;
    194 : 06C0;
    195 : E5B4;
    196 : 2643;
    197 : C7D2;
    198 : 0000;
    199 : F50E;
    200 : FBB0;
    201 : 1652;
    202 : E004;
    203 : F823;
    204 : F3FA;
    205 : 04E1;
    206 : EFC6;
    207 : 02A6;
    208 : CC82;
    209 : 0E07;
    210 : 03B8;
    211 : E604;
    212 : 166B;
    213 : E7FE;
    214 : 192A;
    215 : E5F7;
    216 : 0000;
    217 : F963;
    218 : F508;
    219 : 153E;
    220 : EBE9;
    221 : FC0D;
    222 : EFA9;
    223 : 128F;
    224 : F176;
    225 : 0B17;
    226 : E9AB;
    227 : 1243;
    228 : E7E0;
    229 : FE79;
    230 : F772;
    231 : EFB3;
    232 : 066D;
    233 : 080B;
    234 : E522;
    235 : 266E;
    236 : EAC6;
    237 : 1392;
    238 : DE85;
    239 : 284E;
    240 : 112A;
    241 : 0848;
    242 : FD6E;
    243 : 00DC;
    244 : F5CE;
    245 : 0F42;
    246 : 0FF1;
    247 : EE8F;
    248 : F7AB;
    249 : 1EBD;
    250 : F371;
    251 : 23DD;
    252 : ED1E;
    253 : 0037;
    254 : F5F1;
    255 : 0CBF;
    256 : FC66;
    257 : 10E5;
    258 : EEB3;
    259 : 11D7;
    260 : 05FF;
    261 : E80E;
    262 : 007F;
    263 : FBEE;
    264 : 0C19;
    265 : F1EA;
    266 : 0154;
    267 : E7FE;
    268 : 1093;
    269 : E7CF;
    270 : ED2D;
    271 : F289;
    272 : F29A;
    273 : 149C;
    274 : E56A;
    275 : 15CC;
    276 : FC1A;
    277 : 1009;
    278 : FE34;
    279 : 0623;
    280 : EF55;
    281 : 0AB7;
    282 : 0000;
    283 : 0506;
    284 : E7DE;
    285 : 2679;
    286 : D26A;
    287 : 3C0C;
    288 : 07AD;
    289 : FCB4;
    290 : E758;
    291 : 1370;
    292 : D781;
    293 : 07AD;
    294 : F817;
    295 : FB5A;
    296 : 195A;
    297 : FCAE;
    298 : F9AB;
    299 : FC0C;
    300 : 016F;
    301 : FEF6;
    302 : F545;
    303 : 0881;
    304 : D3BD;
    305 : 24C7;
    306 : 0BEF;
    307 : E146;
    308 : 0F4F;
    309 : DED6;
    310 : 157F;
    311 : FC06;
    312 : EFFA;
    313 : 0B38;
    314 : F1C5;
    315 : 1068;
    316 : FF97;
    317 : 0A04;
    318 : 03E9;
    319 : FBF7;
    320 : F608;
    321 : 141F;
    322 : D2BA;
    323 : 2B08;
    324 : 1886;
    325 : FBB8;
    326 : 0707;
    327 : EEAC;
    328 : F4CA;
    329 : 082D;
    330 : 007F;
    331 : E9F9;
    332 : FCA1;
    333 : FDDE;
    334 : FAFF;
    335 : FE82;
    336 : E223;
    337 : FBBD;
    338 : F60B;
    339 : 0E64;
    340 : F956;
    341 : 09F4;
    342 : F7F9;
    343 : 1063;
    344 : EE80;
    345 : FBF5;
    346 : F3D1;
    347 : FBFC;
    348 : E0A9;
    349 : 055F;
    350 : F8E4;
    351 : 0772;
    352 : EF8B;
    353 : 01F5;
    354 : 0911;
    355 : F1E3;
    356 : F463;
    357 : FB8B;
    358 : F981;
    359 : 105E;
    360 : FD0E;
    361 : DDBB;
    362 : 1280;
    363 : 035B;
    364 : 0B89;
    365 : EF4D;
    366 : 0A81;
    367 : E1EF;
    368 : 00C3;
    369 : FD89;
    370 : F775;
    371 : 098D;
    372 : EDC0;
    373 : 0C7A;
    374 : 0100;
    375 : EE06;
    376 : EAE5;
    377 : 0B27;
    378 : E433;
    379 : 0EF5;
    380 : ECAB;
    381 : 2191;
    382 : EC91;
    383 : 07F1;
END;
