WIDTH=16;
DEPTH=384;

ADDRESS_RADIX=DEC;
DATA_RADIX=HEX;

CONTENT BEGIN
    0 : F5E4;
    1 : 0692;
    2 : 066C;
    3 : 197F;
    4 : F97D;
    5 : 0E28;
    6 : F05A;
    7 : 1382;
    8 : 0510;
    9 : FCE8;
    10 : F662;
    11 : 05DE;
    12 : F7E8;
    13 : 13D3;
    14 : 0C53;
    15 : 0B8A;
    16 : 0786;
    17 : 0A1F;
    18 : 0000;
    19 : 07F8;
    20 : 034C;
    21 : 0055;
    22 : FFA9;
    23 : EE98;
    24 : 03C4;
    25 : 0061;
    26 : FEBB;
    27 : FF05;
    28 : 167D;
    29 : F9CE;
    30 : 0C46;
    31 : FAED;
    32 : F604;
    33 : 2A65;
    34 : EAB6;
    35 : 2D01;
    36 : EFF2;
    37 : 2998;
    38 : F5B0;
    39 : 2A7B;
    40 : D317;
    41 : 3832;
    42 : F5F8;
    43 : 16EB;
    44 : F351;
    45 : 2C8E;
    46 : CF58;
    47 : 3A2D;
    48 : 0C16;
    49 : 09ED;
    50 : 172E;
    51 : F0D4;
    52 : 19C3;
    53 : E3CC;
    54 : FDFE;
    55 : 0203;
    56 : EAAE;
    57 : 1540;
    58 : F68F;
    59 : 1011;
    60 : FA02;
    61 : 1AFB;
    62 : E1A6;
    63 : 2E88;
    64 : CCD7;
    65 : 3D6E;
    66 : 01C4;
    67 : 10B1;
    68 : F979;
    69 : 25E7;
    70 : EFE9;
    71 : 1B1E;
    72 : 129B;
    73 : F996;
    74 : 1979;
    75 : E0F3;
    76 : 2652;
    77 : D0CD;
    78 : E767;
    79 : 03EE;
    80 : F618;
    81 : 11D2;
    82 : 0334;
    83 : 1066;
    84 : 112A;
    85 : EAE1;
    86 : 0B92;
    87 : EB1A;
    88 : 2EA6;
    89 : E17C;
    90 : F02F;
    91 : 1509;
    92 : FF9E;
    93 : 0847;
    94 : F153;
    95 : F818;
    96 : F968;
    97 : 1DF9;
    98 : FB6B;
    99 : FE85;
    100 : 1095;
    101 : 055F;
    102 : FC1A;
    103 : FCF2;
    104 : 07C0;
    105 : FFE3;
    106 : 1D1E;
    107 : FC1A;
    108 : 0000;
    109 : 162C;
    110 : FB8F;
    111 : 027D;
    112 : 04EF;
    113 : F664;
    114 : 05E9;
    115 : 0872;
    116 : 0966;
    117 : EF86;
    118 : 15BB;
    119 : FD0C;
    120 : 1D89;
    121 : FCA9;
    122 : 032E;
    123 : F4C2;
    124 : 0D63;
    125 : F820;
    126 : F7DD;
    127 : FE5C;
    128 : 09C3;
    129 : 1E86;
    130 : 04E5;
    131 : 1457;
    132 : D73D;
    133 : 0B2A;
    134 : FE52;
    135 : 1C07;
    136 : EC7A;
    137 : 30EA;
    138 : 0B80;
    139 : 0F87;
    140 : FE10;
    141 : 05FF;
    142 : EAA7;
    143 : 2280;
    144 : F499;
    145 : F7F1;
    146 : 058C;
    147 : FE29;
    148 : 1872;
    149 : E565;
    150 : 1203;
    151 : 11ED;
    152 : 04A0;
    153 : 0570;
    154 : F78A;
    155 : 0401;
    156 : FE1C;
    157 : FC46;
    158 : 1DD0;
    159 : E5C0;
    160 : 344C;
    161 : DFDD;
    162 : 1A8D;
    163 : E4E4;
    164 : 0D3A;
    165 : ED1C;
    166 : 268E;
    167 : F0D4;
    168 : FE7B;
    169 : 0B77;
    170 : 0FFB;
    171 : 030E;
    172 : 1981;
    173 : EAF8;
    174 : 0797;
    175 : F41A;
    176 : 0578;
    177 : FDF6;
    178 : 0DBC;
    179 : 0000;
    180 : 0C20;
    181 : 0055;
    182 : 1D7E;
    183 : D9E0;
    184 : 3BB1;
    185 : D38A;
    186 : 130B;
    187 : F4DA;
    188 : 0C5D;
    189 : F8C3;
    190 : 19E6;
    191 : E61F;
    192 : FD1F;
    193 : 102F;
    194 : F367;
    195 : 0E40;
    196 : F685;
    197 : 151A;
    198 : F09E;
    199 : 0B7A;
    200 : 01CA;
    201 : FFEA;
    202 : 0C7B;
    203 : F28A;
    204 : 0716;
    205 : FBF7;
    206 : FC93;
    207 : 1758;
    208 : FCA7;
    209 : 0F30;
    210 : 0A35;
    211 : F9B3;
    212 : 1D85;
    213 : E951;
    214 : 26AA;
    215 : D627;
    216 : 0207;
    217 : 1524;
    218 : F347;
    219 : 1D65;
    220 : F328;
    221 : 17CD;
    222 : 17F8;
    223 : F022;
    224 : 0A21;
    225 : F3AA;
    226 : 2538;
    227 : E433;
    228 : 0D49;
    229 : F994;
    230 : 247D;
    231 : DA6B;
    232 : 1AFF;
    233 : DC3A;
    234 : 0D6A;
    235 : E556;
    236 : 0E18;
    237 : F0C5;
    238 : 0EB9;
    239 : F469;
    240 : DA49;
    241 : 0E31;
    242 : E831;
    243 : 2212;
    244 : E185;
    245 : 2186;
    246 : E8BE;
    247 : 1872;
    248 : F953;
    249 : 0E0A;
    250 : E09E;
    251 : 03E0;
    252 : 01FB;
    253 : 0835;
    254 : 0922;
    255 : EAEB;
    256 : 174F;
    257 : DA68;
    258 : 0F8D;
    259 : E795;
    260 : 0D1E;
    261 : 002D;
    262 : 1CDA;
    263 : E4EA;
    264 : 143F;
    265 : F953;
    266 : 0C7F;
    267 : 0F8D;
    268 : 0109;
    269 : 0819;
    270 : 03ED;
    271 : 158A;
    272 : FA97;
    273 : F783;
    274 : 04FE;
    275 : FE0A;
    276 : 0209;
    277 : FA6C;
    278 : F6D9;
    279 : 293A;
    280 : E971;
    281 : 1046;
    282 : EE36;
    283 : 1D53;
    284 : FC71;
    285 : 0645;
    286 : F729;
    287 : 15D2;
    288 : FBF3;
    289 : FB89;
    290 : 0FBC;
    291 : 103F;
    292 : 0237;
    293 : 040D;
    294 : 0000;
    295 : 031C;
    296 : F358;
    297 : 24B4;
    298 : F8F3;
    299 : FBF1;
    300 : F3AC;
    301 : 0007;
    302 : F601;
    303 : 1638;
    304 : E840;
    305 : 1070;
    306 : EA19;
    307 : 123E;
    308 : F641;
    309 : 19DE;
    310 : CE8A;
    311 : 23D6;
    312 : 0E38;
    313 : F3AE;
    314 : 139E;
    315 : 0294;
    316 : FBBE;
    317 : F3D0;
    318 : 0F31;
    319 : 02FC;
    320 : 0892;
    321 : F914;
    322 : 26B6;
    323 : D820;
    324 : 0000;
    325 : F392;
    326 : 09AD;
    327 : F698;
    328 : 25DD;
    329 : E232;
    330 : FD11;
    331 : 0330;
    332 : 0250;
    333 : F988;
    334 : F94D;
    335 : FD11;
    336 : EC17;
    337 : 1BE5;
    338 : ED2A;
    339 : 2A44;
    340 : D117;
    341 : 1BDF;
    342 : FBF6;
    343 : 063D;
    344 : F6B1;
    345 : 10FD;
    346 : FC37;
    347 : 2C73;
    348 : F1D8;
    349 : 11DC;
    350 : FB8F;
    351 : 181C;
    352 : F175;
    353 : 0E28;
    354 : F3F6;
    355 : 0ECE;
    356 : F472;
    357 : 1F32;
    358 : DB41;
    359 : 100D;
    360 : 200C;
    361 : 09D6;
    362 : 1112;
    363 : EEC9;
    364 : 0935;
    365 : EFFA;
    366 : 05EE;
    367 : 0353;
    368 : 0D92;
    369 : EAD9;
    370 : 0F70;
    371 : ECB9;
    372 : F2B0;
    373 : 097C;
    374 : EEAB;
    375 : 1969;
    376 : F8FB;
    377 : 1BA7;
    378 : 0995;
    379 : 011D;
    380 : 0138;
    381 : F18D;
    382 : 04A3;
    383 : FC50;
END;
