WIDTH=16;
DEPTH=384;

ADDRESS_RADIX=DEC;
DATA_RADIX=HEX;

CONTENT BEGIN
    0 : 0405;
    1 : 00E4;
    2 : 1267;
    3 : 0243;
    4 : 0C0B;
    5 : F7F6;
    6 : FC07;
    7 : F76E;
    8 : 2104;
    9 : D1CF;
    10 : 2F34;
    11 : CF50;
    12 : 0301;
    13 : 0C31;
    14 : F9D7;
    15 : 1E2F;
    16 : E805;
    17 : 1485;
    18 : F37A;
    19 : 04C2;
    20 : F8D8;
    21 : 0E70;
    22 : E88E;
    23 : 21B7;
    24 : E6D5;
    25 : 0AA5;
    26 : F90A;
    27 : 2028;
    28 : D8AC;
    29 : 2B4A;
    30 : 06E4;
    31 : F4A1;
    32 : 077E;
    33 : EC61;
    34 : 1949;
    35 : F430;
    36 : F41C;
    37 : 175B;
    38 : EB24;
    39 : 216B;
    40 : D8C1;
    41 : 1FB5;
    42 : 18BE;
    43 : EF21;
    44 : FF88;
    45 : EC56;
    46 : 1331;
    47 : E93D;
    48 : FC0A;
    49 : 0801;
    50 : 0276;
    51 : E673;
    52 : 130E;
    53 : F029;
    54 : FDFC;
    55 : F792;
    56 : 0BA6;
    57 : 1746;
    58 : FF82;
    59 : 0000;
    60 : 0DFE;
    61 : 0587;
    62 : F2E2;
    63 : 1FBB;
    64 : E7EB;
    65 : 09FE;
    66 : F40B;
    67 : 02AC;
    68 : FE41;
    69 : 0E38;
    70 : EA69;
    71 : 0000;
    72 : 00FE;
    73 : 0040;
    74 : 0C0F;
    75 : E2D3;
    76 : 1034;
    77 : EB24;
    78 : F00C;
    79 : FDA4;
    80 : ED5A;
    81 : 1AB0;
    82 : D92D;
    83 : 2960;
    84 : F5EF;
    85 : FA10;
    86 : 03CD;
    87 : 10FF;
    88 : F483;
    89 : F9F6;
    90 : F453;
    91 : 0A21;
    92 : 09AB;
    93 : FEBF;
    94 : FDFB;
    95 : 03E4;
    96 : 0809;
    97 : 030D;
    98 : F9E9;
    99 : F5EB;
    100 : 07B5;
    101 : 070C;
    102 : F59F;
    103 : FF96;
    104 : 07DB;
    105 : FF4A;
    106 : 0B45;
    107 : FB48;
    108 : E6AD;
    109 : FFC2;
    110 : 0636;
    111 : FE4E;
    112 : 0346;
    113 : F25D;
    114 : 00BE;
    115 : 012E;
    116 : 01CE;
    117 : F60F;
    118 : 0928;
    119 : 003F;
    120 : F824;
    121 : 053F;
    122 : 0A22;
    123 : EE92;
    124 : 22AF;
    125 : E288;
    126 : E040;
    127 : 09ED;
    128 : F5A9;
    129 : 0AED;
    130 : F4E2;
    131 : 0BE8;
    132 : FC0B;
    133 : 0062;
    134 : F61D;
    135 : FABA;
    136 : FC37;
    137 : F422;
    138 : F80A;
    139 : 0042;
    140 : 1302;
    141 : F5BF;
    142 : 082B;
    143 : 0000;
    144 : 0139;
    145 : 080F;
    146 : 02A5;
    147 : 01E6;
    148 : 0E43;
    149 : F7B2;
    150 : 1DEE;
    151 : F674;
    152 : 1F24;
    153 : CFA9;
    154 : 399C;
    155 : D01D;
    156 : F2E0;
    157 : 0D42;
    158 : FA05;
    159 : 1727;
    160 : F4D9;
    161 : 0E23;
    162 : 0E82;
    163 : F088;
    164 : FE67;
    165 : F0C4;
    166 : 0366;
    167 : 0010;
    168 : 2810;
    169 : F0C1;
    170 : 1703;
    171 : ED9E;
    172 : 266B;
    173 : E7F6;
    174 : E2B8;
    175 : 0776;
    176 : FD18;
    177 : 1A1C;
    178 : E107;
    179 : 13B0;
    180 : 03DE;
    181 : FBC5;
    182 : 0824;
    183 : FDB7;
    184 : 0764;
    185 : FC22;
    186 : FC0A;
    187 : 0B83;
    188 : EA58;
    189 : 0284;
    190 : FD4C;
    191 : 0BE1;
    192 : F7FA;
    193 : 0102;
    194 : FA8E;
    195 : 1A11;
    196 : D6AD;
    197 : 3023;
    198 : 0000;
    199 : FD7C;
    200 : 1640;
    201 : 026D;
    202 : 16B7;
    203 : EFEA;
    204 : 2787;
    205 : F459;
    206 : 053F;
    207 : F085;
    208 : 2C1D;
    209 : D8F7;
    210 : F409;
    211 : 092E;
    212 : 068C;
    213 : 05F4;
    214 : 0A8C;
    215 : DC1B;
    216 : F421;
    217 : 0AB3;
    218 : FEB0;
    219 : F616;
    220 : 14FD;
    221 : E44E;
    222 : 0D64;
    223 : F2FD;
    224 : 07E1;
    225 : 0046;
    226 : 0EDE;
    227 : EEC8;
    228 : F7F6;
    229 : 076B;
    230 : 02CA;
    231 : 19F0;
    232 : E22A;
    233 : 1215;
    234 : FA11;
    235 : 114B;
    236 : EC5D;
    237 : 1056;
    238 : FD09;
    239 : 11CE;
    240 : 0BDB;
    241 : F2F6;
    242 : F988;
    243 : F75B;
    244 : 0E95;
    245 : E84A;
    246 : 0983;
    247 : 04F0;
    248 : FB0E;
    249 : 0B2F;
    250 : E2CC;
    251 : 03CE;
    252 : E3FD;
    253 : 1721;
    254 : F8AE;
    255 : 19E7;
    256 : E56D;
    257 : 0E01;
    258 : F433;
    259 : FEFA;
    260 : FFC8;
    261 : 02D5;
    262 : 0802;
    263 : 15A3;
    264 : FA1B;
    265 : 0270;
    266 : F76D;
    267 : 0B24;
    268 : F61E;
    269 : 14A1;
    270 : EBF3;
    271 : 21F5;
    272 : FEA5;
    273 : 15FA;
    274 : D9E8;
    275 : 3422;
    276 : 0000;
    277 : F4E1;
    278 : 15AB;
    279 : E314;
    280 : 2BC4;
    281 : CD06;
    282 : 01FA;
    283 : 01EB;
    284 : 02AD;
    285 : F414;
    286 : 15F7;
    287 : E450;
    288 : F998;
    289 : FD19;
    290 : F7A9;
    291 : 0EF5;
    292 : ECB2;
    293 : 19A2;
    294 : 0A11;
    295 : F1F4;
    296 : 01D9;
    297 : 12E3;
    298 : F8D7;
    299 : 1423;
    300 : 15C3;
    301 : FBFF;
    302 : F727;
    303 : 1252;
    304 : EC9A;
    305 : 14C6;
    306 : E9F0;
    307 : 0CF0;
    308 : 00FA;
    309 : 15C3;
    310 : E305;
    311 : 2017;
    312 : F526;
    313 : 0103;
    314 : 0A70;
    315 : F833;
    316 : 088B;
    317 : 00FD;
    318 : 1393;
    319 : E885;
    320 : 19B1;
    321 : EEB5;
    322 : 1806;
    323 : F058;
    324 : E774;
    325 : 10E9;
    326 : E908;
    327 : 2C37;
    328 : D4CF;
    329 : 28EA;
    330 : EA50;
    331 : 073E;
    332 : 0219;
    333 : FAA6;
    334 : 0A5C;
    335 : F42C;
    336 : 17AC;
    337 : 01E2;
    338 : F2D4;
    339 : 05DF;
    340 : FF10;
    341 : FC0E;
    342 : 0FD0;
    343 : FEB0;
    344 : FA0A;
    345 : FE9F;
    346 : 1525;
    347 : EE36;
    348 : 11C4;
    349 : F8BB;
    350 : 01EA;
    351 : FA4D;
    352 : 12CE;
    353 : EA49;
    354 : 0000;
    355 : F64F;
    356 : 13F9;
    357 : E6C3;
    358 : 1B31;
    359 : D0AD;
    360 : 19C2;
    361 : 02FC;
    362 : 06AA;
    363 : EC23;
    364 : 06E3;
    365 : 0000;
    366 : 0E08;
    367 : 0468;
    368 : 0CBE;
    369 : 01D7;
    370 : 074B;
    371 : EFF7;
    372 : FC0E;
    373 : FCF9;
    374 : 0B6E;
    375 : FF15;
    376 : 0F90;
    377 : FC0E;
    378 : FE14;
    379 : FBB6;
    380 : 0BE1;
    381 : FA67;
    382 : 0999;
    383 : E51B;
END;
