WIDTH=16;
DEPTH=384;

ADDRESS_RADIX=DEC;
DATA_RADIX=HEX;

CONTENT BEGIN
    0 : F897;
    1 : 0A52;
    2 : FBA4;
    3 : 0488;
    4 : 0CA6;
    5 : 0DD6;
    6 : 0821;
    7 : 0135;
    8 : EBC7;
    9 : 180B;
    10 : EBD4;
    11 : 0C31;
    12 : 0830;
    13 : 156D;
    14 : 09D7;
    15 : FBE2;
    16 : FE6A;
    17 : FDF4;
    18 : EFEB;
    19 : 0E84;
    20 : F8D1;
    21 : 0F39;
    22 : FCBA;
    23 : FBFB;
    24 : EE24;
    25 : F958;
    26 : F45D;
    27 : 01DF;
    28 : 0835;
    29 : 07F0;
    30 : ED02;
    31 : 0491;
    32 : E426;
    33 : 2EE8;
    34 : EBF8;
    35 : 23E1;
    36 : F91E;
    37 : 0854;
    38 : FA86;
    39 : FD28;
    40 : FCA3;
    41 : 14E5;
    42 : F8F3;
    43 : F597;
    44 : 0BC0;
    45 : 0CFC;
    46 : 08D0;
    47 : E9D7;
    48 : 0BD4;
    49 : FD9D;
    50 : F6BC;
    51 : FB7A;
    52 : 0F89;
    53 : FA16;
    54 : 0E68;
    55 : F59C;
    56 : F837;
    57 : 1CAB;
    58 : 025C;
    59 : 0E68;
    60 : 027A;
    61 : 0176;
    62 : 00C2;
    63 : F5F6;
    64 : ECBF;
    65 : 0000;
    66 : 1A58;
    67 : 08B9;
    68 : 08DD;
    69 : FC7F;
    70 : 09DD;
    71 : F3D8;
    72 : 081F;
    73 : 08AD;
    74 : 12BE;
    75 : 03F5;
    76 : EE52;
    77 : FDF8;
    78 : EBC4;
    79 : FDF3;
    80 : FE1C;
    81 : 1BF2;
    82 : DF8E;
    83 : 3090;
    84 : 0D45;
    85 : FBA1;
    86 : FDF6;
    87 : F9EA;
    88 : 05DF;
    89 : FA1A;
    90 : 01F9;
    91 : F91D;
    92 : 0549;
    93 : F0B8;
    94 : FF61;
    95 : 09DF;
    96 : 0309;
    97 : F69F;
    98 : 0137;
    99 : 1402;
    100 : FBF3;
    101 : 0D26;
    102 : E9CE;
    103 : 01C7;
    104 : 0FD5;
    105 : 1272;
    106 : F2F5;
    107 : 142E;
    108 : F9E2;
    109 : 0BF1;
    110 : DF91;
    111 : 2A6E;
    112 : D1CE;
    113 : 32F8;
    114 : FBF3;
    115 : FDA4;
    116 : 000E;
    117 : 1C31;
    118 : F7C0;
    119 : 1C5C;
    120 : F3BA;
    121 : 04DA;
    122 : EEA4;
    123 : 2986;
    124 : DC17;
    125 : 4177;
    126 : 0000;
    127 : EAD1;
    128 : 09D1;
    129 : 1069;
    130 : 10CE;
    131 : F3E4;
    132 : EDFA;
    133 : 08E6;
    134 : FE9B;
    135 : 1592;
    136 : FAB3;
    137 : F3FC;
    138 : 0814;
    139 : F588;
    140 : 0018;
    141 : 0FBF;
    142 : 010D;
    143 : EBCD;
    144 : F1F9;
    145 : FAD0;
    146 : 1C1A;
    147 : F7BF;
    148 : 1315;
    149 : F7FC;
    150 : F443;
    151 : 090C;
    152 : 03F7;
    153 : F9EA;
    154 : F249;
    155 : 060E;
    156 : 0BF9;
    157 : 07AD;
    158 : 0056;
    159 : E74B;
    160 : 1698;
    161 : E012;
    162 : F231;
    163 : 0217;
    164 : FB9B;
    165 : F290;
    166 : FF19;
    167 : FC0E;
    168 : FBF8;
    169 : 10DD;
    170 : 093B;
    171 : DE56;
    172 : 1F68;
    173 : DBBB;
    174 : E881;
    175 : 0DD9;
    176 : EF7D;
    177 : 109E;
    178 : E929;
    179 : 0FAA;
    180 : DFB9;
    181 : 0994;
    182 : F668;
    183 : 0918;
    184 : FC87;
    185 : 0E1F;
    186 : E9D6;
    187 : 081E;
    188 : 0300;
    189 : 15D1;
    190 : DE39;
    191 : 0102;
    192 : 0000;
    193 : 015F;
    194 : 163F;
    195 : F5EC;
    196 : 03D3;
    197 : DAD6;
    198 : F5BD;
    199 : F7BB;
    200 : ECFB;
    201 : 2BB3;
    202 : DA45;
    203 : 3D8F;
    204 : E9B6;
    205 : FA3F;
    206 : 0160;
    207 : 1593;
    208 : 0376;
    209 : 0B25;
    210 : E72D;
    211 : 04CD;
    212 : 05D5;
    213 : FFC2;
    214 : 0CB8;
    215 : F0B9;
    216 : 074D;
    217 : FC15;
    218 : 1F7B;
    219 : DD3D;
    220 : 19FB;
    221 : CCA4;
    222 : FE0B;
    223 : FDDC;
    224 : 0A20;
    225 : EDC2;
    226 : 0C3D;
    227 : 07D6;
    228 : E065;
    229 : 18D2;
    230 : 0117;
    231 : 0C94;
    232 : E877;
    233 : F426;
    234 : 0607;
    235 : F7E4;
    236 : FD43;
    237 : 0C81;
    238 : EB34;
    239 : 0B0D;
    240 : FC06;
    241 : FBC6;
    242 : 131C;
    243 : DD0E;
    244 : 2D99;
    245 : C84D;
    246 : 0A10;
    247 : 019A;
    248 : 0926;
    249 : E642;
    250 : 0643;
    251 : F1EA;
    252 : 03FA;
    253 : 0FE4;
    254 : 0519;
    255 : ECF2;
    256 : 1BD0;
    257 : D43E;
    258 : 0000;
    259 : F91B;
    260 : 049C;
    261 : 1801;
    262 : 1346;
    263 : 081F;
    264 : ECD1;
    265 : F339;
    266 : 08CE;
    267 : 11EA;
    268 : F287;
    269 : 1534;
    270 : EF22;
    271 : 0DF4;
    272 : F8DE;
    273 : 0AA8;
    274 : EDE5;
    275 : 1D65;
    276 : F1CB;
    277 : FC1A;
    278 : 028B;
    279 : 1368;
    280 : 0D3A;
    281 : F4D6;
    282 : 0000;
    283 : 0067;
    284 : 00F1;
    285 : F68A;
    286 : 19B1;
    287 : F05A;
    288 : DA88;
    289 : 04B0;
    290 : E0BB;
    291 : 2F53;
    292 : EB0D;
    293 : 1D24;
    294 : 0C6B;
    295 : EF80;
    296 : EEBC;
    297 : 1F8A;
    298 : FF86;
    299 : 0212;
    300 : DC4B;
    301 : 1A83;
    302 : FFB5;
    303 : 13B2;
    304 : ED56;
    305 : 0000;
    306 : 0482;
    307 : F513;
    308 : 0545;
    309 : FE0D;
    310 : 0B23;
    311 : F8F1;
    312 : F010;
    313 : 19B3;
    314 : 00C2;
    315 : 0D1D;
    316 : F376;
    317 : F40C;
    318 : 0BF8;
    319 : 034E;
    320 : 07F5;
    321 : F025;
    322 : 16B7;
    323 : D01E;
    324 : 0D92;
    325 : F709;
    326 : 07D2;
    327 : EACB;
    328 : 1593;
    329 : EC43;
    330 : 198F;
    331 : F2E3;
    332 : FC02;
    333 : 07A1;
    334 : 0060;
    335 : 0BCC;
    336 : F00D;
    337 : 1F96;
    338 : 0477;
    339 : 04F6;
    340 : EBA5;
    341 : 27E0;
    342 : D22D;
    343 : FDBD;
    344 : F0EA;
    345 : 1F71;
    346 : ED3E;
    347 : 18FF;
    348 : ECD1;
    349 : 18EC;
    350 : F9C7;
    351 : 0DBA;
    352 : EACE;
    353 : 0000;
    354 : 01F5;
    355 : 0D66;
    356 : F80D;
    357 : 0209;
    358 : F7E7;
    359 : 03EA;
    360 : F63E;
    361 : 0E6B;
    362 : FE78;
    363 : FF60;
    364 : F2C3;
    365 : 0000;
    366 : 0000;
    367 : 13D0;
    368 : 0155;
    369 : E6D0;
    370 : 08E9;
    371 : EBFD;
    372 : 029D;
    373 : F17A;
    374 : EF7B;
    375 : 1390;
    376 : F8EF;
    377 : 1892;
    378 : 11DF;
    379 : 0DB8;
    380 : 0145;
    381 : 0015;
    382 : F991;
    383 : FB88;
END;
