WIDTH=16;
DEPTH=384;

ADDRESS_RADIX=DEC;
DATA_RADIX=HEX;

CONTENT BEGIN
    0 : E43D;
    1 : 0612;
    2 : E551;
    3 : 2D5B;
    4 : D4EA;
    5 : 0FDD;
    6 : 07AB;
    7 : E2F8;
    8 : FE93;
    9 : FFDD;
    10 : 0FFF;
    11 : E8FE;
    12 : 03DD;
    13 : E607;
    14 : FE59;
    15 : 0099;
    16 : FDEB;
    17 : EAC1;
    18 : FB7F;
    19 : F554;
    20 : EF0F;
    21 : 19B2;
    22 : DEF0;
    23 : 24C3;
    24 : 0E25;
    25 : 00B0;
    26 : FE8E;
    27 : EDF6;
    28 : EE72;
    29 : 1230;
    30 : 0829;
    31 : F3A0;
    32 : 07E1;
    33 : D22C;
    34 : 09AF;
    35 : D734;
    36 : F986;
    37 : EF63;
    38 : 09FA;
    39 : DA76;
    40 : 2FED;
    41 : E11E;
    42 : 0E7A;
    43 : EBC5;
    44 : F740;
    45 : 0F4F;
    46 : F3C2;
    47 : 057E;
    48 : F3DF;
    49 : FCA5;
    50 : F007;
    51 : 026D;
    52 : 0C9D;
    53 : EFD4;
    54 : EB84;
    55 : 0CEE;
    56 : 0ABE;
    57 : E25E;
    58 : FB4B;
    59 : ED91;
    60 : F3AE;
    61 : F62D;
    62 : EB16;
    63 : 1172;
    64 : E72D;
    65 : 127B;
    66 : F8FB;
    67 : FAFA;
    68 : F81D;
    69 : FDB1;
    70 : E555;
    71 : 1711;
    72 : EB92;
    73 : EB6F;
    74 : E652;
    75 : 2027;
    76 : D940;
    77 : 1884;
    78 : 00F7;
    79 : 1010;
    80 : FD83;
    81 : 0BC3;
    82 : EBFC;
    83 : F93C;
    84 : F60D;
    85 : 0D8D;
    86 : F925;
    87 : 0C68;
    88 : DD43;
    89 : 112C;
    90 : 09EB;
    91 : E07B;
    92 : 14FE;
    93 : D1AB;
    94 : 46F2;
    95 : CC6F;
    96 : FC04;
    97 : EEAA;
    98 : 04E3;
    99 : F4FE;
    100 : 05C1;
    101 : ED12;
    102 : 03FF;
    103 : 07B0;
    104 : F8EE;
    105 : F99E;
    106 : EF1D;
    107 : F004;
    108 : E3A4;
    109 : 0232;
    110 : DB71;
    111 : 2B2B;
    112 : CAEC;
    113 : 309E;
    114 : 0000;
    115 : E2E2;
    116 : 0CD9;
    117 : E1F5;
    118 : 1B6B;
    119 : C7E7;
    120 : 0BFC;
    121 : F397;
    122 : 0883;
    123 : EA5D;
    124 : 12A4;
    125 : FC01;
    126 : F8F0;
    127 : 0B87;
    128 : 179D;
    129 : F639;
    130 : F41D;
    131 : EAD1;
    132 : FF0D;
    133 : 0EF9;
    134 : F42E;
    135 : 144C;
    136 : DC44;
    137 : 15D9;
    138 : 0BAD;
    139 : E9F3;
    140 : FEBC;
    141 : 0348;
    142 : 0C6E;
    143 : 0BAD;
    144 : FC49;
    145 : 1543;
    146 : F6A5;
    147 : 09CC;
    148 : DB3D;
    149 : 2C90;
    150 : 1365;
    151 : DAE0;
    152 : 1125;
    153 : E55A;
    154 : 2334;
    155 : E8BA;
    156 : F134;
    157 : 0C39;
    158 : F7B5;
    159 : F8C2;
    160 : E919;
    161 : 14D1;
    162 : F7B0;
    163 : FC8F;
    164 : 1C9E;
    165 : CD17;
    166 : 1652;
    167 : EB38;
    168 : F97C;
    169 : FDC9;
    170 : EFDA;
    171 : 25A2;
    172 : DFD4;
    173 : 110A;
    174 : F3F5;
    175 : 1798;
    176 : F3E9;
    177 : F6FA;
    178 : F9AC;
    179 : FBFC;
    180 : 102A;
    181 : EBD2;
    182 : F03E;
    183 : 00BD;
    184 : F393;
    185 : 0000;
    186 : 07E1;
    187 : F306;
    188 : 0769;
    189 : 051E;
    190 : F076;
    191 : 03F0;
    192 : 0EAA;
    193 : F002;
    194 : E7AF;
    195 : 0D21;
    196 : DAC2;
    197 : 1E56;
    198 : FAF8;
    199 : FA58;
    200 : 01E8;
    201 : F3E5;
    202 : FBD8;
    203 : FAF8;
    204 : F5E3;
    205 : 02BA;
    206 : 0A13;
    207 : D869;
    208 : 0AE6;
    209 : D78A;
    210 : EDC7;
    211 : FA75;
    212 : E7D7;
    213 : 01B7;
    214 : EDDC;
    215 : 1239;
    216 : 07E1;
    217 : E34B;
    218 : 0512;
    219 : 05A8;
    220 : EF0C;
    221 : 07E1;
    222 : E2D1;
    223 : 1742;
    224 : F208;
    225 : 1C59;
    226 : D734;
    227 : 1D2F;
    228 : EDAD;
    229 : F4DE;
    230 : F7ED;
    231 : F792;
    232 : 0189;
    233 : 1173;
    234 : 1118;
    235 : 072D;
    236 : F709;
    237 : F99F;
    238 : F02F;
    239 : 0E14;
    240 : 0305;
    241 : 0634;
    242 : FB73;
    243 : F60A;
    244 : EFBA;
    245 : 070B;
    246 : F7D8;
    247 : EE1C;
    248 : E5DB;
    249 : 2A62;
    250 : D7DB;
    251 : 3A1E;
    252 : F8BC;
    253 : FA05;
    254 : E79F;
    255 : 17E8;
    256 : F278;
    257 : 18E8;
    258 : FD2B;
    259 : 08E2;
    260 : FCA7;
    261 : 06BA;
    262 : DBA6;
    263 : 0F1B;
    264 : 2239;
    265 : E164;
    266 : 0753;
    267 : E362;
    268 : 2016;
    269 : D1B3;
    270 : 0000;
    271 : E66D;
    272 : FC7E;
    273 : 1207;
    274 : EE1E;
    275 : 23A6;
    276 : 0C39;
    277 : F42E;
    278 : 0F12;
    279 : E5C3;
    280 : 0628;
    281 : D848;
    282 : CF5D;
    283 : 094D;
    284 : EB0B;
    285 : 1BAE;
    286 : DD2A;
    287 : 1C5F;
    288 : 081B;
    289 : E8A2;
    290 : 06C2;
    291 : DBF2;
    292 : 0B58;
    293 : CB52;
    294 : E276;
    295 : 0EC1;
    296 : EA28;
    297 : 1D27;
    298 : BAFC;
    299 : 2CC9;
    300 : EF8A;
    301 : FF46;
    302 : 0F7C;
    303 : E2A5;
    304 : 15FD;
    305 : C244;
    306 : F707;
    307 : F5A3;
    308 : F6B2;
    309 : 0572;
    310 : FB74;
    311 : 07FA;
    312 : E713;
    313 : F668;
    314 : EAAE;
    315 : 0FA5;
    316 : EF7C;
    317 : 0427;
    318 : 24FC;
    319 : DFFD;
    320 : 0B76;
    321 : D875;
    322 : 1AE9;
    323 : D2C9;
    324 : FDFA;
    325 : 14B5;
    326 : 0189;
    327 : F68F;
    328 : E996;
    329 : 1233;
    330 : 1623;
    331 : EE3D;
    332 : FA1C;
    333 : F4AA;
    334 : 0C35;
    335 : 0203;
    336 : FE01;
    337 : F1B7;
    338 : FDBC;
    339 : F945;
    340 : 1447;
    341 : 09FC;
    342 : 0C25;
    343 : F692;
    344 : FF40;
    345 : EB71;
    346 : F713;
    347 : E6B2;
    348 : 090E;
    349 : E81D;
    350 : FD0A;
    351 : E8C6;
    352 : 0355;
    353 : ECE2;
    354 : 0A0D;
    355 : F233;
    356 : FC9A;
    357 : E637;
    358 : 1F49;
    359 : E7E0;
    360 : 00F3;
    361 : E4FE;
    362 : 028E;
    363 : FEF9;
    364 : 0EA8;
    365 : FD27;
    366 : F89D;
    367 : E5CF;
    368 : 091B;
    369 : EFC5;
    370 : 10FE;
    371 : F3B1;
    372 : 050E;
    373 : 02C5;
    374 : 0569;
    375 : F517;
    376 : F5B3;
    377 : EF51;
    378 : 0DCA;
    379 : EC08;
    380 : 0C39;
    381 : 0638;
    382 : 1042;
    383 : F81F;
END;
