WIDTH=16;
DEPTH=384;

ADDRESS_RADIX=DEC;
DATA_RADIX=HEX;

CONTENT BEGIN
    0 : FE01;
    1 : 04DE;
    2 : F3D4;
    3 : EECA;
    4 : 0AE4;
    5 : FE01;
    6 : 040D;
    7 : 0682;
    8 : 0C5C;
    9 : E437;
    10 : 1115;
    11 : F5DF;
    12 : 1441;
    13 : 08DE;
    14 : 0C02;
    15 : E33D;
    16 : 243C;
    17 : DB8A;
    18 : FB03;
    19 : 0D36;
    20 : 0421;
    21 : FF79;
    22 : FB41;
    23 : 03FE;
    24 : F7EE;
    25 : F9E7;
    26 : F9C5;
    27 : 1A16;
    28 : F784;
    29 : 0D1D;
    30 : EEEF;
    31 : E9BB;
    32 : F4B9;
    33 : 0BC2;
    34 : FD7D;
    35 : 0889;
    36 : 105D;
    37 : 0BF6;
    38 : 127A;
    39 : E85F;
    40 : 13A7;
    41 : E151;
    42 : 1E0C;
    43 : F8DE;
    44 : 10BA;
    45 : DFE2;
    46 : 242B;
    47 : E9F7;
    48 : 0DF5;
    49 : 0822;
    50 : F6DC;
    51 : F7F1;
    52 : FB2A;
    53 : 06FB;
    54 : 1745;
    55 : E813;
    56 : 0DA7;
    57 : E396;
    58 : 3DCF;
    59 : DD18;
    60 : 1428;
    61 : 1021;
    62 : F1E4;
    63 : 1296;
    64 : F4C0;
    65 : 06B8;
    66 : FB8B;
    67 : 163E;
    68 : F710;
    69 : 0DDC;
    70 : F87E;
    71 : 2030;
    72 : F1F4;
    73 : 19F1;
    74 : 0AED;
    75 : 01F4;
    76 : EFDC;
    77 : 0E0C;
    78 : FA09;
    79 : FE0A;
    80 : EA03;
    81 : 2DBD;
    82 : DF53;
    83 : 313F;
    84 : 0F7E;
    85 : EE5F;
    86 : 0D67;
    87 : E7DA;
    88 : 3624;
    89 : E00C;
    90 : 1468;
    91 : 009C;
    92 : 0E78;
    93 : EA47;
    94 : 066A;
    95 : E579;
    96 : E53A;
    97 : 1ABF;
    98 : 064D;
    99 : F662;
    100 : 0578;
    101 : 16CF;
    102 : 141F;
    103 : E79D;
    104 : F6F2;
    105 : 0183;
    106 : 1A04;
    107 : F5F0;
    108 : 0301;
    109 : 0F45;
    110 : 0ABD;
    111 : FCEA;
    112 : 15F7;
    113 : E6FB;
    114 : 01FF;
    115 : 1901;
    116 : 0051;
    117 : EDDE;
    118 : 1785;
    119 : 017F;
    120 : 0000;
    121 : 161F;
    122 : 00A2;
    123 : 13E5;
    124 : F4BC;
    125 : 17F8;
    126 : 1A3F;
    127 : E718;
    128 : 000C;
    129 : FB5F;
    130 : 214F;
    131 : F54F;
    132 : 03F9;
    133 : F1FD;
    134 : FF2E;
    135 : E1D6;
    136 : 22BB;
    137 : E82C;
    138 : E843;
    139 : 2C91;
    140 : F00C;
    141 : 24A5;
    142 : CFB2;
    143 : 356A;
    144 : 13D4;
    145 : E708;
    146 : FC54;
    147 : F086;
    148 : 203D;
    149 : F21F;
    150 : EF43;
    151 : 1B94;
    152 : 1470;
    153 : E41E;
    154 : F961;
    155 : FAC5;
    156 : FC11;
    157 : 0413;
    158 : 1085;
    159 : F7CE;
    160 : 1F3E;
    161 : F433;
    162 : FC22;
    163 : EE8F;
    164 : 1425;
    165 : E0F2;
    166 : 3214;
    167 : CBC9;
    168 : 0E9C;
    169 : 04E3;
    170 : 08CE;
    171 : F760;
    172 : 0050;
    173 : 042D;
    174 : F344;
    175 : 00F4;
    176 : E4EE;
    177 : 1B87;
    178 : E4E8;
    179 : 2853;
    180 : FC00;
    181 : 0BE9;
    182 : 0C13;
    183 : 1051;
    184 : 012D;
    185 : 0400;
    186 : EA06;
    187 : 0153;
    188 : FDE4;
    189 : 06BC;
    190 : F6EA;
    191 : 23F6;
    192 : F205;
    193 : 1CA6;
    194 : 056B;
    195 : 051B;
    196 : 1343;
    197 : EE06;
    198 : EA13;
    199 : 0D67;
    200 : F9CA;
    201 : F8ED;
    202 : 14AA;
    203 : 03FD;
    204 : 0000;
    205 : 07B0;
    206 : E3D8;
    207 : 14D1;
    208 : F376;
    209 : 2224;
    210 : EC09;
    211 : 1AE2;
    212 : FA9A;
    213 : 19F4;
    214 : F631;
    215 : 03FE;
    216 : EC03;
    217 : 11A0;
    218 : 098E;
    219 : 090D;
    220 : 0D12;
    221 : E404;
    222 : 0C08;
    223 : F11A;
    224 : E713;
    225 : 016A;
    226 : F9BC;
    227 : 0403;
    228 : F57D;
    229 : 1CAA;
    230 : EA7E;
    231 : 1CD7;
    232 : C604;
    233 : 2BF4;
    234 : 0803;
    235 : F24E;
    236 : 040F;
    237 : 1CAB;
    238 : EDC7;
    239 : 1006;
    240 : E9A9;
    241 : 06E0;
    242 : F3E3;
    243 : 2412;
    244 : F0A2;
    245 : 144F;
    246 : 0C92;
    247 : 0C3C;
    248 : 1B7A;
    249 : D84E;
    250 : 1F9D;
    251 : E2AB;
    252 : 0CB3;
    253 : FC5E;
    254 : 2410;
    255 : D88C;
    256 : 22B2;
    257 : CD34;
    258 : F1D6;
    259 : 05DC;
    260 : FA04;
    261 : 1ACC;
    262 : 078E;
    263 : 1235;
    264 : F25C;
    265 : 12D1;
    266 : F6CE;
    267 : 08D9;
    268 : EF17;
    269 : 1477;
    270 : 00F1;
    271 : 1C32;
    272 : EC6E;
    273 : 12C1;
    274 : DCD3;
    275 : 1FBF;
    276 : F040;
    277 : FABB;
    278 : F974;
    279 : 072B;
    280 : FBE9;
    281 : 171D;
    282 : 0614;
    283 : F707;
    284 : 1B78;
    285 : DAFE;
    286 : 343E;
    287 : C12D;
    288 : 26B6;
    289 : F307;
    290 : 0A76;
    291 : F209;
    292 : 2B3C;
    293 : ECA5;
    294 : FE0E;
    295 : E9B0;
    296 : FF5F;
    297 : FF64;
    298 : 1444;
    299 : F260;
    300 : E3FA;
    301 : 17BD;
    302 : F3AB;
    303 : 050E;
    304 : F545;
    305 : 1404;
    306 : 0C1C;
    307 : 09CA;
    308 : 0E46;
    309 : DA7E;
    310 : 22AC;
    311 : D195;
    312 : 0D6D;
    313 : 06F3;
    314 : F18E;
    315 : 0B6A;
    316 : DA8F;
    317 : 1E9E;
    318 : FB00;
    319 : 1972;
    320 : F644;
    321 : 194E;
    322 : FF1B;
    323 : 0DFF;
    324 : F6EC;
    325 : F477;
    326 : F193;
    327 : 066C;
    328 : F5AE;
    329 : 1734;
    330 : 1BC5;
    331 : E957;
    332 : 0BDC;
    333 : E6F6;
    334 : 2178;
    335 : DE48;
    336 : 05AF;
    337 : 0D19;
    338 : FF7A;
    339 : 071A;
    340 : EA63;
    341 : 017C;
    342 : 0DFD;
    343 : F799;
    344 : F652;
    345 : FD22;
    346 : 0958;
    347 : 15FB;
    348 : F240;
    349 : 0D6C;
    350 : 0D27;
    351 : 0A1A;
    352 : FF38;
    353 : FC00;
    354 : FAFF;
    355 : 0F14;
    356 : 0C0E;
    357 : 0771;
    358 : EFF8;
    359 : FF00;
    360 : EC2E;
    361 : 2280;
    362 : FDE2;
    363 : 109B;
    364 : E33B;
    365 : 06F0;
    366 : F81B;
    367 : 1741;
    368 : F9FE;
    369 : 1275;
    370 : E9C4;
    371 : F429;
    372 : ED7A;
    373 : 0495;
    374 : E8E0;
    375 : 2C5A;
    376 : E1A8;
    377 : 41DE;
    378 : E847;
    379 : 0925;
    380 : F51E;
    381 : 1365;
    382 : D453;
    383 : 0FD1;
END;
