WIDTH=16;
DEPTH=384;

ADDRESS_RADIX=DEC;
DATA_RADIX=HEX;

CONTENT BEGIN
    0 : 09E8;
    1 : FCF3;
    2 : 1168;
    3 : F4BA;
    4 : 1811;
    5 : EA36;
    6 : 07FC;
    7 : F0B9;
    8 : 1406;
    9 : EC34;
    10 : 20A7;
    11 : E80C;
    12 : 04F4;
    13 : 0154;
    14 : 08F0;
    15 : EB75;
    16 : 2314;
    17 : DF4D;
    18 : E4AF;
    19 : 156F;
    20 : E877;
    21 : 1B99;
    22 : D43E;
    23 : 176A;
    24 : 01FA;
    25 : F55E;
    26 : F92B;
    27 : 06FD;
    28 : FCA2;
    29 : F61D;
    30 : F7F9;
    31 : 07B3;
    32 : F4B5;
    33 : 196D;
    34 : E75A;
    35 : 2A26;
    36 : F794;
    37 : 0468;
    38 : 08C0;
    39 : FDA9;
    40 : 04B3;
    41 : F261;
    42 : FC06;
    43 : FB8B;
    44 : FFDE;
    45 : E8A6;
    46 : 09F0;
    47 : EE19;
    48 : 0000;
    49 : 0499;
    50 : 0382;
    51 : E8FC;
    52 : 24DD;
    53 : D056;
    54 : 06E4;
    55 : 01C8;
    56 : 0100;
    57 : F480;
    58 : 142D;
    59 : FF04;
    60 : FA08;
    61 : FEAB;
    62 : 16ED;
    63 : DB78;
    64 : 34E2;
    65 : C256;
    66 : F01B;
    67 : 14A2;
    68 : DF08;
    69 : 3309;
    70 : C2B0;
    71 : 3D98;
    72 : 0EAB;
    73 : FAAA;
    74 : 0432;
    75 : F6BD;
    76 : 0856;
    77 : F2CD;
    78 : FE02;
    79 : 0C41;
    80 : F45F;
    81 : 19BB;
    82 : ED57;
    83 : 25E3;
    84 : F429;
    85 : 17D9;
    86 : F08B;
    87 : 0FBD;
    88 : F198;
    89 : 2F5B;
    90 : F009;
    91 : 11C8;
    92 : FBEF;
    93 : 1C33;
    94 : DCF2;
    95 : 27E9;
    96 : 01F9;
    97 : 0416;
    98 : F5B7;
    99 : 0C6C;
    100 : EEBE;
    101 : 05EB;
    102 : EBF3;
    103 : 0819;
    104 : EBB6;
    105 : 244E;
    106 : E4CA;
    107 : 0C08;
    108 : 04AC;
    109 : F9E8;
    110 : 113A;
    111 : EDE0;
    112 : 145E;
    113 : DF8B;
    114 : F70A;
    115 : 101C;
    116 : EFB2;
    117 : 1C71;
    118 : D663;
    119 : 2FCD;
    120 : F906;
    121 : 14C0;
    122 : F6E3;
    123 : 1F30;
    124 : E1E7;
    125 : 27E1;
    126 : F3F7;
    127 : 03DC;
    128 : FC6C;
    129 : 139B;
    130 : F4C6;
    131 : 1812;
    132 : EF72;
    133 : FA0B;
    134 : 0E51;
    135 : FCF3;
    136 : 1372;
    137 : EDB4;
    138 : 03FA;
    139 : FD81;
    140 : 0DCA;
    141 : 065A;
    142 : FB0C;
    143 : 01FD;
    144 : 13BC;
    145 : DF35;
    146 : 080C;
    147 : EC5E;
    148 : 1DE6;
    149 : CCB1;
    150 : 1BE5;
    151 : F9ED;
    152 : 0045;
    153 : E817;
    154 : 1326;
    155 : D42B;
    156 : 07C5;
    157 : 0525;
    158 : FE25;
    159 : 01FB;
    160 : 1049;
    161 : E8B2;
    162 : EC17;
    163 : 0090;
    164 : F84B;
    165 : 13D6;
    166 : E86B;
    167 : 07F7;
    168 : F329;
    169 : 01C4;
    170 : FFD0;
    171 : 091E;
    172 : EF55;
    173 : 0B5C;
    174 : 0E45;
    175 : F756;
    176 : 16B4;
    177 : DDA3;
    178 : 3804;
    179 : D4B3;
    180 : F801;
    181 : 0A22;
    182 : 05C5;
    183 : 135E;
    184 : F82F;
    185 : 0400;
    186 : FC02;
    187 : 081F;
    188 : E760;
    189 : 233D;
    190 : D83F;
    191 : 23F0;
    192 : F021;
    193 : 0580;
    194 : 00BB;
    195 : 0B56;
    196 : FD3C;
    197 : F419;
    198 : F812;
    199 : FB69;
    200 : 0B34;
    201 : E148;
    202 : 2989;
    203 : D06B;
    204 : EA02;
    205 : 0341;
    206 : FB5A;
    207 : 18CC;
    208 : EFF8;
    209 : 0BFF;
    210 : F021;
    211 : 06AE;
    212 : 1360;
    213 : F4BD;
    214 : 1D06;
    215 : DC4B;
    216 : 0F9C;
    217 : F26B;
    218 : 1812;
    219 : E81D;
    220 : 2409;
    221 : E896;
    222 : 01FE;
    223 : FE13;
    224 : F371;
    225 : 1396;
    226 : E382;
    227 : 21D8;
    228 : 0000;
    229 : FFC2;
    230 : 0D77;
    231 : DECA;
    232 : 29B7;
    233 : CBE1;
    234 : 17EA;
    235 : F6F1;
    236 : F575;
    237 : FAEC;
    238 : 17D6;
    239 : E816;
    240 : 01F9;
    241 : F7EB;
    242 : 04EE;
    243 : EF74;
    244 : 0C82;
    245 : EF3E;
    246 : FA71;
    247 : 06C2;
    248 : 0B82;
    249 : E2FD;
    250 : 20E5;
    251 : F262;
    252 : FA0C;
    253 : 0624;
    254 : FDD6;
    255 : 18A3;
    256 : E0DA;
    257 : 0DE4;
    258 : FC08;
    259 : FE25;
    260 : 12C2;
    261 : 013B;
    262 : 1A0E;
    263 : F417;
    264 : 119F;
    265 : 01F1;
    266 : F000;
    267 : 087A;
    268 : ECAD;
    269 : 1F54;
    270 : 0B7C;
    271 : 0845;
    272 : 0B81;
    273 : E2D1;
    274 : 25A8;
    275 : E20B;
    276 : 0000;
    277 : FAD5;
    278 : F70C;
    279 : 211D;
    280 : F29E;
    281 : F7FC;
    282 : F012;
    283 : 1152;
    284 : F80C;
    285 : 1814;
    286 : E7DA;
    287 : 23D7;
    288 : DF85;
    289 : 0FF8;
    290 : 014A;
    291 : 0E1B;
    292 : F56C;
    293 : 09BE;
    294 : 0C00;
    295 : FD27;
    296 : F336;
    297 : E520;
    298 : 0D4D;
    299 : FC00;
    300 : 00BD;
    301 : F6D2;
    302 : FF27;
    303 : 034E;
    304 : F99B;
    305 : 007E;
    306 : 017B;
    307 : F48A;
    308 : 037B;
    309 : F4FC;
    310 : 05C8;
    311 : E945;
    312 : 0A5F;
    313 : F15A;
    314 : 0B64;
    315 : E65D;
    316 : 0B05;
    317 : EC92;
    318 : 217C;
    319 : E8A4;
    320 : 1C1F;
    321 : D666;
    322 : 33BC;
    323 : D4AB;
    324 : 07F5;
    325 : F88B;
    326 : 144F;
    327 : F5DD;
    328 : 1956;
    329 : EA1F;
    330 : 0FD9;
    331 : 0713;
    332 : FF81;
    333 : F0F9;
    334 : 0704;
    335 : 0FD9;
    336 : F81C;
    337 : 0B3A;
    338 : F180;
    339 : 204F;
    340 : CC61;
    341 : 2F5A;
    342 : F643;
    343 : F9AF;
    344 : 0AB0;
    345 : F0AD;
    346 : 1510;
    347 : EA92;
    348 : 0000;
    349 : 01D1;
    350 : F4F3;
    351 : 1F1A;
    352 : EF46;
    353 : F80D;
    354 : 0D5B;
    355 : F20C;
    356 : 0234;
    357 : F49E;
    358 : 005F;
    359 : F69A;
    360 : 0000;
    361 : 00CF;
    362 : 1319;
    363 : 0117;
    364 : 0332;
    365 : FE00;
    366 : 10FC;
    367 : ED75;
    368 : 1027;
    369 : DD2E;
    370 : 253C;
    371 : D70A;
    372 : EFE7;
    373 : 0A35;
    374 : E6B5;
    375 : 2585;
    376 : DD7E;
    377 : 1825;
    378 : F918;
    379 : 12E3;
    380 : EE66;
    381 : 1E90;
    382 : D7FE;
    383 : 1D9A;
END;
