WIDTH=16;
DEPTH=384;

ADDRESS_RADIX=DEC;
DATA_RADIX=HEX;

CONTENT BEGIN
    0 : 1420;
    1 : 0183;
    2 : 118E;
    3 : F943;
    4 : 1EA5;
    5 : F3ED;
    6 : 03F5;
    7 : 05F7;
    8 : 0686;
    9 : FC6F;
    10 : EDF8;
    11 : 1BB4;
    12 : 0BE7;
    13 : 04D8;
    14 : 15B3;
    15 : DF3B;
    16 : 2E24;
    17 : E042;
    18 : 0EFF;
    19 : FCBB;
    20 : 1429;
    21 : D9B6;
    22 : 1D6C;
    23 : E701;
    24 : F09F;
    25 : 021C;
    26 : 102B;
    27 : F2A8;
    28 : 061F;
    29 : 133A;
    30 : 03FB;
    31 : F3B2;
    32 : 1026;
    33 : FAAA;
    34 : 24D3;
    35 : EC1B;
    36 : 0606;
    37 : 1029;
    38 : 0E65;
    39 : 04AC;
    40 : FC2D;
    41 : 0202;
    42 : 0000;
    43 : 1258;
    44 : F415;
    45 : 20B1;
    46 : E7EF;
    47 : 07FB;
    48 : EA2E;
    49 : 1467;
    50 : FBF3;
    51 : 0AE5;
    52 : E554;
    53 : 0BE7;
    54 : FC9D;
    55 : FE1A;
    56 : 07D9;
    57 : F6BA;
    58 : 23BE;
    59 : ED23;
    60 : 0414;
    61 : 09A5;
    62 : 18A5;
    63 : EC61;
    64 : 2779;
    65 : DD5A;
    66 : 0DFD;
    67 : FD3A;
    68 : 0B20;
    69 : 00A7;
    70 : 1535;
    71 : EF04;
    72 : E810;
    73 : 2566;
    74 : EE81;
    75 : 206D;
    76 : D5D2;
    77 : 1BED;
    78 : EBCD;
    79 : 01E4;
    80 : F673;
    81 : 1E92;
    82 : EE8A;
    83 : 2E75;
    84 : 1809;
    85 : EC1D;
    86 : 1489;
    87 : 0682;
    88 : 1AF9;
    89 : 0000;
    90 : E7F7;
    91 : 1EE7;
    92 : FA53;
    93 : 1FAE;
    94 : DE96;
    95 : 1150;
    96 : 0FE2;
    97 : 09F1;
    98 : F1B4;
    99 : F55F;
    100 : 1214;
    101 : E82D;
    102 : 0000;
    103 : FD57;
    104 : E705;
    105 : 295B;
    106 : E471;
    107 : 272D;
    108 : FBFB;
    109 : 13B3;
    110 : 120C;
    111 : 00E2;
    112 : 065A;
    113 : 0000;
    114 : F411;
    115 : 12FC;
    116 : E9C1;
    117 : 20FE;
    118 : E279;
    119 : 1BD8;
    120 : 07FF;
    121 : 0D9A;
    122 : FBF5;
    123 : 19D1;
    124 : F552;
    125 : 0300;
    126 : 0000;
    127 : 0443;
    128 : 000D;
    129 : FEE1;
    130 : 05BB;
    131 : 177D;
    132 : E7B7;
    133 : FD90;
    134 : F47B;
    135 : 1A95;
    136 : E67C;
    137 : 1849;
    138 : E699;
    139 : 23C6;
    140 : ECDD;
    141 : 1812;
    142 : DE08;
    143 : 1967;
    144 : FC19;
    145 : F65D;
    146 : 0820;
    147 : F2FB;
    148 : 12F0;
    149 : 0BB4;
    150 : FA03;
    151 : 0BBB;
    152 : 0514;
    153 : 07F8;
    154 : DF06;
    155 : 1DF3;
    156 : F210;
    157 : 0FF8;
    158 : EE76;
    159 : 007B;
    160 : 0CBD;
    161 : 0DF0;
    162 : F0C5;
    163 : 0B62;
    164 : EC37;
    165 : 15C9;
    166 : 0275;
    167 : 1552;
    168 : EF61;
    169 : 12FC;
    170 : EDF5;
    171 : 2447;
    172 : C917;
    173 : 3B05;
    174 : FC13;
    175 : F899;
    176 : 0247;
    177 : FA97;
    178 : 1819;
    179 : E872;
    180 : 0000;
    181 : 0A20;
    182 : 0DCA;
    183 : ECF5;
    184 : 2A09;
    185 : F00E;
    186 : 0DF0;
    187 : FF4A;
    188 : F165;
    189 : 1562;
    190 : F0C0;
    191 : 03FB;
    192 : FC07;
    193 : 0EAE;
    194 : F5B8;
    195 : E95D;
    196 : 08C0;
    197 : F80D;
    198 : 0804;
    199 : 02C9;
    200 : 0134;
    201 : 0D9F;
    202 : FF23;
    203 : FBFE;
    204 : 0BE9;
    205 : F5D5;
    206 : F55D;
    207 : F5B4;
    208 : 0FD7;
    209 : 0000;
    210 : 16B3;
    211 : 005F;
    212 : 04D1;
    213 : FA16;
    214 : 13BE;
    215 : E168;
    216 : 0A44;
    217 : 097F;
    218 : 0701;
    219 : 08A0;
    220 : 0D75;
    221 : F4DB;
    222 : F3E2;
    223 : 0B66;
    224 : F482;
    225 : 1650;
    226 : FAA8;
    227 : FBF6;
    228 : EC27;
    229 : 1C28;
    230 : 008B;
    231 : F807;
    232 : FC4B;
    233 : 03F8;
    234 : 1811;
    235 : F2DC;
    236 : 053D;
    237 : 0DA3;
    238 : FCCA;
    239 : 0C09;
    240 : 05C3;
    241 : EACC;
    242 : 05E5;
    243 : F925;
    244 : 081B;
    245 : 05C3;
    246 : EDE7;
    247 : 1E70;
    248 : F90C;
    249 : 14CF;
    250 : D818;
    251 : 1A87;
    252 : FA12;
    253 : 0525;
    254 : F869;
    255 : FEAE;
    256 : F08D;
    257 : FE06;
    258 : FAEA;
    259 : 038C;
    260 : E938;
    261 : 2DED;
    262 : E392;
    263 : 3192;
    264 : 1B88;
    265 : F34A;
    266 : FFB4;
    267 : FF3E;
    268 : 0BAA;
    269 : FA1A;
    270 : 0FE8;
    271 : 0399;
    272 : 1399;
    273 : E35F;
    274 : 1C39;
    275 : E626;
    276 : F133;
    277 : FB94;
    278 : 0AA4;
    279 : E953;
    280 : 197A;
    281 : FF03;
    282 : 00F5;
    283 : 0DD8;
    284 : E85E;
    285 : 1A6B;
    286 : DB13;
    287 : 2A1D;
    288 : 14E7;
    289 : F3F3;
    290 : 08F6;
    291 : FDBC;
    292 : 0D09;
    293 : F70B;
    294 : FE7A;
    295 : FB4E;
    296 : FF9D;
    297 : 1B50;
    298 : FBCE;
    299 : 0B6E;
    300 : EB33;
    301 : 119E;
    302 : F815;
    303 : 18C9;
    304 : F5F4;
    305 : 1AA2;
    306 : 16E9;
    307 : FFFD;
    308 : 039E;
    309 : EC95;
    310 : 0743;
    311 : F20E;
    312 : 00FE;
    313 : 08BE;
    314 : F950;
    315 : 0E93;
    316 : EB22;
    317 : 14DF;
    318 : 07D0;
    319 : F6D8;
    320 : 1C72;
    321 : DE8A;
    322 : 31F7;
    323 : E4A7;
    324 : F003;
    325 : 064C;
    326 : F0A2;
    327 : 0C81;
    328 : FAF1;
    329 : 13FC;
    330 : FC07;
    331 : 0578;
    332 : 0D83;
    333 : E574;
    334 : 0BF4;
    335 : 03F9;
    336 : 0504;
    337 : FCA1;
    338 : 1E48;
    339 : D679;
    340 : 2C33;
    341 : CFD9;
    342 : 04C9;
    343 : FDFD;
    344 : FDEB;
    345 : 1C25;
    346 : 0502;
    347 : 0081;
    348 : FE0B;
    349 : 1261;
    350 : F016;
    351 : 0BE1;
    352 : F7AF;
    353 : 1584;
    354 : F7FF;
    355 : 0DF6;
    356 : 01CB;
    357 : 10F4;
    358 : EA33;
    359 : 1C04;
    360 : F60B;
    361 : 21E7;
    362 : F02E;
    363 : 2495;
    364 : D680;
    365 : 11ED;
    366 : 18A9;
    367 : 0BD4;
    368 : F935;
    369 : 00CE;
    370 : FF54;
    371 : FC0E;
    372 : 0FF3;
    373 : F3A6;
    374 : F679;
    375 : 119E;
    376 : FF2D;
    377 : 0DF8;
    378 : FC04;
    379 : FD82;
    380 : 0FCB;
    381 : E326;
    382 : 0AEA;
    383 : 0000;
END;
