WIDTH=16;
DEPTH=384;

ADDRESS_RADIX=DEC;
DATA_RADIX=HEX;

CONTENT BEGIN
    0 : F830;
    1 : 0671;
    2 : E485;
    3 : 1EF9;
    4 : CE5E;
    5 : 1B5A;
    6 : 040E;
    7 : 0723;
    8 : F38B;
    9 : F1CA;
    10 : 0B7D;
    11 : F3D7;
    12 : 13E3;
    13 : F679;
    14 : 0408;
    15 : F3AB;
    16 : 0B1D;
    17 : FC06;
    18 : F539;
    19 : 07C7;
    20 : E94A;
    21 : 2110;
    22 : D951;
    23 : 1C69;
    24 : 0000;
    25 : 043C;
    26 : F00D;
    27 : 136B;
    28 : E27B;
    29 : 32DF;
    30 : 1184;
    31 : EF94;
    32 : 03C7;
    33 : F5FF;
    34 : 02BA;
    35 : FA29;
    36 : FDFC;
    37 : FFE1;
    38 : 05F3;
    39 : EFA1;
    40 : 161E;
    41 : DBB6;
    42 : 0000;
    43 : EA1E;
    44 : 07EC;
    45 : DB63;
    46 : 1D62;
    47 : CB4C;
    48 : FBF4;
    49 : 03A6;
    50 : FDC3;
    51 : EFAF;
    52 : 0338;
    53 : 0818;
    54 : EBBB;
    55 : 027B;
    56 : FBB3;
    57 : E592;
    58 : 0A85;
    59 : 0103;
    60 : 0719;
    61 : F8F3;
    62 : FB67;
    63 : E9F2;
    64 : 03F1;
    65 : FAEE;
    66 : EAC2;
    67 : FECB;
    68 : FA14;
    69 : FFBC;
    70 : EFA0;
    71 : 05CB;
    72 : 247C;
    73 : F153;
    74 : 080C;
    75 : E35F;
    76 : 14F2;
    77 : EBBB;
    78 : 1195;
    79 : EDEF;
    80 : 0936;
    81 : E24A;
    82 : 2083;
    83 : DE82;
    84 : F847;
    85 : 008D;
    86 : F245;
    87 : 0B58;
    88 : F37C;
    89 : 03DD;
    90 : 06D8;
    91 : 005A;
    92 : F939;
    93 : 07C9;
    94 : 002F;
    95 : F7B0;
    96 : 0BB5;
    97 : FCED;
    98 : F051;
    99 : 1133;
    100 : EA81;
    101 : 0C51;
    102 : 0208;
    103 : 013E;
    104 : FBF6;
    105 : DD23;
    106 : 1760;
    107 : EFC2;
    108 : EE5F;
    109 : F9B8;
    110 : 136A;
    111 : F3FC;
    112 : 0E57;
    113 : E29E;
    114 : FA1F;
    115 : FA70;
    116 : 089E;
    117 : 01BA;
    118 : FBC9;
    119 : F829;
    120 : 1040;
    121 : F640;
    122 : E300;
    123 : 044F;
    124 : F106;
    125 : 0C30;
    126 : 16BF;
    127 : F9DE;
    128 : F886;
    129 : F6B5;
    130 : 0418;
    131 : F8AC;
    132 : E9C9;
    133 : 043F;
    134 : 04F8;
    135 : EC8F;
    136 : 0CD0;
    137 : F1DD;
    138 : 0855;
    139 : FB58;
    140 : F0DB;
    141 : 1883;
    142 : E35B;
    143 : 0C80;
    144 : F9EF;
    145 : FDC0;
    146 : FFE1;
    147 : EF9D;
    148 : 0A66;
    149 : E9C2;
    150 : 040D;
    151 : FB5C;
    152 : 03C2;
    153 : E18D;
    154 : 0B6A;
    155 : 0A21;
    156 : FE03;
    157 : EEC0;
    158 : 11C3;
    159 : E5F9;
    160 : 1348;
    161 : E232;
    162 : F63A;
    163 : FBF8;
    164 : E878;
    165 : 20DD;
    166 : CD98;
    167 : 2523;
    168 : E9B6;
    169 : 0356;
    170 : F973;
    171 : E5D3;
    172 : 0CFF;
    173 : 0000;
    174 : F82D;
    175 : 00EF;
    176 : EC66;
    177 : 1B05;
    178 : DB15;
    179 : 0FA7;
    180 : 053F;
    181 : 00A7;
    182 : EA25;
    183 : 0C50;
    184 : D979;
    185 : 267B;
    186 : 03DF;
    187 : F43E;
    188 : 170F;
    189 : E2B6;
    190 : 1E2C;
    191 : DD25;
    192 : F059;
    193 : 0528;
    194 : F04D;
    195 : 171E;
    196 : E9B4;
    197 : FC16;
    198 : E2EB;
    199 : 06E4;
    200 : F3C0;
    201 : 07F5;
    202 : ED14;
    203 : 141E;
    204 : 0F96;
    205 : F905;
    206 : F5D0;
    207 : 07D0;
    208 : F6E8;
    209 : 1189;
    210 : 144C;
    211 : E65A;
    212 : 0C30;
    213 : DB1F;
    214 : 23D3;
    215 : BF0E;
    216 : F3ED;
    217 : 0293;
    218 : EFFA;
    219 : 01B0;
    220 : EEC5;
    221 : 080C;
    222 : F737;
    223 : 0588;
    224 : F285;
    225 : 13EB;
    226 : E001;
    227 : 0CB0;
    228 : 143E;
    229 : F25E;
    230 : 0BEB;
    231 : DF7E;
    232 : 2290;
    233 : E3A9;
    234 : 0BAC;
    235 : EAAB;
    236 : 0377;
    237 : FC1B;
    238 : 0401;
    239 : 0000;
    240 : 06DD;
    241 : E4EC;
    242 : 0ABF;
    243 : FEA8;
    244 : FC81;
    245 : EF55;
    246 : 07D8;
    247 : FE21;
    248 : F7FB;
    249 : 1742;
    250 : E191;
    251 : 1787;
    252 : 2C95;
    253 : EEE0;
    254 : 0804;
    255 : E360;
    256 : 1FB9;
    257 : EFCA;
    258 : 1439;
    259 : DBBD;
    260 : 13FD;
    261 : D776;
    262 : 23C3;
    263 : C55C;
    264 : 1F67;
    265 : E6DD;
    266 : F897;
    267 : EA2A;
    268 : 196D;
    269 : E5A9;
    270 : 1A66;
    271 : F86B;
    272 : 0A35;
    273 : DB12;
    274 : 2552;
    275 : D55B;
    276 : F3D4;
    277 : 1007;
    278 : EB78;
    279 : EFAB;
    280 : 03FA;
    281 : 0000;
    282 : 0C26;
    283 : EE86;
    284 : 1C22;
    285 : CB45;
    286 : 2D46;
    287 : D783;
    288 : 02BB;
    289 : F037;
    290 : 0E72;
    291 : E4FF;
    292 : 2147;
    293 : D49C;
    294 : E7DC;
    295 : FC66;
    296 : FFB4;
    297 : F3E7;
    298 : 0BF4;
    299 : EFE8;
    300 : 141D;
    301 : E174;
    302 : 1C0B;
    303 : CF86;
    304 : 2537;
    305 : DDCE;
    306 : 07E4;
    307 : F98F;
    308 : F9D6;
    309 : FE5F;
    310 : 0032;
    311 : F81C;
    312 : FBF1;
    313 : FDF7;
    314 : FFDC;
    315 : DD4E;
    316 : 177E;
    317 : E9AE;
    318 : ECC2;
    319 : 008B;
    320 : FBDC;
    321 : FFDA;
    322 : F69F;
    323 : FA3A;
    324 : FAF1;
    325 : F848;
    326 : 0EEF;
    327 : D771;
    328 : 24E3;
    329 : E9BE;
    330 : FC20;
    331 : FB78;
    332 : FBDE;
    333 : 01C3;
    334 : EC01;
    335 : 1B1D;
    336 : F82D;
    337 : F82E;
    338 : F807;
    339 : 0F56;
    340 : F193;
    341 : F443;
    342 : 1441;
    343 : E487;
    344 : FFB4;
    345 : E7A6;
    346 : 1B00;
    347 : D371;
    348 : FBF5;
    349 : EF23;
    350 : 15EF;
    351 : D993;
    352 : 24A9;
    353 : D796;
    354 : F83E;
    355 : 0603;
    356 : F601;
    357 : 089A;
    358 : FF76;
    359 : FD17;
    360 : 0EBA;
    361 : F4B6;
    362 : F9E3;
    363 : 1F33;
    364 : E9BF;
    365 : 09D1;
    366 : 0FDB;
    367 : F03D;
    368 : 05E0;
    369 : EF89;
    370 : 0C39;
    371 : E76E;
    372 : 1E69;
    373 : EDF5;
    374 : F9E8;
    375 : EC6A;
    376 : 06B8;
    377 : F9EB;
    378 : 03EB;
    379 : F574;
    380 : 0D96;
    381 : F8D1;
    382 : 1113;
    383 : E396;
END;
