WIDTH=16;
DEPTH=384;

ADDRESS_RADIX=DEC;
DATA_RADIX=HEX;

CONTENT BEGIN
    0 : 1F9F;
    1 : F3DA;
    2 : 05CD;
    3 : F5D5;
    4 : 1167;
    5 : FC0C;
    6 : EFD7;
    7 : 0828;
    8 : 1B22;
    9 : FCB0;
    10 : 09FC;
    11 : F7EB;
    12 : 0CFA;
    13 : FD16;
    14 : FE7A;
    15 : 18D9;
    16 : EAED;
    17 : FD01;
    18 : F7F8;
    19 : 0201;
    20 : 062F;
    21 : 1B78;
    22 : F317;
    23 : F5F6;
    24 : 0475;
    25 : ED74;
    26 : 1B7F;
    27 : D5C0;
    28 : 32D2;
    29 : CB86;
    30 : 07E1;
    31 : E6B6;
    32 : 1CBC;
    33 : D6F1;
    34 : 2AF8;
    35 : E85D;
    36 : F40D;
    37 : 0FCE;
    38 : 02BD;
    39 : 08E3;
    40 : E5BB;
    41 : 2BCF;
    42 : 0000;
    43 : 0FD2;
    44 : 0046;
    45 : F581;
    46 : 0031;
    47 : 15CC;
    48 : 0101;
    49 : 089D;
    50 : 0325;
    51 : 1075;
    52 : FE4C;
    53 : FBFE;
    54 : F42F;
    55 : F278;
    56 : 0A10;
    57 : DDE9;
    58 : 217F;
    59 : EA56;
    60 : FB07;
    61 : 0A7E;
    62 : EE38;
    63 : 2C83;
    64 : CF80;
    65 : 268B;
    66 : 0000;
    67 : FE66;
    68 : 0F6D;
    69 : FA0D;
    70 : 0B63;
    71 : FE02;
    72 : 147C;
    73 : FCA4;
    74 : 01E5;
    75 : 00B0;
    76 : F2E3;
    77 : 04E1;
    78 : 00F6;
    79 : EAFC;
    80 : 0E61;
    81 : F7E8;
    82 : 122D;
    83 : EEB4;
    84 : 03EC;
    85 : 02F1;
    86 : 04F2;
    87 : F6E9;
    88 : 19D7;
    89 : 03EC;
    90 : F3FF;
    91 : 066D;
    92 : 0A67;
    93 : 0122;
    94 : 0053;
    95 : 0200;
    96 : FC1B;
    97 : 125F;
    98 : FF25;
    99 : 0360;
    100 : 0201;
    101 : 02EC;
    102 : FE13;
    103 : FED4;
    104 : FEFA;
    105 : 0473;
    106 : 0757;
    107 : F474;
    108 : F7FB;
    109 : FD65;
    110 : FA10;
    111 : 1D8F;
    112 : E7E0;
    113 : EFF5;
    114 : 0908;
    115 : 06A8;
    116 : 04F4;
    117 : 149F;
    118 : FE5D;
    119 : FAFB;
    120 : F2F1;
    121 : 0C12;
    122 : FF8B;
    123 : 1506;
    124 : F507;
    125 : 1012;
    126 : 01FA;
    127 : F44D;
    128 : 08EC;
    129 : DED8;
    130 : 1607;
    131 : FC0C;
    132 : EA3B;
    133 : 0946;
    134 : F776;
    135 : 043B;
    136 : F5EB;
    137 : 15C5;
    138 : 27E2;
    139 : F0F5;
    140 : 0B1F;
    141 : E8D3;
    142 : 1AB3;
    143 : E812;
    144 : 1F7C;
    145 : E81B;
    146 : 0CE5;
    147 : E6EE;
    148 : 2697;
    149 : E27C;
    150 : FC03;
    151 : 021B;
    152 : 1298;
    153 : F101;
    154 : 02FA;
    155 : 07F9;
    156 : F017;
    157 : 0ACD;
    158 : E611;
    159 : 1B95;
    160 : E74C;
    161 : 2BC1;
    162 : E6FD;
    163 : 1A9D;
    164 : F351;
    165 : 2697;
    166 : DA94;
    167 : 2A67;
    168 : 0FF2;
    169 : FDC6;
    170 : FA07;
    171 : 193B;
    172 : F628;
    173 : 03FD;
    174 : 0BDD;
    175 : 03F1;
    176 : F540;
    177 : 0A4B;
    178 : FC2D;
    179 : 278A;
    180 : FBFF;
    181 : 0FFC;
    182 : F5F2;
    183 : 1990;
    184 : E146;
    185 : 300D;
    186 : F61A;
    187 : FEC5;
    188 : EFD3;
    189 : 07D5;
    190 : EBDB;
    191 : 13CC;
    192 : 03F8;
    193 : FF08;
    194 : 05E9;
    195 : E5CD;
    196 : 2612;
    197 : D064;
    198 : FCFC;
    199 : 0362;
    200 : 035E;
    201 : 1841;
    202 : F68E;
    203 : FDFD;
    204 : 0994;
    205 : F59C;
    206 : 00F3;
    207 : 02F6;
    208 : 040B;
    209 : F94B;
    210 : 13F8;
    211 : F825;
    212 : 14A6;
    213 : E110;
    214 : 2A60;
    215 : D213;
    216 : 113A;
    217 : F4DA;
    218 : 095B;
    219 : F7B0;
    220 : 13A0;
    221 : E668;
    222 : 194B;
    223 : FC61;
    224 : 05D7;
    225 : EBAF;
    226 : 0ECA;
    227 : F556;
    228 : EC74;
    229 : 0722;
    230 : FE5B;
    231 : 08F9;
    232 : F190;
    233 : F446;
    234 : 01F5;
    235 : F36C;
    236 : 12C6;
    237 : E32A;
    238 : 2667;
    239 : EE67;
    240 : ECB7;
    241 : 01BD;
    242 : 0494;
    243 : FEED;
    244 : 0BFE;
    245 : F280;
    246 : 07FE;
    247 : FA26;
    248 : 006E;
    249 : 17DF;
    250 : E689;
    251 : F901;
    252 : F091;
    253 : 145E;
    254 : E723;
    255 : 1C4F;
    256 : D092;
    257 : 22B9;
    258 : F420;
    259 : 02E1;
    260 : FA11;
    261 : FD92;
    262 : 07F5;
    263 : 08E8;
    264 : 0F18;
    265 : FE78;
    266 : EE3B;
    267 : 16CE;
    268 : EA2F;
    269 : 2CC8;
    270 : 15D4;
    271 : 02C5;
    272 : 0257;
    273 : EF66;
    274 : 0673;
    275 : 0000;
    276 : E879;
    277 : FF33;
    278 : 0178;
    279 : 0000;
    280 : 02C9;
    281 : F051;
    282 : 0806;
    283 : FC25;
    284 : 043D;
    285 : 156C;
    286 : F074;
    287 : 0E0A;
    288 : 09E6;
    289 : FA56;
    290 : F8FF;
    291 : 0081;
    292 : 03DC;
    293 : F815;
    294 : FE07;
    295 : F591;
    296 : FF5F;
    297 : FE42;
    298 : 14BE;
    299 : EE42;
    300 : FC03;
    301 : FFAD;
    302 : 0D50;
    303 : FE43;
    304 : 0889;
    305 : 0FF4;
    306 : 0DDE;
    307 : FF6F;
    308 : FC18;
    309 : F7BE;
    310 : FEF8;
    311 : FF81;
    312 : FE04;
    313 : FBAD;
    314 : 1009;
    315 : E0BC;
    316 : 2069;
    317 : E435;
    318 : 0000;
    319 : FB2E;
    320 : 0556;
    321 : EE69;
    322 : 060B;
    323 : 0FCD;
    324 : 0407;
    325 : F2DC;
    326 : 0CA6;
    327 : 1758;
    328 : 0A53;
    329 : 0203;
    330 : F425;
    331 : FEF3;
    332 : 098F;
    333 : EE1E;
    334 : 1820;
    335 : D486;
    336 : 0FE3;
    337 : FE33;
    338 : 072B;
    339 : E779;
    340 : 0052;
    341 : 00FE;
    342 : FC0E;
    343 : F878;
    344 : F967;
    345 : 061A;
    346 : F068;
    347 : 03F2;
    348 : 09A0;
    349 : 0304;
    350 : F953;
    351 : 0B10;
    352 : ED42;
    353 : 20BA;
    354 : F42B;
    355 : 0FC6;
    356 : FBD0;
    357 : 0D85;
    358 : F2B7;
    359 : 2186;
    360 : 0201;
    361 : 027D;
    362 : FD54;
    363 : 2028;
    364 : E017;
    365 : 0C03;
    366 : 03EE;
    367 : 064C;
    368 : F9A0;
    369 : 03FB;
    370 : EFA4;
    371 : 1794;
    372 : 0000;
    373 : FD74;
    374 : FD17;
    375 : 0075;
    376 : 0774;
    377 : FA14;
    378 : F6FD;
    379 : 121B;
    380 : F6F6;
    381 : 2084;
    382 : E29C;
    383 : 1406;
END;
