WIDTH=16;
DEPTH=384;

ADDRESS_RADIX=DEC;
DATA_RADIX=HEX;

CONTENT BEGIN
    0 : F415;
    1 : 0DBF;
    2 : 08EF;
    3 : 08CA;
    4 : DDF4;
    5 : 0FE5;
    6 : 03FE;
    7 : 11FA;
    8 : 0D91;
    9 : 0262;
    10 : F634;
    11 : 05FD;
    12 : F1FD;
    13 : F16D;
    14 : F630;
    15 : F7D3;
    16 : 0512;
    17 : 0A02;
    18 : F9EA;
    19 : 0A89;
    20 : 089A;
    21 : E305;
    22 : 0DCD;
    23 : E39A;
    24 : F9ED;
    25 : 0407;
    26 : 04B8;
    27 : DEC4;
    28 : 073F;
    29 : E5AD;
    30 : 0817;
    31 : F68F;
    32 : 0476;
    33 : ED50;
    34 : 031A;
    35 : CF73;
    36 : 00FE;
    37 : 06F5;
    38 : 06C4;
    39 : 084F;
    40 : EE45;
    41 : FB88;
    42 : 051D;
    43 : 0E3B;
    44 : 0748;
    45 : EE79;
    46 : 079E;
    47 : E56B;
    48 : 0BD6;
    49 : 0A66;
    50 : FC3D;
    51 : 09D6;
    52 : DEF5;
    53 : 1B9D;
    54 : 0000;
    55 : 024D;
    56 : 1275;
    57 : ED70;
    58 : 025E;
    59 : F1C2;
    60 : 060D;
    61 : EBAB;
    62 : F49F;
    63 : 150F;
    64 : F42C;
    65 : 0E1E;
    66 : 0F20;
    67 : E745;
    68 : 02BA;
    69 : F993;
    70 : 165B;
    71 : FA54;
    72 : FC00;
    73 : F523;
    74 : FD40;
    75 : 107D;
    76 : 0805;
    77 : 0400;
    78 : 11FD;
    79 : EDE1;
    80 : F64A;
    81 : 14B2;
    82 : F7B1;
    83 : 0AFE;
    84 : DD9E;
    85 : 1168;
    86 : ECC1;
    87 : 17F8;
    88 : E6E4;
    89 : 31C7;
    90 : 07F1;
    91 : 01DF;
    92 : 03F2;
    93 : 0A15;
    94 : F5BD;
    95 : 03F8;
    96 : 0214;
    97 : 033C;
    98 : 1917;
    99 : DC6F;
    100 : 124C;
    101 : DEBC;
    102 : 0C01;
    103 : FC78;
    104 : F988;
    105 : FE85;
    106 : 1786;
    107 : EBFE;
    108 : 12FD;
    109 : 00C4;
    110 : 1A08;
    111 : DFAC;
    112 : 1EE6;
    113 : D5CE;
    114 : F3F8;
    115 : 17F3;
    116 : FC2D;
    117 : F5D3;
    118 : FADE;
    119 : FBFD;
    120 : F7EF;
    121 : 15D4;
    122 : FB39;
    123 : E882;
    124 : F667;
    125 : F7EF;
    126 : F599;
    127 : F849;
    128 : 1384;
    129 : E756;
    130 : 08DF;
    131 : DCA0;
    132 : FDFD;
    133 : 0D20;
    134 : EEBF;
    135 : 2166;
    136 : FA98;
    137 : 0E17;
    138 : FBEC;
    139 : 0DD0;
    140 : 0D8B;
    141 : DC50;
    142 : 0EB5;
    143 : D327;
    144 : FC01;
    145 : F7EC;
    146 : F9DC;
    147 : F836;
    148 : 1103;
    149 : F402;
    150 : 1C7B;
    151 : F815;
    152 : 0FE7;
    153 : EA25;
    154 : 1130;
    155 : F3CB;
    156 : E768;
    157 : F7C8;
    158 : E2F3;
    159 : 2F02;
    160 : DEA3;
    161 : 20CB;
    162 : F3EB;
    163 : 02B9;
    164 : F8A5;
    165 : 197D;
    166 : FE5B;
    167 : 0000;
    168 : F9FE;
    169 : 01C1;
    170 : F5F8;
    171 : 1F14;
    172 : EDDA;
    173 : 230A;
    174 : 01FC;
    175 : F172;
    176 : 02DA;
    177 : 04BC;
    178 : 1244;
    179 : EA2D;
    180 : 0BE8;
    181 : 09E6;
    182 : 0D74;
    183 : 0F9D;
    184 : D6DB;
    185 : 1FC1;
    186 : 15D8;
    187 : F03E;
    188 : FED7;
    189 : 0723;
    190 : 0DCB;
    191 : EC24;
    192 : 0000;
    193 : EDC1;
    194 : F8C6;
    195 : 0CE9;
    196 : F5AD;
    197 : 2832;
    198 : EE26;
    199 : 1485;
    200 : 0450;
    201 : 0A73;
    202 : EB88;
    203 : F90F;
    204 : 0804;
    205 : 0B93;
    206 : F978;
    207 : F58D;
    208 : E207;
    209 : 0A05;
    210 : 0000;
    211 : 18E8;
    212 : FC7A;
    213 : FD89;
    214 : F1D7;
    215 : 1BA9;
    216 : E7BA;
    217 : F370;
    218 : F3C1;
    219 : 1159;
    220 : F0F1;
    221 : 0C23;
    222 : 0A76;
    223 : FF80;
    224 : EECD;
    225 : 1135;
    226 : E794;
    227 : 22E0;
    228 : 0C01;
    229 : D500;
    230 : 06B1;
    231 : DF5D;
    232 : 0FA9;
    233 : 0000;
    234 : 0000;
    235 : F2AC;
    236 : 0B63;
    237 : EAAF;
    238 : 11A3;
    239 : C7C9;
    240 : F036;
    241 : FC88;
    242 : 1615;
    243 : 0360;
    244 : 19D2;
    245 : F036;
    246 : 11C6;
    247 : DB4C;
    248 : FC90;
    249 : 0297;
    250 : F891;
    251 : F033;
    252 : 03FE;
    253 : EE5F;
    254 : F666;
    255 : 0F8F;
    256 : E809;
    257 : 2BEF;
    258 : 0000;
    259 : F8DC;
    260 : FA6A;
    261 : 146E;
    262 : CF99;
    263 : 0BDF;
    264 : 01FE;
    265 : 0970;
    266 : 0FF7;
    267 : 0214;
    268 : FDC5;
    269 : F807;
    270 : F013;
    271 : 0BB3;
    272 : 0B5F;
    273 : F8A5;
    274 : 0837;
    275 : DA2D;
    276 : FF82;
    277 : 06FF;
    278 : FB54;
    279 : 1229;
    280 : E463;
    281 : 1335;
    282 : 0000;
    283 : 0B54;
    284 : 233E;
    285 : E2C4;
    286 : 17E1;
    287 : E2DE;
    288 : 1A41;
    289 : FCB0;
    290 : 00EF;
    291 : E0F8;
    292 : F6FD;
    293 : 0814;
    294 : 08F3;
    295 : FAD3;
    296 : 087B;
    297 : 085D;
    298 : E2A9;
    299 : FE03;
    300 : FE01;
    301 : FB26;
    302 : FCEE;
    303 : 0528;
    304 : 1B67;
    305 : F009;
    306 : DAFA;
    307 : 2227;
    308 : F3DA;
    309 : 1829;
    310 : CD4B;
    311 : 1F2E;
    312 : FC1D;
    313 : E882;
    314 : F90B;
    315 : 0327;
    316 : F1E8;
    317 : FE0F;
    318 : 090E;
    319 : F3FB;
    320 : EF56;
    321 : 2005;
    322 : F5FC;
    323 : 0C13;
    324 : F2AE;
    325 : FF7A;
    326 : FF7E;
    327 : F8E9;
    328 : 0BE8;
    329 : F996;
    330 : 1870;
    331 : ED8F;
    332 : 0DE7;
    333 : EDDA;
    334 : F717;
    335 : F5D1;
    336 : 0DE8;
    337 : F193;
    338 : 02CB;
    339 : 0537;
    340 : F3B8;
    341 : FA0A;
    342 : 166A;
    343 : F2E7;
    344 : 0EFD;
    345 : DAA4;
    346 : 11E3;
    347 : D949;
    348 : EA4A;
    349 : FBE2;
    350 : 05FA;
    351 : 0319;
    352 : 0884;
    353 : 0BD8;
    354 : 05C5;
    355 : EA6D;
    356 : 0835;
    357 : F607;
    358 : 089E;
    359 : F289;
    360 : 11E9;
    361 : D518;
    362 : 06AA;
    363 : EF7C;
    364 : 01FB;
    365 : F80A;
    366 : 0518;
    367 : EDF5;
    368 : E437;
    369 : 20D3;
    370 : DBBB;
    371 : 2ACB;
    372 : E764;
    373 : 120D;
    374 : F8D6;
    375 : 0D0A;
    376 : DA60;
    377 : 1F80;
    378 : F41C;
    379 : F7A1;
    380 : 0686;
    381 : FF7A;
    382 : 011D;
    383 : EE29;
END;
