DEPTH = 33;
WIDTH = 16;
ADDRESS_RADIX = DEC;
DATA_RADIX = HEX;
CONTENT BEGIN
0 : FF67;
1 : 01AD;
2 : FE2D;
3 : FFCC;
4 : FFC4;
5 : FEE3;
6 : FF1B;
7 : FFBA;
8 : FF88;
9 : 0090;
10 : FEEC;
11 : FFDB;
12 : FFFC;
13 : FFFB;
14 : FFE8;
15 : FF83;
16 : FFD0;
17 : 00EF;
18 : FFFA;
19 : FF8E;
20 : 0000;
21 : 0000;
22 : 0000;
23 : 0000;
24 : 0000;
25 : 0000;
26 : 0000;
27 : 0000;
28 : 0000;
29 : 0000;
30 : 0000;
31 : 0000;
32 : 0400;
END;
