DEPTH = 33;
WIDTH = 16;
ADDRESS_RADIX = DEC;
DATA_RADIX = HEX;
CONTENT BEGIN
0 : 0067;
1 : 00B3;
2 : FEB3;
3 : 0008;
4 : FF6E;
5 : 013E;
6 : 00E4;
7 : 0003;
8 : FF83;
9 : 006B;
10 : FF82;
11 : FFC9;
12 : 0013;
13 : FF83;
14 : 00A1;
15 : FFE9;
16 : FF83;
17 : FFB4;
18 : FFAC;
19 : FFC8;
20 : 0000;
21 : 0000;
22 : 0000;
23 : 0000;
24 : 0000;
25 : 0000;
26 : 0000;
27 : 0000;
28 : 0000;
29 : 0000;
30 : 0000;
31 : 0000;
32 : 0400;
END;
