DEPTH = 33;
WIDTH = 16;
ADDRESS_RADIX = DEC;
DATA_RADIX = HEX;
CONTENT BEGIN
0 : 004E;
1 : FFA4;
2 : FF46;
3 : 001A;
4 : 0124;
5 : FE7F;
6 : FED6;
7 : FFE8;
8 : 007F;
9 : 0097;
10 : FEB2;
11 : FFE7;
12 : 003A;
13 : FFEB;
14 : FFC8;
15 : FFA8;
16 : FF33;
17 : FFBB;
18 : FF54;
19 : FF8C;
20 : 0000;
21 : 0000;
22 : 0000;
23 : 0000;
24 : 0000;
25 : 0000;
26 : 0000;
27 : 0000;
28 : 0000;
29 : 0000;
30 : 0000;
31 : 0000;
32 : 0400;
END;
