DEPTH = 33;
WIDTH = 16;
ADDRESS_RADIX = DEC;
DATA_RADIX = HEX;
CONTENT BEGIN
0 : FD1E;
1 : 00D5;
2 : FEE3;
3 : FFC2;
4 : 0088;
5 : 00D8;
6 : FFAF;
7 : FF83;
8 : FFFC;
9 : 006C;
10 : FEEC;
11 : FF44;
12 : 0006;
13 : FFFD;
14 : 0046;
15 : FF84;
16 : 0010;
17 : 0161;
18 : FEE8;
19 : FFA2;
20 : 0000;
21 : 0000;
22 : 0000;
23 : 0000;
24 : 0000;
25 : 0000;
26 : 0000;
27 : 0000;
28 : 0000;
29 : 0000;
30 : 0000;
31 : 0000;
32 : 0400;
END;
