DEPTH = 33;
WIDTH = 16;
ADDRESS_RADIX = DEC;
DATA_RADIX = HEX;
CONTENT BEGIN
0 : 0035;
1 : 006D;
2 : FEFF;
3 : FFDC;
4 : 001D;
5 : FFEC;
6 : FF75;
7 : 001C;
8 : 001D;
9 : 002A;
10 : FF76;
11 : FFE6;
12 : 001F;
13 : FFFA;
14 : 00B7;
15 : 0002;
16 : 007A;
17 : FF56;
18 : FF96;
19 : FF74;
20 : 0000;
21 : 0000;
22 : 0000;
23 : 0000;
24 : 0000;
25 : 0000;
26 : 0000;
27 : 0000;
28 : 0000;
29 : 0000;
30 : 0000;
31 : 0000;
32 : 0400;
END;
