DEPTH = 33;
WIDTH = 16;
ADDRESS_RADIX = DEC;
DATA_RADIX = HEX;
CONTENT BEGIN
0 : FFB1;
1 : 0063;
2 : 0148;
3 : 0000;
4 : FFE3;
5 : FF3F;
6 : 008F;
7 : FFC7;
8 : FF94;
9 : FFDB;
10 : 015E;
11 : FF90;
12 : FFD2;
13 : 0012;
14 : FFDD;
15 : FFEF;
16 : FFE4;
17 : FF76;
18 : 006C;
19 : FFF1;
20 : 0000;
21 : 0000;
22 : 0000;
23 : 0000;
24 : 0000;
25 : 0000;
26 : 0000;
27 : 0000;
28 : 0000;
29 : 0000;
30 : 0000;
31 : 0000;
32 : 0400;
END;
