DEPTH = 33;
WIDTH = 16;
ADDRESS_RADIX = DEC;
DATA_RADIX = HEX;
CONTENT BEGIN
0 : 010F;
1 : FFEB;
2 : FF26;
3 : FFC6;
4 : 0026;
5 : FF93;
6 : FFB3;
7 : FF2E;
8 : 006A;
9 : 0084;
10 : FE87;
11 : FF8B;
12 : FF9D;
13 : 00F6;
14 : FF39;
15 : FFCF;
16 : 0105;
17 : FFAF;
18 : FFE8;
19 : FFC0;
20 : 0000;
21 : 0000;
22 : 0000;
23 : 0000;
24 : 0000;
25 : 0000;
26 : 0000;
27 : 0000;
28 : 0000;
29 : 0000;
30 : 0000;
31 : 0000;
32 : 0400;
END;
