DEPTH = 33;
WIDTH = 16;
ADDRESS_RADIX = DEC;
DATA_RADIX = HEX;
CONTENT BEGIN
0 : FFD1;
1 : FF79;
2 : 0046;
3 : 007A;
4 : FE89;
5 : FF0B;
6 : 00B1;
7 : 0008;
8 : 0148;
9 : FFB0;
10 : 000D;
11 : 0060;
12 : FFF0;
13 : FFB4;
14 : 00AA;
15 : 0018;
16 : FFD3;
17 : FF76;
18 : FFEF;
19 : 0006;
20 : 0000;
21 : 0000;
22 : 0000;
23 : 0000;
24 : 0000;
25 : 0000;
26 : 0000;
27 : 0000;
28 : 0000;
29 : 0000;
30 : 0000;
31 : 0000;
32 : 0400;
END;
