DEPTH = 33;
WIDTH = 16;
ADDRESS_RADIX = DEC;
DATA_RADIX = HEX;
CONTENT BEGIN
0 : 0018;
1 : 0043;
2 : FE84;
3 : FFCD;
4 : 00B7;
5 : 005D;
6 : FF4D;
7 : FF7E;
8 : FFAF;
9 : 0094;
10 : 004F;
11 : FFE2;
12 : FF74;
13 : FFAC;
14 : 0186;
15 : FF78;
16 : FF13;
17 : 0023;
18 : FFB1;
19 : FFD4;
20 : 0000;
21 : 0000;
22 : 0000;
23 : 0000;
24 : 0000;
25 : 0000;
26 : 0000;
27 : 0000;
28 : 0000;
29 : 0000;
30 : 0000;
31 : 0000;
32 : 0400;
END;
