DEPTH = 30;
WIDTH = 16;
ADDRESS_RADIX = DEC;
DATA_RADIX = HEX;
CONTENT BEGIN
0 : D6B4;
1 : EFF2;
2 : 1681;
3 : 2080;
4 : 1832;
5 : 1912;
6 : F1E2;
7 : EB21;
8 : 0E0E;
9 : FF2D;
10 : 0A71;
11 : EFAA;
12 : D818;
13 : 12F3;
14 : 04D2;
15 : F4FF;
16 : 0453;
17 : F6AF;
18 : 0EF6;
19 : 001C;
20 : FC9F;
21 : F9B7;
22 : FF48;
23 : FA48;
24 : E835;
25 : FE8A;
26 : F4BA;
27 : 1A3E;
28 : 0983;
29 : 1BB1;
END;
