DEPTH = 257;
WIDTH = 16;
ADDRESS_RADIX = DEC;
DATA_RADIX = HEX;
CONTENT BEGIN
0 : 01E1;
1 : FE15;
2 : 00D5;
3 : 0068;
4 : 00CF;
5 : 00CA;
6 : 00F7;
7 : 0182;
8 : 015E;
9 : 01E1;
10 : FF86;
11 : 0060;
12 : 0091;
13 : 00E1;
14 : 00E4;
15 : FEEB;
16 : 00C9;
17 : FE4F;
18 : FE7B;
19 : FEEC;
20 : FE88;
21 : FF96;
22 : FE50;
23 : FE22;
24 : 0033;
25 : 0139;
26 : FFEF;
27 : 01DA;
28 : FF30;
29 : FF6A;
30 : 00F3;
31 : 01D3;
32 : 002F;
33 : 009B;
34 : FFA6;
35 : FFD9;
36 : FE87;
37 : 01F9;
38 : 00CF;
39 : FFF9;
40 : 01A0;
41 : FF9F;
42 : 01B8;
43 : 0137;
44 : FE62;
45 : 00EA;
46 : 0164;
47 : FF49;
48 : 005A;
49 : FECF;
50 : 0188;
51 : 00F2;
52 : 009E;
53 : 0063;
54 : 0109;
55 : 01A2;
56 : 0094;
57 : FFF5;
58 : 0051;
59 : 0045;
60 : FE77;
61 : FFAC;
62 : FE46;
63 : 00DC;
64 : FE34;
65 : 01DC;
66 : 00A8;
67 : FF2F;
68 : 0018;
69 : 010E;
70 : 006B;
71 : FE3D;
72 : 016F;
73 : FF36;
74 : 0181;
75 : 013C;
76 : 0092;
77 : FF33;
78 : FEF3;
79 : FEC9;
80 : 000F;
81 : 003D;
82 : 0168;
83 : FF60;
84 : 01DE;
85 : FFC8;
86 : 000B;
87 : 0098;
88 : FF66;
89 : FF4F;
90 : 0147;
91 : 004B;
92 : 0022;
93 : 01CF;
94 : FF57;
95 : 01A9;
96 : FE21;
97 : FEC0;
98 : FE40;
99 : FE34;
100 : FF69;
101 : FE31;
102 : 01C3;
103 : 000C;
104 : 00FA;
105 : FF54;
106 : 0107;
107 : 0193;
108 : 0043;
109 : FED7;
110 : FE32;
111 : 01BD;
112 : 0001;
113 : FED8;
114 : 0115;
115 : 01F7;
116 : 0196;
117 : FE18;
118 : FED7;
119 : FEC6;
120 : 0186;
121 : FE4A;
122 : 015A;
123 : FF3A;
124 : 00EA;
125 : 0080;
126 : FE90;
127 : FF87;
128 : FF82;
129 : 01BF;
130 : FFA1;
131 : FEC4;
132 : FF52;
133 : 01D4;
134 : FF87;
135 : 0092;
136 : 0162;
137 : 018E;
138 : FFB5;
139 : 00A8;
140 : 0063;
141 : FE77;
142 : FE44;
143 : 0049;
144 : 0190;
145 : FF9C;
146 : 01B6;
147 : 0199;
148 : 0138;
149 : 0075;
150 : FF2A;
151 : FE73;
152 : 008D;
153 : FF3F;
154 : FE13;
155 : 00BF;
156 : 016E;
157 : FE80;
158 : 0146;
159 : FFE2;
160 : FF03;
161 : 00CC;
162 : FE14;
163 : 01F0;
164 : 000D;
165 : FFD0;
166 : FFBA;
167 : 012F;
168 : FEE8;
169 : 00D2;
170 : FFA2;
171 : FE31;
172 : 01D0;
173 : FF97;
174 : 01BA;
175 : 00AF;
176 : FF33;
177 : FE8E;
178 : FE74;
179 : 0041;
180 : FE56;
181 : 01E3;
182 : 00C3;
183 : 0039;
184 : 0051;
185 : 017B;
186 : 017C;
187 : 00AB;
188 : FFD0;
189 : 0161;
190 : FF6E;
191 : 007E;
192 : FF88;
193 : FE62;
194 : 0066;
195 : FFF7;
196 : 0020;
197 : 0074;
198 : 00A6;
199 : FF28;
200 : 005F;
201 : FF26;
202 : 0063;
203 : FFED;
204 : 003E;
205 : 0071;
206 : 0068;
207 : FF72;
208 : FFCA;
209 : 0049;
210 : FF5B;
211 : 00BA;
212 : 00B0;
213 : 01E0;
214 : FFED;
215 : FF42;
216 : 0080;
217 : FF95;
218 : 01F9;
219 : 00C0;
220 : FF91;
221 : 01D4;
222 : 002A;
223 : FE14;
224 : FFB2;
225 : FE9A;
226 : FE2E;
227 : 01F2;
228 : FF16;
229 : FE5B;
230 : FF04;
231 : FEA0;
232 : 015F;
233 : 005A;
234 : 00BC;
235 : 0004;
236 : 014F;
237 : FEDE;
238 : FE09;
239 : 019D;
240 : 007F;
241 : FEBF;
242 : FF9B;
243 : FE04;
244 : 0181;
245 : 006F;
246 : FF4C;
247 : FFDA;
248 : FEB9;
249 : FF42;
250 : 0003;
251 : FE22;
252 : FE73;
253 : 01C7;
254 : 0090;
255 : FFBA;
256 : 0400;
END;
