DEPTH = 257;
WIDTH = 16;
ADDRESS_RADIX = DEC;
DATA_RADIX = HEX;
CONTENT BEGIN
0 : 0065;
1 : 00EE;
2 : 01CE;
3 : FF80;
4 : FE64;
5 : 0048;
6 : 00C9;
7 : 01BF;
8 : FE1B;
9 : FE2E;
10 : 0177;
11 : 01BB;
12 : 0163;
13 : FE71;
14 : 0149;
15 : FF5E;
16 : 0161;
17 : 0173;
18 : FFE6;
19 : 01C7;
20 : FE0A;
21 : 003D;
22 : 00CF;
23 : 0079;
24 : 001A;
25 : FEBA;
26 : 00B9;
27 : FEB9;
28 : FE57;
29 : FE2B;
30 : 00B9;
31 : 000D;
32 : FFF0;
33 : FFD5;
34 : FE54;
35 : 002D;
36 : 0078;
37 : FE59;
38 : FF97;
39 : 01BA;
40 : FE4B;
41 : FE33;
42 : 00D4;
43 : 012E;
44 : FF6E;
45 : FE09;
46 : FE0C;
47 : FFFF;
48 : 0177;
49 : 0064;
50 : FF16;
51 : FF40;
52 : 00F8;
53 : 007B;
54 : 00AF;
55 : FE90;
56 : 010D;
57 : FFD1;
58 : FF50;
59 : FFA1;
60 : FFA2;
61 : FFE7;
62 : FE21;
63 : 0020;
64 : FE1D;
65 : FF09;
66 : FE54;
67 : FE0E;
68 : 006C;
69 : 002A;
70 : 01D5;
71 : FFA8;
72 : FE40;
73 : FF5B;
74 : FF82;
75 : 01D3;
76 : FE98;
77 : FF6D;
78 : 008B;
79 : FF41;
80 : FFF1;
81 : FE3A;
82 : 01B3;
83 : FF46;
84 : FEF4;
85 : 013D;
86 : FF5E;
87 : 004E;
88 : FE3A;
89 : FEBD;
90 : FEC1;
91 : FEBF;
92 : 0058;
93 : 00E0;
94 : FFCE;
95 : 0134;
96 : FFF3;
97 : 000D;
98 : FEAC;
99 : 0122;
100 : 017E;
101 : FED0;
102 : 0188;
103 : 00BD;
104 : FF2F;
105 : FE8A;
106 : FF48;
107 : FF01;
108 : FEB1;
109 : FF2B;
110 : FEDD;
111 : FECD;
112 : 018C;
113 : FFEF;
114 : FEF8;
115 : FF0D;
116 : FF3D;
117 : FE67;
118 : FF79;
119 : FFE0;
120 : FFEE;
121 : 0076;
122 : 001F;
123 : 01C0;
124 : FFE7;
125 : FF70;
126 : 0057;
127 : 000A;
128 : FF44;
129 : FF83;
130 : FED4;
131 : FF57;
132 : FE76;
133 : 00B2;
134 : 0125;
135 : FE78;
136 : 0003;
137 : 00FA;
138 : 0005;
139 : FF0D;
140 : FE0C;
141 : FFCD;
142 : 0014;
143 : FF0F;
144 : FE83;
145 : 0163;
146 : 01A5;
147 : 0026;
148 : 0143;
149 : 01AC;
150 : FED4;
151 : 0189;
152 : 00FE;
153 : FE8E;
154 : FE81;
155 : FEBF;
156 : FF2C;
157 : FF4D;
158 : 003C;
159 : 017B;
160 : FF46;
161 : FFE7;
162 : FEDB;
163 : 002F;
164 : FE24;
165 : FF31;
166 : 005C;
167 : 001D;
168 : 0096;
169 : FE9E;
170 : 009B;
171 : 003B;
172 : 00B4;
173 : 000D;
174 : FF6E;
175 : 00B4;
176 : FED1;
177 : 00B2;
178 : 0194;
179 : 00E8;
180 : FE47;
181 : FEDD;
182 : FE12;
183 : 00BE;
184 : 00B6;
185 : 016F;
186 : 002F;
187 : FE82;
188 : 002D;
189 : 0182;
190 : 002D;
191 : 0107;
192 : FFA4;
193 : FFB6;
194 : FE0C;
195 : FE53;
196 : 00B8;
197 : 006C;
198 : FE67;
199 : FF07;
200 : FE36;
201 : 00C9;
202 : FE3B;
203 : 003C;
204 : FF1A;
205 : 0149;
206 : FE21;
207 : FF19;
208 : FE6A;
209 : 0000;
210 : 008C;
211 : FEBF;
212 : FE1E;
213 : FE95;
214 : 0167;
215 : 01D0;
216 : FE4C;
217 : FFF6;
218 : FEF7;
219 : 0065;
220 : FEDC;
221 : 01E3;
222 : 0134;
223 : FEC0;
224 : FFD5;
225 : FF7D;
226 : 01F3;
227 : 0050;
228 : 0157;
229 : FFF0;
230 : 0039;
231 : 0147;
232 : 00EB;
233 : 0158;
234 : FF99;
235 : 0060;
236 : FFAD;
237 : FE48;
238 : 0188;
239 : 0177;
240 : FE54;
241 : FE8C;
242 : FE32;
243 : 018C;
244 : FFBE;
245 : 0200;
246 : 00D0;
247 : 002F;
248 : 01A1;
249 : FFD6;
250 : 0024;
251 : 009B;
252 : 01B9;
253 : 00FC;
254 : FFC4;
255 : 01A2;
256 : 0400;
END;
