DEPTH = 30;
WIDTH = 16;
ADDRESS_RADIX = DEC;
DATA_RADIX = HEX;
CONTENT BEGIN
0 : 2CF5;
1 : FF41;
2 : E0E9;
3 : D84F;
4 : DE90;
5 : CAE3;
6 : FC62;
7 : FF36;
8 : 0516;
9 : F3C7;
10 : 0273;
11 : 014C;
12 : 232E;
13 : 1B50;
14 : E590;
15 : E4C5;
16 : F3F5;
17 : E799;
18 : F480;
19 : FBB3;
20 : 0041;
21 : FE96;
22 : FB40;
23 : FEC6;
24 : FD00;
25 : FF2D;
26 : 00F3;
27 : 06DD;
28 : EB5F;
29 : F109;
END;
