DEPTH = 30;
WIDTH = 16;
ADDRESS_RADIX = DEC;
DATA_RADIX = HEX;
CONTENT BEGIN
0 : 7DE8;
1 : B947;
2 : EC97;
3 : CB12;
4 : D64F;
5 : 8FA7;
6 : 07AA;
7 : 0CF2;
8 : FF26;
9 : F2DF;
10 : FDEB;
11 : F9F6;
12 : 1173;
13 : 0FED;
14 : FC06;
15 : F969;
16 : EBC7;
17 : F62F;
18 : FBFE;
19 : FAEC;
20 : 00C6;
21 : FD94;
22 : 0D02;
23 : F93E;
24 : 36AE;
25 : FF3B;
26 : 063F;
27 : EF7C;
28 : ECDA;
29 : D7C3;
END;
