DEPTH = 30;
WIDTH = 16;
ADDRESS_RADIX = DEC;
DATA_RADIX = HEX;
CONTENT BEGIN
0 : 16E6;
1 : 037A;
2 : ED40;
3 : F91A;
4 : E5A1;
5 : E4B5;
6 : 0FBC;
7 : FAD4;
8 : 0E94;
9 : EF88;
10 : F44A;
11 : 1EF1;
12 : 091A;
13 : F251;
14 : 0793;
15 : 006A;
16 : FF10;
17 : FEC3;
18 : 0AD0;
19 : 036C;
20 : F8C2;
21 : F959;
22 : F59C;
23 : F7BB;
24 : 029E;
25 : 19E1;
26 : E025;
27 : EDE3;
28 : E64E;
29 : EA6F;
END;
