DEPTH = 33;
WIDTH = 16;
ADDRESS_RADIX = DEC;
DATA_RADIX = HEX;
CONTENT BEGIN
0 : 004B;
1 : FFED;
2 : FF04;
3 : FF93;
4 : 010B;
5 : FF57;
6 : FEE7;
7 : FFF6;
8 : FFE3;
9 : 0084;
10 : FF29;
11 : FF12;
12 : 007E;
13 : FF6A;
14 : 00E9;
15 : 0003;
16 : FF6F;
17 : 0070;
18 : FF92;
19 : FF5C;
20 : 0000;
21 : 0000;
22 : 0000;
23 : 0000;
24 : 0000;
25 : 0000;
26 : 0000;
27 : 0000;
28 : 0000;
29 : 0000;
30 : 0000;
31 : 0000;
32 : 0400;
END;
