DEPTH = 33;
WIDTH = 16;
ADDRESS_RADIX = DEC;
DATA_RADIX = HEX;
CONTENT BEGIN
0 : 00E4;
1 : FF61;
2 : FEAB;
3 : FF91;
4 : 0053;
5 : 000E;
6 : FEF0;
7 : FFE9;
8 : 0003;
9 : FF93;
10 : FFE8;
11 : FFA2;
12 : 0050;
13 : FFD9;
14 : FFFF;
15 : FFCA;
16 : 01D2;
17 : FFA3;
18 : FF56;
19 : 0003;
20 : 0000;
21 : 0000;
22 : 0000;
23 : 0000;
24 : 0000;
25 : 0000;
26 : 0000;
27 : 0000;
28 : 0000;
29 : 0000;
30 : 0000;
31 : 0000;
32 : 0400;
END;
