DEPTH = 33;
WIDTH = 16;
ADDRESS_RADIX = DEC;
DATA_RADIX = HEX;
CONTENT BEGIN
0 : FDE1;
1 : 010A;
2 : FF45;
3 : FFAC;
4 : FFAB;
5 : FFF2;
6 : 0074;
7 : FFA8;
8 : 0002;
9 : 0042;
10 : FEE3;
11 : FF63;
12 : 0013;
13 : FFF3;
14 : 0005;
15 : FFD2;
16 : 004D;
17 : 0006;
18 : FFD7;
19 : FF6E;
20 : 0000;
21 : 0000;
22 : 0000;
23 : 0000;
24 : 0000;
25 : 0000;
26 : 0000;
27 : 0000;
28 : 0000;
29 : 0000;
30 : 0000;
31 : 0000;
32 : 0400;
END;
