DEPTH = 33;
WIDTH = 16;
ADDRESS_RADIX = DEC;
DATA_RADIX = HEX;
CONTENT BEGIN
0 : 00BB;
1 : FF3A;
2 : 013E;
3 : 000C;
4 : 0075;
5 : FF8C;
6 : 00A2;
7 : FFF9;
8 : FFF9;
9 : FF96;
10 : 011B;
11 : 006C;
12 : FFFA;
13 : FFDD;
14 : FF8F;
15 : FFD9;
16 : FFEA;
17 : FFCB;
18 : 008D;
19 : FFB5;
20 : 0000;
21 : 0000;
22 : 0000;
23 : 0000;
24 : 0000;
25 : 0000;
26 : 0000;
27 : 0000;
28 : 0000;
29 : 0000;
30 : 0000;
31 : 0000;
32 : 0400;
END;
