0197
FE5F
FEF8
001E
0103
01F2
01CA
0140
FE8A
FF59
FE35
0021
00F4
FEAA
FE30
0013
FEE2
00C6
012E
FEA8
00F4
0045
0121
017C
01FD
000A
FE40
00C5
FFEF
FFD5
0136
FEBF
FEF5
FE51
FEBE
0192
FFF8
000C
FF8C
010C
00B2
FF8D
008B
013F
FE0C
01A0
0155
0049
FE13
FFAD
0008
FED1
FED8
FE49
FF8B
FE57
01BA
00A2
00EF
FF60
FF15
00AF
FF71
00F4
004F
017D
0062
0036
FF22
FEDB
0013
FEB0
008A
FE7D
0122
FEA8
00A2
FFBF
FE57
FEBE
0076
FF58
0193
018D
00E7
00C9
FE19
01B9
00ED
00D6
FFC9
015F
FF6D
0035
002D
FF4B
00FB
FEF9
0009
0027
FF35
FFD1
0129
FEC4
FFCC
FFAA
FEC6
01A3
0074
01D6
FECE
FE09
0180
FECA
01C8
01F1
FFCB
FEFB
FF97
019C
FE21
015B
FE09
FF6E
01BC
FE82
FE00
FF22
0169
00A7
FEAF
000F
006B
006D
FFD4
0134
FE8F
FE0A
FFFA
01EC
FFFD
002D
002D
FFA3
0024
FEEE
FFA1
FEAB
FE28
FF0D
FF05
003E
FFBC
FE1E
FED9
FE7D
FE42
FEBD
FEF8
000D
FE55
FE9C
015A
FE6A
FE49
FFD3
FF31
FFC2
FF48
FF3F
00A6
007D
01C4
FFF4
FF4F
0157
FE67
01F2
FF99
FE1A
FE78
016D
0065
FF80
FE66
0183
FFD0
0031
FFF1
FEC9
FE4B
FE4D
FE5A
FF17
FF7F
FEDA
FFDF
FF09
FEB1
0084
0013
01A3
FE19
FFDB
FEAE
FF58
00B2
00E7
FE39
FEA8
00A0
FEE7
FFDC
FEBC
0148
FF50
FED6
FF10
0117
FF04
FFB0
0000
FF38
0198
FF71
FF99
FF64
FFFC
0052
0185
01D3
0195
FFA9
017A
FFE3
FF89
0124
FF4E
00C4
00CA
FF3A
FFF7
013C
FE17
0149
FE90
FE73
FFBD
FF20
FE7C
FE83
FF73
0061
FEF8
00EB
FFB8
0400
