DEPTH = 257;
WIDTH = 16;
ADDRESS_RADIX = DEC;
DATA_RADIX = HEX;
CONTENT BEGIN
0 : FF8A;
1 : FF2E;
2 : 0169;
3 : 01DB;
4 : 014A;
5 : 01A5;
6 : FEA7;
7 : 00BD;
8 : 00FA;
9 : FEFE;
10 : FF3F;
11 : FE9B;
12 : FE23;
13 : 01A9;
14 : 0046;
15 : FEB9;
16 : FE6B;
17 : FFEC;
18 : FE29;
19 : 011F;
20 : 0071;
21 : FF3F;
22 : 0028;
23 : 0136;
24 : 0075;
25 : 008C;
26 : 0195;
27 : 00A3;
28 : FE76;
29 : 0018;
30 : 003F;
31 : 0167;
32 : FF5B;
33 : FE6F;
34 : FE26;
35 : FEE0;
36 : 01D2;
37 : FE4A;
38 : 01CA;
39 : 013C;
40 : 0090;
41 : FEFD;
42 : 00E0;
43 : FFE8;
44 : 01DC;
45 : FE0F;
46 : FF12;
47 : 0098;
48 : 0056;
49 : 0111;
50 : FE44;
51 : 0032;
52 : FFF8;
53 : 00F7;
54 : FFF5;
55 : FEC8;
56 : FF37;
57 : FFD6;
58 : FF8A;
59 : 014B;
60 : FF5E;
61 : 00F0;
62 : FE2E;
63 : 0166;
64 : 0038;
65 : 0133;
66 : FF6A;
67 : 005A;
68 : FF7B;
69 : 01A3;
70 : 0122;
71 : FECB;
72 : 018D;
73 : 01AC;
74 : 01C1;
75 : FE96;
76 : 0086;
77 : FF24;
78 : 00CE;
79 : 0067;
80 : FF63;
81 : FF8A;
82 : FEAF;
83 : 0117;
84 : FF5F;
85 : FFC1;
86 : 0160;
87 : FE32;
88 : 01FC;
89 : FF6F;
90 : 0082;
91 : FED1;
92 : 0135;
93 : 008D;
94 : 01BC;
95 : FFA4;
96 : FF1D;
97 : 01F6;
98 : 00C6;
99 : 0100;
100 : 0176;
101 : FE5B;
102 : 0170;
103 : 00BE;
104 : 0135;
105 : FEED;
106 : FE36;
107 : FF0D;
108 : 00CC;
109 : 0084;
110 : FFA5;
111 : 00EB;
112 : 00DB;
113 : FE58;
114 : FEBA;
115 : FF38;
116 : 0050;
117 : 0012;
118 : 001C;
119 : 0188;
120 : 0114;
121 : 014A;
122 : FEAD;
123 : 0117;
124 : 01BF;
125 : FEF7;
126 : FE99;
127 : FF28;
128 : FFAA;
129 : 009E;
130 : FED4;
131 : FF15;
132 : 004B;
133 : FFE2;
134 : 005C;
135 : 01DA;
136 : FF4A;
137 : FF5B;
138 : 0042;
139 : FE05;
140 : 01C5;
141 : 01A3;
142 : 0055;
143 : 012B;
144 : 01A3;
145 : 01B4;
146 : 01D2;
147 : 0141;
148 : 00F2;
149 : 00DB;
150 : FFD9;
151 : 0115;
152 : 0089;
153 : 01CD;
154 : 0152;
155 : FFF1;
156 : 0053;
157 : 0133;
158 : FFE5;
159 : 0171;
160 : FE09;
161 : FEFC;
162 : FF4A;
163 : 0083;
164 : 0179;
165 : 0182;
166 : 0052;
167 : FFCE;
168 : FF42;
169 : 005D;
170 : FE8D;
171 : 0022;
172 : FF19;
173 : 0195;
174 : FF82;
175 : FE19;
176 : 0083;
177 : 00F6;
178 : FF87;
179 : 016B;
180 : FE71;
181 : FE09;
182 : FE17;
183 : FE0A;
184 : 0043;
185 : 00FF;
186 : FE3E;
187 : FFC2;
188 : FFAC;
189 : FEDB;
190 : 01F6;
191 : FFF4;
192 : FE5B;
193 : FF05;
194 : 00E2;
195 : 00A6;
196 : 01CF;
197 : FFA8;
198 : 01D2;
199 : 012B;
200 : FFA1;
201 : 01B6;
202 : 0013;
203 : 01ED;
204 : 01B6;
205 : 002A;
206 : 0089;
207 : 0077;
208 : 0039;
209 : 0068;
210 : FF6D;
211 : FE41;
212 : FE7C;
213 : 009C;
214 : FFF4;
215 : FF09;
216 : 0088;
217 : FE96;
218 : 01BA;
219 : FF64;
220 : FE87;
221 : FE8D;
222 : FE9C;
223 : FF30;
224 : FEB9;
225 : 01EE;
226 : FF6B;
227 : 011E;
228 : 0051;
229 : FEEC;
230 : FF70;
231 : FEE6;
232 : FE1B;
233 : 00AE;
234 : 003C;
235 : FF37;
236 : 0110;
237 : FF86;
238 : 01AC;
239 : 0094;
240 : 00F1;
241 : 0041;
242 : 0036;
243 : 00B9;
244 : 01B4;
245 : 0133;
246 : FE4F;
247 : 0041;
248 : FF82;
249 : FEF2;
250 : 00B8;
251 : 0152;
252 : 01CC;
253 : 001E;
254 : FFED;
255 : FE9E;
256 : 0400;
END;
