FF8A
FF2E
0169
01DB
014A
01A5
FEA7
00BD
00FA
FEFE
FF3F
FE9B
FE23
01A9
0046
FEB9
FE6B
FFEC
FE29
011F
0071
FF3F
0028
0136
0075
008C
0195
00A3
FE76
0018
003F
0167
FF5B
FE6F
FE26
FEE0
01D2
FE4A
01CA
013C
0090
FEFD
00E0
FFE8
01DC
FE0F
FF12
0098
0056
0111
FE44
0032
FFF8
00F7
FFF5
FEC8
FF37
FFD6
FF8A
014B
FF5E
00F0
FE2E
0166
0038
0133
FF6A
005A
FF7B
01A3
0122
FECB
018D
01AC
01C1
FE96
0086
FF24
00CE
0067
FF63
FF8A
FEAF
0117
FF5F
FFC1
0160
FE32
01FC
FF6F
0082
FED1
0135
008D
01BC
FFA4
FF1D
01F6
00C6
0100
0176
FE5B
0170
00BE
0135
FEED
FE36
FF0D
00CC
0084
FFA5
00EB
00DB
FE58
FEBA
FF38
0050
0012
001C
0188
0114
014A
FEAD
0117
01BF
FEF7
FE99
FF28
FFAA
009E
FED4
FF15
004B
FFE2
005C
01DA
FF4A
FF5B
0042
FE05
01C5
01A3
0055
012B
01A3
01B4
01D2
0141
00F2
00DB
FFD9
0115
0089
01CD
0152
FFF1
0053
0133
FFE5
0171
FE09
FEFC
FF4A
0083
0179
0182
0052
FFCE
FF42
005D
FE8D
0022
FF19
0195
FF82
FE19
0083
00F6
FF87
016B
FE71
FE09
FE17
FE0A
0043
00FF
FE3E
FFC2
FFAC
FEDB
01F6
FFF4
FE5B
FF05
00E2
00A6
01CF
FFA8
01D2
012B
FFA1
01B6
0013
01ED
01B6
002A
0089
0077
0039
0068
FF6D
FE41
FE7C
009C
FFF4
FF09
0088
FE96
01BA
FF64
FE87
FE8D
FE9C
FF30
FEB9
01EE
FF6B
011E
0051
FEEC
FF70
FEE6
FE1B
00AE
003C
FF37
0110
FF86
01AC
0094
00F1
0041
0036
00B9
01B4
0133
FE4F
0041
FF82
FEF2
00B8
0152
01CC
001E
FFED
FE9E
0400
