DEPTH = 257;
WIDTH = 16;
ADDRESS_RADIX = DEC;
DATA_RADIX = HEX;
CONTENT BEGIN
0 : 01A3;
1 : FE23;
2 : FFFB;
3 : FE7D;
4 : FE57;
5 : 007E;
6 : FEDD;
7 : 0114;
8 : FF9D;
9 : 0182;
10 : 003E;
11 : 0035;
12 : 015B;
13 : 01F0;
14 : FE74;
15 : FFCE;
16 : FE71;
17 : FEF5;
18 : 00F3;
19 : FFAF;
20 : FEE0;
21 : 017D;
22 : FEA3;
23 : FEFD;
24 : 0030;
25 : 006E;
26 : 0091;
27 : FE18;
28 : 00A0;
29 : 013F;
30 : 00FE;
31 : 0054;
32 : 01DC;
33 : 011A;
34 : FF86;
35 : 014A;
36 : FF73;
37 : 00B7;
38 : 00AD;
39 : 01C4;
40 : FF45;
41 : 00FF;
42 : FE38;
43 : 0085;
44 : FEB3;
45 : FE25;
46 : FE28;
47 : FEE2;
48 : 0183;
49 : FECC;
50 : FE5E;
51 : 00DB;
52 : 0062;
53 : FEE0;
54 : 00C7;
55 : FEC4;
56 : 017C;
57 : FE01;
58 : FF0E;
59 : FF00;
60 : FEE2;
61 : 01D5;
62 : 00ED;
63 : 0002;
64 : 003A;
65 : 00A9;
66 : FF4B;
67 : 00EA;
68 : 015E;
69 : 01C9;
70 : FE2F;
71 : 0095;
72 : 00DF;
73 : FE37;
74 : FEAD;
75 : 017E;
76 : FED3;
77 : 01DD;
78 : FEA6;
79 : 01B4;
80 : FFE0;
81 : FF4E;
82 : FE29;
83 : 0077;
84 : FF48;
85 : FFF7;
86 : FF43;
87 : FF6A;
88 : FE22;
89 : 01D5;
90 : FF42;
91 : 0090;
92 : FF53;
93 : FE51;
94 : 0192;
95 : 0075;
96 : FF30;
97 : 0127;
98 : 0136;
99 : FE17;
100 : FE21;
101 : 00E4;
102 : FE16;
103 : FF13;
104 : FF2E;
105 : 013C;
106 : FF6C;
107 : 00A6;
108 : FF70;
109 : 0147;
110 : FE07;
111 : FFC9;
112 : FEAF;
113 : FFD3;
114 : 012E;
115 : FF88;
116 : 009A;
117 : 0159;
118 : FF89;
119 : FF7E;
120 : 00FE;
121 : FE05;
122 : 01B9;
123 : 0037;
124 : 00D6;
125 : 00ED;
126 : 0108;
127 : 01B0;
128 : 0031;
129 : FE63;
130 : 005D;
131 : 0130;
132 : FE8A;
133 : 013E;
134 : FEBA;
135 : FEED;
136 : FE6A;
137 : FE99;
138 : 0005;
139 : 0011;
140 : FFBF;
141 : 00E6;
142 : 001A;
143 : 01A8;
144 : FE85;
145 : 0119;
146 : FEAD;
147 : FEF8;
148 : FEC2;
149 : 007F;
150 : 00CB;
151 : FE4E;
152 : FF5B;
153 : 0110;
154 : FEB9;
155 : 01F2;
156 : 0192;
157 : 01A6;
158 : FE9C;
159 : 00F2;
160 : 0151;
161 : 01B4;
162 : FF80;
163 : FFA3;
164 : FFEB;
165 : 0040;
166 : FE5C;
167 : FF53;
168 : FF5D;
169 : FEB2;
170 : FE86;
171 : 0147;
172 : FE89;
173 : FE18;
174 : FEAB;
175 : FFA0;
176 : FE92;
177 : 01D1;
178 : FE34;
179 : FE18;
180 : FFBA;
181 : 017B;
182 : FF04;
183 : FFA8;
184 : FF3D;
185 : 0107;
186 : FEE3;
187 : 0047;
188 : 0180;
189 : FF9E;
190 : 01D5;
191 : FE99;
192 : 01F1;
193 : 0074;
194 : FEC7;
195 : 01A6;
196 : 010F;
197 : FED6;
198 : FF0E;
199 : FEDE;
200 : FE99;
201 : FFD2;
202 : 0049;
203 : 016A;
204 : FFD9;
205 : FF52;
206 : FE38;
207 : FEA8;
208 : 00E6;
209 : FE15;
210 : 0094;
211 : 0179;
212 : 018E;
213 : 003B;
214 : FFB1;
215 : FEEA;
216 : FF07;
217 : 0132;
218 : 00AE;
219 : 00E5;
220 : FF6D;
221 : 0096;
222 : FF7C;
223 : 00A6;
224 : FE24;
225 : FF38;
226 : 00B1;
227 : 0160;
228 : FEBD;
229 : 0069;
230 : 00C7;
231 : FEC3;
232 : FFDF;
233 : 00BD;
234 : 01AF;
235 : 01C9;
236 : 010C;
237 : 00D7;
238 : 01FF;
239 : 00CC;
240 : FEC8;
241 : 0161;
242 : FE9D;
243 : 007E;
244 : FF81;
245 : FEFB;
246 : 01EF;
247 : FF95;
248 : FFA2;
249 : 0158;
250 : FE6B;
251 : 0129;
252 : 009D;
253 : FE34;
254 : 0099;
255 : FFC2;
256 : 0400;
END;
