FEF8
01F1
FFF5
FE94
01CD
FF47
FE5D
019F
FEA5
FEFC
FE9D
FE68
0133
0194
FFF3
0179
002A
010B
FE6E
011F
FE1F
FE8F
00AB
FFF5
0003
FEB3
010F
006D
FE97
FFC3
0012
0128
FE2B
FFB1
FE71
01E8
FF9B
FFF5
0081
FFC7
FF33
FE01
FF7D
FF64
FEA7
FF86
FFFC
01CA
FF6B
FEF7
0190
FEAA
01AF
FF1C
004A
FE9D
0050
0104
0101
00A6
FFC5
FFF8
FE35
0103
FE40
FF83
01E1
0057
FE19
00F0
FF24
FFFC
FEFF
0105
01F3
FFEF
016F
003D
FF4A
FE2A
FEE9
FFE3
011F
FF31
FE89
002F
FF2C
FFBD
0147
FF14
01A3
FE11
FEA5
FFB6
FE82
0060
FF3F
00E6
FE55
FF67
00DA
010B
FE09
0058
FE35
0119
FF44
FF56
FFFE
FE23
0067
FE86
00D0
FFEE
0021
FEFC
00D2
01AB
00DC
0053
FFD3
FEA2
0182
FED3
FFC6
0173
0189
FE35
FE22
013F
0103
01DF
FE9E
0172
00DB
FFAC
007D
004C
FE42
FEDB
FFE7
FF4E
FFD8
0029
FEC4
0120
0053
012A
017D
0062
FF52
FF8C
01BF
FF76
0043
FFB1
0037
0045
0099
FE7A
00FB
FE34
002E
0096
014F
01BF
00B8
01F8
FFA8
FFE5
FFA6
006F
010C
0157
FF4D
FF02
001F
0108
FF81
01B4
FEE1
FE26
019F
FEEF
0043
00C2
FEF4
FFDD
0075
00D0
00DB
FE4A
FEEE
01A7
0075
0155
FE8C
01BE
0158
FE9A
00D4
FFAF
FF2B
0077
FEAE
00B3
016C
FE98
0160
001F
0053
00A2
FEE1
FEE3
00FE
FFDC
FECD
FE09
FF54
0066
01E7
01B7
0194
FED2
00FC
017B
FF50
FED7
0034
FFD4
FFBC
FE74
FE55
0040
00FD
0000
0091
0133
FEB9
0122
FE59
FFDC
00E6
0193
FE63
FF7C
FF01
0034
00FC
00D0
0005
013C
FFDB
013C
012B
FF2B
0400
