FE41
FF53
007E
0174
FE64
FFE6
00D1
016C
FFE5
0196
FF62
FEBA
0100
FE45
0062
0002
0108
FF96
FEB2
01FB
0087
007E
FED8
01A6
00EC
003B
00A6
01FA
002B
00EE
015D
0006
FE0D
FEA6
FFB6
0187
0067
FF7C
0054
FF47
0094
0121
FE6C
FF31
FE26
FFB3
FF21
0028
0099
FFC5
FFB6
00D2
FE85
FFA5
FE29
FEF7
FEA5
015B
FFC1
0034
FF10
0122
FF9A
01C9
FF39
FF4F
0140
0055
FF1F
FE4A
01B1
FFE6
FF6E
FF7A
01E7
002D
00F7
007E
01C4
012D
00DF
0092
01EF
FF38
01D2
01E8
FF90
FF77
FF35
00B5
01C8
FFD0
FECE
012A
014D
01BF
01F2
FE7C
0083
FE6C
FE0A
007E
FFEE
005F
01C1
FEF4
FE04
01C6
0052
01B7
FE55
FEF6
01A8
016A
0140
FEA7
FF4F
FFA9
01C9
003A
00DA
FF91
FE5A
0075
0194
FFD3
0079
FFE5
00F8
0015
005B
FE47
FE12
01A3
008A
00B8
00EE
FFFC
FFE3
0044
FF07
01E7
FF44
FE95
FE65
01C6
0135
0181
014F
0095
008D
00EF
0150
FE74
0022
01F2
0102
00BA
009E
FE98
FE1D
01D3
FF03
0036
014B
FE82
019B
01E8
01DE
0007
FF06
FF74
012E
01D0
0096
FFCD
FE94
01C9
01CE
FF74
0139
01CD
0159
FF8A
0108
012B
FF6D
0021
FE4E
01FC
0148
FF12
FF96
FE33
015D
FF20
01A9
FF6F
FEF6
FF3D
FFF4
0036
0137
0105
FE44
018B
FE04
01C0
FEB5
FE38
018E
FEED
FEF7
FFCC
00BA
0014
FE25
01B0
FF82
0010
FE47
00DA
FE5F
FE6E
FECA
01E1
007C
00F0
FE26
FEAF
012B
FE6F
0003
FE82
FFBB
FE83
000B
FFB2
00B2
FE0B
0063
000F
FEA1
0173
FFFC
007D
00D5
0169
013E
FE9B
FF47
FF57
FE68
01DF
FF5A
00C2
0400
