DEPTH = 257;
WIDTH = 16;
ADDRESS_RADIX = DEC;
DATA_RADIX = HEX;
CONTENT BEGIN
0 : 0106;
1 : FFA4;
2 : FEFF;
3 : 01A1;
4 : 002F;
5 : FFD5;
6 : 0093;
7 : FF8D;
8 : 00FE;
9 : 013A;
10 : FF1C;
11 : FE3F;
12 : FEA0;
13 : FE1A;
14 : FFA3;
15 : 0093;
16 : FFFC;
17 : 00E5;
18 : FF0A;
19 : FF7E;
20 : FE86;
21 : 0118;
22 : FF4D;
23 : 00A0;
24 : 007F;
25 : 0015;
26 : 015E;
27 : 0029;
28 : 0123;
29 : FF6C;
30 : FEC1;
31 : 0077;
32 : FEF6;
33 : FE67;
34 : 014E;
35 : 00D9;
36 : FE90;
37 : 00C1;
38 : FFD1;
39 : 01F4;
40 : 009B;
41 : FE8C;
42 : FF2E;
43 : 006E;
44 : FEBA;
45 : 0144;
46 : 00DA;
47 : FF4D;
48 : 00BE;
49 : 0142;
50 : 0187;
51 : 00A8;
52 : FF8F;
53 : 00D4;
54 : FFC5;
55 : 0107;
56 : 0019;
57 : 014F;
58 : FE14;
59 : FE44;
60 : 0069;
61 : 00A6;
62 : FE11;
63 : FE67;
64 : 01DB;
65 : FE81;
66 : FEC9;
67 : 0166;
68 : 0032;
69 : FFAA;
70 : FE8F;
71 : 00C5;
72 : FF49;
73 : 000D;
74 : 0102;
75 : FF07;
76 : 0198;
77 : FFE7;
78 : FFB5;
79 : 01D4;
80 : 018A;
81 : 0055;
82 : FE3B;
83 : FF9A;
84 : 00E8;
85 : FFC9;
86 : FF2D;
87 : 013F;
88 : FFD3;
89 : FE28;
90 : FF10;
91 : 0084;
92 : 00BD;
93 : FE4A;
94 : FFFF;
95 : FFD7;
96 : FEB2;
97 : FFDB;
98 : FE58;
99 : 00E1;
100 : 01A9;
101 : 0116;
102 : 013B;
103 : FE57;
104 : FF24;
105 : FEA8;
106 : FEA4;
107 : FF1F;
108 : 00FE;
109 : FF6D;
110 : FE50;
111 : FEF7;
112 : 0180;
113 : FFB9;
114 : FE18;
115 : 0091;
116 : FE7A;
117 : FE57;
118 : FF0A;
119 : 0090;
120 : 01B2;
121 : FF5E;
122 : FFF5;
123 : 01C7;
124 : 00D2;
125 : FE2A;
126 : FF13;
127 : 01EB;
128 : 0150;
129 : FE1D;
130 : 0094;
131 : 0079;
132 : 00B8;
133 : FF9F;
134 : FFA7;
135 : 0098;
136 : FF9C;
137 : FED0;
138 : FE7E;
139 : FE29;
140 : 0005;
141 : FF03;
142 : FFDB;
143 : 0004;
144 : FFB7;
145 : 0077;
146 : 018A;
147 : FED7;
148 : FEE2;
149 : FE34;
150 : 00F9;
151 : 00DF;
152 : FE0F;
153 : FE7A;
154 : 01FB;
155 : FEA6;
156 : FEA5;
157 : FEE3;
158 : FEE8;
159 : 0107;
160 : 01B6;
161 : FFF4;
162 : FFBD;
163 : 019F;
164 : 01A5;
165 : 00A5;
166 : FED5;
167 : FEC6;
168 : 006D;
169 : 0142;
170 : FE8A;
171 : 00D6;
172 : 0182;
173 : 0047;
174 : FFBC;
175 : FE1F;
176 : FEF8;
177 : 01BB;
178 : 01B0;
179 : FF66;
180 : FFF1;
181 : 010B;
182 : FE49;
183 : FE76;
184 : FE00;
185 : FEAE;
186 : FEDE;
187 : FFF6;
188 : 0169;
189 : FE69;
190 : 006F;
191 : 010D;
192 : FF71;
193 : 014F;
194 : 017C;
195 : 00A7;
196 : FEB8;
197 : FF94;
198 : 01AB;
199 : 00C6;
200 : 0141;
201 : 004C;
202 : 0063;
203 : 0175;
204 : FE65;
205 : 002D;
206 : 005F;
207 : 0027;
208 : 0105;
209 : 0184;
210 : 01D7;
211 : FE50;
212 : 003C;
213 : 01E4;
214 : FF25;
215 : FE5C;
216 : 0194;
217 : FF6F;
218 : 005E;
219 : 0154;
220 : 01E1;
221 : FFD6;
222 : FFBC;
223 : 003F;
224 : 0153;
225 : FE95;
226 : FFB3;
227 : FF4A;
228 : 0093;
229 : FED1;
230 : FF88;
231 : FE87;
232 : 00DD;
233 : 005E;
234 : FF54;
235 : 0123;
236 : 0024;
237 : 01A2;
238 : FE5B;
239 : FE89;
240 : 0085;
241 : 0198;
242 : 008E;
243 : 0150;
244 : FE49;
245 : 0112;
246 : FE49;
247 : FF9B;
248 : FEA3;
249 : FEB6;
250 : 0157;
251 : FFDE;
252 : 0038;
253 : 00DC;
254 : FF1F;
255 : 00E1;
256 : 0400;
END;
