0028
0192
FEBF
0137
FF47
FE49
00BB
FE61
0195
00DA
FF02
FE26
FEF4
009C
FEB7
0133
0043
00B6
FF64
014C
00D4
0078
FEFF
FFB9
01BF
FE5A
FF71
FF0D
0182
FF39
FE98
FF4F
FE81
0089
01EB
FFE3
FFD6
0106
FE18
FEA4
0010
FE72
FE3B
FF79
FEAB
00D6
002E
FE50
01A8
FF3B
0128
0150
00DC
0138
0099
01ED
0164
FF45
00B7
0072
FE28
FE34
FFAE
01B5
0148
008D
FEEF
002D
01F7
01A1
0185
01CC
0160
01A9
FE00
FEE1
015B
00A7
FEF8
01E9
FF79
FE27
00A5
00C4
FF56
FFE6
FF19
0046
0132
FEF9
00BF
01F1
FE4B
0013
01D9
FEA1
01E6
FEA0
0168
FE7B
FE9F
01EC
00E9
0162
FF26
FFB8
FEA9
008B
FF23
00AB
FE9C
FF89
FF22
002E
0004
FED5
01F5
005D
FE3F
FEC4
FF0E
FEEF
FEA8
01BF
FF97
0135
00C6
01D7
FF15
FFE8
0009
FFAC
019A
01AD
002B
FFF1
FE4A
FE82
01F9
FE56
FED1
00E4
010E
0123
FED8
FF8C
00DE
FFC4
FE83
000A
012A
FF6C
FF78
0164
FFA1
FE76
FF5A
01ED
0078
01E3
0089
FE67
FF82
0125
000C
FF8F
FF65
FE8F
007D
FE43
FF79
001A
FF99
0158
00E4
FE13
00C1
006C
0106
FFB4
FF9A
FFED
007F
0074
FF2F
FF59
FFFF
FE7F
FFF3
FFB8
FF02
FE85
FEDE
FE2D
FE49
01FF
009F
00AD
006A
FF11
0007
FE39
0074
FF8D
00F0
FEE1
015E
FF8D
01BE
FE6E
FF50
FF0D
01EF
004B
FEB8
0128
FED8
FE60
FF1E
FE9A
0043
00E5
010F
FE9D
FF7C
FF7D
01E3
FFE5
FE36
FFA2
FE39
FF13
FF54
FFBA
011B
FF8A
01D6
01F9
01C1
0177
FEBC
01D0
0030
00F2
FF74
0006
FF81
01B1
FF93
006F
0021
00FA
00B1
FF8F
FFC3
002C
0400
