DEPTH = 257;
WIDTH = 16;
ADDRESS_RADIX = DEC;
DATA_RADIX = HEX;
CONTENT BEGIN
0 : 0197;
1 : FE5F;
2 : FEF8;
3 : 001E;
4 : 0103;
5 : 01F2;
6 : 01CA;
7 : 0140;
8 : FE8A;
9 : FF59;
10 : FE35;
11 : 0021;
12 : 00F4;
13 : FEAA;
14 : FE30;
15 : 0013;
16 : FEE2;
17 : 00C6;
18 : 012E;
19 : FEA8;
20 : 00F4;
21 : 0045;
22 : 0121;
23 : 017C;
24 : 01FD;
25 : 000A;
26 : FE40;
27 : 00C5;
28 : FFEF;
29 : FFD5;
30 : 0136;
31 : FEBF;
32 : FEF5;
33 : FE51;
34 : FEBE;
35 : 0192;
36 : FFF8;
37 : 000C;
38 : FF8C;
39 : 010C;
40 : 00B2;
41 : FF8D;
42 : 008B;
43 : 013F;
44 : FE0C;
45 : 01A0;
46 : 0155;
47 : 0049;
48 : FE13;
49 : FFAD;
50 : 0008;
51 : FED1;
52 : FED8;
53 : FE49;
54 : FF8B;
55 : FE57;
56 : 01BA;
57 : 00A2;
58 : 00EF;
59 : FF60;
60 : FF15;
61 : 00AF;
62 : FF71;
63 : 00F4;
64 : 004F;
65 : 017D;
66 : 0062;
67 : 0036;
68 : FF22;
69 : FEDB;
70 : 0013;
71 : FEB0;
72 : 008A;
73 : FE7D;
74 : 0122;
75 : FEA8;
76 : 00A2;
77 : FFBF;
78 : FE57;
79 : FEBE;
80 : 0076;
81 : FF58;
82 : 0193;
83 : 018D;
84 : 00E7;
85 : 00C9;
86 : FE19;
87 : 01B9;
88 : 00ED;
89 : 00D6;
90 : FFC9;
91 : 015F;
92 : FF6D;
93 : 0035;
94 : 002D;
95 : FF4B;
96 : 00FB;
97 : FEF9;
98 : 0009;
99 : 0027;
100 : FF35;
101 : FFD1;
102 : 0129;
103 : FEC4;
104 : FFCC;
105 : FFAA;
106 : FEC6;
107 : 01A3;
108 : 0074;
109 : 01D6;
110 : FECE;
111 : FE09;
112 : 0180;
113 : FECA;
114 : 01C8;
115 : 01F1;
116 : FFCB;
117 : FEFB;
118 : FF97;
119 : 019C;
120 : FE21;
121 : 015B;
122 : FE09;
123 : FF6E;
124 : 01BC;
125 : FE82;
126 : FE00;
127 : FF22;
128 : 0169;
129 : 00A7;
130 : FEAF;
131 : 000F;
132 : 006B;
133 : 006D;
134 : FFD4;
135 : 0134;
136 : FE8F;
137 : FE0A;
138 : FFFA;
139 : 01EC;
140 : FFFD;
141 : 002D;
142 : 002D;
143 : FFA3;
144 : 0024;
145 : FEEE;
146 : FFA1;
147 : FEAB;
148 : FE28;
149 : FF0D;
150 : FF05;
151 : 003E;
152 : FFBC;
153 : FE1E;
154 : FED9;
155 : FE7D;
156 : FE42;
157 : FEBD;
158 : FEF8;
159 : 000D;
160 : FE55;
161 : FE9C;
162 : 015A;
163 : FE6A;
164 : FE49;
165 : FFD3;
166 : FF31;
167 : FFC2;
168 : FF48;
169 : FF3F;
170 : 00A6;
171 : 007D;
172 : 01C4;
173 : FFF4;
174 : FF4F;
175 : 0157;
176 : FE67;
177 : 01F2;
178 : FF99;
179 : FE1A;
180 : FE78;
181 : 016D;
182 : 0065;
183 : FF80;
184 : FE66;
185 : 0183;
186 : FFD0;
187 : 0031;
188 : FFF1;
189 : FEC9;
190 : FE4B;
191 : FE4D;
192 : FE5A;
193 : FF17;
194 : FF7F;
195 : FEDA;
196 : FFDF;
197 : FF09;
198 : FEB1;
199 : 0084;
200 : 0013;
201 : 01A3;
202 : FE19;
203 : FFDB;
204 : FEAE;
205 : FF58;
206 : 00B2;
207 : 00E7;
208 : FE39;
209 : FEA8;
210 : 00A0;
211 : FEE7;
212 : FFDC;
213 : FEBC;
214 : 0148;
215 : FF50;
216 : FED6;
217 : FF10;
218 : 0117;
219 : FF04;
220 : FFB0;
221 : 0000;
222 : FF38;
223 : 0198;
224 : FF71;
225 : FF99;
226 : FF64;
227 : FFFC;
228 : 0052;
229 : 0185;
230 : 01D3;
231 : 0195;
232 : FFA9;
233 : 017A;
234 : FFE3;
235 : FF89;
236 : 0124;
237 : FF4E;
238 : 00C4;
239 : 00CA;
240 : FF3A;
241 : FFF7;
242 : 013C;
243 : FE17;
244 : 0149;
245 : FE90;
246 : FE73;
247 : FFBD;
248 : FF20;
249 : FE7C;
250 : FE83;
251 : FF73;
252 : 0061;
253 : FEF8;
254 : 00EB;
255 : FFB8;
256 : 0400;
END;
