DEPTH = 257;
WIDTH = 16;
ADDRESS_RADIX = DEC;
DATA_RADIX = HEX;
CONTENT BEGIN
0 : 0009;
1 : FF42;
2 : 008C;
3 : FE20;
4 : 004D;
5 : 01C3;
6 : 0058;
7 : FE1B;
8 : 01AF;
9 : 017F;
10 : FE54;
11 : 0083;
12 : FF15;
13 : FF7E;
14 : 01C9;
15 : 0172;
16 : FFA2;
17 : FE59;
18 : 0034;
19 : 009F;
20 : FF08;
21 : 01E1;
22 : FF90;
23 : FEA7;
24 : 01B5;
25 : 01F8;
26 : FE9C;
27 : FF99;
28 : 00EF;
29 : 0038;
30 : FED1;
31 : 0133;
32 : FEB2;
33 : FF57;
34 : 0150;
35 : FFFA;
36 : FEDF;
37 : FF75;
38 : 006C;
39 : 00B5;
40 : 00B6;
41 : FEDD;
42 : 0185;
43 : FFE4;
44 : FF36;
45 : FFB1;
46 : 0165;
47 : 00F8;
48 : FEBE;
49 : FE48;
50 : FEA4;
51 : FEA3;
52 : 01F6;
53 : 0053;
54 : 0059;
55 : 0175;
56 : FF8D;
57 : 01B7;
58 : 0043;
59 : 00B6;
60 : FF93;
61 : FE56;
62 : 0198;
63 : 0107;
64 : 0078;
65 : FFC6;
66 : FF23;
67 : FE1A;
68 : FE3D;
69 : 0177;
70 : 0137;
71 : 0155;
72 : FFD5;
73 : FFAD;
74 : 0098;
75 : 0148;
76 : 00DC;
77 : 01DE;
78 : FEDD;
79 : FFEE;
80 : FF6B;
81 : FEAC;
82 : FFE6;
83 : FF33;
84 : FF37;
85 : 0111;
86 : 00C6;
87 : FF51;
88 : 00BB;
89 : 00B5;
90 : 0026;
91 : 00A0;
92 : 002B;
93 : FE0E;
94 : 014A;
95 : 00AA;
96 : 0131;
97 : FEAB;
98 : 006D;
99 : 0107;
100 : FE0A;
101 : FFE6;
102 : FE52;
103 : FECE;
104 : FF26;
105 : 01FF;
106 : 004A;
107 : 0159;
108 : 0176;
109 : 0004;
110 : FEC4;
111 : FF1E;
112 : 01DB;
113 : FF48;
114 : FF6C;
115 : FFF0;
116 : 0031;
117 : 0057;
118 : 0073;
119 : FF6B;
120 : FE0D;
121 : 0184;
122 : FE20;
123 : FFD2;
124 : 01E4;
125 : FF63;
126 : 016C;
127 : FF16;
128 : 015E;
129 : 0116;
130 : FEC2;
131 : FE49;
132 : FE5D;
133 : 01A9;
134 : FE62;
135 : FF8D;
136 : 0112;
137 : FFA9;
138 : 015E;
139 : 00BF;
140 : FF92;
141 : 0119;
142 : 0169;
143 : 01B1;
144 : 00E7;
145 : 0098;
146 : FF7B;
147 : 0138;
148 : FF59;
149 : FF85;
150 : FE35;
151 : FE3F;
152 : 0195;
153 : FFA3;
154 : 00A5;
155 : 0116;
156 : FFAB;
157 : 00DD;
158 : 0073;
159 : FE21;
160 : 00D2;
161 : FE91;
162 : 0043;
163 : FE82;
164 : FFE5;
165 : FE5D;
166 : 0070;
167 : 0031;
168 : 003A;
169 : FF1F;
170 : 012D;
171 : 0081;
172 : FED7;
173 : 0091;
174 : 00A0;
175 : FF2B;
176 : 01ED;
177 : FFAE;
178 : 00EB;
179 : FEFA;
180 : FE33;
181 : FE43;
182 : FF19;
183 : 0035;
184 : 016D;
185 : 008A;
186 : FFB5;
187 : 0136;
188 : FF64;
189 : FE75;
190 : FE74;
191 : FF19;
192 : 01C3;
193 : 00BB;
194 : FF0B;
195 : 01D6;
196 : FED1;
197 : FEAA;
198 : FFA5;
199 : FF62;
200 : 0164;
201 : FE28;
202 : FF16;
203 : 018C;
204 : FE90;
205 : 01A9;
206 : FE7F;
207 : FEB8;
208 : FFD6;
209 : 01AB;
210 : FE90;
211 : FE26;
212 : FE1B;
213 : FEA8;
214 : 0172;
215 : 0196;
216 : FE25;
217 : FE28;
218 : FEBD;
219 : 003B;
220 : FF63;
221 : 0180;
222 : FF43;
223 : FE60;
224 : FF5C;
225 : 009F;
226 : FFC5;
227 : 00E1;
228 : FF36;
229 : FEC5;
230 : 00A1;
231 : 013B;
232 : FE9A;
233 : 0049;
234 : FF34;
235 : FFCF;
236 : 010E;
237 : 012F;
238 : FF9B;
239 : FFF4;
240 : FF2D;
241 : FF7A;
242 : 0145;
243 : FEAE;
244 : 00F4;
245 : FF72;
246 : 0108;
247 : FE14;
248 : 016C;
249 : 00CE;
250 : 000C;
251 : 01BC;
252 : FE27;
253 : FE9C;
254 : 014A;
255 : FE56;
256 : 0400;
END;
