DEPTH = 257;
WIDTH = 16;
ADDRESS_RADIX = DEC;
DATA_RADIX = HEX;
CONTENT BEGIN
0 : 00EB;
1 : 00D4;
2 : 0143;
3 : FE06;
4 : 0108;
5 : FF6D;
6 : FEFE;
7 : FFAE;
8 : FE84;
9 : FE4E;
10 : FEF6;
11 : 0089;
12 : 01D8;
13 : FEB6;
14 : 00A7;
15 : FE0D;
16 : FF67;
17 : 011E;
18 : FEBF;
19 : FEE2;
20 : 017E;
21 : FFF2;
22 : 00E7;
23 : FFC1;
24 : 009A;
25 : 0185;
26 : 0029;
27 : FEEF;
28 : FEA9;
29 : FE2C;
30 : 01C0;
31 : 01F0;
32 : FFAC;
33 : 01DE;
34 : 0005;
35 : 0137;
36 : 0132;
37 : FFC9;
38 : 0128;
39 : FF3A;
40 : 00AA;
41 : 00DA;
42 : FEAB;
43 : FE04;
44 : 00C6;
45 : FF54;
46 : 0158;
47 : 013E;
48 : 00AA;
49 : 0195;
50 : FF79;
51 : FF13;
52 : FF4E;
53 : 01FF;
54 : FE61;
55 : FE45;
56 : 01A4;
57 : 0076;
58 : 000B;
59 : FF5D;
60 : FF95;
61 : 01DD;
62 : 01EA;
63 : FE07;
64 : 01F3;
65 : FEB5;
66 : FE63;
67 : FF42;
68 : FE63;
69 : FEF3;
70 : FF93;
71 : FF43;
72 : FF31;
73 : 01C5;
74 : FEFF;
75 : FF15;
76 : 013F;
77 : 010C;
78 : 0047;
79 : 01A3;
80 : 0131;
81 : FED2;
82 : 01B8;
83 : 0110;
84 : FEF4;
85 : FF29;
86 : FE81;
87 : 002E;
88 : FE6A;
89 : 0195;
90 : FF10;
91 : 01A9;
92 : 0116;
93 : FFA0;
94 : 01CA;
95 : FF9A;
96 : FE9B;
97 : FF7E;
98 : FF77;
99 : FE9D;
100 : 01B3;
101 : 00DB;
102 : 01E0;
103 : 0097;
104 : FEE5;
105 : FFD7;
106 : 013B;
107 : 01D9;
108 : FFE2;
109 : FFB8;
110 : FF36;
111 : 015F;
112 : 0021;
113 : FE7B;
114 : 019F;
115 : 0147;
116 : 00AD;
117 : FEDA;
118 : 0167;
119 : FE4A;
120 : 00FE;
121 : FEFD;
122 : FFB4;
123 : FE83;
124 : FFCB;
125 : 015C;
126 : FE29;
127 : 00C6;
128 : FF76;
129 : 00A1;
130 : FE0E;
131 : 0144;
132 : FFB5;
133 : FEA1;
134 : FFB3;
135 : FFCF;
136 : FF5B;
137 : 0117;
138 : FEEC;
139 : 01E5;
140 : 00E1;
141 : FFD1;
142 : 0155;
143 : FF75;
144 : 0032;
145 : 000C;
146 : FEE3;
147 : FF9E;
148 : FE22;
149 : FE95;
150 : FE6E;
151 : FF56;
152 : 00B4;
153 : FE86;
154 : FECD;
155 : 0124;
156 : FF44;
157 : 001B;
158 : 011A;
159 : FFCA;
160 : 0021;
161 : 00D6;
162 : FE37;
163 : 01D0;
164 : 0162;
165 : 0085;
166 : 005C;
167 : 01B7;
168 : 01B3;
169 : FE1A;
170 : 0006;
171 : 00CA;
172 : 0079;
173 : FF87;
174 : FF51;
175 : 01FC;
176 : FF9D;
177 : 0170;
178 : FEB7;
179 : FF40;
180 : 0130;
181 : 017E;
182 : FF2D;
183 : FF58;
184 : 018F;
185 : FF27;
186 : 01E5;
187 : FF42;
188 : FF30;
189 : 0109;
190 : 0164;
191 : FF35;
192 : FE33;
193 : 0088;
194 : FF59;
195 : 0119;
196 : 0086;
197 : FE9F;
198 : FE8B;
199 : FE54;
200 : FFBD;
201 : 01D5;
202 : FE4D;
203 : FF7C;
204 : FEBB;
205 : 00AC;
206 : FECF;
207 : 00D0;
208 : FEBE;
209 : 006E;
210 : FF3C;
211 : FFC9;
212 : 003B;
213 : 0095;
214 : FFE7;
215 : 000D;
216 : FE7E;
217 : 01DA;
218 : FE7E;
219 : 0063;
220 : 0154;
221 : 0107;
222 : FEAE;
223 : FFA3;
224 : 0133;
225 : 0038;
226 : FFC0;
227 : 0139;
228 : 0036;
229 : FE95;
230 : 0027;
231 : FE8C;
232 : 0024;
233 : 01AF;
234 : 01A1;
235 : 00F4;
236 : FE51;
237 : 0018;
238 : FF28;
239 : FF4F;
240 : FE3E;
241 : FFC8;
242 : 00E6;
243 : 0062;
244 : 00BB;
245 : FEB5;
246 : 019D;
247 : FEEE;
248 : 00B7;
249 : FEF3;
250 : 002F;
251 : FF0A;
252 : 01E7;
253 : FEE8;
254 : 0115;
255 : 011D;
256 : 0400;
END;
