DEPTH = 257;
WIDTH = 16;
ADDRESS_RADIX = DEC;
DATA_RADIX = HEX;
CONTENT BEGIN
0 : 003A;
1 : FEAE;
2 : FF45;
3 : 0168;
4 : FFAC;
5 : 0074;
6 : 00E7;
7 : 01CD;
8 : 0182;
9 : 010D;
10 : 0048;
11 : FE22;
12 : 01E2;
13 : 01B3;
14 : FF30;
15 : 00CA;
16 : FFFF;
17 : FE92;
18 : 01F2;
19 : FEF8;
20 : FE7D;
21 : FFA7;
22 : FF17;
23 : 00DD;
24 : 00F3;
25 : FE9A;
26 : 0013;
27 : FE44;
28 : 00D5;
29 : FE45;
30 : 00E4;
31 : 0171;
32 : FF2D;
33 : 000D;
34 : 004A;
35 : 0136;
36 : 0001;
37 : FE4F;
38 : FF33;
39 : 0017;
40 : 0116;
41 : 0043;
42 : FEA7;
43 : 00AB;
44 : 0071;
45 : 00D4;
46 : 00B4;
47 : FF01;
48 : 0012;
49 : 0136;
50 : 0102;
51 : 0121;
52 : 0170;
53 : FF72;
54 : 015A;
55 : FFEF;
56 : 00BC;
57 : 01BC;
58 : FE79;
59 : 01BB;
60 : FFDD;
61 : FF54;
62 : 01B7;
63 : FFEA;
64 : 0065;
65 : 0123;
66 : 0087;
67 : 014E;
68 : FEBB;
69 : 0162;
70 : 0197;
71 : 0101;
72 : FF57;
73 : FE47;
74 : 013C;
75 : 0080;
76 : FF21;
77 : 0108;
78 : FFEE;
79 : FFD3;
80 : 012D;
81 : FFF0;
82 : 0121;
83 : FFBA;
84 : 0054;
85 : 0107;
86 : FE5E;
87 : 0030;
88 : 01AB;
89 : 0043;
90 : FFF2;
91 : FFEC;
92 : 0181;
93 : FE6F;
94 : FF72;
95 : FFDE;
96 : 016E;
97 : FFC3;
98 : FF51;
99 : FFFE;
100 : FFAC;
101 : FEF5;
102 : FEB7;
103 : FF48;
104 : 01E9;
105 : FFAA;
106 : FFEF;
107 : 0168;
108 : FFD5;
109 : 0170;
110 : FE35;
111 : 00D8;
112 : FFAA;
113 : FF90;
114 : 00C3;
115 : FEC9;
116 : FE37;
117 : FE4B;
118 : 01DC;
119 : 00FF;
120 : FE7D;
121 : FF0D;
122 : FF59;
123 : 0063;
124 : FF94;
125 : 017E;
126 : FF76;
127 : 0015;
128 : 016F;
129 : 0043;
130 : 00C2;
131 : FEB8;
132 : FEF3;
133 : FF4B;
134 : 0150;
135 : 01B6;
136 : 016A;
137 : 0070;
138 : 0168;
139 : 0094;
140 : FF51;
141 : FE18;
142 : FF9C;
143 : FE42;
144 : 00C2;
145 : FFDC;
146 : FF71;
147 : 000C;
148 : FED1;
149 : 0149;
150 : 01DD;
151 : FE8E;
152 : 01A4;
153 : FF3F;
154 : 006A;
155 : FF6A;
156 : FF19;
157 : 0153;
158 : FF55;
159 : 0118;
160 : FEAB;
161 : 0073;
162 : FE8D;
163 : FEF1;
164 : 006D;
165 : FFB5;
166 : FE10;
167 : FFCE;
168 : 0182;
169 : 0091;
170 : 01CB;
171 : FE36;
172 : FFC1;
173 : 0073;
174 : FF36;
175 : FF18;
176 : 016B;
177 : 00D6;
178 : FE90;
179 : FF81;
180 : FF39;
181 : 01F2;
182 : FEE3;
183 : FEF5;
184 : FF5B;
185 : 0002;
186 : FF3D;
187 : FFCB;
188 : FF2B;
189 : 010E;
190 : 010F;
191 : FF2B;
192 : FEDF;
193 : 01C9;
194 : FFB4;
195 : FE51;
196 : FFBD;
197 : 00B2;
198 : FFED;
199 : 014C;
200 : 0059;
201 : FE2B;
202 : 0051;
203 : 01FF;
204 : FFD7;
205 : FF39;
206 : 000D;
207 : 01BA;
208 : FFD3;
209 : FEE8;
210 : FFB7;
211 : FF9E;
212 : FF97;
213 : 01E5;
214 : FEFD;
215 : FEB4;
216 : 0040;
217 : FF4E;
218 : FE7C;
219 : 005F;
220 : 01D9;
221 : FF3A;
222 : FEF6;
223 : FE75;
224 : 01FB;
225 : 00EF;
226 : FE5C;
227 : 005D;
228 : 01F4;
229 : FF75;
230 : 0125;
231 : 0131;
232 : 003E;
233 : FEBF;
234 : FE3B;
235 : FFDD;
236 : FF47;
237 : FF98;
238 : 01B5;
239 : 0064;
240 : FF3C;
241 : 017D;
242 : FF69;
243 : FF14;
244 : FE24;
245 : FF4E;
246 : FF5E;
247 : 017F;
248 : FF86;
249 : 018E;
250 : 001D;
251 : 0007;
252 : 0011;
253 : 001B;
254 : 0066;
255 : FE4B;
256 : 0400;
END;
