DEPTH = 257;
WIDTH = 16;
ADDRESS_RADIX = DEC;
DATA_RADIX = HEX;
CONTENT BEGIN
0 : 0003;
1 : 012E;
2 : 0086;
3 : 0191;
4 : FF20;
5 : FE2F;
6 : 019B;
7 : 0056;
8 : 0003;
9 : 00FE;
10 : FF35;
11 : FFDA;
12 : FFC9;
13 : 01CD;
14 : FE8C;
15 : 01AB;
16 : FFB9;
17 : 00BE;
18 : FE80;
19 : FE78;
20 : 00DF;
21 : 0140;
22 : 010F;
23 : 006E;
24 : FFE7;
25 : 00F3;
26 : FF4C;
27 : FE9A;
28 : FE36;
29 : 01BF;
30 : 003E;
31 : 01DB;
32 : FE49;
33 : 0089;
34 : 0006;
35 : 00F9;
36 : 0156;
37 : 00F4;
38 : FE0F;
39 : FF2E;
40 : 01ED;
41 : 00D9;
42 : 01FB;
43 : 01CE;
44 : FF63;
45 : FFB1;
46 : 00D1;
47 : 00F4;
48 : FF49;
49 : 003C;
50 : 01FD;
51 : FFBC;
52 : FFD7;
53 : FE54;
54 : FFF4;
55 : FF18;
56 : 004F;
57 : FF03;
58 : 0075;
59 : FEE8;
60 : 00B5;
61 : FF4C;
62 : 0163;
63 : 00B2;
64 : 01EE;
65 : FE17;
66 : 01CD;
67 : 013D;
68 : 0110;
69 : 0121;
70 : FF37;
71 : 01BD;
72 : FF19;
73 : FE29;
74 : FFA7;
75 : FF82;
76 : FFC0;
77 : FE2E;
78 : FE79;
79 : 0156;
80 : 01FB;
81 : 00EF;
82 : 00C6;
83 : FFCD;
84 : 0190;
85 : 017B;
86 : 0064;
87 : FE29;
88 : FFB1;
89 : FE08;
90 : 0012;
91 : FFD2;
92 : 00B0;
93 : FF0F;
94 : 01F5;
95 : 00A3;
96 : FE28;
97 : FED6;
98 : 01A6;
99 : 01BE;
100 : FE8E;
101 : FFA6;
102 : 00CC;
103 : 0039;
104 : FF6F;
105 : FED4;
106 : 01BA;
107 : 01C6;
108 : FF0F;
109 : 0119;
110 : FE88;
111 : 01C8;
112 : FF00;
113 : 00BE;
114 : 0195;
115 : FEA6;
116 : 0103;
117 : 0102;
118 : 0140;
119 : FE4B;
120 : FFA7;
121 : 0186;
122 : FFF8;
123 : FF94;
124 : 00BE;
125 : FE36;
126 : FF74;
127 : FF81;
128 : FE0C;
129 : FEEA;
130 : FF04;
131 : 004A;
132 : FE93;
133 : 0023;
134 : 00D7;
135 : FE93;
136 : 0093;
137 : 0070;
138 : 00AC;
139 : FEAF;
140 : FE10;
141 : 019E;
142 : 0142;
143 : 01D1;
144 : 00DD;
145 : 01E2;
146 : FE2E;
147 : FFE7;
148 : 0133;
149 : 00DD;
150 : FEDC;
151 : 011F;
152 : FEF0;
153 : 00AB;
154 : 0107;
155 : 00F8;
156 : 0123;
157 : 01A0;
158 : 0048;
159 : FE7A;
160 : 0169;
161 : 004A;
162 : 0019;
163 : 0132;
164 : FFD3;
165 : FF7D;
166 : FF94;
167 : 00C6;
168 : FF6D;
169 : 0184;
170 : 005E;
171 : 00C5;
172 : FF1E;
173 : FFDA;
174 : 0181;
175 : 001E;
176 : 0030;
177 : 002F;
178 : 0126;
179 : FFAA;
180 : 016F;
181 : 0022;
182 : FE75;
183 : FEFA;
184 : 017B;
185 : FFB7;
186 : 01B6;
187 : 001D;
188 : FE66;
189 : 010E;
190 : FFA5;
191 : 01ED;
192 : 006B;
193 : FFB4;
194 : 01F2;
195 : FFDF;
196 : FFAD;
197 : FFDF;
198 : FF81;
199 : FEB7;
200 : FF71;
201 : FF38;
202 : FF05;
203 : FEBE;
204 : FF9E;
205 : 0184;
206 : 01D4;
207 : 003B;
208 : 018E;
209 : FE36;
210 : 017F;
211 : FFE0;
212 : 013C;
213 : 01A2;
214 : 0053;
215 : 01DC;
216 : 0164;
217 : FEE5;
218 : 005B;
219 : 00B1;
220 : FF95;
221 : FEE8;
222 : FEF4;
223 : FED1;
224 : 018F;
225 : 01F1;
226 : FE99;
227 : FFCE;
228 : FF1D;
229 : FF3B;
230 : FE01;
231 : FF57;
232 : FF92;
233 : FE4F;
234 : FF5F;
235 : FE2C;
236 : 0157;
237 : 001A;
238 : 00CC;
239 : 0058;
240 : 0071;
241 : 00A1;
242 : FE21;
243 : FE72;
244 : 0118;
245 : 00E3;
246 : 005B;
247 : FE2F;
248 : FE12;
249 : 002B;
250 : FE2E;
251 : 0095;
252 : 0160;
253 : FF66;
254 : 0056;
255 : FE3B;
256 : 0400;
END;
