FEE3
FFAB
000B
FE07
FEB6
FF21
0137
00F1
FF4F
FED9
FF4A
FE15
FE58
FE0D
0196
FF2C
0103
0079
00B8
00CA
FE73
FED3
0179
0057
01B9
FED6
0168
01F8
FF6C
007A
FE03
00C8
000D
00C7
0092
FF1E
FF8F
01D8
FF27
01F0
0061
0020
FF9E
FFF9
0009
000E
FE69
0109
016F
FEC7
0003
0037
0098
00CA
00C3
0000
FF3F
01F6
007E
00D3
002D
01E5
FF97
005A
0090
FF76
00EC
0055
0048
0037
FFE3
FEA5
007C
FF80
FF65
000D
0197
FE46
0098
FF5E
01DE
FF8B
FFE7
FFD4
FF4B
0004
FEBA
FF3E
FEB3
01C3
01BF
010C
FE5C
002F
0030
FE88
009C
005D
0033
FE43
019B
0038
015E
FF76
0138
01C1
0180
00EB
FE9A
0096
FF94
0123
008F
FF75
FFF3
FEA2
FFCC
0086
FFDC
00A6
FE3A
FEE4
FE15
FF07
FF55
FFED
FE0F
01DD
FFC4
FED3
00C9
FE86
FE3F
FF61
FEB1
00B6
FE2B
01C6
000C
00E2
FE49
FFBB
0073
FEE7
0175
0102
01FE
FE3C
FE2D
FEAF
0117
FE14
FE9F
FF54
003E
FE50
FEB0
FE61
FFF8
00D1
019E
FF76
006D
0068
001A
015A
009D
01D9
0067
FF8D
FE53
FF80
01F2
00C1
019A
FF3D
FF04
0127
0073
009C
0052
FF70
0142
FE11
FFE9
011F
0106
00CF
FEED
0030
0083
FF82
FF77
0120
004B
FE73
0103
FF59
FE35
0055
0145
FFCF
0134
0087
01BE
FEF1
0166
0004
0105
01A7
00FE
FF83
FE84
FEE8
FF2B
01CA
00D4
01DA
0126
01E2
01D6
FE35
FE18
01B4
01A0
FF3F
FF5D
01F1
FF01
FF6B
FE62
0074
00F7
00C8
FED2
002E
FFD5
FE6A
FFDB
01AB
FEC3
FFFF
00C0
FF60
FE3E
0090
011E
FFE3
FE1E
FFE4
FE00
FE05
00E1
FE15
FE5A
00F2
0400
