0003
0070
FE26
FF24
014E
0005
019C
FE6A
0048
0095
FF74
FF23
FFBF
0035
FFA3
007F
01ED
0078
FF26
FE07
01CF
FE05
01DC
01F2
014A
0090
01E7
FF62
FE4F
FFFE
014D
FF14
FFCA
FE72
003E
00AF
01DE
FF15
FF5F
FE3B
FF10
FE7B
013B
0115
01EA
FF58
FF62
FEC8
00EE
00E0
FE02
FEA9
0136
015A
00CC
0070
01DF
FE9A
0061
FEA7
FFCD
FE62
01B9
0145
FFD1
0106
FF95
00B4
FFAD
FF0C
FE88
FFF4
0177
0172
0009
00B4
00D4
FEA9
FFB9
FEBA
FFE1
FF2A
000D
01E3
FFD5
0096
004F
0156
FEF1
014B
FE96
0082
FEF1
008F
FEEF
0128
FF8F
FE92
FFCF
01DE
0003
003D
FE58
FFFB
FFDB
FEE1
FE71
FE3A
01A5
0199
FEFD
0136
01F5
FE44
FF73
FF37
002B
FF78
FE27
0148
FF58
01C7
016D
FFCE
FE6C
FEDB
FE91
FF41
0124
FFDA
FFF2
01C4
002C
00F6
01A1
FF9D
FFE2
01AE
FE2E
FFC2
013F
FE94
FF2A
FE8B
FEC7
FFAD
0152
0015
FEC3
00E4
01C1
00C0
FE5B
0065
FED7
FF0E
FEEE
01F9
00BA
0067
01E7
FE86
FEC7
0193
01C8
FFE7
0194
004A
FF40
FE83
FEDD
FE44
FF3D
0154
FFAA
FF79
FFAB
FE7B
FF98
0006
0155
004C
FF6C
0121
01EB
FE65
FEEC
014B
FE6C
FFF0
006C
FE27
01D2
FF02
0040
018C
00F0
005E
FFB5
00BB
FEDD
001D
FF3D
FF10
014D
0039
0009
FE05
FF1F
01F6
FE73
FE14
FED9
FEC2
FE7D
0124
002E
FED1
0015
010D
FE09
0012
0028
0016
FFA6
FE0E
003F
FE52
FF6E
017A
018D
FE3F
009B
0109
FF98
FEF3
0011
FE22
FF16
0132
FF84
0110
0161
00A7
FE42
0035
FF2C
FE6E
01E0
01F9
012B
01F3
FEB0
0129
0084
01B6
0400
