01DE
FFB6
01B7
FE10
0141
FF3D
0025
00CB
0128
0193
0022
007B
01B3
00D3
FE28
01C7
0171
00C8
FF2B
0066
FF3B
FF24
FF07
FFF2
008C
FFD9
019B
FE27
FF01
FEE7
FE9B
FE75
FE08
FE06
0011
FED4
FE72
FF65
FE44
FFA1
FEA6
0107
01E9
0016
007F
0065
FE5E
FF30
0117
0138
FE05
FFF0
FF7C
018F
01F5
015C
013C
FF86
FEE3
015D
006D
FE86
FE3D
FEE0
014E
0148
FE32
FFC5
FF14
FF9F
FEEE
00FB
FEC5
0083
FF5F
011A
0176
01E1
01DD
0111
FF7C
0072
01F6
0010
010A
0148
01A5
FE68
FFF4
FFCB
00AD
0178
FE69
FE12
FE4F
0029
FFA8
FE5A
0043
FF1E
0196
0198
FFA4
FF12
0093
FE27
FECC
FEEB
0053
FF42
FFD9
0013
002C
FFF1
014D
FF04
003F
0114
FF5F
017C
0174
016A
FF0B
01C3
01FC
FE47
FE9D
FE07
FFA8
0090
FE17
FFCD
006C
0013
FE0C
FF0E
014C
FF19
004F
FEFC
00BF
0001
FE4E
01BB
FFF3
00F1
FE14
00BC
00E0
FEAE
FF16
FEDC
FEBF
FFC6
FE3E
01D4
FF53
000D
FF0C
FEC6
01C0
FE0A
0165
FE33
001B
FEEA
011C
FEA9
0042
FF07
00CB
01B5
01CF
FF50
019B
0197
0065
FE2B
FF57
FF5C
FE35
FF07
0089
FFBA
01E6
016B
004F
FF9A
FF8F
00B0
0068
00F7
0052
FE99
FF41
FE37
FEB3
FF2C
FF70
FFD2
003E
FEB5
0094
FFB4
0157
0025
FEDB
0011
000F
FE5D
0109
FEC1
FF04
005B
FEB3
FF40
FEB8
002F
FED8
0132
FF7D
FFA5
018C
01F3
FFAD
FFDA
FE2B
FFEE
FF5B
FEB3
010A
FFAC
FFF7
005F
FF9A
FFD4
FFF4
FE0C
007D
FEE9
00BE
0123
FED7
FF0F
FF07
005A
01F1
FE57
FEF0
FF30
FF5D
01C0
FECF
FE5A
FFAE
FFA7
0400
