DEPTH = 257;
WIDTH = 16;
ADDRESS_RADIX = DEC;
DATA_RADIX = HEX;
CONTENT BEGIN
0 : 008D;
1 : 00EB;
2 : FF4D;
3 : FF3E;
4 : FFBC;
5 : FEB1;
6 : FFE5;
7 : FFF7;
8 : FE2A;
9 : FEC5;
10 : FEB0;
11 : 00AC;
12 : FEC3;
13 : FED2;
14 : 0198;
15 : FED7;
16 : FEE6;
17 : 0143;
18 : FE9E;
19 : 00C9;
20 : 01A3;
21 : 00DD;
22 : FE87;
23 : 00EF;
24 : 01D5;
25 : 0040;
26 : FE3E;
27 : FFDC;
28 : 0043;
29 : FF31;
30 : 0009;
31 : 005D;
32 : 0190;
33 : 00E1;
34 : 001C;
35 : 003D;
36 : FEAB;
37 : FF80;
38 : 00C1;
39 : 00D3;
40 : 0000;
41 : 01D4;
42 : FF71;
43 : FE31;
44 : FFAB;
45 : FE00;
46 : 0110;
47 : FE83;
48 : FF2B;
49 : 014D;
50 : FE42;
51 : 01BF;
52 : 0044;
53 : 0123;
54 : FF71;
55 : FE17;
56 : FE33;
57 : FEF3;
58 : FFCC;
59 : FE1A;
60 : 00A3;
61 : 006A;
62 : FE1A;
63 : 01F6;
64 : FF43;
65 : 00BB;
66 : 00B1;
67 : FF9C;
68 : FEF6;
69 : 01F8;
70 : 0121;
71 : FF66;
72 : 0185;
73 : FFC3;
74 : 0015;
75 : FF60;
76 : FE34;
77 : FF95;
78 : 0161;
79 : 0138;
80 : FFBD;
81 : 0135;
82 : FF82;
83 : 01E8;
84 : FF45;
85 : FE46;
86 : FEF7;
87 : 0133;
88 : FE93;
89 : FE5F;
90 : FF37;
91 : FEC1;
92 : 01CF;
93 : FF28;
94 : 0167;
95 : 0138;
96 : 01A5;
97 : 0050;
98 : FF90;
99 : 011F;
100 : FF89;
101 : 01CD;
102 : FFF7;
103 : FEC8;
104 : 0173;
105 : 0048;
106 : FE74;
107 : FEAF;
108 : 007C;
109 : FF62;
110 : 01A5;
111 : 00AB;
112 : 0036;
113 : FF48;
114 : 019E;
115 : FF10;
116 : 01FB;
117 : 0159;
118 : 01B9;
119 : 006D;
120 : FF83;
121 : FF21;
122 : 0080;
123 : 00A3;
124 : FFA4;
125 : 0135;
126 : 015E;
127 : FFFE;
128 : FE1B;
129 : FF98;
130 : FFB1;
131 : 000A;
132 : FF4C;
133 : 002A;
134 : 0126;
135 : 003A;
136 : FE3B;
137 : 0195;
138 : 00AC;
139 : FE5A;
140 : 0049;
141 : FF97;
142 : FE1F;
143 : FFD3;
144 : 0005;
145 : 0163;
146 : FFFB;
147 : FF0F;
148 : 0059;
149 : 00CA;
150 : 0005;
151 : FE6D;
152 : 00CA;
153 : 01D4;
154 : 011C;
155 : FF02;
156 : 013B;
157 : 01BF;
158 : 0194;
159 : 0004;
160 : FEEE;
161 : FFA8;
162 : FEF8;
163 : FECD;
164 : 0037;
165 : FFE4;
166 : 01F7;
167 : FFA4;
168 : FFE7;
169 : 009A;
170 : 018F;
171 : 004D;
172 : FF42;
173 : FFE2;
174 : FF54;
175 : FE29;
176 : FE04;
177 : FF92;
178 : 0173;
179 : FEB6;
180 : FEAB;
181 : FF68;
182 : 0128;
183 : FF83;
184 : 01C1;
185 : 013D;
186 : FE0F;
187 : 01A4;
188 : 010A;
189 : 0128;
190 : 0135;
191 : FFE4;
192 : 0101;
193 : 01A6;
194 : FF24;
195 : FF7B;
196 : FE1E;
197 : FFF6;
198 : 00F4;
199 : 004D;
200 : FF3E;
201 : FF5C;
202 : FE56;
203 : FE75;
204 : FE5E;
205 : FF87;
206 : FF21;
207 : 01D0;
208 : FE07;
209 : FE2F;
210 : FFED;
211 : 0032;
212 : 01E3;
213 : 005D;
214 : 003D;
215 : FE01;
216 : FE8F;
217 : 0165;
218 : FEEC;
219 : 016D;
220 : 017B;
221 : FF3E;
222 : FFE4;
223 : FFFC;
224 : FE66;
225 : 00B0;
226 : 0027;
227 : 01CE;
228 : 017D;
229 : FF9F;
230 : 010F;
231 : FEBE;
232 : 01C6;
233 : FE49;
234 : FF5A;
235 : 003F;
236 : FE4B;
237 : 01EB;
238 : 0035;
239 : FEDB;
240 : FF3F;
241 : FFDF;
242 : FF5D;
243 : FFD5;
244 : FE1D;
245 : FFA3;
246 : FE7A;
247 : FF32;
248 : FE3D;
249 : 0027;
250 : FFF0;
251 : 010A;
252 : 0095;
253 : FF4E;
254 : FFB6;
255 : FFFE;
256 : 0400;
END;
