DEPTH = 257;
WIDTH = 16;
ADDRESS_RADIX = DEC;
DATA_RADIX = HEX;
CONTENT BEGIN
0 : 0025;
1 : 0089;
2 : 0087;
3 : FF79;
4 : 0102;
5 : 00B1;
6 : FF51;
7 : FF2C;
8 : 01EE;
9 : FFA4;
10 : 0019;
11 : FE52;
12 : 0157;
13 : FE8F;
14 : FF08;
15 : 0089;
16 : FE45;
17 : 00C0;
18 : 01C0;
19 : FE69;
20 : FFC6;
21 : 00B1;
22 : FE60;
23 : 01E1;
24 : 0033;
25 : 01DA;
26 : FE8A;
27 : FE1A;
28 : 01BC;
29 : 01FE;
30 : 00F1;
31 : 0065;
32 : 0138;
33 : 0104;
34 : 01A5;
35 : FF2B;
36 : FE28;
37 : FF95;
38 : FECE;
39 : 007C;
40 : FFD5;
41 : 011F;
42 : 0122;
43 : 0198;
44 : 01E2;
45 : 00D1;
46 : FE0C;
47 : 015B;
48 : FEF0;
49 : FF90;
50 : FE3B;
51 : FEFB;
52 : 006D;
53 : FE57;
54 : FFB1;
55 : FE21;
56 : FFA5;
57 : 00A7;
58 : FEDA;
59 : FE07;
60 : FE9E;
61 : 010A;
62 : 0139;
63 : 004A;
64 : FF9A;
65 : FF6B;
66 : FFCF;
67 : 01FE;
68 : FFA1;
69 : 0034;
70 : 0081;
71 : FE5E;
72 : FF9D;
73 : FE07;
74 : FF62;
75 : 00D3;
76 : FE36;
77 : FF09;
78 : 001C;
79 : 01B8;
80 : 0191;
81 : FEB7;
82 : FFF1;
83 : 01F4;
84 : FFDE;
85 : 001D;
86 : 0182;
87 : FE95;
88 : 012E;
89 : 0003;
90 : 01AA;
91 : 01DD;
92 : 01CD;
93 : 000E;
94 : 01BF;
95 : 0142;
96 : FF78;
97 : FF81;
98 : FFC6;
99 : FF88;
100 : 004F;
101 : FEBC;
102 : FF4B;
103 : FEF6;
104 : 00D7;
105 : 0170;
106 : 01BB;
107 : FEF1;
108 : FEBB;
109 : 0004;
110 : FE4C;
111 : 007E;
112 : 0172;
113 : FEDC;
114 : 004B;
115 : FEC2;
116 : 00EC;
117 : FFAB;
118 : 00B3;
119 : 0023;
120 : FFDC;
121 : FE45;
122 : FFC2;
123 : 0046;
124 : 0057;
125 : FFC3;
126 : FEC4;
127 : FE55;
128 : FF45;
129 : FECA;
130 : 0032;
131 : 0169;
132 : 01A5;
133 : FFAC;
134 : 0183;
135 : 0090;
136 : 0043;
137 : FFAC;
138 : 00C8;
139 : FE0D;
140 : 0195;
141 : 00A1;
142 : FFDF;
143 : 018E;
144 : FF31;
145 : 0181;
146 : FFA3;
147 : 00C8;
148 : FECC;
149 : FF25;
150 : 00A9;
151 : FE6C;
152 : FE56;
153 : 00DE;
154 : FF2F;
155 : FEBC;
156 : 0014;
157 : 0123;
158 : 011F;
159 : 0080;
160 : FEC8;
161 : FEA3;
162 : FF1D;
163 : FEB0;
164 : 0042;
165 : FFC9;
166 : 0028;
167 : FFBA;
168 : FE4F;
169 : 0170;
170 : 018F;
171 : FECF;
172 : 00DF;
173 : 0160;
174 : FE58;
175 : FFF1;
176 : 00B2;
177 : FE67;
178 : FF76;
179 : 0153;
180 : FF16;
181 : 0003;
182 : FEF2;
183 : FEA8;
184 : FFF0;
185 : FE60;
186 : FFAA;
187 : 012B;
188 : FFCC;
189 : FF3F;
190 : 005B;
191 : 01C4;
192 : 0120;
193 : 0182;
194 : FF3C;
195 : 00C8;
196 : 0130;
197 : FEB9;
198 : 0182;
199 : FE90;
200 : FECC;
201 : 014C;
202 : FE1C;
203 : FE04;
204 : FF71;
205 : 015C;
206 : 00A9;
207 : FF41;
208 : FE1B;
209 : FFE3;
210 : FF56;
211 : FF01;
212 : FF46;
213 : FF5C;
214 : FED9;
215 : FEC1;
216 : FF23;
217 : FE0A;
218 : FF84;
219 : 01D7;
220 : FFBC;
221 : 0168;
222 : 018E;
223 : 013A;
224 : FFCE;
225 : FF62;
226 : FFC8;
227 : 0110;
228 : 0116;
229 : FFC2;
230 : 0026;
231 : 001B;
232 : FEB0;
233 : FE45;
234 : FED0;
235 : 0004;
236 : 0077;
237 : FEBB;
238 : FF31;
239 : 008C;
240 : 0164;
241 : FF75;
242 : 01F5;
243 : FE07;
244 : 01FD;
245 : FE22;
246 : 0092;
247 : 01AB;
248 : 0031;
249 : 0100;
250 : FFAC;
251 : 0176;
252 : FEC8;
253 : FF48;
254 : FE12;
255 : FE25;
256 : 0400;
END;
