FF93
01E4
FEFA
FF10
0083
FFD1
00C8
0085
FF82
FFC2
0144
FF92
FE5E
FF72
005C
FF17
FFED
0130
0077
01AF
0022
0052
FF98
FF85
FFF4
FE64
0161
FFD1
00A8
FE16
0199
FF64
0067
01CD
009C
FFF3
0150
00B5
01FE
FE09
FECA
01D8
FEF8
016A
FF9D
FE74
01E2
FEB8
0137
FF80
FE4C
0098
007F
FE94
0006
0053
FFD5
00C5
FE36
FE34
01EB
FE81
FE69
0176
FFED
00B0
01BE
0053
0095
01E8
FED7
FFA5
FE5A
0030
FEA0
0095
FE36
FE25
FE7A
004F
FF08
FE0F
0026
01D8
009F
FE80
FF43
FF13
0059
FE14
FE09
FE93
00CF
FF14
002E
01B1
FF5A
00A8
0152
0004
00C6
013B
FEB0
0146
FFDD
FF49
FED3
0112
FE81
00AD
0081
0178
FE3F
FF1D
0025
013E
FE97
FE4A
005E
FF47
012F
FE85
01F8
FE2D
FFEC
FFAF
FE82
01DA
FE99
010B
0048
011A
FF4D
FE3E
FEDB
FFFE
FEE9
FF93
01EC
FE7E
FE00
00EA
00E2
00CF
FF85
FEF3
FE6B
FEAF
013C
0021
00F9
FEEC
FF66
FEAA
FF01
FF8C
FF53
01E7
0084
FE1D
FF71
FFB2
FF7A
FEA6
018D
0009
FEED
00B7
0047
FFD5
00F2
01C0
000A
FEBF
0083
FE71
FF2D
01C3
FFEE
010B
FE2C
FE06
FEA9
0142
0118
FEF8
FE52
009E
014B
0022
003F
FF42
FFBB
012C
0011
FEA1
0072
00DF
FF70
FF32
FECE
FE29
FE04
0032
FEF1
007C
FE42
0116
FF37
0156
0133
FF80
0169
0182
010C
0084
FF8A
009D
FE14
01A5
FEBE
FE95
009D
FFE7
0150
FFE0
FE3F
00E3
0017
FE11
FF73
FFC9
0018
01BA
FE1D
0075
01C0
FE3B
FFF4
01E8
FF96
FED5
FF28
FE71
FF76
FF4B
01BC
004E
0169
FFE3
FF90
FFFA
01EF
0010
01D6
FE0A
0400
