0003
012E
0086
0191
FF20
FE2F
019B
0056
0003
00FE
FF35
FFDA
FFC9
01CD
FE8C
01AB
FFB9
00BE
FE80
FE78
00DF
0140
010F
006E
FFE7
00F3
FF4C
FE9A
FE36
01BF
003E
01DB
FE49
0089
0006
00F9
0156
00F4
FE0F
FF2E
01ED
00D9
01FB
01CE
FF63
FFB1
00D1
00F4
FF49
003C
01FD
FFBC
FFD7
FE54
FFF4
FF18
004F
FF03
0075
FEE8
00B5
FF4C
0163
00B2
01EE
FE17
01CD
013D
0110
0121
FF37
01BD
FF19
FE29
FFA7
FF82
FFC0
FE2E
FE79
0156
01FB
00EF
00C6
FFCD
0190
017B
0064
FE29
FFB1
FE08
0012
FFD2
00B0
FF0F
01F5
00A3
FE28
FED6
01A6
01BE
FE8E
FFA6
00CC
0039
FF6F
FED4
01BA
01C6
FF0F
0119
FE88
01C8
FF00
00BE
0195
FEA6
0103
0102
0140
FE4B
FFA7
0186
FFF8
FF94
00BE
FE36
FF74
FF81
FE0C
FEEA
FF04
004A
FE93
0023
00D7
FE93
0093
0070
00AC
FEAF
FE10
019E
0142
01D1
00DD
01E2
FE2E
FFE7
0133
00DD
FEDC
011F
FEF0
00AB
0107
00F8
0123
01A0
0048
FE7A
0169
004A
0019
0132
FFD3
FF7D
FF94
00C6
FF6D
0184
005E
00C5
FF1E
FFDA
0181
001E
0030
002F
0126
FFAA
016F
0022
FE75
FEFA
017B
FFB7
01B6
001D
FE66
010E
FFA5
01ED
006B
FFB4
01F2
FFDF
FFAD
FFDF
FF81
FEB7
FF71
FF38
FF05
FEBE
FF9E
0184
01D4
003B
018E
FE36
017F
FFE0
013C
01A2
0053
01DC
0164
FEE5
005B
00B1
FF95
FEE8
FEF4
FED1
018F
01F1
FE99
FFCE
FF1D
FF3B
FE01
FF57
FF92
FE4F
FF5F
FE2C
0157
001A
00CC
0058
0071
00A1
FE21
FE72
0118
00E3
005B
FE2F
FE12
002B
FE2E
0095
0160
FF66
0056
FE3B
0400
