FEA5
FF29
FE4F
FEEA
019F
01D8
FF8B
01C4
FFF0
FF7B
FED6
FEBD
FEE3
FE1C
00A3
00DD
FE4E
00BC
FEE1
FE53
FE4B
FEF2
FFD1
01E1
014E
FE83
0105
FE5B
FE24
010B
FE05
0038
00FF
FFCD
FF64
FE91
01DB
0006
FE1C
FFF1
FF95
0094
FF43
00F4
01F0
013A
019C
FF7C
FF00
FF3D
FF28
FE71
01B7
01B6
0063
FEEA
FE1F
FF61
FEF0
011A
0157
FE18
FEEF
FEA7
002A
0058
FFEA
FE6F
FE8A
01FC
0014
FF9C
01AF
FFBE
01FC
0062
FFC9
FF02
00D4
001A
FFAD
00A9
0064
FE9B
00A6
FEE7
01F3
00C6
01F7
0154
0047
0190
FE99
FFF1
0110
0003
0033
FF9A
FE13
FF5A
0122
FE36
00BC
016B
FEEE
01E6
019F
012C
012C
01D7
0144
0034
006D
0109
FE61
FF35
00CE
015D
0000
FEE6
FEE1
0032
0053
FE19
FE20
00D5
FE67
FFCE
FEDC
00D6
FF09
0127
0150
0117
0060
FE45
00D6
009E
FF63
0162
0102
018C
FE87
FE1F
FED5
0105
01C5
FEBB
FE89
FE94
0031
FF19
013E
00EB
FEFB
018F
FF88
0150
0163
FF7D
00C2
0050
FFF3
0015
017C
0098
FED5
FF9D
0007
FE6F
FF5C
01CC
FFC2
0104
001D
01B6
FFCD
01AC
FFBB
0131
01A5
01B7
FFAC
FF5F
FF31
FEFA
FE72
00DF
FEB3
00AE
01D8
0068
FEEC
0024
FEA0
0067
FEEF
FF2A
FFD2
FF24
01DF
0036
018F
0125
FEC1
FF95
FE35
FF46
00C3
0158
FEE1
01BC
FF43
FFD0
018E
FF7E
FEBC
0077
01EC
FE48
FE3F
FFAE
0082
FF2F
FFFD
0194
FF9A
FF65
004B
002A
FE0C
01FA
FF8E
006F
0158
018E
0028
001B
FE3C
016E
011B
FE38
0159
00F7
00E4
FFEB
FE34
01B0
0093
0192
017B
00A1
00F0
FFCF
01BB
FE6F
0400
