DEPTH = 257;
WIDTH = 16;
ADDRESS_RADIX = DEC;
DATA_RADIX = HEX;
CONTENT BEGIN
0 : FF6D;
1 : 0151;
2 : FF16;
3 : FF8E;
4 : FF00;
5 : FEA0;
6 : FEB1;
7 : FFA3;
8 : 01CC;
9 : 0173;
10 : 007D;
11 : FF96;
12 : FFCF;
13 : FEE6;
14 : FFCF;
15 : 00F3;
16 : FEAB;
17 : 0074;
18 : FFDF;
19 : 01C7;
20 : 00E9;
21 : 0179;
22 : FFDA;
23 : FF08;
24 : 0194;
25 : FE58;
26 : FE51;
27 : FF19;
28 : FF02;
29 : 01AD;
30 : 0163;
31 : 0172;
32 : FECF;
33 : FE90;
34 : 01EF;
35 : FF1C;
36 : 003C;
37 : FE7E;
38 : FE2D;
39 : 004F;
40 : 01A4;
41 : FFBC;
42 : 0191;
43 : 0128;
44 : FEBF;
45 : 005D;
46 : FED2;
47 : FFFD;
48 : 0078;
49 : FECD;
50 : 002D;
51 : 01BB;
52 : 0197;
53 : FF4B;
54 : 00AB;
55 : FE28;
56 : FFB8;
57 : FFF3;
58 : FE9E;
59 : 010B;
60 : FF01;
61 : 01A9;
62 : FF84;
63 : FFBA;
64 : 0043;
65 : 01D5;
66 : 0168;
67 : 0029;
68 : FFF5;
69 : FFA5;
70 : 0091;
71 : 00AF;
72 : 0184;
73 : FF74;
74 : 00CA;
75 : 00AF;
76 : FEE8;
77 : FFDC;
78 : FF07;
79 : FE33;
80 : 01BE;
81 : FE89;
82 : 0151;
83 : FF8D;
84 : 0160;
85 : FE1F;
86 : 015E;
87 : FED8;
88 : FF3D;
89 : 0105;
90 : 0060;
91 : 00BC;
92 : FEA3;
93 : FE96;
94 : 014D;
95 : 00B9;
96 : FF59;
97 : FF09;
98 : 01CB;
99 : FE5D;
100 : FF12;
101 : 01CC;
102 : 00BF;
103 : FF10;
104 : FF2A;
105 : FEEC;
106 : FFC0;
107 : FE5B;
108 : FFBF;
109 : 0030;
110 : FFA7;
111 : FE3E;
112 : FFC5;
113 : FE0A;
114 : FFB2;
115 : 01CA;
116 : 01D8;
117 : FFAF;
118 : 00B7;
119 : FF9D;
120 : FF34;
121 : 00F2;
122 : FEA8;
123 : 006A;
124 : FE6B;
125 : 01A2;
126 : FFD2;
127 : FED7;
128 : 0170;
129 : FFA7;
130 : 007E;
131 : FE0B;
132 : 009B;
133 : FEBE;
134 : FF27;
135 : 01AA;
136 : FE82;
137 : 012B;
138 : 0137;
139 : FEA8;
140 : FF39;
141 : FFF1;
142 : 017C;
143 : FF17;
144 : FE52;
145 : FE18;
146 : 002A;
147 : FF29;
148 : FFC3;
149 : FFAC;
150 : 0161;
151 : FF74;
152 : 0012;
153 : FF03;
154 : FE14;
155 : 0002;
156 : FE01;
157 : FEEE;
158 : 007A;
159 : 010E;
160 : 01FE;
161 : FE83;
162 : 0148;
163 : 01A5;
164 : 01E3;
165 : FF3D;
166 : 016F;
167 : FE6B;
168 : 004F;
169 : 00D3;
170 : 0155;
171 : FE79;
172 : 01A5;
173 : FF12;
174 : 0021;
175 : 000A;
176 : FE75;
177 : FFC5;
178 : FF41;
179 : 01C8;
180 : 00DC;
181 : 0194;
182 : FF01;
183 : FE70;
184 : FEB1;
185 : FE60;
186 : 011D;
187 : 005B;
188 : FEBF;
189 : 0077;
190 : 0165;
191 : FE8C;
192 : 016B;
193 : 00A0;
194 : FEC7;
195 : FE42;
196 : 0195;
197 : 006A;
198 : FFCE;
199 : 0148;
200 : FF9A;
201 : 0015;
202 : 01D7;
203 : FF56;
204 : FED3;
205 : 01D6;
206 : 002B;
207 : FF53;
208 : 0045;
209 : FFD5;
210 : 007A;
211 : FE12;
212 : FE7B;
213 : FEBA;
214 : 01FE;
215 : 0192;
216 : FE0E;
217 : 00AE;
218 : 01AD;
219 : FF04;
220 : FFE1;
221 : 0026;
222 : 00D2;
223 : FF66;
224 : FE35;
225 : 0118;
226 : FE20;
227 : 01B5;
228 : 0158;
229 : FFE7;
230 : 00CA;
231 : FF7C;
232 : 002D;
233 : FF08;
234 : FE47;
235 : FE21;
236 : FEC9;
237 : FE30;
238 : FEA3;
239 : FF32;
240 : 00D6;
241 : FEDD;
242 : 00BF;
243 : FF4A;
244 : FF48;
245 : 01A9;
246 : 0059;
247 : FF38;
248 : FE20;
249 : FFA0;
250 : FE1A;
251 : 018E;
252 : FE2F;
253 : 003D;
254 : 0095;
255 : 00AF;
256 : 0400;
END;
