0135
FE90
002C
FF20
FF1F
00A4
00DC
0032
FF08
FFF8
01B5
FE97
FFAD
FFFE
FEB5
FE90
0099
01C5
FEED
01F7
FF7C
FF62
FFB4
00F9
FF6C
FEE8
FF4B
FEC4
00EA
015E
FFD8
0105
FE9C
009E
0193
FEBD
0162
009C
00EB
FF5F
00C0
FE5B
01DB
FF82
FE49
FED4
016C
FF54
FE46
0016
00F4
00F9
01FC
019B
FF4D
018D
FF97
0114
0200
0063
FF3C
000E
FFF0
0160
FF85
0032
FE57
000F
FEB5
FF57
FE19
FFA9
018C
FFA2
FE73
00E7
FF5E
FFB2
01AD
00FA
FF74
00B5
01C4
0101
01D0
FE89
FEDF
FFD7
FF2B
01F0
FF9F
FFCB
007D
FE2E
0077
0129
FE7E
FFFC
FE34
FF9C
FE48
0027
FE39
013F
FFB6
014F
FE4D
0117
FE28
0116
0150
00FF
FFE5
FF5B
002D
FE2F
FF97
FE70
013B
0066
00F7
FEAF
0066
FFDB
01B1
FE62
00C0
00E2
012D
0074
01ED
FF02
FF02
FF47
00C1
00DA
FF0E
FF05
FEAE
FF98
FE75
0042
FF87
0012
FE5A
00E3
01C6
FFAC
005F
FE23
0119
0089
004B
000E
FF0F
FE0F
FFD7
013D
01F1
0107
FEF1
01A2
00E6
FF09
FEED
FE5D
01D5
FE79
FFB8
FECF
00CD
018F
0020
FF33
FE2F
FF79
FE90
0156
FE1C
0159
FE2E
FFA8
00A8
008F
00AF
018C
0060
FE0D
00A3
00F9
017E
FEB5
FED9
0026
FF4F
FF03
FE24
FF14
0190
0177
FEB7
FF5C
011E
0016
0035
FE44
FE2C
009F
010E
008A
01E1
0199
0164
00A5
00A5
FE93
015C
010F
00BB
FED2
FF28
00A4
008C
000C
0128
FE41
FFB8
FE27
01F0
FEDE
00BD
00B6
FE79
FF92
006C
00F5
FE6F
FEAD
0125
0054
FE47
0072
0043
01BD
010A
FE04
FE0A
0148
0183
FF02
FEB1
FF7C
0026
01FA
0083
01BA
0400
