01E3
FF74
00D0
0013
01B9
FF5D
011B
FF7D
0026
FE59
FFFE
0128
FF5E
0145
0192
FFB0
00F9
FF57
FE84
014E
01BC
FFCF
FE7D
FE28
FF38
0129
0139
0179
003F
0052
FE42
0092
0110
017C
01C1
009D
0156
010C
002B
0037
0117
0119
FF3F
00B6
00C7
01AF
FFD9
00DB
00B2
FEA4
0071
FFC2
00AC
FFD2
00D2
FEB8
FEBE
01BE
0157
FF60
FFB4
FE34
0033
FF80
FF43
FE15
01A5
FF6F
00C8
FF0B
0041
011F
FE28
FEC2
FE37
FEEE
FF5C
016B
FFE5
FF93
0183
FFAB
0033
FE46
011A
FE6D
00D5
0179
00E2
0088
01A6
FF12
FE84
0180
FF0D
FE5D
00DB
010C
0040
014F
006E
FFD7
018E
00AD
FF24
FFDF
FF45
FF98
001C
0183
FFF3
FED2
FF31
0155
01A8
FE2A
00E2
FE74
00A8
00F1
0044
01A0
01C3
FF04
FF00
0155
00BE
00EE
007A
00FA
FFDC
0175
010D
017F
FFE2
FFDB
0181
FEF8
016A
004B
FF83
01BF
FE58
FF28
0127
FE50
FECE
0181
FEFC
00CD
00F3
FED2
FECA
FFB6
FE05
00C6
00E0
0190
FEFF
FE15
011C
0142
000D
FEB7
01D6
FF75
FF79
FEE1
FE5E
016C
FE52
0147
FF63
FFE1
00AF
FE15
FFAF
0186
FFCF
FE97
FF32
FF7D
01FF
01CD
01F5
01A9
01AE
FED0
0185
FF76
FF73
0037
0060
FFD6
0154
00B7
FED7
FF97
00FE
00EA
FF24
FEAE
FE3A
003B
0166
003C
0046
FE4A
0062
0123
FEC1
0153
FEFD
003D
FE71
FFE6
FE24
01BC
004F
FF18
FFF4
FF00
FEA0
FE52
0019
FF90
0173
FE59
FE80
01E1
01BB
01B9
0113
012C
FFD0
010B
01D2
FFE5
002D
01FA
016D
FE3B
FE1B
FFA1
0159
01A3
FF89
FF41
FF57
FE2E
FF85
0017
0052
01D3
0121
FEC0
0400
