FF4B
01C6
FF5A
FE7B
FFA7
01F6
013A
0101
00B7
0060
0190
FE7B
0055
FEBA
FE1B
FED5
FE1E
017D
0186
FEA2
01BF
0020
FE3A
FF14
0183
FF86
0145
FE77
FFED
005A
FE5F
012D
FF37
FE22
FEDA
FF39
FE9E
002A
FF5D
FF8B
0013
01DB
FFDB
FE0A
00CA
014F
01BB
FF7A
00FE
016F
015A
00B5
0066
008B
FEA0
FF1A
FF0B
FFC5
FE51
FF5C
019E
FF16
00D6
FF1A
003A
00CF
FEC2
FFDD
FF6B
FE1A
00F8
FED7
01FA
FE24
FE71
00E0
0064
0143
FF50
FE7A
FFEC
0174
FE55
00CA
01B6
FE88
FFDB
FF08
FE45
FF03
00F3
0180
FE66
016D
016A
FFAC
FEC8
0160
FF75
FF06
FF00
FE4D
FE09
01B4
FF37
014E
0034
0167
FE15
00EB
FF88
01BB
018D
FF19
FFB9
FE84
013E
001D
0008
FEC1
0010
FEEB
FFBA
FE6A
FFA9
FFBE
0048
FFCC
019D
FE81
014D
FE43
FEE3
018A
0113
FF14
FE32
01AE
0056
0003
017D
000E
00CF
FFF4
FF64
FE73
016D
009B
FFF9
0141
0119
009D
0139
01BC
0016
0165
0104
FE60
0073
FE69
FFF9
01FD
FFDC
0003
00F8
0038
0019
FED5
FF23
FE39
00C7
000E
0116
FEDD
01C5
0111
002F
FF4B
00C0
010E
006F
018F
FEB3
FE4C
006A
01B5
FE0B
FFB8
0103
0172
0075
FF60
FFDD
FE9A
FFBD
01E9
FEFC
00FB
010E
FF2D
00DF
00A2
FF5B
0023
FF75
015A
01D6
01D2
004E
FF8D
018E
FEE9
FFFF
00F7
00D9
01C9
FF67
0096
FF9C
FE52
FE7A
FF8E
017E
FF1C
01F9
018E
FEDC
0057
0015
0052
0169
01A9
FF7F
01F6
FF60
FF09
FE12
FFC1
0050
FF81
013D
FF8F
FFA1
0036
014E
FFD4
FE27
FE62
FE3F
FFE4
FEE3
01E6
0066
01B2
0126
FFC2
0400
