DEPTH = 257;
WIDTH = 16;
ADDRESS_RADIX = DEC;
DATA_RADIX = HEX;
CONTENT BEGIN
0 : 0015;
1 : FF3F;
2 : 00A6;
3 : FF09;
4 : 008D;
5 : 002A;
6 : 0020;
7 : FE35;
8 : 007B;
9 : 0105;
10 : FE1D;
11 : FE89;
12 : 0013;
13 : 017B;
14 : 01AF;
15 : FE80;
16 : FEEF;
17 : FF2F;
18 : FF26;
19 : FF6B;
20 : 0129;
21 : FEBA;
22 : FF59;
23 : 01E7;
24 : FFFD;
25 : 0061;
26 : FF90;
27 : FEEE;
28 : FEE6;
29 : 01B6;
30 : FF5A;
31 : FE83;
32 : 012C;
33 : FF26;
34 : 0018;
35 : FED1;
36 : 01A7;
37 : 008B;
38 : FE0A;
39 : 0060;
40 : FF1B;
41 : FE30;
42 : 000B;
43 : FE00;
44 : 0054;
45 : 01CD;
46 : FF21;
47 : 0178;
48 : FEDC;
49 : FEFE;
50 : FE0E;
51 : 00F4;
52 : 011D;
53 : 0142;
54 : 00A6;
55 : FF0F;
56 : FE9C;
57 : 0100;
58 : 0082;
59 : 012C;
60 : 008B;
61 : 01AA;
62 : 01BD;
63 : 018B;
64 : 0153;
65 : FE61;
66 : FE8A;
67 : FF5F;
68 : FE82;
69 : FEAE;
70 : FE4F;
71 : FF30;
72 : FEAC;
73 : FF89;
74 : 0165;
75 : FFE7;
76 : 0037;
77 : 018A;
78 : 0030;
79 : 00F7;
80 : FE85;
81 : FED6;
82 : 01F0;
83 : FE98;
84 : FFA5;
85 : 01E6;
86 : FF3D;
87 : FEC5;
88 : FEB4;
89 : 00D9;
90 : FEAA;
91 : 0052;
92 : 00EE;
93 : FF8F;
94 : 01F4;
95 : FEFE;
96 : 0092;
97 : 00CA;
98 : FE95;
99 : FE8B;
100 : FFF0;
101 : 01E0;
102 : 0028;
103 : 0062;
104 : FF36;
105 : FF84;
106 : 00FB;
107 : 0049;
108 : 01D3;
109 : 00CF;
110 : 00B6;
111 : 002A;
112 : 0072;
113 : FE97;
114 : 0009;
115 : FF12;
116 : FE27;
117 : 0146;
118 : FF56;
119 : 0075;
120 : FFB3;
121 : FE62;
122 : FE8F;
123 : 019D;
124 : FEE1;
125 : 00C1;
126 : FED8;
127 : FECD;
128 : FE9C;
129 : 0084;
130 : 012C;
131 : 00D0;
132 : 01E9;
133 : FEBE;
134 : 01C1;
135 : FFE0;
136 : FEC9;
137 : 0070;
138 : FE67;
139 : FE7F;
140 : 0050;
141 : FF34;
142 : FF5D;
143 : 0085;
144 : 0088;
145 : 00C0;
146 : 0007;
147 : FFD1;
148 : FF95;
149 : 001E;
150 : 00E2;
151 : FFE1;
152 : FFDC;
153 : 012D;
154 : FFAF;
155 : FEB4;
156 : 01F1;
157 : FE05;
158 : 00B0;
159 : 009E;
160 : FE65;
161 : FFB6;
162 : FE6F;
163 : FE70;
164 : 0112;
165 : 00F4;
166 : 0073;
167 : FE6B;
168 : FE63;
169 : 010E;
170 : FF65;
171 : FFA2;
172 : FF63;
173 : 01F4;
174 : 0136;
175 : 009E;
176 : 0009;
177 : FE6F;
178 : FE46;
179 : 00D5;
180 : FFFB;
181 : FE04;
182 : FF0E;
183 : 013C;
184 : 0129;
185 : FFBF;
186 : 00A0;
187 : 01B0;
188 : 010F;
189 : FE19;
190 : 0031;
191 : FEC2;
192 : FE6C;
193 : FF5F;
194 : 01D4;
195 : 0188;
196 : 008E;
197 : 0187;
198 : 00DE;
199 : 01CB;
200 : 0189;
201 : 01C6;
202 : FF1D;
203 : FFCD;
204 : 0119;
205 : FECE;
206 : FF35;
207 : FED2;
208 : FF30;
209 : 017E;
210 : 01FD;
211 : FE24;
212 : 00FD;
213 : FFF5;
214 : FE89;
215 : FF4E;
216 : FF3D;
217 : 0121;
218 : FFD7;
219 : 0079;
220 : FE75;
221 : 00C3;
222 : 00EB;
223 : 00B2;
224 : FE99;
225 : FF31;
226 : 0058;
227 : 01BE;
228 : 008E;
229 : 00CC;
230 : FFA3;
231 : FF18;
232 : FE46;
233 : FE4D;
234 : 012A;
235 : FE5F;
236 : 0167;
237 : 00D2;
238 : FE74;
239 : 01C1;
240 : FF23;
241 : 00EF;
242 : FF01;
243 : 01BB;
244 : FF84;
245 : FFF6;
246 : FE70;
247 : FF34;
248 : 011D;
249 : 014A;
250 : 004E;
251 : FF0D;
252 : FF21;
253 : 01FD;
254 : 01C5;
255 : 0168;
256 : 0400;
END;
