FF34
FFFD
FF02
01DA
0105
0101
FFB7
016F
FE83
FFBA
00FB
0059
FF12
005C
FF85
FF0A
0008
0154
0146
FEA5
FE98
FE2B
0007
FF44
00C8
FEB2
FF9D
FE53
0138
00B5
006A
003E
01A1
FF0B
00A9
0127
FEC7
FF0A
FF36
FFC3
FE11
FE81
01E7
0016
013A
FF19
0172
00EA
FE78
FEEB
00C7
FEB8
011E
FE14
FEAE
0159
FE5F
FE3F
01B7
FF7D
FEE8
FEE6
0139
0154
FF53
00CF
0111
FE3A
0071
00F1
012F
0045
FFC7
FF5D
0136
FF91
0164
011B
FE5A
017B
FE38
003B
014E
FED1
0093
FE75
0112
013B
FF80
FE1D
00E1
FF07
FF6D
007E
FE68
00E1
FFBA
0179
0046
FED4
FF13
01DF
0138
FEC1
001B
FE64
FF40
01D9
FE7B
FFF6
FFEF
01B8
001B
01DE
FE20
0128
FE38
01AE
0194
0000
00E9
FFA6
FF86
FF6B
FFF2
FF7B
0057
0070
FFDA
0125
FFBA
0136
FE0A
0164
00AF
000D
00A1
01BC
00EE
FE14
00DD
FF4C
012B
004E
00BF
016B
FEA7
0158
0171
01EE
FE6B
019D
0011
FF25
FEB3
01A5
0163
FFF9
0149
FE4B
0173
FF04
00D5
0128
FF10
0101
0105
FFC7
FE9D
0073
FF71
0156
0070
FE17
016B
0173
0053
FEC4
005C
015C
012E
0085
01FF
016F
015E
FEFB
01FE
017F
00B9
00A8
01F4
FE28
FE32
01F2
0095
FF12
FEB1
008F
01B0
0016
0106
FE13
00B2
FF21
FEBE
FF61
0008
01FC
0155
FFAF
FEB0
0193
FE9B
FFA7
0130
01E9
01B9
01DB
00E4
0114
0013
FFC4
01F2
00CE
FEDA
FF0C
01E5
01A9
FE13
002A
00B5
FEA4
0052
01C2
016B
00AC
FF0B
013B
FEC2
FEA0
01C1
FF75
00C1
01D8
FE10
FE78
FF11
00A9
002E
FED5
01F6
FF91
00F0
FF87
FF5A
00BA
0400
