FEAF
006E
FE30
005F
002C
FFDD
FE25
0050
00B0
FEEA
006D
01D1
01B1
00C9
0043
01BA
FF67
01FE
0132
01C2
0194
FE52
0142
FF5C
FE62
00AC
FFB2
014A
0119
0076
FE7C
FED3
0117
01F1
FFCE
FEF5
FF89
FE75
00BF
006A
0137
014A
00DB
FEF8
FF01
0126
FF6E
004F
FFBC
01A8
00FE
FE5F
00A3
014A
FF88
00C9
FE59
FF78
0131
FF80
FEBA
FF95
FE48
00A2
01C9
00B8
00B5
012B
0044
004C
FE49
FE40
013F
0102
00A6
FF51
FE53
FF8C
FEF7
0070
FECF
FF3D
FE86
007E
FFC6
01DE
0195
FF64
0051
0140
FE6C
FEBD
0058
FF24
00AA
01F0
001C
000C
0159
FE38
01C4
00E3
005D
FF13
FF68
FF7E
FE11
00C7
FE30
00B1
0178
013F
01CA
01BB
0111
FE86
01FF
017C
006B
FF12
FF78
FE22
015D
0026
FE22
FF19
FE20
0065
0197
FE64
FEC5
017C
01D3
009D
009A
FE57
01EE
FF8B
FFD1
FF02
FED1
FF02
005A
0146
FFCD
FFF5
01A9
FFF8
01B7
003A
00F2
0011
004D
FECA
01F7
FEF9
FE0E
0003
FF55
01B6
FFBB
FF89
FFCE
FF3E
FE49
0055
010F
FFA7
00D4
01AB
0002
01D6
011A
01B2
FF05
006F
FE0B
FE2B
00EC
0037
00E6
FEB9
01D0
0031
FE35
00E7
FE76
01FB
0096
0051
012C
01CF
01E1
FE09
FEC1
FFAE
FF61
0061
FE7D
FE70
FEB2
FF69
FE71
FF81
01E0
FF5F
FE04
FEE9
00B8
FF3C
FE2D
0155
01C2
FE35
FEF9
0038
017A
FF25
FE63
01F1
0069
0151
FE71
0145
0114
01F5
FFDA
FE4D
018E
FF7A
FF63
018F
FE23
00BF
01B9
FE17
FE71
0115
FE1E
01A5
014E
FE99
0197
FFDE
0148
013D
01C2
FEFF
FEE3
FF0F
FEEE
FF4D
FECB
FF03
FE45
FF35
0400
