DEPTH = 257;
WIDTH = 16;
ADDRESS_RADIX = DEC;
DATA_RADIX = HEX;
CONTENT BEGIN
0 : FE6E;
1 : FE1A;
2 : FFB6;
3 : 0017;
4 : 0092;
5 : FE48;
6 : FEA7;
7 : 00A3;
8 : 0133;
9 : FE28;
10 : 00C3;
11 : 0003;
12 : FEBA;
13 : FE9F;
14 : 003D;
15 : FF9A;
16 : 013D;
17 : 0173;
18 : 01D3;
19 : 018E;
20 : 005F;
21 : FF70;
22 : 000F;
23 : FFC8;
24 : FEF0;
25 : 01B5;
26 : 012F;
27 : 00A9;
28 : FF9B;
29 : FE66;
30 : 01F8;
31 : 00E8;
32 : FF6E;
33 : FFD6;
34 : 0149;
35 : FFE2;
36 : FF3F;
37 : FFA3;
38 : FE49;
39 : FF5D;
40 : 00A1;
41 : FED9;
42 : 0167;
43 : 014A;
44 : 00A7;
45 : FEE6;
46 : 01DE;
47 : 00EB;
48 : FF0A;
49 : 009F;
50 : FFA4;
51 : 010F;
52 : 0080;
53 : 0041;
54 : 007A;
55 : 0159;
56 : FEF3;
57 : 0117;
58 : FE80;
59 : 0101;
60 : FFAC;
61 : FEAF;
62 : FEA4;
63 : FFAB;
64 : FEBF;
65 : 007A;
66 : 00EC;
67 : 0000;
68 : 0050;
69 : FFAE;
70 : 00EC;
71 : FF56;
72 : FEC8;
73 : 0124;
74 : FFB0;
75 : FFA9;
76 : 00FF;
77 : FF2B;
78 : FED1;
79 : 002F;
80 : FE3C;
81 : FEEA;
82 : 00F8;
83 : FFC7;
84 : FFA3;
85 : FE0A;
86 : 00CE;
87 : FE3E;
88 : FF6B;
89 : 0149;
90 : 01B2;
91 : FEAB;
92 : 01BB;
93 : 0044;
94 : FE0E;
95 : FE92;
96 : 00F6;
97 : 002D;
98 : FE61;
99 : 01AE;
100 : 011F;
101 : FEE3;
102 : FE1A;
103 : FF7D;
104 : FFCC;
105 : FE01;
106 : FE59;
107 : FF38;
108 : 0139;
109 : FF00;
110 : FED5;
111 : FEF7;
112 : FF8C;
113 : FEC4;
114 : FE51;
115 : 0139;
116 : 00EA;
117 : 003E;
118 : 0006;
119 : FF7A;
120 : 0013;
121 : 0197;
122 : 0137;
123 : FF5D;
124 : FE65;
125 : 012D;
126 : FE70;
127 : FEFC;
128 : 00C6;
129 : 01E1;
130 : 000B;
131 : FE4C;
132 : FF7F;
133 : 0136;
134 : 000E;
135 : FF98;
136 : 01F8;
137 : FFEC;
138 : FF08;
139 : 010E;
140 : FECE;
141 : FEE1;
142 : FEEA;
143 : 0170;
144 : FE66;
145 : 0039;
146 : FF79;
147 : 00D5;
148 : FE69;
149 : FF9C;
150 : 014D;
151 : FFFC;
152 : 0026;
153 : FFE7;
154 : 012B;
155 : FFFA;
156 : FFFD;
157 : 00A0;
158 : 003A;
159 : 005B;
160 : 016F;
161 : FF67;
162 : FFAB;
163 : FF00;
164 : 00CD;
165 : 0170;
166 : FF04;
167 : FFA3;
168 : FF80;
169 : 0001;
170 : FE37;
171 : 01C0;
172 : 0021;
173 : 0128;
174 : FE6B;
175 : 00F0;
176 : FF7D;
177 : 0109;
178 : FFB7;
179 : 0114;
180 : FE8F;
181 : 01AC;
182 : FE26;
183 : FF49;
184 : 01BF;
185 : 014D;
186 : 007F;
187 : FF54;
188 : FF17;
189 : 0074;
190 : FFDB;
191 : 00AE;
192 : FFCE;
193 : 0106;
194 : FED3;
195 : FFD3;
196 : 01F8;
197 : 010E;
198 : 00B7;
199 : FF9E;
200 : FE0B;
201 : 018D;
202 : 017F;
203 : FFFA;
204 : FE40;
205 : FEF7;
206 : FF67;
207 : FE02;
208 : FEDC;
209 : FE7C;
210 : 015D;
211 : FEBD;
212 : FF24;
213 : FFC6;
214 : 0181;
215 : FFE3;
216 : FE93;
217 : FEFC;
218 : FE31;
219 : FEB1;
220 : FF08;
221 : FE4F;
222 : 0058;
223 : FF47;
224 : FF6A;
225 : 01AD;
226 : 016F;
227 : FE16;
228 : FEC3;
229 : 0151;
230 : FF7C;
231 : 01D1;
232 : FFC4;
233 : FE32;
234 : 01FE;
235 : FE8D;
236 : FEC5;
237 : FFBC;
238 : 0016;
239 : 008C;
240 : 0031;
241 : 00B8;
242 : FE16;
243 : 0177;
244 : 0187;
245 : FE00;
246 : 016B;
247 : FE66;
248 : FE05;
249 : 0189;
250 : 00E0;
251 : FF86;
252 : 019D;
253 : FE93;
254 : 01C8;
255 : FE2F;
256 : 0400;
END;
