FE71
FF46
0196
013B
FF21
0142
FE18
0161
FFCA
FE6E
0021
000C
016C
00E4
FEF9
FE66
00A2
0131
0184
FF11
00F2
FE26
FEAC
FEAB
FFCA
FF97
FF39
0037
00E3
FFCB
FF79
01FC
FE47
00BF
FF4D
00B4
01D3
FE77
019A
FF28
FF84
FE0F
0158
FF12
FE2B
01CF
0056
011F
0006
FF6B
FF4F
01D0
00B3
FFD2
FE37
005F
FF1C
00F5
018A
01CA
0055
FE1D
FF92
004C
FF02
00C2
FFFE
FE2B
FFEF
00AD
FF6C
FED5
FE45
FE7B
FEAC
00F8
0067
00EA
FE9D
0034
01A4
0002
FFAF
01EB
0087
0047
018E
0051
FF88
01A4
011F
FE6E
0145
0137
FF03
0082
FE64
01ED
0001
015F
FEBF
012C
FED9
FEE7
FE38
01F5
FFD0
00F2
0158
FFC8
0059
0058
FE50
00E4
015F
01CB
FF03
011E
FE30
FEAB
FF43
01F2
FE7E
FE27
0035
FFEC
FEF0
FF58
FF32
FF95
006C
FE1E
FF8D
FF93
FF19
FFCB
FF51
009A
FF35
0184
0105
FF53
FFE1
FF5A
FFD8
FF3E
01E7
0088
FF81
FF0D
FF96
00F5
01E4
0095
0004
005D
000C
FF0B
FEE4
00D0
0179
01D5
018D
0185
FEB1
FE8A
017F
01B7
FF37
01A4
FF20
0057
FF27
011A
0168
FFCB
0145
FE2D
FFED
FF21
00E9
FFBD
0149
01F2
FE7D
00C4
0195
FE45
FF2E
0062
00B2
FE8D
0185
009F
01EB
01E2
0109
0158
FF63
FFC9
01C2
FFB5
FEDB
017C
FFE2
FF30
FFAD
0108
01D7
FF91
0015
FF2A
FE29
FFF6
012D
FF2A
FFB6
FE50
01AC
FEF4
013F
0111
018E
FFDF
0115
00F6
FE75
FEC8
FE8A
0022
FF3B
0034
FFF9
0200
0069
FFA5
FF65
FE97
FE31
FE06
00E4
0075
FED9
006D
FFB6
FF5C
0101
FF07
FE08
01C0
0049
01DC
FFA6
FF5B
FE2F
00C3
0400
