003A
FEAE
FF45
0168
FFAC
0074
00E7
01CD
0182
010D
0048
FE22
01E2
01B3
FF30
00CA
FFFF
FE92
01F2
FEF8
FE7D
FFA7
FF17
00DD
00F3
FE9A
0013
FE44
00D5
FE45
00E4
0171
FF2D
000D
004A
0136
0001
FE4F
FF33
0017
0116
0043
FEA7
00AB
0071
00D4
00B4
FF01
0012
0136
0102
0121
0170
FF72
015A
FFEF
00BC
01BC
FE79
01BB
FFDD
FF54
01B7
FFEA
0065
0123
0087
014E
FEBB
0162
0197
0101
FF57
FE47
013C
0080
FF21
0108
FFEE
FFD3
012D
FFF0
0121
FFBA
0054
0107
FE5E
0030
01AB
0043
FFF2
FFEC
0181
FE6F
FF72
FFDE
016E
FFC3
FF51
FFFE
FFAC
FEF5
FEB7
FF48
01E9
FFAA
FFEF
0168
FFD5
0170
FE35
00D8
FFAA
FF90
00C3
FEC9
FE37
FE4B
01DC
00FF
FE7D
FF0D
FF59
0063
FF94
017E
FF76
0015
016F
0043
00C2
FEB8
FEF3
FF4B
0150
01B6
016A
0070
0168
0094
FF51
FE18
FF9C
FE42
00C2
FFDC
FF71
000C
FED1
0149
01DD
FE8E
01A4
FF3F
006A
FF6A
FF19
0153
FF55
0118
FEAB
0073
FE8D
FEF1
006D
FFB5
FE10
FFCE
0182
0091
01CB
FE36
FFC1
0073
FF36
FF18
016B
00D6
FE90
FF81
FF39
01F2
FEE3
FEF5
FF5B
0002
FF3D
FFCB
FF2B
010E
010F
FF2B
FEDF
01C9
FFB4
FE51
FFBD
00B2
FFED
014C
0059
FE2B
0051
01FF
FFD7
FF39
000D
01BA
FFD3
FEE8
FFB7
FF9E
FF97
01E5
FEFD
FEB4
0040
FF4E
FE7C
005F
01D9
FF3A
FEF6
FE75
01FB
00EF
FE5C
005D
01F4
FF75
0125
0131
003E
FEBF
FE3B
FFDD
FF47
FF98
01B5
0064
FF3C
017D
FF69
FF14
FE24
FF4E
FF5E
017F
FF86
018E
001D
0007
0011
001B
0066
FE4B
0400
