01E1
FE15
00D5
0068
00CF
00CA
00F7
0182
015E
01E1
FF86
0060
0091
00E1
00E4
FEEB
00C9
FE4F
FE7B
FEEC
FE88
FF96
FE50
FE22
0033
0139
FFEF
01DA
FF30
FF6A
00F3
01D3
002F
009B
FFA6
FFD9
FE87
01F9
00CF
FFF9
01A0
FF9F
01B8
0137
FE62
00EA
0164
FF49
005A
FECF
0188
00F2
009E
0063
0109
01A2
0094
FFF5
0051
0045
FE77
FFAC
FE46
00DC
FE34
01DC
00A8
FF2F
0018
010E
006B
FE3D
016F
FF36
0181
013C
0092
FF33
FEF3
FEC9
000F
003D
0168
FF60
01DE
FFC8
000B
0098
FF66
FF4F
0147
004B
0022
01CF
FF57
01A9
FE21
FEC0
FE40
FE34
FF69
FE31
01C3
000C
00FA
FF54
0107
0193
0043
FED7
FE32
01BD
0001
FED8
0115
01F7
0196
FE18
FED7
FEC6
0186
FE4A
015A
FF3A
00EA
0080
FE90
FF87
FF82
01BF
FFA1
FEC4
FF52
01D4
FF87
0092
0162
018E
FFB5
00A8
0063
FE77
FE44
0049
0190
FF9C
01B6
0199
0138
0075
FF2A
FE73
008D
FF3F
FE13
00BF
016E
FE80
0146
FFE2
FF03
00CC
FE14
01F0
000D
FFD0
FFBA
012F
FEE8
00D2
FFA2
FE31
01D0
FF97
01BA
00AF
FF33
FE8E
FE74
0041
FE56
01E3
00C3
0039
0051
017B
017C
00AB
FFD0
0161
FF6E
007E
FF88
FE62
0066
FFF7
0020
0074
00A6
FF28
005F
FF26
0063
FFED
003E
0071
0068
FF72
FFCA
0049
FF5B
00BA
00B0
01E0
FFED
FF42
0080
FF95
01F9
00C0
FF91
01D4
002A
FE14
FFB2
FE9A
FE2E
01F2
FF16
FE5B
FF04
FEA0
015F
005A
00BC
0004
014F
FEDE
FE09
019D
007F
FEBF
FF9B
FE04
0181
006F
FF4C
FFDA
FEB9
FF42
0003
FE22
FE73
01C7
0090
FFBA
0400
