FFC3
00BD
FE64
FF38
0017
FE82
FF71
014A
0169
0015
0117
0015
01B4
01BD
00F2
FFB2
FFAC
0113
01F0
017F
FE3E
FE54
00ED
001B
FE62
FEDE
0174
00F3
0068
01EB
FF2C
0132
00A1
FE6C
FFFE
0028
FF6B
FE52
FE49
0101
FE89
FF23
FFFD
FF16
0006
FE68
01AC
FEC4
FEF8
008D
0074
005C
FF14
FF4C
008C
01C2
017F
FEDF
FEE2
00B1
FEED
003A
0184
FEAC
FE11
0060
0089
00A6
002A
FEBE
FE2D
FE64
FF02
00B6
00F8
00D2
FF3B
FE7E
FFEF
FE06
FEE7
FFE6
0107
FEBC
FF8C
FE32
FE35
00F2
FF25
0167
00FD
FE3A
00B2
011B
00DF
FEFB
01E1
FE77
FED7
0060
001E
FE81
FE75
0036
00F7
003F
0136
00B5
FFE5
0103
FE15
0188
FFA0
FF03
FEBC
01BC
FF79
01A8
FF78
FFEB
01F1
FFB4
01B0
FEE5
FE9D
0011
01A0
FEA6
FFCF
FED0
001A
005B
000E
FE5E
0110
00E2
FE37
FFBA
FFAD
0066
01BA
FE6F
01E9
FEA9
FF4F
0115
FF37
FEFF
0021
002E
FEA4
FF27
010B
0089
FEDC
018A
FE08
01A3
FE1D
FEB5
FFB9
FF71
0152
007F
FFB6
0063
FE37
01D0
FF5B
0126
FF61
00DD
FF8C
FE29
00DA
FF79
FE77
0032
FECA
FFBB
0165
FE7D
0149
0172
0010
FEF6
FEA6
FEC7
FFA9
FFDB
FF4B
0174
FE73
0123
0129
FECE
014A
0107
01A9
0135
FF15
FEC5
FF9A
01AD
01FE
01A1
FE6D
FEAE
FF0B
019B
0002
FFB9
00BC
FF83
FE98
FE13
018A
FF39
FF30
FF3D
FE20
01F2
FE41
FF68
014D
01B2
0018
010B
011E
0184
FE7B
00A0
FE4D
FFC0
018F
FFAE
FFAC
00D9
01ED
00D8
00BD
001E
0135
FF76
FF02
00EB
FEF6
0119
0106
01BB
FEFC
FED1
01F3
FFE8
0156
FFAF
0400
