DEPTH = 257;
WIDTH = 16;
ADDRESS_RADIX = DEC;
DATA_RADIX = HEX;
CONTENT BEGIN
0 : 0039;
1 : 0145;
2 : 00A4;
3 : FF08;
4 : FF7C;
5 : FF7F;
6 : 01F2;
7 : FE57;
8 : FFED;
9 : FE9E;
10 : 0053;
11 : FF28;
12 : FF88;
13 : FFAD;
14 : 01A8;
15 : FEB4;
16 : FFCE;
17 : FFB4;
18 : 01FD;
19 : FF18;
20 : FFA1;
21 : 01E9;
22 : FE31;
23 : 01FF;
24 : FE67;
25 : FF37;
26 : FE7C;
27 : FE92;
28 : 015E;
29 : 017E;
30 : FFB8;
31 : FF0A;
32 : 005F;
33 : 00AC;
34 : 0169;
35 : 019D;
36 : FED0;
37 : FF25;
38 : FF80;
39 : 005B;
40 : FE96;
41 : 0050;
42 : 0120;
43 : 007D;
44 : 0080;
45 : FF00;
46 : 0130;
47 : 00B1;
48 : 0195;
49 : FF91;
50 : FED3;
51 : 00C5;
52 : 01C0;
53 : 0169;
54 : 0145;
55 : 01E7;
56 : 019C;
57 : 0030;
58 : FE77;
59 : FEA8;
60 : FEA0;
61 : FF97;
62 : 014C;
63 : 00B1;
64 : FE3C;
65 : FED6;
66 : 00F0;
67 : FEA7;
68 : FE5A;
69 : FE54;
70 : 0076;
71 : FFB5;
72 : FF48;
73 : FF31;
74 : FF31;
75 : FE3E;
76 : 0138;
77 : FECA;
78 : 0014;
79 : FF56;
80 : FF8F;
81 : FFE8;
82 : 0024;
83 : FFBB;
84 : FF1E;
85 : FF0E;
86 : 01FE;
87 : FF5D;
88 : FFFD;
89 : 01B7;
90 : 0053;
91 : FE7B;
92 : FE24;
93 : FF3A;
94 : FFD8;
95 : FEAD;
96 : 00DE;
97 : FE26;
98 : FE36;
99 : FFDE;
100 : FE32;
101 : FFE2;
102 : FFA4;
103 : 00AD;
104 : FE57;
105 : FE7C;
106 : FEAB;
107 : 01A9;
108 : 018F;
109 : FEF2;
110 : FE2D;
111 : 0158;
112 : 010B;
113 : FEAC;
114 : 002E;
115 : FFFC;
116 : FEB7;
117 : FF41;
118 : FED8;
119 : FF59;
120 : FF62;
121 : FEC6;
122 : 01E5;
123 : FF44;
124 : 009F;
125 : FE79;
126 : 0084;
127 : FF29;
128 : FFB2;
129 : 004D;
130 : FEE8;
131 : FEAF;
132 : 013C;
133 : FF28;
134 : FFA3;
135 : FE24;
136 : 0154;
137 : FF17;
138 : FE66;
139 : FF3E;
140 : FFA1;
141 : FF6C;
142 : FFA5;
143 : 00F0;
144 : FF34;
145 : 003D;
146 : FF2D;
147 : 00BF;
148 : 0145;
149 : 0091;
150 : FEC8;
151 : 01C8;
152 : 01C1;
153 : FFCE;
154 : 006D;
155 : FE63;
156 : FE8F;
157 : 0013;
158 : FFD5;
159 : FFFE;
160 : 015B;
161 : FF4B;
162 : 015D;
163 : 0120;
164 : 00ED;
165 : FEFD;
166 : 01D1;
167 : FFE7;
168 : FE15;
169 : FE1A;
170 : FECB;
171 : 019E;
172 : FF10;
173 : FE83;
174 : 007D;
175 : FED4;
176 : 007D;
177 : FEB2;
178 : 0172;
179 : FE12;
180 : 01FD;
181 : 01CC;
182 : 008B;
183 : FE98;
184 : FEC9;
185 : FF3D;
186 : 0163;
187 : 01DF;
188 : FF50;
189 : FE68;
190 : 00BB;
191 : FFF7;
192 : FF66;
193 : 00BA;
194 : FF52;
195 : FF2B;
196 : FF4F;
197 : FEDF;
198 : FF39;
199 : 0047;
200 : FE06;
201 : 01C8;
202 : 01A2;
203 : FF60;
204 : 00CF;
205 : FE98;
206 : FE67;
207 : FEF1;
208 : 00D6;
209 : FF7C;
210 : FE61;
211 : 01B6;
212 : 004D;
213 : FEC5;
214 : FEF0;
215 : FEFF;
216 : 01A6;
217 : 0153;
218 : 01ED;
219 : 0001;
220 : FE3E;
221 : 01CC;
222 : FED6;
223 : 00EB;
224 : FED6;
225 : 0182;
226 : 01C5;
227 : 0124;
228 : 0170;
229 : FFEB;
230 : FE11;
231 : FF10;
232 : 013B;
233 : 0070;
234 : 01AD;
235 : FE2A;
236 : 0155;
237 : FF65;
238 : 01FE;
239 : 00DE;
240 : FEFA;
241 : 0093;
242 : 00AF;
243 : 00FC;
244 : FFCE;
245 : 0046;
246 : FF1B;
247 : FFFA;
248 : FE19;
249 : FFBD;
250 : 01FD;
251 : FF6B;
252 : 0002;
253 : FEC6;
254 : FEFA;
255 : FE25;
256 : 0400;
END;
