DEPTH = 257;
WIDTH = 16;
ADDRESS_RADIX = DEC;
DATA_RADIX = HEX;
CONTENT BEGIN
0 : FEB5;
1 : 0095;
2 : FE19;
3 : FF20;
4 : FF6A;
5 : FFDB;
6 : FEC1;
7 : FF1C;
8 : 01C2;
9 : FE78;
10 : 007F;
11 : 01A0;
12 : 0166;
13 : 00C5;
14 : 00A3;
15 : 013A;
16 : FFD2;
17 : FF3E;
18 : 0131;
19 : FF13;
20 : 01B5;
21 : FEF9;
22 : 0198;
23 : 0097;
24 : FF43;
25 : 0126;
26 : 01D2;
27 : 0191;
28 : 0043;
29 : FECB;
30 : 009E;
31 : FF07;
32 : FF53;
33 : 01E3;
34 : FF1B;
35 : FE8F;
36 : 0074;
37 : 0162;
38 : 0111;
39 : 00A2;
40 : FEC3;
41 : 01ED;
42 : 007D;
43 : FE4B;
44 : 01E0;
45 : 00A1;
46 : FF26;
47 : FF13;
48 : 00A0;
49 : 00E4;
50 : FFDB;
51 : FF7A;
52 : 00AB;
53 : 004C;
54 : 00E6;
55 : FFD5;
56 : FF50;
57 : 0139;
58 : FF73;
59 : FF67;
60 : FEE8;
61 : 0113;
62 : FF1B;
63 : FFB7;
64 : FE38;
65 : FF86;
66 : 0093;
67 : FFC2;
68 : FED4;
69 : 004D;
70 : 00EB;
71 : 00B0;
72 : FE91;
73 : 01CB;
74 : FF92;
75 : FEB7;
76 : FF54;
77 : 0049;
78 : 004F;
79 : FFCC;
80 : FFFE;
81 : 016A;
82 : 01E9;
83 : FEAD;
84 : 015B;
85 : FFAF;
86 : FEFB;
87 : 0149;
88 : FEF2;
89 : FED8;
90 : 005B;
91 : 0141;
92 : FF33;
93 : 000A;
94 : 0126;
95 : 0136;
96 : FEFD;
97 : FE1D;
98 : 001F;
99 : 0067;
100 : FFCD;
101 : FE57;
102 : 0059;
103 : 01A1;
104 : 0196;
105 : FFF8;
106 : FF89;
107 : 01B8;
108 : FE6A;
109 : 0114;
110 : 0079;
111 : FFC6;
112 : 01E2;
113 : 00AE;
114 : FEDE;
115 : FF74;
116 : 0000;
117 : 011D;
118 : 007C;
119 : FE27;
120 : FFA5;
121 : FE74;
122 : FE7C;
123 : 00B9;
124 : FF27;
125 : 008D;
126 : FF32;
127 : FFF2;
128 : 005A;
129 : FECC;
130 : FE85;
131 : FF3C;
132 : FE59;
133 : FF43;
134 : 0058;
135 : FF59;
136 : 01B8;
137 : 0174;
138 : FF8F;
139 : FFD9;
140 : 0048;
141 : 00B7;
142 : 01D7;
143 : 00F5;
144 : FF06;
145 : 0170;
146 : FEC1;
147 : FE96;
148 : 0170;
149 : FEC1;
150 : 0038;
151 : FF69;
152 : FE70;
153 : 00DD;
154 : 0043;
155 : FFF8;
156 : FF0B;
157 : 01DC;
158 : 00E6;
159 : 00B7;
160 : FF6C;
161 : FFF3;
162 : FE33;
163 : FF2E;
164 : FED7;
165 : FF75;
166 : 0071;
167 : 0107;
168 : 0075;
169 : 00A4;
170 : 00B7;
171 : 017B;
172 : FF68;
173 : FFE6;
174 : 0118;
175 : FEC0;
176 : FF5D;
177 : 00B4;
178 : 018A;
179 : FF3C;
180 : 0009;
181 : 01A4;
182 : 015B;
183 : 013E;
184 : 007F;
185 : FED8;
186 : 0164;
187 : 018B;
188 : FE50;
189 : 01B2;
190 : FE7A;
191 : 0071;
192 : FE01;
193 : FE0D;
194 : 005E;
195 : FE11;
196 : FF00;
197 : FE8B;
198 : 0197;
199 : 00B8;
200 : 0150;
201 : 008A;
202 : FFC7;
203 : 0026;
204 : FEE1;
205 : FF4C;
206 : FE01;
207 : 0032;
208 : 0027;
209 : FF63;
210 : FE68;
211 : 0170;
212 : FF16;
213 : FF95;
214 : FE82;
215 : 0131;
216 : FFE5;
217 : 000F;
218 : 01DD;
219 : 0115;
220 : FE52;
221 : 0183;
222 : FE32;
223 : FE82;
224 : FF57;
225 : FF5E;
226 : 0169;
227 : 0021;
228 : 0014;
229 : FFCF;
230 : 0137;
231 : 0085;
232 : FE8A;
233 : 013B;
234 : FE67;
235 : FEFB;
236 : FE03;
237 : FF17;
238 : FF93;
239 : 00D3;
240 : FECE;
241 : 00FD;
242 : 015F;
243 : FE85;
244 : FF2A;
245 : FEEC;
246 : 019E;
247 : FEA2;
248 : FEEB;
249 : FF98;
250 : FEA2;
251 : FE30;
252 : FF04;
253 : 009E;
254 : FF90;
255 : FE11;
256 : 0400;
END;
