FFFA
0115
003F
010B
016D
0003
0081
FF80
FF75
FED3
FFD8
FE7C
FFC3
0019
FFD0
011A
FE85
FF10
0183
FE5E
017C
FEFD
FFF8
016B
FF64
0106
FFCD
FE63
FEFD
FE0A
FFD9
FEA4
FF42
00D7
002A
0147
008C
0095
FE1A
FE9E
FFAB
0112
FE36
FF7B
FE02
FEEC
FF37
FF37
FE6C
01B5
FFF7
FE3A
FE28
010D
007F
010F
FF92
0135
FF85
FEB2
0030
FF3B
FEE4
007E
017E
0104
00CD
00C6
0132
FEB9
01EA
FFA4
0062
00A7
FE4B
FF00
00FF
FEBF
008A
FF6E
006F
FF93
0106
FF4E
FF40
00C0
FF70
0161
FE64
FECA
0093
FE85
FE2E
01D7
FE11
0095
0193
0178
009A
0094
FE86
01DD
FEDF
FFA5
003B
FF26
FFA2
01F9
FE00
0022
FF82
FF67
FE00
00AE
FEC3
FF06
FE3A
0126
FEF5
FF24
FE1A
FF56
FF4C
FEFF
0092
FF6A
0139
0019
FE12
FFC4
0164
005A
00A3
0138
00B2
0058
FFE8
FE82
0007
FE8C
01CD
004D
FF43
FE2A
FF66
FF0F
FF68
FEA9
0190
007C
FF5C
FF84
FECB
00B7
0101
008C
01EA
FE3A
FFC5
FED0
0125
FEAA
00C7
FE5B
0081
011B
FE8F
0136
018E
005A
016C
FE84
FF73
0111
0180
FF17
005C
0101
01B0
FE71
0125
FE1A
01E1
FED3
FF98
01F3
0085
0084
01F5
FF14
01B1
FF4F
FFF5
0001
004C
FF40
00FC
FFA6
013E
00E3
FE6D
FF80
01EA
FEAB
FE2E
FF0D
010C
00DD
0188
0099
FF61
FF11
00C0
0070
FF00
0117
FFCA
01B4
00F2
0138
0181
01BB
0144
00B1
0197
01FC
FE5A
0030
010C
FF62
FEAC
0128
FF61
FE7F
FECE
FFF1
002C
FECF
01A7
0146
FFE9
FEC7
0001
01F4
01C6
FE50
0033
005B
FFF3
002E
FF72
00AC
0011
FF4D
FF70
0171
0400
