FEB5
0095
FE19
FF20
FF6A
FFDB
FEC1
FF1C
01C2
FE78
007F
01A0
0166
00C5
00A3
013A
FFD2
FF3E
0131
FF13
01B5
FEF9
0198
0097
FF43
0126
01D2
0191
0043
FECB
009E
FF07
FF53
01E3
FF1B
FE8F
0074
0162
0111
00A2
FEC3
01ED
007D
FE4B
01E0
00A1
FF26
FF13
00A0
00E4
FFDB
FF7A
00AB
004C
00E6
FFD5
FF50
0139
FF73
FF67
FEE8
0113
FF1B
FFB7
FE38
FF86
0093
FFC2
FED4
004D
00EB
00B0
FE91
01CB
FF92
FEB7
FF54
0049
004F
FFCC
FFFE
016A
01E9
FEAD
015B
FFAF
FEFB
0149
FEF2
FED8
005B
0141
FF33
000A
0126
0136
FEFD
FE1D
001F
0067
FFCD
FE57
0059
01A1
0196
FFF8
FF89
01B8
FE6A
0114
0079
FFC6
01E2
00AE
FEDE
FF74
0000
011D
007C
FE27
FFA5
FE74
FE7C
00B9
FF27
008D
FF32
FFF2
005A
FECC
FE85
FF3C
FE59
FF43
0058
FF59
01B8
0174
FF8F
FFD9
0048
00B7
01D7
00F5
FF06
0170
FEC1
FE96
0170
FEC1
0038
FF69
FE70
00DD
0043
FFF8
FF0B
01DC
00E6
00B7
FF6C
FFF3
FE33
FF2E
FED7
FF75
0071
0107
0075
00A4
00B7
017B
FF68
FFE6
0118
FEC0
FF5D
00B4
018A
FF3C
0009
01A4
015B
013E
007F
FED8
0164
018B
FE50
01B2
FE7A
0071
FE01
FE0D
005E
FE11
FF00
FE8B
0197
00B8
0150
008A
FFC7
0026
FEE1
FF4C
FE01
0032
0027
FF63
FE68
0170
FF16
FF95
FE82
0131
FFE5
000F
01DD
0115
FE52
0183
FE32
FE82
FF57
FF5E
0169
0021
0014
FFCF
0137
0085
FE8A
013B
FE67
FEFB
FE03
FF17
FF93
00D3
FECE
00FD
015F
FE85
FF2A
FEEC
019E
FEA2
FEEB
FF98
FEA2
FE30
FF04
009E
FF90
FE11
0400
