0065
00EE
01CE
FF80
FE64
0048
00C9
01BF
FE1B
FE2E
0177
01BB
0163
FE71
0149
FF5E
0161
0173
FFE6
01C7
FE0A
003D
00CF
0079
001A
FEBA
00B9
FEB9
FE57
FE2B
00B9
000D
FFF0
FFD5
FE54
002D
0078
FE59
FF97
01BA
FE4B
FE33
00D4
012E
FF6E
FE09
FE0C
FFFF
0177
0064
FF16
FF40
00F8
007B
00AF
FE90
010D
FFD1
FF50
FFA1
FFA2
FFE7
FE21
0020
FE1D
FF09
FE54
FE0E
006C
002A
01D5
FFA8
FE40
FF5B
FF82
01D3
FE98
FF6D
008B
FF41
FFF1
FE3A
01B3
FF46
FEF4
013D
FF5E
004E
FE3A
FEBD
FEC1
FEBF
0058
00E0
FFCE
0134
FFF3
000D
FEAC
0122
017E
FED0
0188
00BD
FF2F
FE8A
FF48
FF01
FEB1
FF2B
FEDD
FECD
018C
FFEF
FEF8
FF0D
FF3D
FE67
FF79
FFE0
FFEE
0076
001F
01C0
FFE7
FF70
0057
000A
FF44
FF83
FED4
FF57
FE76
00B2
0125
FE78
0003
00FA
0005
FF0D
FE0C
FFCD
0014
FF0F
FE83
0163
01A5
0026
0143
01AC
FED4
0189
00FE
FE8E
FE81
FEBF
FF2C
FF4D
003C
017B
FF46
FFE7
FEDB
002F
FE24
FF31
005C
001D
0096
FE9E
009B
003B
00B4
000D
FF6E
00B4
FED1
00B2
0194
00E8
FE47
FEDD
FE12
00BE
00B6
016F
002F
FE82
002D
0182
002D
0107
FFA4
FFB6
FE0C
FE53
00B8
006C
FE67
FF07
FE36
00C9
FE3B
003C
FF1A
0149
FE21
FF19
FE6A
0000
008C
FEBF
FE1E
FE95
0167
01D0
FE4C
FFF6
FEF7
0065
FEDC
01E3
0134
FEC0
FFD5
FF7D
01F3
0050
0157
FFF0
0039
0147
00EB
0158
FF99
0060
FFAD
FE48
0188
0177
FE54
FE8C
FE32
018C
FFBE
0200
00D0
002F
01A1
FFD6
0024
009B
01B9
00FC
FFC4
01A2
0400
