DEPTH = 257;
WIDTH = 16;
ADDRESS_RADIX = DEC;
DATA_RADIX = HEX;
CONTENT BEGIN
0 : FEF8;
1 : 01F1;
2 : FFF5;
3 : FE94;
4 : 01CD;
5 : FF47;
6 : FE5D;
7 : 019F;
8 : FEA5;
9 : FEFC;
10 : FE9D;
11 : FE68;
12 : 0133;
13 : 0194;
14 : FFF3;
15 : 0179;
16 : 002A;
17 : 010B;
18 : FE6E;
19 : 011F;
20 : FE1F;
21 : FE8F;
22 : 00AB;
23 : FFF5;
24 : 0003;
25 : FEB3;
26 : 010F;
27 : 006D;
28 : FE97;
29 : FFC3;
30 : 0012;
31 : 0128;
32 : FE2B;
33 : FFB1;
34 : FE71;
35 : 01E8;
36 : FF9B;
37 : FFF5;
38 : 0081;
39 : FFC7;
40 : FF33;
41 : FE01;
42 : FF7D;
43 : FF64;
44 : FEA7;
45 : FF86;
46 : FFFC;
47 : 01CA;
48 : FF6B;
49 : FEF7;
50 : 0190;
51 : FEAA;
52 : 01AF;
53 : FF1C;
54 : 004A;
55 : FE9D;
56 : 0050;
57 : 0104;
58 : 0101;
59 : 00A6;
60 : FFC5;
61 : FFF8;
62 : FE35;
63 : 0103;
64 : FE40;
65 : FF83;
66 : 01E1;
67 : 0057;
68 : FE19;
69 : 00F0;
70 : FF24;
71 : FFFC;
72 : FEFF;
73 : 0105;
74 : 01F3;
75 : FFEF;
76 : 016F;
77 : 003D;
78 : FF4A;
79 : FE2A;
80 : FEE9;
81 : FFE3;
82 : 011F;
83 : FF31;
84 : FE89;
85 : 002F;
86 : FF2C;
87 : FFBD;
88 : 0147;
89 : FF14;
90 : 01A3;
91 : FE11;
92 : FEA5;
93 : FFB6;
94 : FE82;
95 : 0060;
96 : FF3F;
97 : 00E6;
98 : FE55;
99 : FF67;
100 : 00DA;
101 : 010B;
102 : FE09;
103 : 0058;
104 : FE35;
105 : 0119;
106 : FF44;
107 : FF56;
108 : FFFE;
109 : FE23;
110 : 0067;
111 : FE86;
112 : 00D0;
113 : FFEE;
114 : 0021;
115 : FEFC;
116 : 00D2;
117 : 01AB;
118 : 00DC;
119 : 0053;
120 : FFD3;
121 : FEA2;
122 : 0182;
123 : FED3;
124 : FFC6;
125 : 0173;
126 : 0189;
127 : FE35;
128 : FE22;
129 : 013F;
130 : 0103;
131 : 01DF;
132 : FE9E;
133 : 0172;
134 : 00DB;
135 : FFAC;
136 : 007D;
137 : 004C;
138 : FE42;
139 : FEDB;
140 : FFE7;
141 : FF4E;
142 : FFD8;
143 : 0029;
144 : FEC4;
145 : 0120;
146 : 0053;
147 : 012A;
148 : 017D;
149 : 0062;
150 : FF52;
151 : FF8C;
152 : 01BF;
153 : FF76;
154 : 0043;
155 : FFB1;
156 : 0037;
157 : 0045;
158 : 0099;
159 : FE7A;
160 : 00FB;
161 : FE34;
162 : 002E;
163 : 0096;
164 : 014F;
165 : 01BF;
166 : 00B8;
167 : 01F8;
168 : FFA8;
169 : FFE5;
170 : FFA6;
171 : 006F;
172 : 010C;
173 : 0157;
174 : FF4D;
175 : FF02;
176 : 001F;
177 : 0108;
178 : FF81;
179 : 01B4;
180 : FEE1;
181 : FE26;
182 : 019F;
183 : FEEF;
184 : 0043;
185 : 00C2;
186 : FEF4;
187 : FFDD;
188 : 0075;
189 : 00D0;
190 : 00DB;
191 : FE4A;
192 : FEEE;
193 : 01A7;
194 : 0075;
195 : 0155;
196 : FE8C;
197 : 01BE;
198 : 0158;
199 : FE9A;
200 : 00D4;
201 : FFAF;
202 : FF2B;
203 : 0077;
204 : FEAE;
205 : 00B3;
206 : 016C;
207 : FE98;
208 : 0160;
209 : 001F;
210 : 0053;
211 : 00A2;
212 : FEE1;
213 : FEE3;
214 : 00FE;
215 : FFDC;
216 : FECD;
217 : FE09;
218 : FF54;
219 : 0066;
220 : 01E7;
221 : 01B7;
222 : 0194;
223 : FED2;
224 : 00FC;
225 : 017B;
226 : FF50;
227 : FED7;
228 : 0034;
229 : FFD4;
230 : FFBC;
231 : FE74;
232 : FE55;
233 : 0040;
234 : 00FD;
235 : 0000;
236 : 0091;
237 : 0133;
238 : FEB9;
239 : 0122;
240 : FE59;
241 : FFDC;
242 : 00E6;
243 : 0193;
244 : FE63;
245 : FF7C;
246 : FF01;
247 : 0034;
248 : 00FC;
249 : 00D0;
250 : 0005;
251 : 013C;
252 : FFDB;
253 : 013C;
254 : 012B;
255 : FF2B;
256 : 0400;
END;
