FF66
FF5B
0088
019A
003C
011C
FE56
FF81
013D
FF4A
01F6
FE41
FF8F
FEFB
006A
FE55
FF18
009E
00B9
FE54
00AC
FF4F
FF9E
0184
007F
FF3A
0076
0142
FFFC
00E9
FE53
FE89
01FB
0055
FE24
012E
FFA1
01EC
0176
004F
FF29
01AC
FF61
FF0A
FF27
0032
FE35
00B2
003E
FFE6
FE47
012C
FE67
FF13
FFE0
FEEB
0198
00A1
0044
0149
01F4
FEA0
01F8
FE53
FE51
0029
0136
FF62
0099
FE0E
013F
FF9A
FEC3
01A3
FE48
FE7F
FF63
003C
FF1B
FFC0
FFD0
0009
01D9
01B5
FE43
01E7
01E6
0158
FE48
008D
FF72
FEB2
FF08
FF82
01DD
FFCA
FF25
FFD8
FEC2
FEAC
FF17
00FF
016B
FF89
01BA
FEE8
FE49
0065
FEFB
FE1D
FE45
FF0C
0166
002A
FFD1
00D1
FFC1
01E3
00FA
FF48
002D
0024
0191
01C3
006F
011D
FEEF
0178
FF55
01E7
FFF7
FF08
FF0F
FF1A
FFB3
014F
01C6
FE4D
0050
FF4A
FE81
FEAD
FFFC
FE8A
00AF
FEA1
0009
FECC
FEE1
FE31
00FA
FF39
0075
006B
017B
FF1D
00E9
0082
FFB6
010D
FF74
01A2
FFE3
0091
FE46
00E7
FEF9
0132
01B7
FE3C
00B8
FF5C
0105
006D
FF8F
FEE9
017A
019F
FF3B
FFB2
FF9C
FED3
FFA3
00C2
FF48
FE61
0102
FF08
FE54
FF58
FFF1
0124
FE42
FEE1
016A
0152
00FE
01B1
005B
FEEF
01C3
FF89
FE71
FE4D
FFC4
00EA
FFEF
0053
012F
0035
01B8
FE7C
01E9
FE39
FFED
FE0E
FE99
01DD
FE14
01C7
FED1
FEC6
FF6F
FEB0
01EE
0018
FFCF
014E
0027
00F6
0119
FFC7
0091
FEA2
FE15
0023
FF92
0081
FEE0
019A
0138
FF65
FE40
FE68
FE37
FE74
FEF0
018B
FED0
FE4C
00C1
FE37
0118
01D6
01A5
0189
0400
