FE11
00B6
005D
FE2A
018D
FFC4
0033
FE3B
00AD
FEAF
FF08
0145
004E
FE79
01A8
FE13
017C
FE2F
007C
FF62
0079
FFFD
00BC
01C7
FEDD
0090
FE6C
FFC2
FF89
015C
FFA4
FE79
FE73
017E
FF20
0151
017B
0022
00E3
01A3
FFE5
00FD
FFF0
FEFD
0005
FE35
01DE
0030
00C9
002A
FFB7
FFAA
00F3
FEC9
018B
0174
FEC3
FF16
00C4
FF41
FF91
FE24
FE3A
00B8
FE3F
0098
FFC5
00A4
0063
0190
004F
0172
FEEF
FEF7
FF3B
FE01
FF85
FEAA
0067
0042
FEBD
FF21
00E2
FE63
FE32
FE73
FE4D
0081
0144
FF16
FE67
FF33
0154
0163
FFF6
FFE3
01BC
FF1C
FF14
00AF
FE06
0040
FFAE
FF8C
FEDB
FECA
013F
FEDC
FFF0
FFBB
010F
FF58
0022
009E
FF13
FE33
01F6
FE78
0194
00E6
00CB
FF36
FE0E
FE79
FFFB
FECB
006B
0134
FFD0
FEEF
FE88
0140
FEA5
FE0F
FE64
01D5
FE73
01B3
FE04
00B0
00FC
FEFA
01CD
00D7
FF10
01A6
0182
0024
FE87
FF49
0001
FFEF
FE2B
0153
00B8
00DF
FFAB
012F
FE36
FF1F
0124
012D
FE9E
0071
FEFB
FE03
FE8F
005B
FE1A
FF4D
0061
00DE
FE20
0092
01E8
0067
0008
0145
FFDC
01EB
0048
FF1E
009D
FF51
FF17
FF56
014E
01B3
010D
FE86
012C
FF43
FF28
FFB3
FFE0
FEE8
FE73
FE7D
0034
00A6
01B4
0003
FEF3
007F
00DD
FFA6
FEF0
FFC1
FE60
0078
FE08
00C7
017C
FEA8
0150
01A3
FFB3
0173
FF72
FEC2
016C
FE64
01FB
FFB4
FF72
018B
FFE0
FE22
FF9F
FE12
0189
0048
00C1
FEC5
00D4
000C
FFF2
FF80
0102
FF73
00A0
FE5A
000F
001C
FF56
FF01
FFBF
0095
0174
FE24
0195
FE70
00A0
0003
01A2
FEF2
0400
