00E4
FEC8
FFF8
004F
007B
FFD3
0190
01CD
002D
FF89
0199
FEEE
00EE
017E
002B
FEBE
0054
FE42
FFF7
FECD
FE08
FEC8
FE13
01D2
0124
FFD6
FF94
FF81
01ED
00EC
FF0A
FFAD
FE2F
FFE4
FF73
FF04
0113
0104
FE92
00F6
0060
FFBF
FF0A
0047
FFEF
FED2
FF0F
FF97
FE46
FF7D
FF67
FEE1
FFAD
FE3A
014A
FF3A
FFE9
0148
014B
FF70
004D
00BB
006A
0061
FE87
FF1F
0142
FE58
FE86
FF93
01DD
00C4
FE2C
FF69
01D1
01D3
FE29
FFB0
FF0D
0160
FF9F
0022
0027
FF26
00AF
FE4F
FFD6
FFCC
FEEF
00EE
FFC5
00DF
01FF
FE04
FE74
FE35
018F
01DF
014F
00F7
FF5A
008F
0019
00AA
019A
FFD8
000A
FE99
FEE0
0104
00E1
01BC
FF9E
004A
00C3
FE43
0092
FFE8
00AD
00DE
FEFB
FE02
FE32
0026
0136
0144
FEC7
FFBF
01F2
FE78
FF3D
FE85
006D
FEB4
013C
FE09
FF41
FF8F
0193
FE5A
FE60
0159
013D
01BC
0081
FFCB
FF46
FF4B
FFCE
FE03
FEB1
FF62
0033
FFF0
0048
005A
FE5D
002B
FF43
007D
FFBE
00DB
FE87
0139
0169
FF75
0089
FEB5
FE2C
FE27
FEDB
FF33
FFB4
FEAF
017F
FEED
01FF
FF15
FF98
FE37
0008
FF99
FEDD
00F2
FF51
01D7
01EB
FFCC
FF74
FE28
FF7C
011B
FF9E
0098
015E
FE38
FFED
010D
01B3
FEB7
00B2
FE2B
FE65
FFAF
FE75
0021
FEF0
FF2B
0036
0055
00B7
FEE0
FFE5
01DD
FE0C
0194
01F0
FFA0
014A
FFF8
00E1
011B
FFC1
009D
01C4
FEBC
FFA5
0116
00C5
0008
FE87
FF93
FE7A
FF89
FFE1
00AE
FE4E
FFE1
FF13
FE22
FF2A
FE75
00A4
00D5
00A6
FEB5
FFC7
FE99
0132
FFE3
FF50
011D
FF80
016E
FF0B
FF72
0400
