DEPTH = 257;
WIDTH = 16;
ADDRESS_RADIX = DEC;
DATA_RADIX = HEX;
CONTENT BEGIN
0 : FF93;
1 : 01E4;
2 : FEFA;
3 : FF10;
4 : 0083;
5 : FFD1;
6 : 00C8;
7 : 0085;
8 : FF82;
9 : FFC2;
10 : 0144;
11 : FF92;
12 : FE5E;
13 : FF72;
14 : 005C;
15 : FF17;
16 : FFED;
17 : 0130;
18 : 0077;
19 : 01AF;
20 : 0022;
21 : 0052;
22 : FF98;
23 : FF85;
24 : FFF4;
25 : FE64;
26 : 0161;
27 : FFD1;
28 : 00A8;
29 : FE16;
30 : 0199;
31 : FF64;
32 : 0067;
33 : 01CD;
34 : 009C;
35 : FFF3;
36 : 0150;
37 : 00B5;
38 : 01FE;
39 : FE09;
40 : FECA;
41 : 01D8;
42 : FEF8;
43 : 016A;
44 : FF9D;
45 : FE74;
46 : 01E2;
47 : FEB8;
48 : 0137;
49 : FF80;
50 : FE4C;
51 : 0098;
52 : 007F;
53 : FE94;
54 : 0006;
55 : 0053;
56 : FFD5;
57 : 00C5;
58 : FE36;
59 : FE34;
60 : 01EB;
61 : FE81;
62 : FE69;
63 : 0176;
64 : FFED;
65 : 00B0;
66 : 01BE;
67 : 0053;
68 : 0095;
69 : 01E8;
70 : FED7;
71 : FFA5;
72 : FE5A;
73 : 0030;
74 : FEA0;
75 : 0095;
76 : FE36;
77 : FE25;
78 : FE7A;
79 : 004F;
80 : FF08;
81 : FE0F;
82 : 0026;
83 : 01D8;
84 : 009F;
85 : FE80;
86 : FF43;
87 : FF13;
88 : 0059;
89 : FE14;
90 : FE09;
91 : FE93;
92 : 00CF;
93 : FF14;
94 : 002E;
95 : 01B1;
96 : FF5A;
97 : 00A8;
98 : 0152;
99 : 0004;
100 : 00C6;
101 : 013B;
102 : FEB0;
103 : 0146;
104 : FFDD;
105 : FF49;
106 : FED3;
107 : 0112;
108 : FE81;
109 : 00AD;
110 : 0081;
111 : 0178;
112 : FE3F;
113 : FF1D;
114 : 0025;
115 : 013E;
116 : FE97;
117 : FE4A;
118 : 005E;
119 : FF47;
120 : 012F;
121 : FE85;
122 : 01F8;
123 : FE2D;
124 : FFEC;
125 : FFAF;
126 : FE82;
127 : 01DA;
128 : FE99;
129 : 010B;
130 : 0048;
131 : 011A;
132 : FF4D;
133 : FE3E;
134 : FEDB;
135 : FFFE;
136 : FEE9;
137 : FF93;
138 : 01EC;
139 : FE7E;
140 : FE00;
141 : 00EA;
142 : 00E2;
143 : 00CF;
144 : FF85;
145 : FEF3;
146 : FE6B;
147 : FEAF;
148 : 013C;
149 : 0021;
150 : 00F9;
151 : FEEC;
152 : FF66;
153 : FEAA;
154 : FF01;
155 : FF8C;
156 : FF53;
157 : 01E7;
158 : 0084;
159 : FE1D;
160 : FF71;
161 : FFB2;
162 : FF7A;
163 : FEA6;
164 : 018D;
165 : 0009;
166 : FEED;
167 : 00B7;
168 : 0047;
169 : FFD5;
170 : 00F2;
171 : 01C0;
172 : 000A;
173 : FEBF;
174 : 0083;
175 : FE71;
176 : FF2D;
177 : 01C3;
178 : FFEE;
179 : 010B;
180 : FE2C;
181 : FE06;
182 : FEA9;
183 : 0142;
184 : 0118;
185 : FEF8;
186 : FE52;
187 : 009E;
188 : 014B;
189 : 0022;
190 : 003F;
191 : FF42;
192 : FFBB;
193 : 012C;
194 : 0011;
195 : FEA1;
196 : 0072;
197 : 00DF;
198 : FF70;
199 : FF32;
200 : FECE;
201 : FE29;
202 : FE04;
203 : 0032;
204 : FEF1;
205 : 007C;
206 : FE42;
207 : 0116;
208 : FF37;
209 : 0156;
210 : 0133;
211 : FF80;
212 : 0169;
213 : 0182;
214 : 010C;
215 : 0084;
216 : FF8A;
217 : 009D;
218 : FE14;
219 : 01A5;
220 : FEBE;
221 : FE95;
222 : 009D;
223 : FFE7;
224 : 0150;
225 : FFE0;
226 : FE3F;
227 : 00E3;
228 : 0017;
229 : FE11;
230 : FF73;
231 : FFC9;
232 : 0018;
233 : 01BA;
234 : FE1D;
235 : 0075;
236 : 01C0;
237 : FE3B;
238 : FFF4;
239 : 01E8;
240 : FF96;
241 : FED5;
242 : FF28;
243 : FE71;
244 : FF76;
245 : FF4B;
246 : 01BC;
247 : 004E;
248 : 0169;
249 : FFE3;
250 : FF90;
251 : FFFA;
252 : 01EF;
253 : 0010;
254 : 01D6;
255 : FE0A;
256 : 0400;
END;
