DEPTH = 257;
WIDTH = 16;
ADDRESS_RADIX = DEC;
DATA_RADIX = HEX;
CONTENT BEGIN
0 : 011F;
1 : 018C;
2 : 0197;
3 : 00E7;
4 : FFF8;
5 : FE72;
6 : 01A0;
7 : FFB2;
8 : 0062;
9 : 010A;
10 : 00BA;
11 : FF05;
12 : FF30;
13 : 00E0;
14 : FF6C;
15 : FF28;
16 : 01C6;
17 : FFBB;
18 : FE9B;
19 : 01CE;
20 : FFBE;
21 : 0131;
22 : 010D;
23 : 013B;
24 : 018C;
25 : FE86;
26 : FFB4;
27 : 001C;
28 : FEA3;
29 : 0110;
30 : 00EB;
31 : FFBF;
32 : 0153;
33 : FE41;
34 : 0016;
35 : 016C;
36 : 01D3;
37 : 004B;
38 : 010F;
39 : 014F;
40 : FE40;
41 : 00D5;
42 : 0190;
43 : FFE1;
44 : FF56;
45 : 007C;
46 : FF69;
47 : FF3A;
48 : FE0A;
49 : FF03;
50 : 00C1;
51 : 0084;
52 : 010A;
53 : 01E4;
54 : FE97;
55 : FEAC;
56 : 014E;
57 : FE0B;
58 : FF4F;
59 : FF99;
60 : 0050;
61 : 00A3;
62 : 012D;
63 : 01E9;
64 : FF2F;
65 : FF96;
66 : 01A2;
67 : 0043;
68 : FE15;
69 : 01BB;
70 : 0132;
71 : 00AD;
72 : 01D2;
73 : FE50;
74 : 002E;
75 : 0149;
76 : FF50;
77 : 0002;
78 : 01B1;
79 : 01BB;
80 : 0052;
81 : FE92;
82 : 01D6;
83 : FF1D;
84 : FE83;
85 : 0097;
86 : 0096;
87 : 014A;
88 : FFE6;
89 : 01FC;
90 : 0024;
91 : FF72;
92 : FED3;
93 : 010A;
94 : FFD5;
95 : FEF9;
96 : 014C;
97 : 009B;
98 : 0095;
99 : FEFD;
100 : 0054;
101 : 01AF;
102 : FF02;
103 : FE78;
104 : FF4F;
105 : FE14;
106 : 0120;
107 : 01A2;
108 : 01AC;
109 : 00E2;
110 : FFAA;
111 : 0187;
112 : 0051;
113 : FFF9;
114 : FF7E;
115 : FFEC;
116 : 00C3;
117 : FEA1;
118 : 0043;
119 : 0172;
120 : FE2E;
121 : 0097;
122 : FF8C;
123 : 009D;
124 : FE41;
125 : 00BA;
126 : FF7F;
127 : 01E2;
128 : FE5C;
129 : 006D;
130 : FE5C;
131 : 0061;
132 : FE5D;
133 : FFC3;
134 : FFCC;
135 : 0025;
136 : 0106;
137 : 011F;
138 : 01A6;
139 : FF76;
140 : FF9B;
141 : 00A3;
142 : 006B;
143 : 01BB;
144 : FE49;
145 : FFDF;
146 : FE71;
147 : 0104;
148 : 00CB;
149 : FFD2;
150 : 0121;
151 : 00D3;
152 : 01FF;
153 : FFC8;
154 : FE5E;
155 : 0021;
156 : FF81;
157 : FF8D;
158 : FFE2;
159 : 00B8;
160 : FF61;
161 : FFD3;
162 : 0001;
163 : FF26;
164 : 013D;
165 : 0188;
166 : FEC6;
167 : 01D2;
168 : 0116;
169 : FEB0;
170 : 0200;
171 : FEE4;
172 : FEEA;
173 : 011B;
174 : 01A9;
175 : 019B;
176 : FF58;
177 : 0082;
178 : FE53;
179 : FEF3;
180 : FF3F;
181 : FF03;
182 : 00C8;
183 : FE4E;
184 : 0171;
185 : FEA2;
186 : 007E;
187 : FF8C;
188 : 01E9;
189 : 0076;
190 : FF16;
191 : 0034;
192 : FE42;
193 : FF93;
194 : FED9;
195 : 00F5;
196 : FEBF;
197 : FFF4;
198 : 0055;
199 : 00AA;
200 : FE2C;
201 : FF77;
202 : 0178;
203 : 00C6;
204 : FF10;
205 : FED9;
206 : FF2D;
207 : FF5B;
208 : 01C8;
209 : FFFB;
210 : 005F;
211 : FF55;
212 : 005F;
213 : FE59;
214 : FFF6;
215 : 012A;
216 : FEDE;
217 : FF67;
218 : FF1B;
219 : 0147;
220 : 0047;
221 : 0131;
222 : FFF5;
223 : FEC0;
224 : FE9B;
225 : 0119;
226 : FFF4;
227 : FE3D;
228 : FF74;
229 : FFD3;
230 : 01B4;
231 : FE59;
232 : FFC8;
233 : FE93;
234 : 0055;
235 : 00DE;
236 : FF87;
237 : FEEA;
238 : FFEA;
239 : 01F5;
240 : 01A2;
241 : 01AE;
242 : 0196;
243 : 01AD;
244 : 00B8;
245 : FF7E;
246 : 00DD;
247 : 006F;
248 : 004A;
249 : FF12;
250 : FE41;
251 : FE5F;
252 : FE07;
253 : FECA;
254 : FEF0;
255 : 01A0;
256 : 0400;
END;
