DEPTH = 257;
WIDTH = 16;
ADDRESS_RADIX = DEC;
DATA_RADIX = HEX;
CONTENT BEGIN
0 : FE41;
1 : FF53;
2 : 007E;
3 : 0174;
4 : FE64;
5 : FFE6;
6 : 00D1;
7 : 016C;
8 : FFE5;
9 : 0196;
10 : FF62;
11 : FEBA;
12 : 0100;
13 : FE45;
14 : 0062;
15 : 0002;
16 : 0108;
17 : FF96;
18 : FEB2;
19 : 01FB;
20 : 0087;
21 : 007E;
22 : FED8;
23 : 01A6;
24 : 00EC;
25 : 003B;
26 : 00A6;
27 : 01FA;
28 : 002B;
29 : 00EE;
30 : 015D;
31 : 0006;
32 : FE0D;
33 : FEA6;
34 : FFB6;
35 : 0187;
36 : 0067;
37 : FF7C;
38 : 0054;
39 : FF47;
40 : 0094;
41 : 0121;
42 : FE6C;
43 : FF31;
44 : FE26;
45 : FFB3;
46 : FF21;
47 : 0028;
48 : 0099;
49 : FFC5;
50 : FFB6;
51 : 00D2;
52 : FE85;
53 : FFA5;
54 : FE29;
55 : FEF7;
56 : FEA5;
57 : 015B;
58 : FFC1;
59 : 0034;
60 : FF10;
61 : 0122;
62 : FF9A;
63 : 01C9;
64 : FF39;
65 : FF4F;
66 : 0140;
67 : 0055;
68 : FF1F;
69 : FE4A;
70 : 01B1;
71 : FFE6;
72 : FF6E;
73 : FF7A;
74 : 01E7;
75 : 002D;
76 : 00F7;
77 : 007E;
78 : 01C4;
79 : 012D;
80 : 00DF;
81 : 0092;
82 : 01EF;
83 : FF38;
84 : 01D2;
85 : 01E8;
86 : FF90;
87 : FF77;
88 : FF35;
89 : 00B5;
90 : 01C8;
91 : FFD0;
92 : FECE;
93 : 012A;
94 : 014D;
95 : 01BF;
96 : 01F2;
97 : FE7C;
98 : 0083;
99 : FE6C;
100 : FE0A;
101 : 007E;
102 : FFEE;
103 : 005F;
104 : 01C1;
105 : FEF4;
106 : FE04;
107 : 01C6;
108 : 0052;
109 : 01B7;
110 : FE55;
111 : FEF6;
112 : 01A8;
113 : 016A;
114 : 0140;
115 : FEA7;
116 : FF4F;
117 : FFA9;
118 : 01C9;
119 : 003A;
120 : 00DA;
121 : FF91;
122 : FE5A;
123 : 0075;
124 : 0194;
125 : FFD3;
126 : 0079;
127 : FFE5;
128 : 00F8;
129 : 0015;
130 : 005B;
131 : FE47;
132 : FE12;
133 : 01A3;
134 : 008A;
135 : 00B8;
136 : 00EE;
137 : FFFC;
138 : FFE3;
139 : 0044;
140 : FF07;
141 : 01E7;
142 : FF44;
143 : FE95;
144 : FE65;
145 : 01C6;
146 : 0135;
147 : 0181;
148 : 014F;
149 : 0095;
150 : 008D;
151 : 00EF;
152 : 0150;
153 : FE74;
154 : 0022;
155 : 01F2;
156 : 0102;
157 : 00BA;
158 : 009E;
159 : FE98;
160 : FE1D;
161 : 01D3;
162 : FF03;
163 : 0036;
164 : 014B;
165 : FE82;
166 : 019B;
167 : 01E8;
168 : 01DE;
169 : 0007;
170 : FF06;
171 : FF74;
172 : 012E;
173 : 01D0;
174 : 0096;
175 : FFCD;
176 : FE94;
177 : 01C9;
178 : 01CE;
179 : FF74;
180 : 0139;
181 : 01CD;
182 : 0159;
183 : FF8A;
184 : 0108;
185 : 012B;
186 : FF6D;
187 : 0021;
188 : FE4E;
189 : 01FC;
190 : 0148;
191 : FF12;
192 : FF96;
193 : FE33;
194 : 015D;
195 : FF20;
196 : 01A9;
197 : FF6F;
198 : FEF6;
199 : FF3D;
200 : FFF4;
201 : 0036;
202 : 0137;
203 : 0105;
204 : FE44;
205 : 018B;
206 : FE04;
207 : 01C0;
208 : FEB5;
209 : FE38;
210 : 018E;
211 : FEED;
212 : FEF7;
213 : FFCC;
214 : 00BA;
215 : 0014;
216 : FE25;
217 : 01B0;
218 : FF82;
219 : 0010;
220 : FE47;
221 : 00DA;
222 : FE5F;
223 : FE6E;
224 : FECA;
225 : 01E1;
226 : 007C;
227 : 00F0;
228 : FE26;
229 : FEAF;
230 : 012B;
231 : FE6F;
232 : 0003;
233 : FE82;
234 : FFBB;
235 : FE83;
236 : 000B;
237 : FFB2;
238 : 00B2;
239 : FE0B;
240 : 0063;
241 : 000F;
242 : FEA1;
243 : 0173;
244 : FFFC;
245 : 007D;
246 : 00D5;
247 : 0169;
248 : 013E;
249 : FE9B;
250 : FF47;
251 : FF57;
252 : FE68;
253 : 01DF;
254 : FF5A;
255 : 00C2;
256 : 0400;
END;
