0009
FF42
008C
FE20
004D
01C3
0058
FE1B
01AF
017F
FE54
0083
FF15
FF7E
01C9
0172
FFA2
FE59
0034
009F
FF08
01E1
FF90
FEA7
01B5
01F8
FE9C
FF99
00EF
0038
FED1
0133
FEB2
FF57
0150
FFFA
FEDF
FF75
006C
00B5
00B6
FEDD
0185
FFE4
FF36
FFB1
0165
00F8
FEBE
FE48
FEA4
FEA3
01F6
0053
0059
0175
FF8D
01B7
0043
00B6
FF93
FE56
0198
0107
0078
FFC6
FF23
FE1A
FE3D
0177
0137
0155
FFD5
FFAD
0098
0148
00DC
01DE
FEDD
FFEE
FF6B
FEAC
FFE6
FF33
FF37
0111
00C6
FF51
00BB
00B5
0026
00A0
002B
FE0E
014A
00AA
0131
FEAB
006D
0107
FE0A
FFE6
FE52
FECE
FF26
01FF
004A
0159
0176
0004
FEC4
FF1E
01DB
FF48
FF6C
FFF0
0031
0057
0073
FF6B
FE0D
0184
FE20
FFD2
01E4
FF63
016C
FF16
015E
0116
FEC2
FE49
FE5D
01A9
FE62
FF8D
0112
FFA9
015E
00BF
FF92
0119
0169
01B1
00E7
0098
FF7B
0138
FF59
FF85
FE35
FE3F
0195
FFA3
00A5
0116
FFAB
00DD
0073
FE21
00D2
FE91
0043
FE82
FFE5
FE5D
0070
0031
003A
FF1F
012D
0081
FED7
0091
00A0
FF2B
01ED
FFAE
00EB
FEFA
FE33
FE43
FF19
0035
016D
008A
FFB5
0136
FF64
FE75
FE74
FF19
01C3
00BB
FF0B
01D6
FED1
FEAA
FFA5
FF62
0164
FE28
FF16
018C
FE90
01A9
FE7F
FEB8
FFD6
01AB
FE90
FE26
FE1B
FEA8
0172
0196
FE25
FE28
FEBD
003B
FF63
0180
FF43
FE60
FF5C
009F
FFC5
00E1
FF36
FEC5
00A1
013B
FE9A
0049
FF34
FFCF
010E
012F
FF9B
FFF4
FF2D
FF7A
0145
FEAE
00F4
FF72
0108
FE14
016C
00CE
000C
01BC
FE27
FE9C
014A
FE56
0400
