DEPTH = 257;
WIDTH = 16;
ADDRESS_RADIX = DEC;
DATA_RADIX = HEX;
CONTENT BEGIN
0 : FF66;
1 : FF5B;
2 : 0088;
3 : 019A;
4 : 003C;
5 : 011C;
6 : FE56;
7 : FF81;
8 : 013D;
9 : FF4A;
10 : 01F6;
11 : FE41;
12 : FF8F;
13 : FEFB;
14 : 006A;
15 : FE55;
16 : FF18;
17 : 009E;
18 : 00B9;
19 : FE54;
20 : 00AC;
21 : FF4F;
22 : FF9E;
23 : 0184;
24 : 007F;
25 : FF3A;
26 : 0076;
27 : 0142;
28 : FFFC;
29 : 00E9;
30 : FE53;
31 : FE89;
32 : 01FB;
33 : 0055;
34 : FE24;
35 : 012E;
36 : FFA1;
37 : 01EC;
38 : 0176;
39 : 004F;
40 : FF29;
41 : 01AC;
42 : FF61;
43 : FF0A;
44 : FF27;
45 : 0032;
46 : FE35;
47 : 00B2;
48 : 003E;
49 : FFE6;
50 : FE47;
51 : 012C;
52 : FE67;
53 : FF13;
54 : FFE0;
55 : FEEB;
56 : 0198;
57 : 00A1;
58 : 0044;
59 : 0149;
60 : 01F4;
61 : FEA0;
62 : 01F8;
63 : FE53;
64 : FE51;
65 : 0029;
66 : 0136;
67 : FF62;
68 : 0099;
69 : FE0E;
70 : 013F;
71 : FF9A;
72 : FEC3;
73 : 01A3;
74 : FE48;
75 : FE7F;
76 : FF63;
77 : 003C;
78 : FF1B;
79 : FFC0;
80 : FFD0;
81 : 0009;
82 : 01D9;
83 : 01B5;
84 : FE43;
85 : 01E7;
86 : 01E6;
87 : 0158;
88 : FE48;
89 : 008D;
90 : FF72;
91 : FEB2;
92 : FF08;
93 : FF82;
94 : 01DD;
95 : FFCA;
96 : FF25;
97 : FFD8;
98 : FEC2;
99 : FEAC;
100 : FF17;
101 : 00FF;
102 : 016B;
103 : FF89;
104 : 01BA;
105 : FEE8;
106 : FE49;
107 : 0065;
108 : FEFB;
109 : FE1D;
110 : FE45;
111 : FF0C;
112 : 0166;
113 : 002A;
114 : FFD1;
115 : 00D1;
116 : FFC1;
117 : 01E3;
118 : 00FA;
119 : FF48;
120 : 002D;
121 : 0024;
122 : 0191;
123 : 01C3;
124 : 006F;
125 : 011D;
126 : FEEF;
127 : 0178;
128 : FF55;
129 : 01E7;
130 : FFF7;
131 : FF08;
132 : FF0F;
133 : FF1A;
134 : FFB3;
135 : 014F;
136 : 01C6;
137 : FE4D;
138 : 0050;
139 : FF4A;
140 : FE81;
141 : FEAD;
142 : FFFC;
143 : FE8A;
144 : 00AF;
145 : FEA1;
146 : 0009;
147 : FECC;
148 : FEE1;
149 : FE31;
150 : 00FA;
151 : FF39;
152 : 0075;
153 : 006B;
154 : 017B;
155 : FF1D;
156 : 00E9;
157 : 0082;
158 : FFB6;
159 : 010D;
160 : FF74;
161 : 01A2;
162 : FFE3;
163 : 0091;
164 : FE46;
165 : 00E7;
166 : FEF9;
167 : 0132;
168 : 01B7;
169 : FE3C;
170 : 00B8;
171 : FF5C;
172 : 0105;
173 : 006D;
174 : FF8F;
175 : FEE9;
176 : 017A;
177 : 019F;
178 : FF3B;
179 : FFB2;
180 : FF9C;
181 : FED3;
182 : FFA3;
183 : 00C2;
184 : FF48;
185 : FE61;
186 : 0102;
187 : FF08;
188 : FE54;
189 : FF58;
190 : FFF1;
191 : 0124;
192 : FE42;
193 : FEE1;
194 : 016A;
195 : 0152;
196 : 00FE;
197 : 01B1;
198 : 005B;
199 : FEEF;
200 : 01C3;
201 : FF89;
202 : FE71;
203 : FE4D;
204 : FFC4;
205 : 00EA;
206 : FFEF;
207 : 0053;
208 : 012F;
209 : 0035;
210 : 01B8;
211 : FE7C;
212 : 01E9;
213 : FE39;
214 : FFED;
215 : FE0E;
216 : FE99;
217 : 01DD;
218 : FE14;
219 : 01C7;
220 : FED1;
221 : FEC6;
222 : FF6F;
223 : FEB0;
224 : 01EE;
225 : 0018;
226 : FFCF;
227 : 014E;
228 : 0027;
229 : 00F6;
230 : 0119;
231 : FFC7;
232 : 0091;
233 : FEA2;
234 : FE15;
235 : 0023;
236 : FF92;
237 : 0081;
238 : FEE0;
239 : 019A;
240 : 0138;
241 : FF65;
242 : FE40;
243 : FE68;
244 : FE37;
245 : FE74;
246 : FEF0;
247 : 018B;
248 : FED0;
249 : FE4C;
250 : 00C1;
251 : FE37;
252 : 0118;
253 : 01D6;
254 : 01A5;
255 : 0189;
256 : 0400;
END;
