DEPTH = 257;
WIDTH = 16;
ADDRESS_RADIX = DEC;
DATA_RADIX = HEX;
CONTENT BEGIN
0 : 00C5;
1 : 0032;
2 : FEA5;
3 : FE05;
4 : 0179;
5 : FF25;
6 : FF80;
7 : 01D9;
8 : 00F7;
9 : FE44;
10 : FEBA;
11 : 01C1;
12 : 0063;
13 : FFFC;
14 : FE35;
15 : 0061;
16 : FF79;
17 : 009B;
18 : FE20;
19 : FEDA;
20 : FF7E;
21 : FEF3;
22 : FFCB;
23 : FF8E;
24 : FF0A;
25 : FE14;
26 : FFED;
27 : FFAA;
28 : FF00;
29 : 01A0;
30 : FEFD;
31 : FF0C;
32 : FFBD;
33 : FF45;
34 : FFB9;
35 : 0012;
36 : 01B5;
37 : 0082;
38 : 000B;
39 : FFCB;
40 : FF19;
41 : FE4E;
42 : 00B8;
43 : 0001;
44 : 0091;
45 : 01C7;
46 : FF7F;
47 : FE3A;
48 : 0188;
49 : 016B;
50 : FEBC;
51 : FFCE;
52 : FE40;
53 : 00B2;
54 : FF6C;
55 : FF07;
56 : 00A3;
57 : FE21;
58 : 00F5;
59 : 0061;
60 : 00C2;
61 : 01BD;
62 : FECE;
63 : 0167;
64 : 0085;
65 : FFE8;
66 : FE52;
67 : 0150;
68 : FE32;
69 : 0185;
70 : FF26;
71 : 00E1;
72 : FECC;
73 : 018E;
74 : 0147;
75 : 01A3;
76 : 0012;
77 : 01E4;
78 : FE57;
79 : FFF1;
80 : FF44;
81 : FF09;
82 : 000B;
83 : FFC2;
84 : FFE0;
85 : FFB5;
86 : FE38;
87 : FFD6;
88 : FE11;
89 : FE60;
90 : FE94;
91 : FFAB;
92 : 017F;
93 : FECB;
94 : 0169;
95 : FE36;
96 : 01E0;
97 : 01AF;
98 : 0047;
99 : FE26;
100 : 010E;
101 : 017A;
102 : FF3C;
103 : 01BF;
104 : FEB8;
105 : FF92;
106 : FF37;
107 : 0021;
108 : 0185;
109 : 0023;
110 : FE7D;
111 : 01A1;
112 : FE5B;
113 : 005B;
114 : FF9C;
115 : 001C;
116 : FE2D;
117 : 00AB;
118 : 01EF;
119 : FF4D;
120 : 0004;
121 : FE9A;
122 : FF9A;
123 : FF44;
124 : 01AF;
125 : FF37;
126 : FE17;
127 : 01CE;
128 : 0027;
129 : 0055;
130 : 01BA;
131 : FFFF;
132 : 0186;
133 : FE9F;
134 : FED0;
135 : 0026;
136 : FFEE;
137 : FE56;
138 : FEDD;
139 : 017D;
140 : 016C;
141 : FF15;
142 : FF24;
143 : FF15;
144 : 0160;
145 : FF24;
146 : 011C;
147 : 01CC;
148 : 0148;
149 : FF41;
150 : FE19;
151 : 0009;
152 : 00FF;
153 : 017F;
154 : 00B5;
155 : FFE4;
156 : 01B8;
157 : FEE8;
158 : 018E;
159 : FE13;
160 : 01CF;
161 : 00EA;
162 : 01FA;
163 : FFE7;
164 : 0027;
165 : 0081;
166 : 005B;
167 : FE63;
168 : FF6A;
169 : FFF1;
170 : 0018;
171 : FF43;
172 : FFC4;
173 : FFB8;
174 : 00AC;
175 : FFBB;
176 : FEBB;
177 : 00D0;
178 : FFBB;
179 : 01FF;
180 : FED6;
181 : 00D7;
182 : FE6A;
183 : FE82;
184 : FEB3;
185 : FF1A;
186 : 005B;
187 : FF91;
188 : 01B6;
189 : 016C;
190 : FE36;
191 : FE69;
192 : 015C;
193 : 0110;
194 : 002B;
195 : 009F;
196 : 0159;
197 : 00A0;
198 : FE38;
199 : FEB1;
200 : 008D;
201 : 0043;
202 : FEBA;
203 : FEA5;
204 : 00F4;
205 : FE16;
206 : 01D6;
207 : 0053;
208 : 016E;
209 : FE84;
210 : FEF9;
211 : FFA5;
212 : 00CA;
213 : 012A;
214 : 0046;
215 : FF9F;
216 : 0113;
217 : 004C;
218 : FEFB;
219 : 018D;
220 : FE0D;
221 : 0112;
222 : FEFB;
223 : 011C;
224 : 0066;
225 : 0019;
226 : FF6A;
227 : FFAB;
228 : FE90;
229 : 01C3;
230 : 013D;
231 : 01DD;
232 : FFC1;
233 : FEF2;
234 : 00AF;
235 : FE8F;
236 : 015A;
237 : FEAF;
238 : FE0D;
239 : FEA6;
240 : 0048;
241 : 017F;
242 : FFD0;
243 : FE9E;
244 : 003E;
245 : FF31;
246 : FF18;
247 : FE56;
248 : 01F7;
249 : FEF9;
250 : FEFE;
251 : 003A;
252 : FF89;
253 : 002C;
254 : FF66;
255 : FF61;
256 : 0400;
END;
