DEPTH = 257;
WIDTH = 16;
ADDRESS_RADIX = DEC;
DATA_RADIX = HEX;
CONTENT BEGIN
0 : 017C;
1 : 0089;
2 : 013C;
3 : 01B8;
4 : FE13;
5 : FE67;
6 : FE47;
7 : FEC8;
8 : 00FD;
9 : FFDA;
10 : FF7A;
11 : 0079;
12 : FE6B;
13 : FE14;
14 : 00B0;
15 : FEED;
16 : 005F;
17 : FFEC;
18 : FFFB;
19 : 0168;
20 : 0151;
21 : FF59;
22 : 0014;
23 : FEAE;
24 : FF36;
25 : FE25;
26 : 00D6;
27 : 0121;
28 : FF79;
29 : 01D5;
30 : FECF;
31 : 00FC;
32 : 015E;
33 : FF69;
34 : 007C;
35 : 009B;
36 : FF8D;
37 : FE20;
38 : FE28;
39 : FF89;
40 : FF26;
41 : 0190;
42 : FECC;
43 : 00DA;
44 : 00A5;
45 : 005D;
46 : FF93;
47 : 0104;
48 : FF6A;
49 : FF6D;
50 : 0024;
51 : 000F;
52 : 01FC;
53 : FED9;
54 : 001C;
55 : FF5E;
56 : FF10;
57 : 01BC;
58 : 00AC;
59 : 01D9;
60 : 0179;
61 : FEED;
62 : FE8B;
63 : 01E6;
64 : 0058;
65 : FE6C;
66 : FE3A;
67 : FE58;
68 : FEA3;
69 : FE88;
70 : FF96;
71 : 00B4;
72 : FFAD;
73 : FED1;
74 : FE38;
75 : FF61;
76 : FE28;
77 : FE01;
78 : FED3;
79 : FE7E;
80 : FE08;
81 : 0005;
82 : FFA5;
83 : 00CE;
84 : 0102;
85 : FEA0;
86 : 01A9;
87 : 0070;
88 : 01EB;
89 : 00B2;
90 : 00C4;
91 : FEA8;
92 : 0074;
93 : 017D;
94 : FEB1;
95 : 0098;
96 : FEDD;
97 : 0158;
98 : 00A7;
99 : 007A;
100 : FEEE;
101 : 0009;
102 : 0132;
103 : 0162;
104 : 017B;
105 : FE74;
106 : FF50;
107 : 0186;
108 : 01F0;
109 : FE29;
110 : FFF9;
111 : 006A;
112 : 007D;
113 : FE90;
114 : FE37;
115 : 0048;
116 : FF93;
117 : FF9E;
118 : FF67;
119 : 0128;
120 : FE01;
121 : 00E9;
122 : 009C;
123 : FFB7;
124 : FEB4;
125 : FE82;
126 : FE8E;
127 : 017B;
128 : FF5A;
129 : FEB7;
130 : FECE;
131 : FE29;
132 : 0187;
133 : 00A0;
134 : 0197;
135 : FEAF;
136 : FF5E;
137 : 004F;
138 : FF6E;
139 : 0058;
140 : 00F7;
141 : FF7B;
142 : 0012;
143 : FFB1;
144 : 0110;
145 : 00C8;
146 : 013D;
147 : FF5A;
148 : FFA0;
149 : FEB9;
150 : 0138;
151 : 01C6;
152 : 00D7;
153 : FF2D;
154 : 01F7;
155 : 0170;
156 : FEAC;
157 : FEF7;
158 : 00E2;
159 : 005B;
160 : FE4A;
161 : FFBE;
162 : 0149;
163 : FE6D;
164 : 0102;
165 : 0025;
166 : 017A;
167 : 00FE;
168 : 0104;
169 : FE28;
170 : 01E1;
171 : FE58;
172 : 0089;
173 : FF7C;
174 : FED2;
175 : 00FC;
176 : FECC;
177 : FEE9;
178 : FFDE;
179 : 00FA;
180 : FF86;
181 : FF47;
182 : 018A;
183 : 00DD;
184 : FE39;
185 : 00B3;
186 : FF98;
187 : 003E;
188 : FE0F;
189 : FE1D;
190 : 0098;
191 : FFE5;
192 : FF13;
193 : FFA5;
194 : 001D;
195 : 00FA;
196 : 012D;
197 : 0028;
198 : FE08;
199 : 00F2;
200 : 0000;
201 : 0166;
202 : FE77;
203 : 01FC;
204 : FFBD;
205 : 0021;
206 : 00C5;
207 : 003F;
208 : 0119;
209 : FF63;
210 : 0130;
211 : 017B;
212 : 000D;
213 : 0160;
214 : 0166;
215 : 01C4;
216 : 0172;
217 : FFB8;
218 : 010E;
219 : 00B7;
220 : FE47;
221 : FE65;
222 : 0141;
223 : FFF5;
224 : FEAE;
225 : 018C;
226 : 01D3;
227 : 002D;
228 : FFE3;
229 : 002D;
230 : 0006;
231 : 01A8;
232 : FE6A;
233 : 0183;
234 : 0113;
235 : 0003;
236 : FFA0;
237 : FEF6;
238 : FE64;
239 : 0171;
240 : FE54;
241 : 0009;
242 : FE47;
243 : 0074;
244 : 0123;
245 : 0109;
246 : FEDE;
247 : FF93;
248 : FF47;
249 : 01EC;
250 : FF53;
251 : 001A;
252 : FECD;
253 : FF36;
254 : 006B;
255 : 0001;
256 : 0400;
END;
