DEPTH = 257;
WIDTH = 16;
ADDRESS_RADIX = DEC;
DATA_RADIX = HEX;
CONTENT BEGIN
0 : FEB3;
1 : 0095;
2 : FEE8;
3 : 000C;
4 : 010C;
5 : FE92;
6 : FE78;
7 : FF67;
8 : FF1F;
9 : 0049;
10 : 003A;
11 : 01B8;
12 : 0152;
13 : 009B;
14 : 0037;
15 : FF19;
16 : FE85;
17 : 0100;
18 : 01E0;
19 : 01E5;
20 : 01B9;
21 : FE1F;
22 : 0048;
23 : 017A;
24 : FE3F;
25 : FE9C;
26 : 009A;
27 : 007A;
28 : FF73;
29 : FEBD;
30 : 005A;
31 : 004A;
32 : FEF8;
33 : FE63;
34 : 002A;
35 : 00D1;
36 : 012D;
37 : FE80;
38 : 0129;
39 : FE86;
40 : 0124;
41 : 01C5;
42 : 01D5;
43 : FE3B;
44 : 0133;
45 : FEB8;
46 : 0173;
47 : 00E0;
48 : FFA6;
49 : 0000;
50 : FEB0;
51 : 00CF;
52 : FE1F;
53 : 01FD;
54 : 0136;
55 : FF25;
56 : 0153;
57 : FFB8;
58 : FF5E;
59 : FEBD;
60 : FF0A;
61 : 0091;
62 : FEC6;
63 : 00CA;
64 : 01D1;
65 : 0098;
66 : 01C3;
67 : 0141;
68 : 01A7;
69 : 0100;
70 : FFB8;
71 : 013E;
72 : FF2A;
73 : 0039;
74 : FEC0;
75 : FE46;
76 : 01B1;
77 : 00E9;
78 : 01E1;
79 : 0078;
80 : FE8A;
81 : 0119;
82 : FE16;
83 : FE28;
84 : FF8A;
85 : FF0A;
86 : FE8B;
87 : FF08;
88 : 01ED;
89 : FF5E;
90 : FE5B;
91 : FF83;
92 : 004B;
93 : FFF8;
94 : FF55;
95 : FF9D;
96 : FE1E;
97 : 0097;
98 : 004F;
99 : 00E5;
100 : 00D4;
101 : FE50;
102 : 0186;
103 : FE50;
104 : FE5B;
105 : 01BA;
106 : FF9F;
107 : 00B4;
108 : 0079;
109 : 009E;
110 : FE13;
111 : 0098;
112 : FFF5;
113 : 00C7;
114 : FF96;
115 : 01C7;
116 : FF20;
117 : 01FD;
118 : FE0C;
119 : FED6;
120 : FFAF;
121 : FFFC;
122 : FF2F;
123 : 0129;
124 : FF39;
125 : 0000;
126 : 0115;
127 : 00F8;
128 : 0129;
129 : FFCA;
130 : 010E;
131 : 0012;
132 : 0165;
133 : 0003;
134 : FEB8;
135 : 01FC;
136 : FEDB;
137 : FF7F;
138 : FF55;
139 : FE61;
140 : 0035;
141 : 011B;
142 : FF13;
143 : 0015;
144 : 01FF;
145 : 01CC;
146 : 0032;
147 : FFD9;
148 : 001F;
149 : 0121;
150 : 00B0;
151 : FF81;
152 : 003C;
153 : FE98;
154 : FF7E;
155 : FE18;
156 : 0156;
157 : 019B;
158 : FEED;
159 : FEEB;
160 : 014D;
161 : 01C0;
162 : FF28;
163 : FEF3;
164 : FEDC;
165 : 01A3;
166 : FE66;
167 : 00D1;
168 : FFAE;
169 : 0157;
170 : FEDC;
171 : 0100;
172 : 0056;
173 : 012F;
174 : 019F;
175 : 00E5;
176 : 0125;
177 : 018F;
178 : 01B9;
179 : FFFC;
180 : FF57;
181 : FF0B;
182 : 01B6;
183 : 0117;
184 : FE87;
185 : 01F9;
186 : 00E3;
187 : 0032;
188 : 0053;
189 : 0198;
190 : FE0D;
191 : FE46;
192 : 011C;
193 : 01F6;
194 : 010D;
195 : FEB0;
196 : FE3C;
197 : 00D9;
198 : 00FA;
199 : FE4A;
200 : 00D6;
201 : 01EE;
202 : FF4B;
203 : 0143;
204 : FFBB;
205 : FE30;
206 : FF15;
207 : FE70;
208 : 00BB;
209 : 0020;
210 : 01F7;
211 : 0120;
212 : 009D;
213 : 00A1;
214 : FE53;
215 : FF17;
216 : 0100;
217 : FF98;
218 : FFFE;
219 : 01AA;
220 : 01AA;
221 : 0145;
222 : 014F;
223 : FFEC;
224 : 0107;
225 : 01BD;
226 : 0086;
227 : 01BB;
228 : 01ED;
229 : FFD6;
230 : FF6A;
231 : 01B4;
232 : 0118;
233 : FE56;
234 : 0154;
235 : FF17;
236 : 01DB;
237 : FF6D;
238 : 009A;
239 : FFA1;
240 : 019C;
241 : FF0E;
242 : FE5F;
243 : 01A5;
244 : FFD6;
245 : 0132;
246 : 01D6;
247 : FF5E;
248 : FE9B;
249 : 01B0;
250 : 008F;
251 : FF71;
252 : FF5C;
253 : FF8B;
254 : 0086;
255 : FFA9;
256 : 0400;
END;
