DEPTH = 257;
WIDTH = 16;
ADDRESS_RADIX = DEC;
DATA_RADIX = HEX;
CONTENT BEGIN
0 : FE77;
1 : FF6F;
2 : FE4C;
3 : 0116;
4 : FE2A;
5 : FE2F;
6 : FE77;
7 : FE0F;
8 : 0090;
9 : FE8E;
10 : FE9C;
11 : FE83;
12 : 01FD;
13 : FE57;
14 : FFA9;
15 : FE98;
16 : 01B6;
17 : 0189;
18 : 01E0;
19 : FE3B;
20 : 005F;
21 : FF1B;
22 : FFB0;
23 : 019A;
24 : 00AE;
25 : FF55;
26 : FF4C;
27 : 0022;
28 : FEDB;
29 : 0145;
30 : 00E7;
31 : FE87;
32 : FEAA;
33 : 008A;
34 : 00AC;
35 : 01F0;
36 : FFB9;
37 : 01AB;
38 : 016E;
39 : 014A;
40 : 00CF;
41 : 01CE;
42 : 010B;
43 : 01DD;
44 : 0181;
45 : FE9B;
46 : 009E;
47 : 0116;
48 : FEFE;
49 : 0085;
50 : FFD1;
51 : 0126;
52 : 01FE;
53 : 016F;
54 : 013A;
55 : 00FE;
56 : FE24;
57 : FE33;
58 : 0001;
59 : 000A;
60 : 0139;
61 : 00AF;
62 : FF62;
63 : 00EA;
64 : 01FB;
65 : 017F;
66 : 0021;
67 : FFC7;
68 : 0030;
69 : 00B6;
70 : 0131;
71 : FEB7;
72 : FE0B;
73 : FE8F;
74 : FF93;
75 : 011A;
76 : FF74;
77 : 0165;
78 : FFBC;
79 : FF5E;
80 : FF22;
81 : FF8D;
82 : FE41;
83 : 00F4;
84 : FEDF;
85 : 00D1;
86 : FFA5;
87 : FEDB;
88 : 01E0;
89 : FEAD;
90 : 01A1;
91 : 00A0;
92 : FE5A;
93 : 01A2;
94 : 0197;
95 : FFEF;
96 : FF78;
97 : FEC3;
98 : 00D4;
99 : 0132;
100 : FE82;
101 : 001D;
102 : FE78;
103 : 0012;
104 : 0041;
105 : FEA5;
106 : FF61;
107 : 01BC;
108 : FEF6;
109 : 01CA;
110 : FE20;
111 : FEA1;
112 : 0173;
113 : 00AD;
114 : FE30;
115 : FF23;
116 : FE85;
117 : FE80;
118 : 0155;
119 : 002C;
120 : FEC9;
121 : 0191;
122 : 0187;
123 : FF0C;
124 : 0117;
125 : 00B5;
126 : FEE3;
127 : 008C;
128 : FE6F;
129 : FF5F;
130 : 00C9;
131 : 0072;
132 : 0120;
133 : FFC7;
134 : FE17;
135 : 0026;
136 : 00A3;
137 : FF3C;
138 : 016E;
139 : FE93;
140 : FED9;
141 : 00F1;
142 : 0162;
143 : FE6E;
144 : 019C;
145 : 01CB;
146 : 0043;
147 : 0027;
148 : 01C9;
149 : FE76;
150 : 01D1;
151 : FFE2;
152 : 0080;
153 : 00F5;
154 : 0129;
155 : 003D;
156 : FEEB;
157 : 0055;
158 : FE27;
159 : FF08;
160 : FEC3;
161 : 00D3;
162 : FEE5;
163 : FFE9;
164 : 019B;
165 : 01A0;
166 : FF6B;
167 : FF30;
168 : FE7D;
169 : FEEA;
170 : 0019;
171 : 0168;
172 : 003D;
173 : 019F;
174 : FF91;
175 : 00E0;
176 : 017D;
177 : FF88;
178 : FEAE;
179 : FF98;
180 : 00A0;
181 : FEDC;
182 : FE86;
183 : 000F;
184 : FE7B;
185 : 0041;
186 : 0108;
187 : 0186;
188 : 00E4;
189 : FE72;
190 : FEBE;
191 : FFB5;
192 : FF6C;
193 : 0153;
194 : FE9C;
195 : 006F;
196 : FECF;
197 : 01C3;
198 : 0170;
199 : 00F1;
200 : FED2;
201 : 0030;
202 : 00AA;
203 : 007E;
204 : 01FB;
205 : 009D;
206 : FFA6;
207 : 0074;
208 : FF52;
209 : FE41;
210 : FEB2;
211 : 0082;
212 : 0092;
213 : 00E0;
214 : 0074;
215 : 0093;
216 : 015A;
217 : 0079;
218 : 0141;
219 : FF05;
220 : FE10;
221 : 0171;
222 : 006D;
223 : 0186;
224 : 0083;
225 : 0074;
226 : FEE6;
227 : 0071;
228 : 0181;
229 : FFFF;
230 : FF90;
231 : 0098;
232 : FFD5;
233 : 01BE;
234 : FF10;
235 : 000C;
236 : 000E;
237 : 0119;
238 : FEB4;
239 : FE79;
240 : FE17;
241 : 00CD;
242 : FE24;
243 : 0131;
244 : 0015;
245 : FF24;
246 : FE55;
247 : 001F;
248 : FE77;
249 : 01CB;
250 : 0117;
251 : FFF7;
252 : FF28;
253 : 01BF;
254 : FE4D;
255 : 01FB;
256 : 0400;
END;
