DEPTH = 257;
WIDTH = 16;
ADDRESS_RADIX = DEC;
DATA_RADIX = HEX;
CONTENT BEGIN
0 : FEF5;
1 : 01A2;
2 : FF1D;
3 : FE35;
4 : FE0B;
5 : FF8F;
6 : 0195;
7 : FF48;
8 : FEF3;
9 : 006C;
10 : 01F2;
11 : FF6D;
12 : FE8F;
13 : 010E;
14 : 01CB;
15 : FF2E;
16 : 0029;
17 : 0089;
18 : FF0A;
19 : 0087;
20 : 0010;
21 : FFD2;
22 : 0179;
23 : 008E;
24 : FFF3;
25 : 01B1;
26 : 0173;
27 : FE88;
28 : 00D5;
29 : 0124;
30 : FF56;
31 : FE3C;
32 : FF86;
33 : 0030;
34 : 0175;
35 : FFD7;
36 : FE8F;
37 : 0052;
38 : FF64;
39 : 003B;
40 : 0012;
41 : 0118;
42 : FF2C;
43 : FE12;
44 : 0040;
45 : 00E9;
46 : 00CE;
47 : 016D;
48 : FE14;
49 : FE56;
50 : FEA5;
51 : 000F;
52 : FF9C;
53 : FFF4;
54 : 0025;
55 : 01D8;
56 : FFE2;
57 : FEFD;
58 : 0002;
59 : FFC9;
60 : FED8;
61 : FE56;
62 : 017C;
63 : FF5A;
64 : FE7B;
65 : FF01;
66 : 01BD;
67 : FFA6;
68 : FE07;
69 : FF27;
70 : 000E;
71 : 0066;
72 : 01F5;
73 : FFD8;
74 : 011D;
75 : FE0A;
76 : FED9;
77 : FEC9;
78 : 008B;
79 : 0024;
80 : FE84;
81 : FEC5;
82 : FF38;
83 : 016E;
84 : FE53;
85 : 008E;
86 : FE23;
87 : 001D;
88 : FE6E;
89 : 0062;
90 : FF9F;
91 : 009C;
92 : 0177;
93 : FE82;
94 : 017F;
95 : 00DB;
96 : 0186;
97 : 0179;
98 : FF47;
99 : 01CF;
100 : 0016;
101 : FF56;
102 : FFC5;
103 : FE94;
104 : FFB5;
105 : 00F5;
106 : 0133;
107 : FFBC;
108 : 011D;
109 : 00B5;
110 : 0015;
111 : 01C6;
112 : 01CC;
113 : FFC5;
114 : 009F;
115 : FE28;
116 : FEAD;
117 : FE09;
118 : 00FC;
119 : FE98;
120 : FFA7;
121 : FECD;
122 : FE61;
123 : 003E;
124 : 00EB;
125 : 01CD;
126 : 00A5;
127 : 00BB;
128 : FFDF;
129 : FEB8;
130 : 0038;
131 : 0149;
132 : 009F;
133 : 0015;
134 : FF64;
135 : 001E;
136 : FE7F;
137 : FFED;
138 : 00C2;
139 : FE1E;
140 : 001C;
141 : 01C6;
142 : 00DF;
143 : FEE4;
144 : 0139;
145 : 0020;
146 : 0005;
147 : FF24;
148 : 00F7;
149 : FF8F;
150 : FE49;
151 : FFC5;
152 : 0038;
153 : 00E2;
154 : FF7D;
155 : FE3C;
156 : FE0F;
157 : FE28;
158 : FFD7;
159 : 007F;
160 : 002B;
161 : 018C;
162 : 0193;
163 : 0179;
164 : 0164;
165 : 0191;
166 : FE4C;
167 : FEDC;
168 : 00A0;
169 : 0129;
170 : 005B;
171 : 000F;
172 : 00B0;
173 : 00A7;
174 : FEB8;
175 : 01C6;
176 : FF39;
177 : FFAA;
178 : FE65;
179 : FE4B;
180 : FE94;
181 : FF59;
182 : FE16;
183 : 00C1;
184 : FE16;
185 : FE04;
186 : 017C;
187 : FF2F;
188 : FFA7;
189 : 0033;
190 : 0190;
191 : FF1D;
192 : FEFA;
193 : FEBA;
194 : FF54;
195 : FFEF;
196 : 0076;
197 : 00E3;
198 : 0142;
199 : 000F;
200 : 0166;
201 : FFC7;
202 : FE57;
203 : 018A;
204 : 015D;
205 : 0083;
206 : 01AA;
207 : 0005;
208 : 0103;
209 : FF72;
210 : FEBB;
211 : 01E7;
212 : FE57;
213 : FF42;
214 : 0126;
215 : 003A;
216 : FEC8;
217 : 0129;
218 : 0195;
219 : 0110;
220 : 00D2;
221 : FE68;
222 : FE64;
223 : FE02;
224 : 0157;
225 : FE29;
226 : FF9F;
227 : FE4B;
228 : FFB6;
229 : 0139;
230 : 0060;
231 : 0190;
232 : FF01;
233 : 00BB;
234 : FE34;
235 : FEB6;
236 : 01B2;
237 : 0091;
238 : 0108;
239 : FEC9;
240 : 011D;
241 : FF2B;
242 : FEBF;
243 : FFEA;
244 : 0077;
245 : 0087;
246 : FEB9;
247 : FE8B;
248 : FFC4;
249 : FE71;
250 : 00C9;
251 : FFF5;
252 : 008A;
253 : FEB5;
254 : 0021;
255 : FED9;
256 : 0400;
END;
