DEPTH = 257;
WIDTH = 16;
ADDRESS_RADIX = DEC;
DATA_RADIX = HEX;
CONTENT BEGIN
0 : 0198;
1 : FEA6;
2 : FE56;
3 : 0091;
4 : FE7A;
5 : FE3A;
6 : FFE0;
7 : FE0C;
8 : 01B8;
9 : FF65;
10 : FFA6;
11 : FFE3;
12 : 01BF;
13 : 00A8;
14 : FFE7;
15 : 0044;
16 : FF19;
17 : FF97;
18 : 008E;
19 : FFAE;
20 : FE06;
21 : 002E;
22 : FE7B;
23 : 0145;
24 : FFA8;
25 : FF79;
26 : FEC7;
27 : FFCD;
28 : 00A1;
29 : 0101;
30 : FE8B;
31 : 0071;
32 : 01A3;
33 : FE60;
34 : FE76;
35 : 0065;
36 : FFC2;
37 : 016A;
38 : FE70;
39 : FECD;
40 : FFCA;
41 : 0086;
42 : FE08;
43 : FE97;
44 : 0123;
45 : FE46;
46 : FF9E;
47 : 00EE;
48 : 0149;
49 : 0158;
50 : 0025;
51 : 00E5;
52 : 0131;
53 : FF1D;
54 : FFC2;
55 : 01DF;
56 : FFDB;
57 : 004F;
58 : FE6B;
59 : 0134;
60 : 007A;
61 : FFDF;
62 : FF28;
63 : 0177;
64 : 0062;
65 : FFBB;
66 : FE9B;
67 : FE93;
68 : 0042;
69 : FFD6;
70 : 018B;
71 : FE9D;
72 : 016A;
73 : FEAD;
74 : 0170;
75 : FEFD;
76 : FF58;
77 : FFE6;
78 : FE26;
79 : 00F3;
80 : 01FF;
81 : FF9F;
82 : FF1E;
83 : FF21;
84 : FFC2;
85 : 01A6;
86 : 01EE;
87 : 009A;
88 : 0062;
89 : 0130;
90 : FFBA;
91 : 0144;
92 : 011A;
93 : FFAD;
94 : FE16;
95 : 00D6;
96 : 01EC;
97 : FF18;
98 : FE4B;
99 : FFAC;
100 : 013A;
101 : FF77;
102 : 0063;
103 : 0022;
104 : 0089;
105 : 01A3;
106 : FF1A;
107 : 0083;
108 : 01A2;
109 : 0012;
110 : FEC4;
111 : FFA2;
112 : 0088;
113 : 00B2;
114 : 019B;
115 : FEC2;
116 : FFC3;
117 : 018F;
118 : 009A;
119 : 000E;
120 : 018D;
121 : 0033;
122 : FFD4;
123 : FE37;
124 : FF27;
125 : 0028;
126 : 01DB;
127 : FF96;
128 : 00D1;
129 : 0127;
130 : 00DD;
131 : 01D6;
132 : FFA7;
133 : FECA;
134 : FEDB;
135 : 00E0;
136 : 0084;
137 : 008D;
138 : 0082;
139 : 006D;
140 : FF79;
141 : 0114;
142 : 008D;
143 : 01A3;
144 : 0012;
145 : 001C;
146 : FF0F;
147 : 0065;
148 : 0052;
149 : FF98;
150 : FEA4;
151 : FF8D;
152 : FE6A;
153 : 014B;
154 : 0193;
155 : 0157;
156 : 0180;
157 : 0166;
158 : FFFB;
159 : 008F;
160 : 01E4;
161 : 0169;
162 : 010A;
163 : 00C6;
164 : FF7C;
165 : 00E9;
166 : FFE9;
167 : 01DF;
168 : 016F;
169 : 0180;
170 : FE53;
171 : FEE5;
172 : 00D7;
173 : FE91;
174 : FF89;
175 : FE19;
176 : 00BF;
177 : FE89;
178 : FE21;
179 : 00B0;
180 : 004A;
181 : FFF9;
182 : 0175;
183 : FE7C;
184 : FF1A;
185 : FFDF;
186 : 01AB;
187 : FFCA;
188 : 01E0;
189 : FFE4;
190 : FED9;
191 : FE72;
192 : FED4;
193 : 0138;
194 : 012C;
195 : FEE8;
196 : 0100;
197 : FE5E;
198 : FEFF;
199 : 0194;
200 : FF7A;
201 : 01CA;
202 : FE12;
203 : 01E6;
204 : FEBF;
205 : FE25;
206 : FF63;
207 : FE61;
208 : 0033;
209 : FE2F;
210 : 00EC;
211 : 00FE;
212 : 0142;
213 : 0046;
214 : FEC3;
215 : 0109;
216 : FE10;
217 : 00A1;
218 : FF64;
219 : 0058;
220 : 00AC;
221 : 00C2;
222 : 008C;
223 : 0193;
224 : FF4F;
225 : 0178;
226 : FEF5;
227 : 0072;
228 : 0159;
229 : FED8;
230 : 00B2;
231 : 0085;
232 : 011A;
233 : 017B;
234 : FFFC;
235 : FF6C;
236 : 01BA;
237 : 006A;
238 : FE4E;
239 : 009E;
240 : FEDB;
241 : 0131;
242 : FEE1;
243 : 001C;
244 : FEC5;
245 : FE42;
246 : 01BE;
247 : 00DA;
248 : FEB4;
249 : 0181;
250 : 0181;
251 : 01DC;
252 : 008C;
253 : FEBF;
254 : 01C0;
255 : 00D4;
256 : 0400;
END;
