DEPTH = 257;
WIDTH = 16;
ADDRESS_RADIX = DEC;
DATA_RADIX = HEX;
CONTENT BEGIN
0 : 00E4;
1 : FEC8;
2 : FFF8;
3 : 004F;
4 : 007B;
5 : FFD3;
6 : 0190;
7 : 01CD;
8 : 002D;
9 : FF89;
10 : 0199;
11 : FEEE;
12 : 00EE;
13 : 017E;
14 : 002B;
15 : FEBE;
16 : 0054;
17 : FE42;
18 : FFF7;
19 : FECD;
20 : FE08;
21 : FEC8;
22 : FE13;
23 : 01D2;
24 : 0124;
25 : FFD6;
26 : FF94;
27 : FF81;
28 : 01ED;
29 : 00EC;
30 : FF0A;
31 : FFAD;
32 : FE2F;
33 : FFE4;
34 : FF73;
35 : FF04;
36 : 0113;
37 : 0104;
38 : FE92;
39 : 00F6;
40 : 0060;
41 : FFBF;
42 : FF0A;
43 : 0047;
44 : FFEF;
45 : FED2;
46 : FF0F;
47 : FF97;
48 : FE46;
49 : FF7D;
50 : FF67;
51 : FEE1;
52 : FFAD;
53 : FE3A;
54 : 014A;
55 : FF3A;
56 : FFE9;
57 : 0148;
58 : 014B;
59 : FF70;
60 : 004D;
61 : 00BB;
62 : 006A;
63 : 0061;
64 : FE87;
65 : FF1F;
66 : 0142;
67 : FE58;
68 : FE86;
69 : FF93;
70 : 01DD;
71 : 00C4;
72 : FE2C;
73 : FF69;
74 : 01D1;
75 : 01D3;
76 : FE29;
77 : FFB0;
78 : FF0D;
79 : 0160;
80 : FF9F;
81 : 0022;
82 : 0027;
83 : FF26;
84 : 00AF;
85 : FE4F;
86 : FFD6;
87 : FFCC;
88 : FEEF;
89 : 00EE;
90 : FFC5;
91 : 00DF;
92 : 01FF;
93 : FE04;
94 : FE74;
95 : FE35;
96 : 018F;
97 : 01DF;
98 : 014F;
99 : 00F7;
100 : FF5A;
101 : 008F;
102 : 0019;
103 : 00AA;
104 : 019A;
105 : FFD8;
106 : 000A;
107 : FE99;
108 : FEE0;
109 : 0104;
110 : 00E1;
111 : 01BC;
112 : FF9E;
113 : 004A;
114 : 00C3;
115 : FE43;
116 : 0092;
117 : FFE8;
118 : 00AD;
119 : 00DE;
120 : FEFB;
121 : FE02;
122 : FE32;
123 : 0026;
124 : 0136;
125 : 0144;
126 : FEC7;
127 : FFBF;
128 : 01F2;
129 : FE78;
130 : FF3D;
131 : FE85;
132 : 006D;
133 : FEB4;
134 : 013C;
135 : FE09;
136 : FF41;
137 : FF8F;
138 : 0193;
139 : FE5A;
140 : FE60;
141 : 0159;
142 : 013D;
143 : 01BC;
144 : 0081;
145 : FFCB;
146 : FF46;
147 : FF4B;
148 : FFCE;
149 : FE03;
150 : FEB1;
151 : FF62;
152 : 0033;
153 : FFF0;
154 : 0048;
155 : 005A;
156 : FE5D;
157 : 002B;
158 : FF43;
159 : 007D;
160 : FFBE;
161 : 00DB;
162 : FE87;
163 : 0139;
164 : 0169;
165 : FF75;
166 : 0089;
167 : FEB5;
168 : FE2C;
169 : FE27;
170 : FEDB;
171 : FF33;
172 : FFB4;
173 : FEAF;
174 : 017F;
175 : FEED;
176 : 01FF;
177 : FF15;
178 : FF98;
179 : FE37;
180 : 0008;
181 : FF99;
182 : FEDD;
183 : 00F2;
184 : FF51;
185 : 01D7;
186 : 01EB;
187 : FFCC;
188 : FF74;
189 : FE28;
190 : FF7C;
191 : 011B;
192 : FF9E;
193 : 0098;
194 : 015E;
195 : FE38;
196 : FFED;
197 : 010D;
198 : 01B3;
199 : FEB7;
200 : 00B2;
201 : FE2B;
202 : FE65;
203 : FFAF;
204 : FE75;
205 : 0021;
206 : FEF0;
207 : FF2B;
208 : 0036;
209 : 0055;
210 : 00B7;
211 : FEE0;
212 : FFE5;
213 : 01DD;
214 : FE0C;
215 : 0194;
216 : 01F0;
217 : FFA0;
218 : 014A;
219 : FFF8;
220 : 00E1;
221 : 011B;
222 : FFC1;
223 : 009D;
224 : 01C4;
225 : FEBC;
226 : FFA5;
227 : 0116;
228 : 00C5;
229 : 0008;
230 : FE87;
231 : FF93;
232 : FE7A;
233 : FF89;
234 : FFE1;
235 : 00AE;
236 : FE4E;
237 : FFE1;
238 : FF13;
239 : FE22;
240 : FF2A;
241 : FE75;
242 : 00A4;
243 : 00D5;
244 : 00A6;
245 : FEB5;
246 : FFC7;
247 : FE99;
248 : 0132;
249 : FFE3;
250 : FF50;
251 : 011D;
252 : FF80;
253 : 016E;
254 : FF0B;
255 : FF72;
256 : 0400;
END;
