00C5
0032
FEA5
FE05
0179
FF25
FF80
01D9
00F7
FE44
FEBA
01C1
0063
FFFC
FE35
0061
FF79
009B
FE20
FEDA
FF7E
FEF3
FFCB
FF8E
FF0A
FE14
FFED
FFAA
FF00
01A0
FEFD
FF0C
FFBD
FF45
FFB9
0012
01B5
0082
000B
FFCB
FF19
FE4E
00B8
0001
0091
01C7
FF7F
FE3A
0188
016B
FEBC
FFCE
FE40
00B2
FF6C
FF07
00A3
FE21
00F5
0061
00C2
01BD
FECE
0167
0085
FFE8
FE52
0150
FE32
0185
FF26
00E1
FECC
018E
0147
01A3
0012
01E4
FE57
FFF1
FF44
FF09
000B
FFC2
FFE0
FFB5
FE38
FFD6
FE11
FE60
FE94
FFAB
017F
FECB
0169
FE36
01E0
01AF
0047
FE26
010E
017A
FF3C
01BF
FEB8
FF92
FF37
0021
0185
0023
FE7D
01A1
FE5B
005B
FF9C
001C
FE2D
00AB
01EF
FF4D
0004
FE9A
FF9A
FF44
01AF
FF37
FE17
01CE
0027
0055
01BA
FFFF
0186
FE9F
FED0
0026
FFEE
FE56
FEDD
017D
016C
FF15
FF24
FF15
0160
FF24
011C
01CC
0148
FF41
FE19
0009
00FF
017F
00B5
FFE4
01B8
FEE8
018E
FE13
01CF
00EA
01FA
FFE7
0027
0081
005B
FE63
FF6A
FFF1
0018
FF43
FFC4
FFB8
00AC
FFBB
FEBB
00D0
FFBB
01FF
FED6
00D7
FE6A
FE82
FEB3
FF1A
005B
FF91
01B6
016C
FE36
FE69
015C
0110
002B
009F
0159
00A0
FE38
FEB1
008D
0043
FEBA
FEA5
00F4
FE16
01D6
0053
016E
FE84
FEF9
FFA5
00CA
012A
0046
FF9F
0113
004C
FEFB
018D
FE0D
0112
FEFB
011C
0066
0019
FF6A
FFAB
FE90
01C3
013D
01DD
FFC1
FEF2
00AF
FE8F
015A
FEAF
FE0D
FEA6
0048
017F
FFD0
FE9E
003E
FF31
FF18
FE56
01F7
FEF9
FEFE
003A
FF89
002C
FF66
FF61
0400
