00DA
FE7A
FFE4
018D
FE2E
008A
0077
FF98
FE5B
FEB5
FF1D
FEAD
FE43
0042
FFE3
FE25
0052
005F
0026
FEE5
FEB9
01E3
FEF3
FEB8
0025
FECE
00C3
FEB4
010B
008C
017E
00C1
016F
FEC0
00ED
FE51
FF62
018F
FE92
FFB9
FF7A
FED6
FFD5
FFBB
FEE8
01E4
FE38
0017
0003
FF34
FE16
FFC7
FE0F
FEEE
009E
FF40
FF20
006F
FE72
00E6
FEBA
01C1
FE7B
00C1
0050
FE83
0088
FE88
FF99
FEE6
0153
017F
01EE
FE8E
0008
0006
00FF
FFCD
00B2
FF9C
FEE0
01CA
FEB9
017A
016F
011C
0006
FF11
FE91
012F
FFB1
FE6B
004E
0026
FE9A
FE33
015F
FF84
FEB3
0037
FF32
006A
00DC
FFB3
FE4C
00B7
01FA
FFE9
0111
0153
FEBF
FE28
FFC7
00E2
FE2D
FE34
0148
0070
FE74
FE17
00D6
0004
00E0
FE69
FEE9
014E
FFA0
FEEC
FF51
017F
01E7
FF58
0183
FFE2
018D
FE8C
FF9D
FFC0
00DE
FE90
0030
0147
0011
01D0
00ED
FF02
FE8E
00FE
0023
00C3
FE4A
0155
FF69
FF75
FFD7
0062
FF19
01EF
FF37
008B
0052
00D9
017D
FFF7
0195
FE4D
FF49
001E
FF2B
0179
FFE3
016B
01F5
00ED
014E
00CD
FE89
0132
0064
FF18
FEF5
019D
FF8B
FE22
FE15
FE53
FE85
0128
01E5
0061
FFD1
FF65
019A
001C
00DC
FE41
FEDC
00E0
0027
FE42
0012
00A4
0122
01D1
0071
01C7
00E8
FE73
FFE2
FF76
00A3
01F4
FE48
FECF
FF94
FF72
00FC
FFE5
018D
0052
FE1F
0119
FF69
FEAF
FE29
00D4
0114
FF86
FE71
00DE
FE17
0019
010B
FF78
015B
0118
FF84
FEFF
FEF9
FF23
FEF4
0044
FF70
FFC1
FE2D
FFAD
FFBB
FED8
FF10
004C
012A
0039
0138
01EC
00DE
FE86
0400
