FE6E
FE1A
FFB6
0017
0092
FE48
FEA7
00A3
0133
FE28
00C3
0003
FEBA
FE9F
003D
FF9A
013D
0173
01D3
018E
005F
FF70
000F
FFC8
FEF0
01B5
012F
00A9
FF9B
FE66
01F8
00E8
FF6E
FFD6
0149
FFE2
FF3F
FFA3
FE49
FF5D
00A1
FED9
0167
014A
00A7
FEE6
01DE
00EB
FF0A
009F
FFA4
010F
0080
0041
007A
0159
FEF3
0117
FE80
0101
FFAC
FEAF
FEA4
FFAB
FEBF
007A
00EC
0000
0050
FFAE
00EC
FF56
FEC8
0124
FFB0
FFA9
00FF
FF2B
FED1
002F
FE3C
FEEA
00F8
FFC7
FFA3
FE0A
00CE
FE3E
FF6B
0149
01B2
FEAB
01BB
0044
FE0E
FE92
00F6
002D
FE61
01AE
011F
FEE3
FE1A
FF7D
FFCC
FE01
FE59
FF38
0139
FF00
FED5
FEF7
FF8C
FEC4
FE51
0139
00EA
003E
0006
FF7A
0013
0197
0137
FF5D
FE65
012D
FE70
FEFC
00C6
01E1
000B
FE4C
FF7F
0136
000E
FF98
01F8
FFEC
FF08
010E
FECE
FEE1
FEEA
0170
FE66
0039
FF79
00D5
FE69
FF9C
014D
FFFC
0026
FFE7
012B
FFFA
FFFD
00A0
003A
005B
016F
FF67
FFAB
FF00
00CD
0170
FF04
FFA3
FF80
0001
FE37
01C0
0021
0128
FE6B
00F0
FF7D
0109
FFB7
0114
FE8F
01AC
FE26
FF49
01BF
014D
007F
FF54
FF17
0074
FFDB
00AE
FFCE
0106
FED3
FFD3
01F8
010E
00B7
FF9E
FE0B
018D
017F
FFFA
FE40
FEF7
FF67
FE02
FEDC
FE7C
015D
FEBD
FF24
FFC6
0181
FFE3
FE93
FEFC
FE31
FEB1
FF08
FE4F
0058
FF47
FF6A
01AD
016F
FE16
FEC3
0151
FF7C
01D1
FFC4
FE32
01FE
FE8D
FEC5
FFBC
0016
008C
0031
00B8
FE16
0177
0187
FE00
016B
FE66
FE05
0189
00E0
FF86
019D
FE93
01C8
FE2F
0400
