FF4D
FE2E
FEC9
FE5B
00C9
0158
01DA
FE1A
0122
000E
FF65
019E
FF63
FF63
01AE
0026
0184
FFAC
FE5C
0125
FE1F
FE4A
00B9
FECC
0050
00E6
FE6B
FE83
0144
FF25
0095
018C
01A0
016E
FF44
012C
FFF2
FF2E
FFB0
FE0C
FF41
015F
FF15
FF71
FFE8
011F
FFAE
0192
014B
0138
015B
01CE
003B
FEF9
0184
FE22
FFDD
FFDF
01A2
FEF4
0161
0029
0155
FE96
FE0D
FF05
FF6D
00D9
FE04
FE4F
0038
FF87
015B
FE6C
00D6
0151
0186
0064
00F4
01CF
01A7
0027
FE59
018A
00F5
0062
FE42
00B5
FEA1
FEEE
0095
FE96
FE07
FF5B
FF5E
01DD
009A
01AE
FF9C
00D0
FF64
FE2A
FF9F
0076
FFA9
016E
014C
00D6
0068
FECC
FFE2
00A4
FE71
0170
01E3
0195
FFFC
FFC2
FE8E
FF5F
FE51
00A9
FED6
01A9
FF18
FE78
FF42
FF19
01EA
01B0
0131
01A7
0062
FE00
00EF
FE9D
0198
0018
00AF
FE14
00A3
FE28
0140
FE6A
FF58
00E1
FF86
00A8
01BC
FE50
01CC
01F5
FED8
FE5B
0113
002B
003C
FEE6
FE90
01B0
0162
FE2F
FF70
017F
000A
0100
0055
004E
0108
0094
0062
011B
FF57
FE32
FE5D
FE22
FE30
FEED
0051
0069
013E
00B8
01AB
0097
FE66
0022
01AE
0116
FEFA
FF18
0032
0073
0129
FEA0
0140
FFDE
FF8E
FFE2
FFE7
FF1C
FEDF
FFDF
0080
0134
0017
0054
FFBF
FE5D
FEFD
0169
FFE8
0140
FE29
FFFD
FFA2
FFD1
FE6A
009E
FFDD
FFF1
0045
00BF
FE3E
FF43
001B
0004
0086
FE5A
002B
FEE0
002F
014A
0007
FFCF
013C
00DD
FFF9
FFCC
001E
FFC4
FF6C
FFEE
FF9A
FE9B
0141
01A5
0147
FECB
FF4F
FE28
FF79
FF51
01A3
FF40
00BC
FE90
0400
