DEPTH = 257;
WIDTH = 16;
ADDRESS_RADIX = DEC;
DATA_RADIX = HEX;
CONTENT BEGIN
0 : 0171;
1 : 0146;
2 : FFB5;
3 : FEE9;
4 : 0183;
5 : 0084;
6 : 00C9;
7 : FE79;
8 : FF82;
9 : FF14;
10 : FEF8;
11 : 0021;
12 : FED2;
13 : 00AC;
14 : FF97;
15 : 0152;
16 : 0159;
17 : 00D5;
18 : 0178;
19 : 0167;
20 : 0139;
21 : 0160;
22 : FFE6;
23 : 00A8;
24 : FFFD;
25 : 01AD;
26 : 0010;
27 : 0067;
28 : FFA7;
29 : FF91;
30 : 005F;
31 : 018B;
32 : 0159;
33 : FEE9;
34 : 016C;
35 : FEB3;
36 : 014F;
37 : 0069;
38 : 018E;
39 : FF42;
40 : FFA8;
41 : FE7F;
42 : FE14;
43 : FF59;
44 : 00DC;
45 : FF30;
46 : 0068;
47 : FF10;
48 : FF92;
49 : FE69;
50 : 0181;
51 : 01C4;
52 : FEAB;
53 : 01C4;
54 : FF7E;
55 : 00B6;
56 : 00DD;
57 : FE0B;
58 : 01DA;
59 : FF20;
60 : FE29;
61 : FF3A;
62 : 0126;
63 : FE0C;
64 : 013D;
65 : 0197;
66 : 0074;
67 : FF3B;
68 : 004D;
69 : 0060;
70 : FF6E;
71 : FFAC;
72 : FE7A;
73 : FFB9;
74 : 01B7;
75 : 00E5;
76 : 004B;
77 : 01E7;
78 : 0114;
79 : 00ED;
80 : 0175;
81 : 0131;
82 : 0054;
83 : 00DE;
84 : FFF8;
85 : FEEE;
86 : FE34;
87 : 0013;
88 : FF3E;
89 : FFC0;
90 : FFB8;
91 : 0086;
92 : 0104;
93 : FFD2;
94 : 0002;
95 : 01EA;
96 : 01B7;
97 : FF66;
98 : 008E;
99 : FF36;
100 : 0157;
101 : FE19;
102 : 01FF;
103 : FE44;
104 : FF44;
105 : 0003;
106 : FFED;
107 : FF6C;
108 : 00A8;
109 : 0027;
110 : FFCB;
111 : FF0F;
112 : 01EA;
113 : FEA5;
114 : FFF9;
115 : FE6D;
116 : FFA3;
117 : 01C8;
118 : 00D1;
119 : 0152;
120 : 016B;
121 : 00E1;
122 : FE6E;
123 : FE76;
124 : FEAE;
125 : 01CB;
126 : FF07;
127 : 0087;
128 : FFFB;
129 : 016E;
130 : 00FD;
131 : 0178;
132 : FE48;
133 : 0172;
134 : FF13;
135 : FF26;
136 : FFA5;
137 : FF5F;
138 : FF0C;
139 : FF91;
140 : 01EB;
141 : FF99;
142 : FE8E;
143 : FF51;
144 : 010C;
145 : 0160;
146 : 002B;
147 : 00B2;
148 : FF98;
149 : FEF8;
150 : FF5F;
151 : FFFE;
152 : FFED;
153 : 0174;
154 : 004C;
155 : FE39;
156 : FE25;
157 : FF0D;
158 : FEAC;
159 : FF47;
160 : FF77;
161 : 0146;
162 : FF85;
163 : FE02;
164 : 019C;
165 : 0076;
166 : FF2A;
167 : FF6E;
168 : 01BB;
169 : FE67;
170 : 002D;
171 : FFCD;
172 : FEA6;
173 : 0041;
174 : 00B7;
175 : FF4C;
176 : FEAE;
177 : FE0B;
178 : FFA1;
179 : 01F6;
180 : FF9D;
181 : FF69;
182 : FE67;
183 : FF14;
184 : FFAB;
185 : 00BA;
186 : 01E6;
187 : FE43;
188 : FE9E;
189 : FF91;
190 : FE50;
191 : FE0E;
192 : FE68;
193 : FE92;
194 : 01E3;
195 : FEDB;
196 : FE61;
197 : FE4A;
198 : FE69;
199 : FF49;
200 : 0014;
201 : FFC3;
202 : FF6F;
203 : FFB7;
204 : FEC0;
205 : FE72;
206 : FE2F;
207 : FE5F;
208 : FFBE;
209 : 016C;
210 : 011D;
211 : FF57;
212 : FE58;
213 : 0087;
214 : FEAD;
215 : 010D;
216 : 0103;
217 : 01FE;
218 : 0198;
219 : 0021;
220 : 0175;
221 : FFD5;
222 : 0092;
223 : 0141;
224 : FE29;
225 : FEF9;
226 : 0118;
227 : 01E0;
228 : FF60;
229 : FEC3;
230 : 0194;
231 : 01BB;
232 : 003C;
233 : FE2B;
234 : FEA7;
235 : FED5;
236 : 007B;
237 : FEBF;
238 : 0192;
239 : 0152;
240 : FE4F;
241 : 016A;
242 : 0143;
243 : 00E4;
244 : 00AB;
245 : 01AC;
246 : 00DA;
247 : FF9D;
248 : 019F;
249 : 00FB;
250 : 00DE;
251 : 004A;
252 : 01FC;
253 : FE35;
254 : FEF2;
255 : FE63;
256 : 0400;
END;
