DEPTH = 257;
WIDTH = 16;
ADDRESS_RADIX = DEC;
DATA_RADIX = HEX;
CONTENT BEGIN
0 : 0003;
1 : 0070;
2 : FE26;
3 : FF24;
4 : 014E;
5 : 0005;
6 : 019C;
7 : FE6A;
8 : 0048;
9 : 0095;
10 : FF74;
11 : FF23;
12 : FFBF;
13 : 0035;
14 : FFA3;
15 : 007F;
16 : 01ED;
17 : 0078;
18 : FF26;
19 : FE07;
20 : 01CF;
21 : FE05;
22 : 01DC;
23 : 01F2;
24 : 014A;
25 : 0090;
26 : 01E7;
27 : FF62;
28 : FE4F;
29 : FFFE;
30 : 014D;
31 : FF14;
32 : FFCA;
33 : FE72;
34 : 003E;
35 : 00AF;
36 : 01DE;
37 : FF15;
38 : FF5F;
39 : FE3B;
40 : FF10;
41 : FE7B;
42 : 013B;
43 : 0115;
44 : 01EA;
45 : FF58;
46 : FF62;
47 : FEC8;
48 : 00EE;
49 : 00E0;
50 : FE02;
51 : FEA9;
52 : 0136;
53 : 015A;
54 : 00CC;
55 : 0070;
56 : 01DF;
57 : FE9A;
58 : 0061;
59 : FEA7;
60 : FFCD;
61 : FE62;
62 : 01B9;
63 : 0145;
64 : FFD1;
65 : 0106;
66 : FF95;
67 : 00B4;
68 : FFAD;
69 : FF0C;
70 : FE88;
71 : FFF4;
72 : 0177;
73 : 0172;
74 : 0009;
75 : 00B4;
76 : 00D4;
77 : FEA9;
78 : FFB9;
79 : FEBA;
80 : FFE1;
81 : FF2A;
82 : 000D;
83 : 01E3;
84 : FFD5;
85 : 0096;
86 : 004F;
87 : 0156;
88 : FEF1;
89 : 014B;
90 : FE96;
91 : 0082;
92 : FEF1;
93 : 008F;
94 : FEEF;
95 : 0128;
96 : FF8F;
97 : FE92;
98 : FFCF;
99 : 01DE;
100 : 0003;
101 : 003D;
102 : FE58;
103 : FFFB;
104 : FFDB;
105 : FEE1;
106 : FE71;
107 : FE3A;
108 : 01A5;
109 : 0199;
110 : FEFD;
111 : 0136;
112 : 01F5;
113 : FE44;
114 : FF73;
115 : FF37;
116 : 002B;
117 : FF78;
118 : FE27;
119 : 0148;
120 : FF58;
121 : 01C7;
122 : 016D;
123 : FFCE;
124 : FE6C;
125 : FEDB;
126 : FE91;
127 : FF41;
128 : 0124;
129 : FFDA;
130 : FFF2;
131 : 01C4;
132 : 002C;
133 : 00F6;
134 : 01A1;
135 : FF9D;
136 : FFE2;
137 : 01AE;
138 : FE2E;
139 : FFC2;
140 : 013F;
141 : FE94;
142 : FF2A;
143 : FE8B;
144 : FEC7;
145 : FFAD;
146 : 0152;
147 : 0015;
148 : FEC3;
149 : 00E4;
150 : 01C1;
151 : 00C0;
152 : FE5B;
153 : 0065;
154 : FED7;
155 : FF0E;
156 : FEEE;
157 : 01F9;
158 : 00BA;
159 : 0067;
160 : 01E7;
161 : FE86;
162 : FEC7;
163 : 0193;
164 : 01C8;
165 : FFE7;
166 : 0194;
167 : 004A;
168 : FF40;
169 : FE83;
170 : FEDD;
171 : FE44;
172 : FF3D;
173 : 0154;
174 : FFAA;
175 : FF79;
176 : FFAB;
177 : FE7B;
178 : FF98;
179 : 0006;
180 : 0155;
181 : 004C;
182 : FF6C;
183 : 0121;
184 : 01EB;
185 : FE65;
186 : FEEC;
187 : 014B;
188 : FE6C;
189 : FFF0;
190 : 006C;
191 : FE27;
192 : 01D2;
193 : FF02;
194 : 0040;
195 : 018C;
196 : 00F0;
197 : 005E;
198 : FFB5;
199 : 00BB;
200 : FEDD;
201 : 001D;
202 : FF3D;
203 : FF10;
204 : 014D;
205 : 0039;
206 : 0009;
207 : FE05;
208 : FF1F;
209 : 01F6;
210 : FE73;
211 : FE14;
212 : FED9;
213 : FEC2;
214 : FE7D;
215 : 0124;
216 : 002E;
217 : FED1;
218 : 0015;
219 : 010D;
220 : FE09;
221 : 0012;
222 : 0028;
223 : 0016;
224 : FFA6;
225 : FE0E;
226 : 003F;
227 : FE52;
228 : FF6E;
229 : 017A;
230 : 018D;
231 : FE3F;
232 : 009B;
233 : 0109;
234 : FF98;
235 : FEF3;
236 : 0011;
237 : FE22;
238 : FF16;
239 : 0132;
240 : FF84;
241 : 0110;
242 : 0161;
243 : 00A7;
244 : FE42;
245 : 0035;
246 : FF2C;
247 : FE6E;
248 : 01E0;
249 : 01F9;
250 : 012B;
251 : 01F3;
252 : FEB0;
253 : 0129;
254 : 0084;
255 : 01B6;
256 : 0400;
END;
