DEPTH = 257;
WIDTH = 16;
ADDRESS_RADIX = DEC;
DATA_RADIX = HEX;
CONTENT BEGIN
0 : 013C;
1 : 01DD;
2 : 01CC;
3 : FE43;
4 : FE26;
5 : FE1F;
6 : 005D;
7 : FF25;
8 : 00B0;
9 : FE74;
10 : FF6F;
11 : 0079;
12 : 006D;
13 : 004E;
14 : FE9C;
15 : 00D4;
16 : 0083;
17 : FFEB;
18 : FF9C;
19 : 0112;
20 : 0093;
21 : FFCF;
22 : 0145;
23 : 0031;
24 : FEAC;
25 : 0059;
26 : FFCF;
27 : 007F;
28 : 01E0;
29 : FE2B;
30 : 001F;
31 : 0093;
32 : 01A3;
33 : FFDB;
34 : FE43;
35 : FE1C;
36 : FFAD;
37 : FE7C;
38 : FF7A;
39 : FFD3;
40 : 011A;
41 : FE92;
42 : 0015;
43 : 0036;
44 : FEF6;
45 : 00A0;
46 : FF6F;
47 : 0042;
48 : FE09;
49 : 00E5;
50 : FFBD;
51 : FF09;
52 : FF0E;
53 : 00C5;
54 : FF16;
55 : 012F;
56 : FEB3;
57 : 012F;
58 : 0161;
59 : 003A;
60 : FFAD;
61 : FE2B;
62 : 014F;
63 : FEA1;
64 : FEDF;
65 : FF16;
66 : FE01;
67 : FF2F;
68 : FE32;
69 : 01D7;
70 : 003B;
71 : 0183;
72 : FE87;
73 : 016F;
74 : FF40;
75 : 01C8;
76 : 01A5;
77 : FE5C;
78 : FF31;
79 : FE97;
80 : FF34;
81 : 00B5;
82 : 010B;
83 : 01A3;
84 : FF18;
85 : 00C0;
86 : 001B;
87 : FF49;
88 : 0156;
89 : 00D0;
90 : 0120;
91 : 0079;
92 : 0098;
93 : FEB3;
94 : 01DD;
95 : FE70;
96 : FF46;
97 : FECA;
98 : FEAF;
99 : 003F;
100 : 0040;
101 : 0119;
102 : 0010;
103 : 0187;
104 : FEDF;
105 : 0129;
106 : FE4A;
107 : 002D;
108 : FEEA;
109 : FE8C;
110 : 010E;
111 : 0044;
112 : FE73;
113 : 0013;
114 : FE8B;
115 : FF7A;
116 : FF07;
117 : FEE7;
118 : FF9E;
119 : 006E;
120 : 01D1;
121 : FE4A;
122 : FFCA;
123 : FEF3;
124 : 008C;
125 : 01EE;
126 : 0195;
127 : FFAE;
128 : FE81;
129 : FF70;
130 : 0035;
131 : FF66;
132 : 01BB;
133 : 01B6;
134 : FEFE;
135 : FE03;
136 : 005D;
137 : FE5C;
138 : FE52;
139 : FF90;
140 : 000F;
141 : FF2F;
142 : FFE8;
143 : FF5D;
144 : 0089;
145 : FE2B;
146 : FF3B;
147 : FECC;
148 : 0070;
149 : FE5B;
150 : FFDB;
151 : FF83;
152 : 01CA;
153 : 01E2;
154 : FE96;
155 : 01B3;
156 : FF0A;
157 : FE67;
158 : FEF6;
159 : FE07;
160 : FFEC;
161 : 01B0;
162 : FE5B;
163 : 01EB;
164 : 0109;
165 : 00FE;
166 : FE20;
167 : 0192;
168 : FE09;
169 : FEE1;
170 : FE57;
171 : 00E4;
172 : 00D9;
173 : 01B2;
174 : 00C8;
175 : 004C;
176 : FEDB;
177 : 00A8;
178 : FE87;
179 : FFD5;
180 : 0042;
181 : 006D;
182 : 00B7;
183 : 0140;
184 : 01C3;
185 : 01DD;
186 : FE6C;
187 : FE1F;
188 : 01E9;
189 : FF53;
190 : FFB7;
191 : 01B9;
192 : 0059;
193 : FE90;
194 : 01E1;
195 : FFBA;
196 : FE68;
197 : FF8D;
198 : 002B;
199 : FE24;
200 : 00A0;
201 : FF34;
202 : FFAC;
203 : FF7E;
204 : FF6D;
205 : FEC5;
206 : FF9B;
207 : 00C8;
208 : FECA;
209 : 0029;
210 : FFBF;
211 : 0043;
212 : FFF7;
213 : FFE4;
214 : FECB;
215 : FEBF;
216 : FFA2;
217 : 0019;
218 : 0181;
219 : FE4A;
220 : FF4B;
221 : FF21;
222 : 002B;
223 : FEBF;
224 : 00D3;
225 : 0180;
226 : 011E;
227 : 01D9;
228 : FF1B;
229 : FF55;
230 : 0011;
231 : FFDC;
232 : FFDE;
233 : 0051;
234 : FECD;
235 : 0146;
236 : 0147;
237 : FF14;
238 : FF18;
239 : FE1C;
240 : FFB6;
241 : 01AE;
242 : 013C;
243 : FF2A;
244 : FEF3;
245 : FE1B;
246 : FE93;
247 : FEC8;
248 : FE94;
249 : 01BC;
250 : FE86;
251 : FEC9;
252 : FF8D;
253 : 006F;
254 : 0068;
255 : 002B;
256 : 0400;
END;
