00A7
FE68
FE09
006D
0055
00FC
0099
FE78
00EC
FE7F
01DC
0153
FF0D
FE20
FEDC
00EE
FEEB
0194
FFA3
01F0
00C8
FF96
FF77
FF4C
FE0B
0114
00EF
014F
FF21
FE3A
FE47
01D4
0049
0184
0151
00AD
0189
FE40
0193
0163
FEF8
001E
01D5
FE89
FF54
00BE
FFBB
FF25
012B
FF56
FFF1
0160
FE85
FEEE
FF33
FF4E
FE45
FEDC
01EC
FE7A
0042
FF52
FFB6
FFA5
0059
0105
01C2
FE53
01FD
01BA
00B7
00A7
01BD
0114
000C
FE0E
00F6
0036
FE0C
01AF
FE9E
FE55
0050
FE38
00CE
014E
FF73
FE29
0085
006B
FFA5
018C
00F8
FED2
0041
FF5B
0013
FE08
00D7
0063
0026
FE84
FE78
0018
FE50
01D5
01A3
FE4A
004A
00C5
FE43
0138
FE51
FE7C
006B
FE66
006A
FFF4
0101
019B
FF94
FED7
014A
FE6B
FF7F
0094
00D0
FE7B
01D4
016F
FFCD
005C
FFCC
FF7C
0056
FEE9
011C
00EE
01F2
0037
FEB0
016A
0148
01D7
FF9B
0055
0032
01B3
FF51
0008
FE46
01CB
FE6F
FF37
FE03
FEE9
FF34
0086
FE8C
FEAF
00B5
FF94
00DD
FF11
01EE
FEAA
FFC6
FEBD
0169
003A
00CF
FF9D
FEFF
0159
FE2D
00A5
FEDD
FE3C
016E
FED9
00FB
FEC5
FFA4
0047
FE6E
0021
FE04
FE91
01F8
FF56
0198
0116
01F8
FE4C
FE89
FF58
FE8C
FE1D
FF7D
FEB4
01DD
01EC
00C2
FE0A
00DE
00AC
FF4D
00FD
FF14
FF08
01B6
FFDE
01C0
0184
0136
0113
0142
FFAD
FE66
FE42
0170
FE47
00C2
FFCC
FF24
FEBC
0065
FF51
00EC
FFA0
FEBF
FF29
00FA
FFE3
0190
FE56
00CB
01F9
FE45
0167
FF4A
000F
FEEF
FF12
004C
012C
0179
FE46
FE47
011D
FE4E
FF0F
01E2
0096
01B6
00FC
0400
