DEPTH = 257;
WIDTH = 16;
ADDRESS_RADIX = DEC;
DATA_RADIX = HEX;
CONTENT BEGIN
0 : 0182;
1 : 01B3;
2 : FE74;
3 : FF5D;
4 : FE53;
5 : 00D3;
6 : 014A;
7 : FE4B;
8 : 0071;
9 : FE76;
10 : FEF8;
11 : 0008;
12 : 00A9;
13 : 0067;
14 : 0064;
15 : 017F;
16 : FFC9;
17 : 00BC;
18 : 0115;
19 : FFF4;
20 : 00A2;
21 : FE6D;
22 : 009B;
23 : FF93;
24 : FEF5;
25 : 01EF;
26 : 00C8;
27 : FE3B;
28 : 01C3;
29 : FF32;
30 : 0013;
31 : FF18;
32 : FE31;
33 : 00F9;
34 : FF33;
35 : FF30;
36 : 0174;
37 : FFEF;
38 : 01ED;
39 : FFDA;
40 : FE90;
41 : FEC9;
42 : FEE7;
43 : FF76;
44 : 017C;
45 : FF29;
46 : FF3D;
47 : FEA1;
48 : FE92;
49 : FF59;
50 : FE78;
51 : 006C;
52 : FE45;
53 : FF57;
54 : FE40;
55 : 0164;
56 : FFBC;
57 : 0062;
58 : FF33;
59 : FFF9;
60 : 014E;
61 : 00B1;
62 : FEF6;
63 : FFA5;
64 : FF91;
65 : FE82;
66 : FF5A;
67 : FF9B;
68 : 005A;
69 : 0038;
70 : FF3A;
71 : FEFD;
72 : 01D0;
73 : FE6D;
74 : FF52;
75 : FFF9;
76 : 001D;
77 : FFF6;
78 : 0069;
79 : 007E;
80 : 0193;
81 : 010C;
82 : FE0B;
83 : 0122;
84 : 008E;
85 : FF1A;
86 : 00F2;
87 : FE73;
88 : FE3A;
89 : FE48;
90 : FF20;
91 : 0149;
92 : FF38;
93 : 01CC;
94 : FEF5;
95 : FE6D;
96 : FFA3;
97 : 01CE;
98 : FEC6;
99 : FE53;
100 : FE59;
101 : 00F5;
102 : 01C5;
103 : 0187;
104 : 01DF;
105 : FEA3;
106 : 007A;
107 : FF77;
108 : 005F;
109 : FF6D;
110 : FE82;
111 : 00C2;
112 : FE2B;
113 : FF51;
114 : 01C3;
115 : 00D4;
116 : 0080;
117 : FEC0;
118 : 00AE;
119 : FF48;
120 : 0082;
121 : FE09;
122 : FECB;
123 : FE39;
124 : 001F;
125 : FEB0;
126 : FEF8;
127 : 00ED;
128 : FF8D;
129 : 0053;
130 : 00F9;
131 : FF96;
132 : FEE3;
133 : 00B2;
134 : 00BF;
135 : FF22;
136 : 00CB;
137 : 00E6;
138 : 00C2;
139 : 013E;
140 : 000C;
141 : 01D9;
142 : FECB;
143 : FF9F;
144 : FE17;
145 : FFF4;
146 : FFD8;
147 : FE09;
148 : 0040;
149 : 0014;
150 : FEE6;
151 : FEFF;
152 : 01A2;
153 : FF50;
154 : FE1F;
155 : FEAD;
156 : FF61;
157 : FFAC;
158 : FE81;
159 : 01A9;
160 : FF4F;
161 : 0067;
162 : FFCB;
163 : FEC0;
164 : FF24;
165 : FEC1;
166 : 0075;
167 : 0180;
168 : FEC5;
169 : FFBB;
170 : 011A;
171 : FED6;
172 : FE9D;
173 : 006E;
174 : 008F;
175 : FF22;
176 : FFA9;
177 : 0196;
178 : 0154;
179 : FFF0;
180 : FF62;
181 : FE6D;
182 : FFFB;
183 : FE87;
184 : 01A8;
185 : 000B;
186 : 01D1;
187 : 00B7;
188 : FFC5;
189 : 008A;
190 : 01EF;
191 : 01F7;
192 : 00B9;
193 : 00D2;
194 : 006C;
195 : 0035;
196 : 0150;
197 : 013F;
198 : 01B4;
199 : 00CB;
200 : 01AF;
201 : FE5F;
202 : 000C;
203 : FEBC;
204 : 01D9;
205 : 01E7;
206 : 00C6;
207 : FEF3;
208 : FF81;
209 : 00D9;
210 : FFC8;
211 : FF10;
212 : FF1C;
213 : FE51;
214 : FEDA;
215 : 00EC;
216 : 0063;
217 : FF8E;
218 : 01AA;
219 : 0129;
220 : 0151;
221 : FFE5;
222 : 0150;
223 : FFBA;
224 : FFBC;
225 : 01D3;
226 : FFE3;
227 : FFFB;
228 : 00F4;
229 : 0158;
230 : 000F;
231 : FFE3;
232 : 01CA;
233 : 0095;
234 : FF77;
235 : FFF3;
236 : 0190;
237 : 00C9;
238 : 00F8;
239 : 0025;
240 : 00FA;
241 : FE32;
242 : FF33;
243 : FFAA;
244 : FE7D;
245 : FE87;
246 : 0185;
247 : FF77;
248 : 010C;
249 : 015D;
250 : 0108;
251 : 0080;
252 : 01A8;
253 : 0084;
254 : FFA9;
255 : FF79;
256 : 0400;
END;
