01A3
FE23
FFFB
FE7D
FE57
007E
FEDD
0114
FF9D
0182
003E
0035
015B
01F0
FE74
FFCE
FE71
FEF5
00F3
FFAF
FEE0
017D
FEA3
FEFD
0030
006E
0091
FE18
00A0
013F
00FE
0054
01DC
011A
FF86
014A
FF73
00B7
00AD
01C4
FF45
00FF
FE38
0085
FEB3
FE25
FE28
FEE2
0183
FECC
FE5E
00DB
0062
FEE0
00C7
FEC4
017C
FE01
FF0E
FF00
FEE2
01D5
00ED
0002
003A
00A9
FF4B
00EA
015E
01C9
FE2F
0095
00DF
FE37
FEAD
017E
FED3
01DD
FEA6
01B4
FFE0
FF4E
FE29
0077
FF48
FFF7
FF43
FF6A
FE22
01D5
FF42
0090
FF53
FE51
0192
0075
FF30
0127
0136
FE17
FE21
00E4
FE16
FF13
FF2E
013C
FF6C
00A6
FF70
0147
FE07
FFC9
FEAF
FFD3
012E
FF88
009A
0159
FF89
FF7E
00FE
FE05
01B9
0037
00D6
00ED
0108
01B0
0031
FE63
005D
0130
FE8A
013E
FEBA
FEED
FE6A
FE99
0005
0011
FFBF
00E6
001A
01A8
FE85
0119
FEAD
FEF8
FEC2
007F
00CB
FE4E
FF5B
0110
FEB9
01F2
0192
01A6
FE9C
00F2
0151
01B4
FF80
FFA3
FFEB
0040
FE5C
FF53
FF5D
FEB2
FE86
0147
FE89
FE18
FEAB
FFA0
FE92
01D1
FE34
FE18
FFBA
017B
FF04
FFA8
FF3D
0107
FEE3
0047
0180
FF9E
01D5
FE99
01F1
0074
FEC7
01A6
010F
FED6
FF0E
FEDE
FE99
FFD2
0049
016A
FFD9
FF52
FE38
FEA8
00E6
FE15
0094
0179
018E
003B
FFB1
FEEA
FF07
0132
00AE
00E5
FF6D
0096
FF7C
00A6
FE24
FF38
00B1
0160
FEBD
0069
00C7
FEC3
FFDF
00BD
01AF
01C9
010C
00D7
01FF
00CC
FEC8
0161
FE9D
007E
FF81
FEFB
01EF
FF95
FFA2
0158
FE6B
0129
009D
FE34
0099
FFC2
0400
