DEPTH = 257;
WIDTH = 16;
ADDRESS_RADIX = DEC;
DATA_RADIX = HEX;
CONTENT BEGIN
0 : 00A7;
1 : FE68;
2 : FE09;
3 : 006D;
4 : 0055;
5 : 00FC;
6 : 0099;
7 : FE78;
8 : 00EC;
9 : FE7F;
10 : 01DC;
11 : 0153;
12 : FF0D;
13 : FE20;
14 : FEDC;
15 : 00EE;
16 : FEEB;
17 : 0194;
18 : FFA3;
19 : 01F0;
20 : 00C8;
21 : FF96;
22 : FF77;
23 : FF4C;
24 : FE0B;
25 : 0114;
26 : 00EF;
27 : 014F;
28 : FF21;
29 : FE3A;
30 : FE47;
31 : 01D4;
32 : 0049;
33 : 0184;
34 : 0151;
35 : 00AD;
36 : 0189;
37 : FE40;
38 : 0193;
39 : 0163;
40 : FEF8;
41 : 001E;
42 : 01D5;
43 : FE89;
44 : FF54;
45 : 00BE;
46 : FFBB;
47 : FF25;
48 : 012B;
49 : FF56;
50 : FFF1;
51 : 0160;
52 : FE85;
53 : FEEE;
54 : FF33;
55 : FF4E;
56 : FE45;
57 : FEDC;
58 : 01EC;
59 : FE7A;
60 : 0042;
61 : FF52;
62 : FFB6;
63 : FFA5;
64 : 0059;
65 : 0105;
66 : 01C2;
67 : FE53;
68 : 01FD;
69 : 01BA;
70 : 00B7;
71 : 00A7;
72 : 01BD;
73 : 0114;
74 : 000C;
75 : FE0E;
76 : 00F6;
77 : 0036;
78 : FE0C;
79 : 01AF;
80 : FE9E;
81 : FE55;
82 : 0050;
83 : FE38;
84 : 00CE;
85 : 014E;
86 : FF73;
87 : FE29;
88 : 0085;
89 : 006B;
90 : FFA5;
91 : 018C;
92 : 00F8;
93 : FED2;
94 : 0041;
95 : FF5B;
96 : 0013;
97 : FE08;
98 : 00D7;
99 : 0063;
100 : 0026;
101 : FE84;
102 : FE78;
103 : 0018;
104 : FE50;
105 : 01D5;
106 : 01A3;
107 : FE4A;
108 : 004A;
109 : 00C5;
110 : FE43;
111 : 0138;
112 : FE51;
113 : FE7C;
114 : 006B;
115 : FE66;
116 : 006A;
117 : FFF4;
118 : 0101;
119 : 019B;
120 : FF94;
121 : FED7;
122 : 014A;
123 : FE6B;
124 : FF7F;
125 : 0094;
126 : 00D0;
127 : FE7B;
128 : 01D4;
129 : 016F;
130 : FFCD;
131 : 005C;
132 : FFCC;
133 : FF7C;
134 : 0056;
135 : FEE9;
136 : 011C;
137 : 00EE;
138 : 01F2;
139 : 0037;
140 : FEB0;
141 : 016A;
142 : 0148;
143 : 01D7;
144 : FF9B;
145 : 0055;
146 : 0032;
147 : 01B3;
148 : FF51;
149 : 0008;
150 : FE46;
151 : 01CB;
152 : FE6F;
153 : FF37;
154 : FE03;
155 : FEE9;
156 : FF34;
157 : 0086;
158 : FE8C;
159 : FEAF;
160 : 00B5;
161 : FF94;
162 : 00DD;
163 : FF11;
164 : 01EE;
165 : FEAA;
166 : FFC6;
167 : FEBD;
168 : 0169;
169 : 003A;
170 : 00CF;
171 : FF9D;
172 : FEFF;
173 : 0159;
174 : FE2D;
175 : 00A5;
176 : FEDD;
177 : FE3C;
178 : 016E;
179 : FED9;
180 : 00FB;
181 : FEC5;
182 : FFA4;
183 : 0047;
184 : FE6E;
185 : 0021;
186 : FE04;
187 : FE91;
188 : 01F8;
189 : FF56;
190 : 0198;
191 : 0116;
192 : 01F8;
193 : FE4C;
194 : FE89;
195 : FF58;
196 : FE8C;
197 : FE1D;
198 : FF7D;
199 : FEB4;
200 : 01DD;
201 : 01EC;
202 : 00C2;
203 : FE0A;
204 : 00DE;
205 : 00AC;
206 : FF4D;
207 : 00FD;
208 : FF14;
209 : FF08;
210 : 01B6;
211 : FFDE;
212 : 01C0;
213 : 0184;
214 : 0136;
215 : 0113;
216 : 0142;
217 : FFAD;
218 : FE66;
219 : FE42;
220 : 0170;
221 : FE47;
222 : 00C2;
223 : FFCC;
224 : FF24;
225 : FEBC;
226 : 0065;
227 : FF51;
228 : 00EC;
229 : FFA0;
230 : FEBF;
231 : FF29;
232 : 00FA;
233 : FFE3;
234 : 0190;
235 : FE56;
236 : 00CB;
237 : 01F9;
238 : FE45;
239 : 0167;
240 : FF4A;
241 : 000F;
242 : FEEF;
243 : FF12;
244 : 004C;
245 : 012C;
246 : 0179;
247 : FE46;
248 : FE47;
249 : 011D;
250 : FE4E;
251 : FF0F;
252 : 01E2;
253 : 0096;
254 : 01B6;
255 : 00FC;
256 : 0400;
END;
