FECB
0117
01F3
FE4C
0072
0038
00F4
01D2
FF51
FFF8
01EC
FFD6
0087
0053
FF73
01A9
FEB5
FEEC
000D
006E
0051
0178
FE29
01F3
0134
FE45
0014
FE47
002E
FEB6
00A0
011B
0188
FE55
0076
FFC3
FF1A
00B1
FFB8
00C5
00D1
0088
FF8D
FFFA
FFA3
0007
01C3
FE47
0027
0056
01AF
FF7C
004F
FEFF
0161
014D
FED1
FE1F
FEAF
014F
FF17
FE28
FF4D
004B
FE61
FEF6
FF8E
006E
00EA
0066
01D4
FE65
0087
00B7
01D8
FE30
FF68
FFF5
FFC8
01D9
00CE
FF54
FF1A
01C1
007B
FF64
FECC
FE4A
FF02
0042
FF6B
FF2E
013E
0114
FF7A
FF3C
0136
0117
FF67
FF9B
014C
00A2
0111
01BC
FE5C
FF59
FE5C
0062
0157
01BD
0025
FEC7
FFBC
00A6
017A
0074
FE50
0172
0047
FF59
00C1
FEA2
00A6
FF36
FF08
0107
FF74
0046
FE17
0109
FEBC
FE58
0163
FFD4
01B1
01D3
FE81
01CA
FFA5
003A
00D7
FF65
FFB4
01FD
0148
0072
00EE
0163
FFE0
FF64
FF62
FEBF
01B9
FFA9
0095
01B4
FFE9
001A
FFA4
019D
FF20
01E8
FF3D
01A2
FFBC
0167
00D2
FE30
FE84
01D2
FE39
FFFA
0147
FE86
FF18
FFA2
0043
FEA9
00EB
018C
0199
FFE4
00B7
0123
0142
019D
FE41
01EE
0130
01EB
FF0C
FFA1
FFDB
FE95
0118
013F
0099
01A3
FF1D
FF0B
0187
00DA
00A9
0057
0042
FEB0
FE17
FE6B
FFBA
00EF
FEA5
FE56
00C1
0074
FFCC
0102
00C9
0036
01B9
FF2B
017E
008F
FEA0
FE90
0073
FE29
FE1E
001E
0024
FF52
0128
015E
000D
00F2
FF75
0120
00DB
01CE
FF38
00FF
01EB
0076
FF24
0175
FE79
01B8
0128
010C
FE92
005B
FF18
FFBF
010F
0087
FE3A
00D7
0400
