FF6D
0151
FF16
FF8E
FF00
FEA0
FEB1
FFA3
01CC
0173
007D
FF96
FFCF
FEE6
FFCF
00F3
FEAB
0074
FFDF
01C7
00E9
0179
FFDA
FF08
0194
FE58
FE51
FF19
FF02
01AD
0163
0172
FECF
FE90
01EF
FF1C
003C
FE7E
FE2D
004F
01A4
FFBC
0191
0128
FEBF
005D
FED2
FFFD
0078
FECD
002D
01BB
0197
FF4B
00AB
FE28
FFB8
FFF3
FE9E
010B
FF01
01A9
FF84
FFBA
0043
01D5
0168
0029
FFF5
FFA5
0091
00AF
0184
FF74
00CA
00AF
FEE8
FFDC
FF07
FE33
01BE
FE89
0151
FF8D
0160
FE1F
015E
FED8
FF3D
0105
0060
00BC
FEA3
FE96
014D
00B9
FF59
FF09
01CB
FE5D
FF12
01CC
00BF
FF10
FF2A
FEEC
FFC0
FE5B
FFBF
0030
FFA7
FE3E
FFC5
FE0A
FFB2
01CA
01D8
FFAF
00B7
FF9D
FF34
00F2
FEA8
006A
FE6B
01A2
FFD2
FED7
0170
FFA7
007E
FE0B
009B
FEBE
FF27
01AA
FE82
012B
0137
FEA8
FF39
FFF1
017C
FF17
FE52
FE18
002A
FF29
FFC3
FFAC
0161
FF74
0012
FF03
FE14
0002
FE01
FEEE
007A
010E
01FE
FE83
0148
01A5
01E3
FF3D
016F
FE6B
004F
00D3
0155
FE79
01A5
FF12
0021
000A
FE75
FFC5
FF41
01C8
00DC
0194
FF01
FE70
FEB1
FE60
011D
005B
FEBF
0077
0165
FE8C
016B
00A0
FEC7
FE42
0195
006A
FFCE
0148
FF9A
0015
01D7
FF56
FED3
01D6
002B
FF53
0045
FFD5
007A
FE12
FE7B
FEBA
01FE
0192
FE0E
00AE
01AD
FF04
FFE1
0026
00D2
FF66
FE35
0118
FE20
01B5
0158
FFE7
00CA
FF7C
002D
FF08
FE47
FE21
FEC9
FE30
FEA3
FF32
00D6
FEDD
00BF
FF4A
FF48
01A9
0059
FF38
FE20
FFA0
FE1A
018E
FE2F
003D
0095
00AF
0400
