000F
FECC
0124
FFD3
FE60
FF81
FF5A
018F
FE84
FFCD
FEFD
0166
017D
FE13
0072
0006
001E
0180
FE16
017B
0135
00DB
017C
00D6
FF19
011F
FEF3
FF6A
FF87
0080
0114
FF2F
017B
0185
0183
FED2
FE3D
FF08
FE34
008C
00BB
FE49
0080
0058
01CE
01AC
0104
FF92
FFBC
FE09
FE68
01E8
FE4F
FEC0
0007
01A2
FE92
0049
01E1
01B5
00B4
FFA7
FF6B
FE6C
019A
00CB
001A
FF2C
0006
FE95
015B
FF88
01CF
FE8D
0172
0136
FE39
FF44
00C3
FE1A
0199
0098
0185
FFA0
FEFE
01D5
01DE
FEFA
0083
01DA
016F
00B4
FE56
0012
FFAD
00D7
0081
FE36
FE92
FE39
0111
01CA
FEA1
FFBF
FF3D
0175
FEEF
009F
FF3D
FFFE
0111
FF45
002B
0140
FEB5
0005
FFC0
0025
FE77
009A
010C
0037
FE20
FE32
FFE0
FE84
FF42
0184
00EF
FF2E
FF41
0040
00D2
017E
FEAF
FFC6
00F9
FEB4
FF23
FF6D
01C5
FF81
00C9
FE0C
00D1
00CB
00C8
FF57
FEDC
01D3
FFB6
FFFB
FF14
FEE3
0113
FFF8
00EB
018B
010A
010D
FF98
FFE2
FE2B
014B
FFBB
017F
00B7
0023
FECF
012D
00FF
FF34
01C8
0132
00EA
FFAA
FF46
005A
00D4
FFC3
01C8
0009
FFB2
FFCD
01F9
FF7E
FF74
FEB5
0042
FE7F
FFC0
013E
FEDD
00BD
FF41
FF68
013F
01DF
FE85
0053
FE18
010F
FEC8
01BC
00CF
FFF0
FEAE
FF17
FF6D
FF92
FF3D
016D
FFA5
FFD4
0184
01AE
0055
FE8F
FE96
0020
FEFF
0040
FF30
0122
016D
00A3
0129
01CF
FFF9
011C
FF86
FF02
006E
0119
00F4
FF8A
01F1
FF11
FF5F
016F
FF02
FEED
009F
01C4
FF27
0197
FFB8
FFD8
FE49
FE2A
0190
00B9
FFC2
0057
FF31
0043
0400
