008D
00EB
FF4D
FF3E
FFBC
FEB1
FFE5
FFF7
FE2A
FEC5
FEB0
00AC
FEC3
FED2
0198
FED7
FEE6
0143
FE9E
00C9
01A3
00DD
FE87
00EF
01D5
0040
FE3E
FFDC
0043
FF31
0009
005D
0190
00E1
001C
003D
FEAB
FF80
00C1
00D3
0000
01D4
FF71
FE31
FFAB
FE00
0110
FE83
FF2B
014D
FE42
01BF
0044
0123
FF71
FE17
FE33
FEF3
FFCC
FE1A
00A3
006A
FE1A
01F6
FF43
00BB
00B1
FF9C
FEF6
01F8
0121
FF66
0185
FFC3
0015
FF60
FE34
FF95
0161
0138
FFBD
0135
FF82
01E8
FF45
FE46
FEF7
0133
FE93
FE5F
FF37
FEC1
01CF
FF28
0167
0138
01A5
0050
FF90
011F
FF89
01CD
FFF7
FEC8
0173
0048
FE74
FEAF
007C
FF62
01A5
00AB
0036
FF48
019E
FF10
01FB
0159
01B9
006D
FF83
FF21
0080
00A3
FFA4
0135
015E
FFFE
FE1B
FF98
FFB1
000A
FF4C
002A
0126
003A
FE3B
0195
00AC
FE5A
0049
FF97
FE1F
FFD3
0005
0163
FFFB
FF0F
0059
00CA
0005
FE6D
00CA
01D4
011C
FF02
013B
01BF
0194
0004
FEEE
FFA8
FEF8
FECD
0037
FFE4
01F7
FFA4
FFE7
009A
018F
004D
FF42
FFE2
FF54
FE29
FE04
FF92
0173
FEB6
FEAB
FF68
0128
FF83
01C1
013D
FE0F
01A4
010A
0128
0135
FFE4
0101
01A6
FF24
FF7B
FE1E
FFF6
00F4
004D
FF3E
FF5C
FE56
FE75
FE5E
FF87
FF21
01D0
FE07
FE2F
FFED
0032
01E3
005D
003D
FE01
FE8F
0165
FEEC
016D
017B
FF3E
FFE4
FFFC
FE66
00B0
0027
01CE
017D
FF9F
010F
FEBE
01C6
FE49
FF5A
003F
FE4B
01EB
0035
FEDB
FF3F
FFDF
FF5D
FFD5
FE1D
FFA3
FE7A
FF32
FE3D
0027
FFF0
010A
0095
FF4E
FFB6
FFFE
0400
