FEB3
0095
FEE8
000C
010C
FE92
FE78
FF67
FF1F
0049
003A
01B8
0152
009B
0037
FF19
FE85
0100
01E0
01E5
01B9
FE1F
0048
017A
FE3F
FE9C
009A
007A
FF73
FEBD
005A
004A
FEF8
FE63
002A
00D1
012D
FE80
0129
FE86
0124
01C5
01D5
FE3B
0133
FEB8
0173
00E0
FFA6
0000
FEB0
00CF
FE1F
01FD
0136
FF25
0153
FFB8
FF5E
FEBD
FF0A
0091
FEC6
00CA
01D1
0098
01C3
0141
01A7
0100
FFB8
013E
FF2A
0039
FEC0
FE46
01B1
00E9
01E1
0078
FE8A
0119
FE16
FE28
FF8A
FF0A
FE8B
FF08
01ED
FF5E
FE5B
FF83
004B
FFF8
FF55
FF9D
FE1E
0097
004F
00E5
00D4
FE50
0186
FE50
FE5B
01BA
FF9F
00B4
0079
009E
FE13
0098
FFF5
00C7
FF96
01C7
FF20
01FD
FE0C
FED6
FFAF
FFFC
FF2F
0129
FF39
0000
0115
00F8
0129
FFCA
010E
0012
0165
0003
FEB8
01FC
FEDB
FF7F
FF55
FE61
0035
011B
FF13
0015
01FF
01CC
0032
FFD9
001F
0121
00B0
FF81
003C
FE98
FF7E
FE18
0156
019B
FEED
FEEB
014D
01C0
FF28
FEF3
FEDC
01A3
FE66
00D1
FFAE
0157
FEDC
0100
0056
012F
019F
00E5
0125
018F
01B9
FFFC
FF57
FF0B
01B6
0117
FE87
01F9
00E3
0032
0053
0198
FE0D
FE46
011C
01F6
010D
FEB0
FE3C
00D9
00FA
FE4A
00D6
01EE
FF4B
0143
FFBB
FE30
FF15
FE70
00BB
0020
01F7
0120
009D
00A1
FE53
FF17
0100
FF98
FFFE
01AA
01AA
0145
014F
FFEC
0107
01BD
0086
01BB
01ED
FFD6
FF6A
01B4
0118
FE56
0154
FF17
01DB
FF6D
009A
FFA1
019C
FF0E
FE5F
01A5
FFD6
0132
01D6
FF5E
FE9B
01B0
008F
FF71
FF5C
FF8B
0086
FFA9
0400
