DEPTH = 257;
WIDTH = 16;
ADDRESS_RADIX = DEC;
DATA_RADIX = HEX;
CONTENT BEGIN
0 : FEF3;
1 : 00D9;
2 : FEE6;
3 : 009C;
4 : 01E1;
5 : FE0C;
6 : 01DA;
7 : FEE5;
8 : 012E;
9 : FE8F;
10 : 015E;
11 : 004C;
12 : FE4D;
13 : FE6D;
14 : 0115;
15 : FF56;
16 : FEBE;
17 : 01DF;
18 : FFE5;
19 : 0175;
20 : 00AC;
21 : 006A;
22 : FE4B;
23 : FEE9;
24 : FEDC;
25 : 0024;
26 : FE8C;
27 : 010B;
28 : 011B;
29 : FFCD;
30 : 010A;
31 : FF16;
32 : FFC6;
33 : 0192;
34 : 0068;
35 : 0118;
36 : 00E4;
37 : 00C0;
38 : FFE8;
39 : FE14;
40 : FFBB;
41 : 0030;
42 : FFD7;
43 : 013A;
44 : FFAC;
45 : FECC;
46 : 0087;
47 : 00B0;
48 : 0137;
49 : FF8D;
50 : FE4E;
51 : FFDE;
52 : FF5F;
53 : FE96;
54 : 013C;
55 : FED8;
56 : 0046;
57 : FEB1;
58 : FE6A;
59 : 0021;
60 : FE11;
61 : 011E;
62 : 003A;
63 : 014B;
64 : 01C3;
65 : FF1C;
66 : 0122;
67 : 0151;
68 : FEE2;
69 : FF06;
70 : 0197;
71 : FEED;
72 : FF93;
73 : FF82;
74 : FF28;
75 : FF23;
76 : FFB7;
77 : FFEF;
78 : FEF2;
79 : 0075;
80 : 01C7;
81 : 01DE;
82 : FF36;
83 : FE59;
84 : 001A;
85 : FF3F;
86 : 0090;
87 : 01B7;
88 : 00F2;
89 : FED9;
90 : FEF2;
91 : 017E;
92 : 01A0;
93 : FF47;
94 : 00E4;
95 : FF69;
96 : 00B2;
97 : 01C8;
98 : FFD5;
99 : 002A;
100 : 00EA;
101 : FE68;
102 : FE25;
103 : FEFE;
104 : FE55;
105 : 0003;
106 : 01D5;
107 : 0050;
108 : FF1D;
109 : FE48;
110 : FFEE;
111 : FFA4;
112 : 003F;
113 : 01F3;
114 : FEB3;
115 : FFB9;
116 : FE18;
117 : FE3A;
118 : 007E;
119 : FF4E;
120 : 0165;
121 : FFF6;
122 : FFC4;
123 : 0135;
124 : 014C;
125 : 0023;
126 : FF02;
127 : FF49;
128 : FEF7;
129 : FE04;
130 : FED6;
131 : FFD1;
132 : FFFE;
133 : FE24;
134 : FFA6;
135 : FFBC;
136 : 0049;
137 : FFC6;
138 : 0151;
139 : 000E;
140 : FECD;
141 : FF18;
142 : FE4E;
143 : FE21;
144 : FEC1;
145 : 014B;
146 : 0151;
147 : FFBB;
148 : FF31;
149 : FF24;
150 : FFCD;
151 : 0037;
152 : 00A5;
153 : FE0C;
154 : FE37;
155 : 01C1;
156 : FEF0;
157 : FECE;
158 : 010D;
159 : 00DF;
160 : FFD6;
161 : 0142;
162 : 019D;
163 : 0157;
164 : FF26;
165 : 0038;
166 : FE77;
167 : 00A6;
168 : 004F;
169 : FE99;
170 : FEAA;
171 : 0191;
172 : 01A9;
173 : 010F;
174 : FF9B;
175 : FE43;
176 : 0151;
177 : FF42;
178 : 00E8;
179 : 0071;
180 : 00D6;
181 : FFCC;
182 : FFE7;
183 : FF3A;
184 : FE9F;
185 : FE67;
186 : 01CA;
187 : 0119;
188 : FE6B;
189 : FE22;
190 : FE74;
191 : FE5D;
192 : 009F;
193 : FEBF;
194 : FE11;
195 : 013A;
196 : FF4D;
197 : FEDA;
198 : 0180;
199 : FF7E;
200 : 008E;
201 : 01D6;
202 : FEB9;
203 : 00F5;
204 : FF4F;
205 : FEAC;
206 : 0173;
207 : 01D6;
208 : FF21;
209 : 0153;
210 : 0172;
211 : 003C;
212 : FF20;
213 : FF6C;
214 : FE0E;
215 : 01FB;
216 : FE8A;
217 : 0019;
218 : FFA3;
219 : FF28;
220 : 0106;
221 : 011F;
222 : FE43;
223 : FEDE;
224 : FE81;
225 : FF3B;
226 : 009E;
227 : 0044;
228 : 0150;
229 : FF29;
230 : 003B;
231 : FE49;
232 : FEF5;
233 : FE5E;
234 : FE9B;
235 : FE11;
236 : 0058;
237 : 0107;
238 : FEEF;
239 : FE16;
240 : 004D;
241 : FEAB;
242 : FEC9;
243 : 0183;
244 : FF32;
245 : 00EC;
246 : FE4B;
247 : FF08;
248 : 017C;
249 : 004A;
250 : 0159;
251 : 0107;
252 : 00FD;
253 : 0102;
254 : 00ED;
255 : FE01;
256 : 0400;
END;
