013C
01DD
01CC
FE43
FE26
FE1F
005D
FF25
00B0
FE74
FF6F
0079
006D
004E
FE9C
00D4
0083
FFEB
FF9C
0112
0093
FFCF
0145
0031
FEAC
0059
FFCF
007F
01E0
FE2B
001F
0093
01A3
FFDB
FE43
FE1C
FFAD
FE7C
FF7A
FFD3
011A
FE92
0015
0036
FEF6
00A0
FF6F
0042
FE09
00E5
FFBD
FF09
FF0E
00C5
FF16
012F
FEB3
012F
0161
003A
FFAD
FE2B
014F
FEA1
FEDF
FF16
FE01
FF2F
FE32
01D7
003B
0183
FE87
016F
FF40
01C8
01A5
FE5C
FF31
FE97
FF34
00B5
010B
01A3
FF18
00C0
001B
FF49
0156
00D0
0120
0079
0098
FEB3
01DD
FE70
FF46
FECA
FEAF
003F
0040
0119
0010
0187
FEDF
0129
FE4A
002D
FEEA
FE8C
010E
0044
FE73
0013
FE8B
FF7A
FF07
FEE7
FF9E
006E
01D1
FE4A
FFCA
FEF3
008C
01EE
0195
FFAE
FE81
FF70
0035
FF66
01BB
01B6
FEFE
FE03
005D
FE5C
FE52
FF90
000F
FF2F
FFE8
FF5D
0089
FE2B
FF3B
FECC
0070
FE5B
FFDB
FF83
01CA
01E2
FE96
01B3
FF0A
FE67
FEF6
FE07
FFEC
01B0
FE5B
01EB
0109
00FE
FE20
0192
FE09
FEE1
FE57
00E4
00D9
01B2
00C8
004C
FEDB
00A8
FE87
FFD5
0042
006D
00B7
0140
01C3
01DD
FE6C
FE1F
01E9
FF53
FFB7
01B9
0059
FE90
01E1
FFBA
FE68
FF8D
002B
FE24
00A0
FF34
FFAC
FF7E
FF6D
FEC5
FF9B
00C8
FECA
0029
FFBF
0043
FFF7
FFE4
FECB
FEBF
FFA2
0019
0181
FE4A
FF4B
FF21
002B
FEBF
00D3
0180
011E
01D9
FF1B
FF55
0011
FFDC
FFDE
0051
FECD
0146
0147
FF14
FF18
FE1C
FFB6
01AE
013C
FF2A
FEF3
FE1B
FE93
FEC8
FE94
01BC
FE86
FEC9
FF8D
006F
0068
002B
0400
