DEPTH = 257;
WIDTH = 16;
ADDRESS_RADIX = DEC;
DATA_RADIX = HEX;
CONTENT BEGIN
0 : FFFA;
1 : 0115;
2 : 003F;
3 : 010B;
4 : 016D;
5 : 0003;
6 : 0081;
7 : FF80;
8 : FF75;
9 : FED3;
10 : FFD8;
11 : FE7C;
12 : FFC3;
13 : 0019;
14 : FFD0;
15 : 011A;
16 : FE85;
17 : FF10;
18 : 0183;
19 : FE5E;
20 : 017C;
21 : FEFD;
22 : FFF8;
23 : 016B;
24 : FF64;
25 : 0106;
26 : FFCD;
27 : FE63;
28 : FEFD;
29 : FE0A;
30 : FFD9;
31 : FEA4;
32 : FF42;
33 : 00D7;
34 : 002A;
35 : 0147;
36 : 008C;
37 : 0095;
38 : FE1A;
39 : FE9E;
40 : FFAB;
41 : 0112;
42 : FE36;
43 : FF7B;
44 : FE02;
45 : FEEC;
46 : FF37;
47 : FF37;
48 : FE6C;
49 : 01B5;
50 : FFF7;
51 : FE3A;
52 : FE28;
53 : 010D;
54 : 007F;
55 : 010F;
56 : FF92;
57 : 0135;
58 : FF85;
59 : FEB2;
60 : 0030;
61 : FF3B;
62 : FEE4;
63 : 007E;
64 : 017E;
65 : 0104;
66 : 00CD;
67 : 00C6;
68 : 0132;
69 : FEB9;
70 : 01EA;
71 : FFA4;
72 : 0062;
73 : 00A7;
74 : FE4B;
75 : FF00;
76 : 00FF;
77 : FEBF;
78 : 008A;
79 : FF6E;
80 : 006F;
81 : FF93;
82 : 0106;
83 : FF4E;
84 : FF40;
85 : 00C0;
86 : FF70;
87 : 0161;
88 : FE64;
89 : FECA;
90 : 0093;
91 : FE85;
92 : FE2E;
93 : 01D7;
94 : FE11;
95 : 0095;
96 : 0193;
97 : 0178;
98 : 009A;
99 : 0094;
100 : FE86;
101 : 01DD;
102 : FEDF;
103 : FFA5;
104 : 003B;
105 : FF26;
106 : FFA2;
107 : 01F9;
108 : FE00;
109 : 0022;
110 : FF82;
111 : FF67;
112 : FE00;
113 : 00AE;
114 : FEC3;
115 : FF06;
116 : FE3A;
117 : 0126;
118 : FEF5;
119 : FF24;
120 : FE1A;
121 : FF56;
122 : FF4C;
123 : FEFF;
124 : 0092;
125 : FF6A;
126 : 0139;
127 : 0019;
128 : FE12;
129 : FFC4;
130 : 0164;
131 : 005A;
132 : 00A3;
133 : 0138;
134 : 00B2;
135 : 0058;
136 : FFE8;
137 : FE82;
138 : 0007;
139 : FE8C;
140 : 01CD;
141 : 004D;
142 : FF43;
143 : FE2A;
144 : FF66;
145 : FF0F;
146 : FF68;
147 : FEA9;
148 : 0190;
149 : 007C;
150 : FF5C;
151 : FF84;
152 : FECB;
153 : 00B7;
154 : 0101;
155 : 008C;
156 : 01EA;
157 : FE3A;
158 : FFC5;
159 : FED0;
160 : 0125;
161 : FEAA;
162 : 00C7;
163 : FE5B;
164 : 0081;
165 : 011B;
166 : FE8F;
167 : 0136;
168 : 018E;
169 : 005A;
170 : 016C;
171 : FE84;
172 : FF73;
173 : 0111;
174 : 0180;
175 : FF17;
176 : 005C;
177 : 0101;
178 : 01B0;
179 : FE71;
180 : 0125;
181 : FE1A;
182 : 01E1;
183 : FED3;
184 : FF98;
185 : 01F3;
186 : 0085;
187 : 0084;
188 : 01F5;
189 : FF14;
190 : 01B1;
191 : FF4F;
192 : FFF5;
193 : 0001;
194 : 004C;
195 : FF40;
196 : 00FC;
197 : FFA6;
198 : 013E;
199 : 00E3;
200 : FE6D;
201 : FF80;
202 : 01EA;
203 : FEAB;
204 : FE2E;
205 : FF0D;
206 : 010C;
207 : 00DD;
208 : 0188;
209 : 0099;
210 : FF61;
211 : FF11;
212 : 00C0;
213 : 0070;
214 : FF00;
215 : 0117;
216 : FFCA;
217 : 01B4;
218 : 00F2;
219 : 0138;
220 : 0181;
221 : 01BB;
222 : 0144;
223 : 00B1;
224 : 0197;
225 : 01FC;
226 : FE5A;
227 : 0030;
228 : 010C;
229 : FF62;
230 : FEAC;
231 : 0128;
232 : FF61;
233 : FE7F;
234 : FECE;
235 : FFF1;
236 : 002C;
237 : FECF;
238 : 01A7;
239 : 0146;
240 : FFE9;
241 : FEC7;
242 : 0001;
243 : 01F4;
244 : 01C6;
245 : FE50;
246 : 0033;
247 : 005B;
248 : FFF3;
249 : 002E;
250 : FF72;
251 : 00AC;
252 : 0011;
253 : FF4D;
254 : FF70;
255 : 0171;
256 : 0400;
END;
