DEPTH = 257;
WIDTH = 16;
ADDRESS_RADIX = DEC;
DATA_RADIX = HEX;
CONTENT BEGIN
0 : FF79;
1 : FE60;
2 : 0046;
3 : 00A1;
4 : 0018;
5 : 01E1;
6 : 0037;
7 : FE4C;
8 : 0182;
9 : FF6F;
10 : 0018;
11 : 00A9;
12 : 00C7;
13 : 0133;
14 : 0147;
15 : FEFC;
16 : FE21;
17 : FE86;
18 : 0081;
19 : 010B;
20 : FF5D;
21 : FE1A;
22 : FFEB;
23 : 0014;
24 : 0031;
25 : FE70;
26 : FFF4;
27 : 01D7;
28 : FFA5;
29 : 0021;
30 : FE8F;
31 : 01A0;
32 : FF8A;
33 : FE6B;
34 : 000D;
35 : FEF3;
36 : 01D4;
37 : FED8;
38 : FF1D;
39 : 0138;
40 : 012C;
41 : 01ED;
42 : 0160;
43 : FE33;
44 : 0013;
45 : FE45;
46 : 01EC;
47 : FFBA;
48 : FE44;
49 : 01DF;
50 : 002B;
51 : FF8F;
52 : FE8C;
53 : 0137;
54 : 0041;
55 : FF36;
56 : FF64;
57 : FFBA;
58 : 01E1;
59 : FF0A;
60 : FF03;
61 : 0110;
62 : FED7;
63 : FF2D;
64 : 0011;
65 : FF9F;
66 : FE29;
67 : 00E3;
68 : FF40;
69 : 010A;
70 : 0108;
71 : FEF5;
72 : 00F5;
73 : 0130;
74 : 0003;
75 : FF3E;
76 : FE3F;
77 : 0113;
78 : 0005;
79 : FEC8;
80 : FEA5;
81 : FE5E;
82 : 01CB;
83 : 013E;
84 : 00DC;
85 : 00A6;
86 : 00BB;
87 : FF6C;
88 : 010D;
89 : FFA1;
90 : 0175;
91 : 0168;
92 : FF81;
93 : 01E8;
94 : 01C6;
95 : FEC9;
96 : FEA8;
97 : FF6D;
98 : 0054;
99 : FFD2;
100 : 002A;
101 : FFF1;
102 : FFA0;
103 : FE74;
104 : FF10;
105 : 0113;
106 : FEC4;
107 : FEC5;
108 : 00F4;
109 : FFF2;
110 : FEA6;
111 : 00AF;
112 : FE19;
113 : 0099;
114 : FFB2;
115 : FF25;
116 : FECD;
117 : 000F;
118 : 00C2;
119 : FEA9;
120 : 0136;
121 : FF14;
122 : FEE2;
123 : 004F;
124 : 0122;
125 : FF9C;
126 : FF8A;
127 : 00D9;
128 : FE31;
129 : FE89;
130 : FFCF;
131 : FF67;
132 : FE8B;
133 : 01CA;
134 : 013E;
135 : FF02;
136 : FEA8;
137 : 0060;
138 : 0061;
139 : FEA1;
140 : 00B4;
141 : FE75;
142 : FFA2;
143 : FFB8;
144 : 00DC;
145 : FE01;
146 : FEEB;
147 : 00E7;
148 : 0035;
149 : FFB5;
150 : 0163;
151 : FF93;
152 : 00B1;
153 : 000D;
154 : FFC3;
155 : 000C;
156 : FEAB;
157 : 0127;
158 : FED2;
159 : FEA3;
160 : 01A5;
161 : 01E5;
162 : 001A;
163 : 0005;
164 : FEF8;
165 : FE0B;
166 : FEC8;
167 : FF24;
168 : FFCB;
169 : 00F6;
170 : 00AC;
171 : FEFD;
172 : 0070;
173 : 012F;
174 : FFC3;
175 : FF11;
176 : FF9B;
177 : FF60;
178 : FF9C;
179 : FEAA;
180 : 01F1;
181 : FF3B;
182 : FFC1;
183 : FF4A;
184 : FF45;
185 : 01C1;
186 : FF3B;
187 : 017F;
188 : 0062;
189 : 0131;
190 : 0024;
191 : 011B;
192 : 01F5;
193 : FF49;
194 : 0175;
195 : FECE;
196 : 01BE;
197 : 0083;
198 : 002F;
199 : 010C;
200 : 00B4;
201 : 01D0;
202 : 0178;
203 : 0054;
204 : 016B;
205 : FFAF;
206 : 00C4;
207 : 0028;
208 : FF02;
209 : FFD8;
210 : FF36;
211 : FF93;
212 : FF03;
213 : FF01;
214 : 00C6;
215 : 00F7;
216 : FEC4;
217 : FE50;
218 : FF5A;
219 : FEC2;
220 : FEBA;
221 : FE56;
222 : 0099;
223 : FE9F;
224 : FE2B;
225 : 00A3;
226 : 0022;
227 : FFFF;
228 : FFC6;
229 : 005C;
230 : FEF5;
231 : 0001;
232 : FEE7;
233 : 01BB;
234 : 01C8;
235 : FE90;
236 : FEAD;
237 : 0094;
238 : 0037;
239 : FEE8;
240 : 0034;
241 : FED3;
242 : FF98;
243 : 01C5;
244 : 0191;
245 : 01C4;
246 : FFFB;
247 : 019B;
248 : 01EB;
249 : 0185;
250 : FF92;
251 : 00C3;
252 : 0106;
253 : FE52;
254 : FE7F;
255 : 0040;
256 : 0400;
END;
