DEPTH = 257;
WIDTH = 16;
ADDRESS_RADIX = DEC;
DATA_RADIX = HEX;
CONTENT BEGIN
0 : FF2A;
1 : FFBA;
2 : 0019;
3 : FF38;
4 : 0002;
5 : 000C;
6 : 01A7;
7 : 0178;
8 : 0200;
9 : 0140;
10 : 0175;
11 : FE3A;
12 : FF9A;
13 : 0055;
14 : 01A2;
15 : FEBA;
16 : 0081;
17 : FF46;
18 : 012A;
19 : 0028;
20 : 00D3;
21 : 008C;
22 : FE6B;
23 : FEAC;
24 : FED9;
25 : FEEA;
26 : 0189;
27 : 0147;
28 : 010F;
29 : 00A4;
30 : FE65;
31 : FEB2;
32 : FF09;
33 : FECE;
34 : 0125;
35 : FE35;
36 : FF3D;
37 : 006E;
38 : 00DB;
39 : 01A1;
40 : 0097;
41 : FF6E;
42 : 006A;
43 : 01EA;
44 : 01AE;
45 : FF97;
46 : FF28;
47 : FE79;
48 : 01D5;
49 : FFCD;
50 : FF03;
51 : 0055;
52 : FECF;
53 : FF15;
54 : 00DE;
55 : FFE5;
56 : FF1D;
57 : FEBE;
58 : 0049;
59 : FE91;
60 : 0156;
61 : FF9D;
62 : 0034;
63 : FF6B;
64 : FF5D;
65 : 0067;
66 : FE5C;
67 : FE47;
68 : FF8C;
69 : FECF;
70 : FEBD;
71 : FEA7;
72 : 0001;
73 : FF54;
74 : 00BB;
75 : 01C8;
76 : FEB8;
77 : 0134;
78 : FFE0;
79 : FED1;
80 : 01BB;
81 : 00BC;
82 : FE52;
83 : 006A;
84 : FF7D;
85 : 00DF;
86 : 0055;
87 : 0179;
88 : 00B3;
89 : 00F7;
90 : 0053;
91 : 0081;
92 : 011D;
93 : FFCA;
94 : 007E;
95 : FE66;
96 : FF7D;
97 : FEFF;
98 : FF34;
99 : FE9F;
100 : 0005;
101 : 010C;
102 : 01A9;
103 : FF8B;
104 : 016F;
105 : FE87;
106 : FE41;
107 : FEFC;
108 : FE60;
109 : FF48;
110 : 008D;
111 : 00CB;
112 : FF85;
113 : 005F;
114 : 01B0;
115 : FEEA;
116 : 0094;
117 : FE89;
118 : FE4D;
119 : 008F;
120 : FF1C;
121 : FF60;
122 : 00C2;
123 : FFA8;
124 : 001F;
125 : 0193;
126 : FE3B;
127 : 0069;
128 : 010B;
129 : FEB2;
130 : FEA1;
131 : FF39;
132 : 0015;
133 : FFBF;
134 : FF03;
135 : 01FB;
136 : FF8E;
137 : FEE1;
138 : 0104;
139 : FF41;
140 : FF55;
141 : 0093;
142 : 00E2;
143 : FF51;
144 : FF78;
145 : 00F0;
146 : FFD1;
147 : 01B6;
148 : FE2C;
149 : 0001;
150 : FF74;
151 : FE66;
152 : FF3A;
153 : 012B;
154 : 00C0;
155 : FF10;
156 : 006E;
157 : FEB4;
158 : FF55;
159 : FF7F;
160 : FE56;
161 : 017E;
162 : 0001;
163 : 005A;
164 : FFFA;
165 : 0096;
166 : FFC5;
167 : FF4F;
168 : 00CB;
169 : FFE4;
170 : 0064;
171 : FFEE;
172 : FFE0;
173 : FE99;
174 : 0044;
175 : FFD7;
176 : FE08;
177 : 01DD;
178 : FEFB;
179 : FF0D;
180 : 00D5;
181 : 0060;
182 : 0007;
183 : 01A0;
184 : 017D;
185 : FFE2;
186 : FEBB;
187 : 01F8;
188 : FF52;
189 : FF1C;
190 : FEA4;
191 : 013C;
192 : 01D6;
193 : 0005;
194 : FF19;
195 : 01A4;
196 : 019C;
197 : 00B6;
198 : FEFF;
199 : 011D;
200 : 000D;
201 : FFB5;
202 : 01D9;
203 : 012B;
204 : 0080;
205 : 01CD;
206 : 002D;
207 : FEB9;
208 : FF3F;
209 : FEBB;
210 : 01D8;
211 : FF4E;
212 : FEAE;
213 : 01C7;
214 : FE16;
215 : FF2E;
216 : FEA5;
217 : FF1E;
218 : 000C;
219 : FE83;
220 : 0195;
221 : 00C1;
222 : 01E6;
223 : 0040;
224 : FFB6;
225 : FE61;
226 : FF68;
227 : FF16;
228 : 015D;
229 : FF90;
230 : 00D6;
231 : 000E;
232 : FFA9;
233 : 00B4;
234 : FE2C;
235 : 00EE;
236 : 0070;
237 : 000E;
238 : FE25;
239 : 0047;
240 : FECD;
241 : 0152;
242 : 00E2;
243 : 015E;
244 : FE1B;
245 : FFA1;
246 : 00B6;
247 : 01E9;
248 : 0000;
249 : FE26;
250 : 01BC;
251 : 000C;
252 : 00CA;
253 : 0124;
254 : FE6B;
255 : FFEA;
256 : 0400;
END;
