DEPTH = 257;
WIDTH = 16;
ADDRESS_RADIX = DEC;
DATA_RADIX = HEX;
CONTENT BEGIN
0 : 01DE;
1 : FFB6;
2 : 01B7;
3 : FE10;
4 : 0141;
5 : FF3D;
6 : 0025;
7 : 00CB;
8 : 0128;
9 : 0193;
10 : 0022;
11 : 007B;
12 : 01B3;
13 : 00D3;
14 : FE28;
15 : 01C7;
16 : 0171;
17 : 00C8;
18 : FF2B;
19 : 0066;
20 : FF3B;
21 : FF24;
22 : FF07;
23 : FFF2;
24 : 008C;
25 : FFD9;
26 : 019B;
27 : FE27;
28 : FF01;
29 : FEE7;
30 : FE9B;
31 : FE75;
32 : FE08;
33 : FE06;
34 : 0011;
35 : FED4;
36 : FE72;
37 : FF65;
38 : FE44;
39 : FFA1;
40 : FEA6;
41 : 0107;
42 : 01E9;
43 : 0016;
44 : 007F;
45 : 0065;
46 : FE5E;
47 : FF30;
48 : 0117;
49 : 0138;
50 : FE05;
51 : FFF0;
52 : FF7C;
53 : 018F;
54 : 01F5;
55 : 015C;
56 : 013C;
57 : FF86;
58 : FEE3;
59 : 015D;
60 : 006D;
61 : FE86;
62 : FE3D;
63 : FEE0;
64 : 014E;
65 : 0148;
66 : FE32;
67 : FFC5;
68 : FF14;
69 : FF9F;
70 : FEEE;
71 : 00FB;
72 : FEC5;
73 : 0083;
74 : FF5F;
75 : 011A;
76 : 0176;
77 : 01E1;
78 : 01DD;
79 : 0111;
80 : FF7C;
81 : 0072;
82 : 01F6;
83 : 0010;
84 : 010A;
85 : 0148;
86 : 01A5;
87 : FE68;
88 : FFF4;
89 : FFCB;
90 : 00AD;
91 : 0178;
92 : FE69;
93 : FE12;
94 : FE4F;
95 : 0029;
96 : FFA8;
97 : FE5A;
98 : 0043;
99 : FF1E;
100 : 0196;
101 : 0198;
102 : FFA4;
103 : FF12;
104 : 0093;
105 : FE27;
106 : FECC;
107 : FEEB;
108 : 0053;
109 : FF42;
110 : FFD9;
111 : 0013;
112 : 002C;
113 : FFF1;
114 : 014D;
115 : FF04;
116 : 003F;
117 : 0114;
118 : FF5F;
119 : 017C;
120 : 0174;
121 : 016A;
122 : FF0B;
123 : 01C3;
124 : 01FC;
125 : FE47;
126 : FE9D;
127 : FE07;
128 : FFA8;
129 : 0090;
130 : FE17;
131 : FFCD;
132 : 006C;
133 : 0013;
134 : FE0C;
135 : FF0E;
136 : 014C;
137 : FF19;
138 : 004F;
139 : FEFC;
140 : 00BF;
141 : 0001;
142 : FE4E;
143 : 01BB;
144 : FFF3;
145 : 00F1;
146 : FE14;
147 : 00BC;
148 : 00E0;
149 : FEAE;
150 : FF16;
151 : FEDC;
152 : FEBF;
153 : FFC6;
154 : FE3E;
155 : 01D4;
156 : FF53;
157 : 000D;
158 : FF0C;
159 : FEC6;
160 : 01C0;
161 : FE0A;
162 : 0165;
163 : FE33;
164 : 001B;
165 : FEEA;
166 : 011C;
167 : FEA9;
168 : 0042;
169 : FF07;
170 : 00CB;
171 : 01B5;
172 : 01CF;
173 : FF50;
174 : 019B;
175 : 0197;
176 : 0065;
177 : FE2B;
178 : FF57;
179 : FF5C;
180 : FE35;
181 : FF07;
182 : 0089;
183 : FFBA;
184 : 01E6;
185 : 016B;
186 : 004F;
187 : FF9A;
188 : FF8F;
189 : 00B0;
190 : 0068;
191 : 00F7;
192 : 0052;
193 : FE99;
194 : FF41;
195 : FE37;
196 : FEB3;
197 : FF2C;
198 : FF70;
199 : FFD2;
200 : 003E;
201 : FEB5;
202 : 0094;
203 : FFB4;
204 : 0157;
205 : 0025;
206 : FEDB;
207 : 0011;
208 : 000F;
209 : FE5D;
210 : 0109;
211 : FEC1;
212 : FF04;
213 : 005B;
214 : FEB3;
215 : FF40;
216 : FEB8;
217 : 002F;
218 : FED8;
219 : 0132;
220 : FF7D;
221 : FFA5;
222 : 018C;
223 : 01F3;
224 : FFAD;
225 : FFDA;
226 : FE2B;
227 : FFEE;
228 : FF5B;
229 : FEB3;
230 : 010A;
231 : FFAC;
232 : FFF7;
233 : 005F;
234 : FF9A;
235 : FFD4;
236 : FFF4;
237 : FE0C;
238 : 007D;
239 : FEE9;
240 : 00BE;
241 : 0123;
242 : FED7;
243 : FF0F;
244 : FF07;
245 : 005A;
246 : 01F1;
247 : FE57;
248 : FEF0;
249 : FF30;
250 : FF5D;
251 : 01C0;
252 : FECF;
253 : FE5A;
254 : FFAE;
255 : FFA7;
256 : 0400;
END;
