DEPTH = 257;
WIDTH = 16;
ADDRESS_RADIX = DEC;
DATA_RADIX = HEX;
CONTENT BEGIN
0 : 0166;
1 : 0099;
2 : 00FC;
3 : FF4D;
4 : 01F9;
5 : 001C;
6 : 0191;
7 : FE2C;
8 : 0142;
9 : FEA8;
10 : FEA8;
11 : FECE;
12 : FFBD;
13 : 00C1;
14 : FFFB;
15 : 00EA;
16 : 0161;
17 : 0115;
18 : 011B;
19 : 0179;
20 : 0174;
21 : FF85;
22 : FFDB;
23 : 007A;
24 : 0135;
25 : 01E7;
26 : FEF7;
27 : FE0C;
28 : FE40;
29 : FE22;
30 : FFF3;
31 : FE43;
32 : 00CF;
33 : 005E;
34 : 0086;
35 : 006E;
36 : FF6F;
37 : FF33;
38 : FE8A;
39 : 00C5;
40 : FED6;
41 : FFC8;
42 : FEAA;
43 : FE2D;
44 : FF1B;
45 : FF1D;
46 : FE68;
47 : 0101;
48 : 0182;
49 : FE45;
50 : FED0;
51 : 019B;
52 : FFF0;
53 : FE55;
54 : FE9F;
55 : 0175;
56 : 01EF;
57 : 0146;
58 : 01C1;
59 : FF2F;
60 : 01F8;
61 : 018F;
62 : FE29;
63 : 0146;
64 : FEB5;
65 : 01E2;
66 : 0180;
67 : FE7F;
68 : 00B3;
69 : 0000;
70 : 0170;
71 : FE8D;
72 : FEAC;
73 : 00C4;
74 : FEA4;
75 : 002E;
76 : FEF6;
77 : 015A;
78 : FE6D;
79 : FE4D;
80 : FE06;
81 : 01A3;
82 : 0049;
83 : FF57;
84 : FFE9;
85 : FF71;
86 : 01E4;
87 : FE44;
88 : 01D7;
89 : FEA6;
90 : 0006;
91 : FF48;
92 : FE54;
93 : FFF9;
94 : FEB7;
95 : FE82;
96 : FFE1;
97 : FEF6;
98 : FFDD;
99 : FE42;
100 : 00E7;
101 : 0002;
102 : FF7C;
103 : FECC;
104 : FFBD;
105 : 016C;
106 : FF5C;
107 : 007B;
108 : FFD8;
109 : FF21;
110 : 01C8;
111 : FF4C;
112 : 01E7;
113 : FE61;
114 : FF4D;
115 : 00C0;
116 : FF0D;
117 : FFC1;
118 : FF55;
119 : FFCD;
120 : 018A;
121 : FF08;
122 : FFF6;
123 : 00D3;
124 : FEBA;
125 : 012E;
126 : 01C6;
127 : FE6A;
128 : 01EC;
129 : FFCB;
130 : FF85;
131 : 000A;
132 : FEB6;
133 : 00D4;
134 : 003C;
135 : 0037;
136 : 0150;
137 : 0076;
138 : FE27;
139 : 001C;
140 : FE06;
141 : 0041;
142 : 0131;
143 : FEED;
144 : FF2F;
145 : FF31;
146 : FF2A;
147 : 00CE;
148 : FFC1;
149 : 01DE;
150 : 0158;
151 : FF88;
152 : FF14;
153 : FF53;
154 : FF04;
155 : FF28;
156 : FF49;
157 : FF39;
158 : FEB0;
159 : 0016;
160 : 0019;
161 : FE15;
162 : FF7B;
163 : FF02;
164 : FE26;
165 : 01E4;
166 : 010C;
167 : 01C3;
168 : 01C9;
169 : FF90;
170 : FEC7;
171 : 00A1;
172 : 01C5;
173 : 00CF;
174 : FFB2;
175 : FFA7;
176 : 004F;
177 : 003B;
178 : FF8E;
179 : 006A;
180 : FF2C;
181 : 00DB;
182 : 0094;
183 : 007E;
184 : FE05;
185 : 01E9;
186 : FE27;
187 : 01D7;
188 : 011D;
189 : 00AC;
190 : 01E1;
191 : FED6;
192 : 01D4;
193 : 00A9;
194 : 01EE;
195 : FF81;
196 : 0074;
197 : FFAE;
198 : 007B;
199 : FE9A;
200 : 01E9;
201 : FFA8;
202 : 0029;
203 : 0163;
204 : FF45;
205 : 00D9;
206 : 0068;
207 : FEB1;
208 : FF9E;
209 : 01A9;
210 : FE55;
211 : 0031;
212 : FE57;
213 : 00D6;
214 : FEE4;
215 : FF0D;
216 : FE4B;
217 : 0082;
218 : FE9C;
219 : FE1B;
220 : 00D2;
221 : 0001;
222 : FE05;
223 : 0141;
224 : FFA1;
225 : FF07;
226 : 0167;
227 : 010B;
228 : FFF1;
229 : FF05;
230 : 01E2;
231 : 00B0;
232 : 0079;
233 : FE1E;
234 : 00C5;
235 : FE66;
236 : 0192;
237 : FE34;
238 : 00FC;
239 : 0122;
240 : 0101;
241 : 012E;
242 : 00A4;
243 : FFDA;
244 : 0043;
245 : 0136;
246 : FE83;
247 : FFCF;
248 : 0062;
249 : FF20;
250 : 01C9;
251 : 0095;
252 : FE10;
253 : FF71;
254 : 0017;
255 : FF61;
256 : 0400;
END;
