00EB
00D4
0143
FE06
0108
FF6D
FEFE
FFAE
FE84
FE4E
FEF6
0089
01D8
FEB6
00A7
FE0D
FF67
011E
FEBF
FEE2
017E
FFF2
00E7
FFC1
009A
0185
0029
FEEF
FEA9
FE2C
01C0
01F0
FFAC
01DE
0005
0137
0132
FFC9
0128
FF3A
00AA
00DA
FEAB
FE04
00C6
FF54
0158
013E
00AA
0195
FF79
FF13
FF4E
01FF
FE61
FE45
01A4
0076
000B
FF5D
FF95
01DD
01EA
FE07
01F3
FEB5
FE63
FF42
FE63
FEF3
FF93
FF43
FF31
01C5
FEFF
FF15
013F
010C
0047
01A3
0131
FED2
01B8
0110
FEF4
FF29
FE81
002E
FE6A
0195
FF10
01A9
0116
FFA0
01CA
FF9A
FE9B
FF7E
FF77
FE9D
01B3
00DB
01E0
0097
FEE5
FFD7
013B
01D9
FFE2
FFB8
FF36
015F
0021
FE7B
019F
0147
00AD
FEDA
0167
FE4A
00FE
FEFD
FFB4
FE83
FFCB
015C
FE29
00C6
FF76
00A1
FE0E
0144
FFB5
FEA1
FFB3
FFCF
FF5B
0117
FEEC
01E5
00E1
FFD1
0155
FF75
0032
000C
FEE3
FF9E
FE22
FE95
FE6E
FF56
00B4
FE86
FECD
0124
FF44
001B
011A
FFCA
0021
00D6
FE37
01D0
0162
0085
005C
01B7
01B3
FE1A
0006
00CA
0079
FF87
FF51
01FC
FF9D
0170
FEB7
FF40
0130
017E
FF2D
FF58
018F
FF27
01E5
FF42
FF30
0109
0164
FF35
FE33
0088
FF59
0119
0086
FE9F
FE8B
FE54
FFBD
01D5
FE4D
FF7C
FEBB
00AC
FECF
00D0
FEBE
006E
FF3C
FFC9
003B
0095
FFE7
000D
FE7E
01DA
FE7E
0063
0154
0107
FEAE
FFA3
0133
0038
FFC0
0139
0036
FE95
0027
FE8C
0024
01AF
01A1
00F4
FE51
0018
FF28
FF4F
FE3E
FFC8
00E6
0062
00BB
FEB5
019D
FEEE
00B7
FEF3
002F
FF0A
01E7
FEE8
0115
011D
0400
