DEPTH = 257;
WIDTH = 16;
ADDRESS_RADIX = DEC;
DATA_RADIX = HEX;
CONTENT BEGIN
0 : 000F;
1 : FECC;
2 : 0124;
3 : FFD3;
4 : FE60;
5 : FF81;
6 : FF5A;
7 : 018F;
8 : FE84;
9 : FFCD;
10 : FEFD;
11 : 0166;
12 : 017D;
13 : FE13;
14 : 0072;
15 : 0006;
16 : 001E;
17 : 0180;
18 : FE16;
19 : 017B;
20 : 0135;
21 : 00DB;
22 : 017C;
23 : 00D6;
24 : FF19;
25 : 011F;
26 : FEF3;
27 : FF6A;
28 : FF87;
29 : 0080;
30 : 0114;
31 : FF2F;
32 : 017B;
33 : 0185;
34 : 0183;
35 : FED2;
36 : FE3D;
37 : FF08;
38 : FE34;
39 : 008C;
40 : 00BB;
41 : FE49;
42 : 0080;
43 : 0058;
44 : 01CE;
45 : 01AC;
46 : 0104;
47 : FF92;
48 : FFBC;
49 : FE09;
50 : FE68;
51 : 01E8;
52 : FE4F;
53 : FEC0;
54 : 0007;
55 : 01A2;
56 : FE92;
57 : 0049;
58 : 01E1;
59 : 01B5;
60 : 00B4;
61 : FFA7;
62 : FF6B;
63 : FE6C;
64 : 019A;
65 : 00CB;
66 : 001A;
67 : FF2C;
68 : 0006;
69 : FE95;
70 : 015B;
71 : FF88;
72 : 01CF;
73 : FE8D;
74 : 0172;
75 : 0136;
76 : FE39;
77 : FF44;
78 : 00C3;
79 : FE1A;
80 : 0199;
81 : 0098;
82 : 0185;
83 : FFA0;
84 : FEFE;
85 : 01D5;
86 : 01DE;
87 : FEFA;
88 : 0083;
89 : 01DA;
90 : 016F;
91 : 00B4;
92 : FE56;
93 : 0012;
94 : FFAD;
95 : 00D7;
96 : 0081;
97 : FE36;
98 : FE92;
99 : FE39;
100 : 0111;
101 : 01CA;
102 : FEA1;
103 : FFBF;
104 : FF3D;
105 : 0175;
106 : FEEF;
107 : 009F;
108 : FF3D;
109 : FFFE;
110 : 0111;
111 : FF45;
112 : 002B;
113 : 0140;
114 : FEB5;
115 : 0005;
116 : FFC0;
117 : 0025;
118 : FE77;
119 : 009A;
120 : 010C;
121 : 0037;
122 : FE20;
123 : FE32;
124 : FFE0;
125 : FE84;
126 : FF42;
127 : 0184;
128 : 00EF;
129 : FF2E;
130 : FF41;
131 : 0040;
132 : 00D2;
133 : 017E;
134 : FEAF;
135 : FFC6;
136 : 00F9;
137 : FEB4;
138 : FF23;
139 : FF6D;
140 : 01C5;
141 : FF81;
142 : 00C9;
143 : FE0C;
144 : 00D1;
145 : 00CB;
146 : 00C8;
147 : FF57;
148 : FEDC;
149 : 01D3;
150 : FFB6;
151 : FFFB;
152 : FF14;
153 : FEE3;
154 : 0113;
155 : FFF8;
156 : 00EB;
157 : 018B;
158 : 010A;
159 : 010D;
160 : FF98;
161 : FFE2;
162 : FE2B;
163 : 014B;
164 : FFBB;
165 : 017F;
166 : 00B7;
167 : 0023;
168 : FECF;
169 : 012D;
170 : 00FF;
171 : FF34;
172 : 01C8;
173 : 0132;
174 : 00EA;
175 : FFAA;
176 : FF46;
177 : 005A;
178 : 00D4;
179 : FFC3;
180 : 01C8;
181 : 0009;
182 : FFB2;
183 : FFCD;
184 : 01F9;
185 : FF7E;
186 : FF74;
187 : FEB5;
188 : 0042;
189 : FE7F;
190 : FFC0;
191 : 013E;
192 : FEDD;
193 : 00BD;
194 : FF41;
195 : FF68;
196 : 013F;
197 : 01DF;
198 : FE85;
199 : 0053;
200 : FE18;
201 : 010F;
202 : FEC8;
203 : 01BC;
204 : 00CF;
205 : FFF0;
206 : FEAE;
207 : FF17;
208 : FF6D;
209 : FF92;
210 : FF3D;
211 : 016D;
212 : FFA5;
213 : FFD4;
214 : 0184;
215 : 01AE;
216 : 0055;
217 : FE8F;
218 : FE96;
219 : 0020;
220 : FEFF;
221 : 0040;
222 : FF30;
223 : 0122;
224 : 016D;
225 : 00A3;
226 : 0129;
227 : 01CF;
228 : FFF9;
229 : 011C;
230 : FF86;
231 : FF02;
232 : 006E;
233 : 0119;
234 : 00F4;
235 : FF8A;
236 : 01F1;
237 : FF11;
238 : FF5F;
239 : 016F;
240 : FF02;
241 : FEED;
242 : 009F;
243 : 01C4;
244 : FF27;
245 : 0197;
246 : FFB8;
247 : FFD8;
248 : FE49;
249 : FE2A;
250 : 0190;
251 : 00B9;
252 : FFC2;
253 : 0057;
254 : FF31;
255 : 0043;
256 : 0400;
END;
