DEPTH = 257;
WIDTH = 16;
ADDRESS_RADIX = DEC;
DATA_RADIX = HEX;
CONTENT BEGIN
0 : FEBC;
1 : FEBA;
2 : FED9;
3 : 0154;
4 : 013E;
5 : 013D;
6 : FF2D;
7 : FF70;
8 : FF18;
9 : FFA9;
10 : FFE0;
11 : 015A;
12 : FF62;
13 : FF02;
14 : 002C;
15 : 00C7;
16 : FF43;
17 : FE43;
18 : 00E6;
19 : FF5C;
20 : FECD;
21 : 0134;
22 : 00C2;
23 : 0045;
24 : 0068;
25 : 01CE;
26 : 0088;
27 : FE2C;
28 : FEBE;
29 : 00A5;
30 : 0119;
31 : FF66;
32 : FFD6;
33 : 013A;
34 : 000D;
35 : FE40;
36 : FFA5;
37 : FFB0;
38 : FF94;
39 : FF19;
40 : 0090;
41 : FEE7;
42 : FFE8;
43 : FF49;
44 : 00A6;
45 : FFEC;
46 : FE1E;
47 : FFB7;
48 : FE10;
49 : FFA2;
50 : 00B8;
51 : 00CE;
52 : FEA0;
53 : 0088;
54 : 0051;
55 : 018E;
56 : 00A6;
57 : FF7D;
58 : 0036;
59 : FEEB;
60 : FE4F;
61 : 00A6;
62 : 01C1;
63 : 0074;
64 : 0000;
65 : 0041;
66 : 004F;
67 : 0190;
68 : FFC4;
69 : FE52;
70 : 00AB;
71 : FEE8;
72 : 00C3;
73 : FE96;
74 : 010F;
75 : 016E;
76 : 014C;
77 : FF73;
78 : 00C9;
79 : 0067;
80 : FF82;
81 : 01DB;
82 : FE10;
83 : FE66;
84 : 0047;
85 : FE8F;
86 : 0174;
87 : 0049;
88 : 00F1;
89 : FE1B;
90 : FF19;
91 : 0063;
92 : FF81;
93 : FE84;
94 : 002C;
95 : 0087;
96 : 0158;
97 : FE8B;
98 : 00E5;
99 : 00F9;
100 : FFB3;
101 : FECC;
102 : FF96;
103 : 016D;
104 : 013B;
105 : FF62;
106 : FE85;
107 : FE9C;
108 : 0099;
109 : FF9D;
110 : FE29;
111 : 0076;
112 : 0116;
113 : 011F;
114 : FFA3;
115 : FEEF;
116 : FE82;
117 : FF1E;
118 : FEE9;
119 : FED8;
120 : 00B6;
121 : 01BE;
122 : 005F;
123 : FF07;
124 : FE41;
125 : 01CD;
126 : FF1E;
127 : 01BA;
128 : FE3C;
129 : FE82;
130 : FF05;
131 : 00A8;
132 : 0137;
133 : FF15;
134 : 019B;
135 : 01D9;
136 : FFFC;
137 : 0189;
138 : 00C4;
139 : 001A;
140 : 0038;
141 : FFB8;
142 : FE52;
143 : FF1A;
144 : FE7E;
145 : FFE7;
146 : 00F3;
147 : FF89;
148 : FEBF;
149 : FE06;
150 : 007F;
151 : 0199;
152 : 00BC;
153 : 0168;
154 : FE22;
155 : FE0A;
156 : FEDE;
157 : FF97;
158 : 01C9;
159 : 0197;
160 : FE0C;
161 : 01BE;
162 : FF9D;
163 : FE29;
164 : 0039;
165 : FE7D;
166 : FF18;
167 : 00DA;
168 : FF6A;
169 : 005A;
170 : 0086;
171 : 012E;
172 : FFF0;
173 : 01A1;
174 : FE2B;
175 : 00D0;
176 : 010C;
177 : 0144;
178 : 006B;
179 : FF20;
180 : 0168;
181 : FF92;
182 : FE81;
183 : 019B;
184 : FE06;
185 : 0146;
186 : 0091;
187 : FFB8;
188 : 01EF;
189 : FF96;
190 : FE62;
191 : 00E8;
192 : 0081;
193 : FF61;
194 : 005C;
195 : 01C7;
196 : 0058;
197 : 0186;
198 : 008D;
199 : 00BB;
200 : FE68;
201 : FE03;
202 : FE39;
203 : FF31;
204 : 0173;
205 : FF9D;
206 : 00B3;
207 : 01A9;
208 : FF2F;
209 : FFF9;
210 : FE34;
211 : 00A3;
212 : 0111;
213 : FED1;
214 : FE88;
215 : FE9D;
216 : 00F3;
217 : FFDB;
218 : 0153;
219 : 01DA;
220 : 00E0;
221 : 00C7;
222 : 01E0;
223 : FFAE;
224 : FFD3;
225 : FE84;
226 : FF75;
227 : FEBF;
228 : 0086;
229 : 011E;
230 : 0169;
231 : 0112;
232 : 00C3;
233 : FE7E;
234 : 004D;
235 : FF23;
236 : 0063;
237 : FE3B;
238 : 0194;
239 : 00AF;
240 : 00A0;
241 : FE29;
242 : FFF3;
243 : 00B8;
244 : FFDC;
245 : FFB7;
246 : FE6F;
247 : 0189;
248 : FF66;
249 : 00C0;
250 : FED1;
251 : 0100;
252 : 01DC;
253 : 0194;
254 : FEC5;
255 : FFCF;
256 : 0400;
END;
