0198
FEA6
FE56
0091
FE7A
FE3A
FFE0
FE0C
01B8
FF65
FFA6
FFE3
01BF
00A8
FFE7
0044
FF19
FF97
008E
FFAE
FE06
002E
FE7B
0145
FFA8
FF79
FEC7
FFCD
00A1
0101
FE8B
0071
01A3
FE60
FE76
0065
FFC2
016A
FE70
FECD
FFCA
0086
FE08
FE97
0123
FE46
FF9E
00EE
0149
0158
0025
00E5
0131
FF1D
FFC2
01DF
FFDB
004F
FE6B
0134
007A
FFDF
FF28
0177
0062
FFBB
FE9B
FE93
0042
FFD6
018B
FE9D
016A
FEAD
0170
FEFD
FF58
FFE6
FE26
00F3
01FF
FF9F
FF1E
FF21
FFC2
01A6
01EE
009A
0062
0130
FFBA
0144
011A
FFAD
FE16
00D6
01EC
FF18
FE4B
FFAC
013A
FF77
0063
0022
0089
01A3
FF1A
0083
01A2
0012
FEC4
FFA2
0088
00B2
019B
FEC2
FFC3
018F
009A
000E
018D
0033
FFD4
FE37
FF27
0028
01DB
FF96
00D1
0127
00DD
01D6
FFA7
FECA
FEDB
00E0
0084
008D
0082
006D
FF79
0114
008D
01A3
0012
001C
FF0F
0065
0052
FF98
FEA4
FF8D
FE6A
014B
0193
0157
0180
0166
FFFB
008F
01E4
0169
010A
00C6
FF7C
00E9
FFE9
01DF
016F
0180
FE53
FEE5
00D7
FE91
FF89
FE19
00BF
FE89
FE21
00B0
004A
FFF9
0175
FE7C
FF1A
FFDF
01AB
FFCA
01E0
FFE4
FED9
FE72
FED4
0138
012C
FEE8
0100
FE5E
FEFF
0194
FF7A
01CA
FE12
01E6
FEBF
FE25
FF63
FE61
0033
FE2F
00EC
00FE
0142
0046
FEC3
0109
FE10
00A1
FF64
0058
00AC
00C2
008C
0193
FF4F
0178
FEF5
0072
0159
FED8
00B2
0085
011A
017B
FFFC
FF6C
01BA
006A
FE4E
009E
FEDB
0131
FEE1
001C
FEC5
FE42
01BE
00DA
FEB4
0181
0181
01DC
008C
FEBF
01C0
00D4
0400
