DEPTH = 257;
WIDTH = 16;
ADDRESS_RADIX = DEC;
DATA_RADIX = HEX;
CONTENT BEGIN
0 : FE8D;
1 : 01BF;
2 : FF8C;
3 : 00C4;
4 : 00CE;
5 : FE56;
6 : FE68;
7 : 0079;
8 : FFB4;
9 : FF4B;
10 : FEC0;
11 : 0114;
12 : 019A;
13 : FE8C;
14 : FE0B;
15 : FED3;
16 : FF4B;
17 : FE17;
18 : FE19;
19 : 0108;
20 : 00A3;
21 : FEDD;
22 : 00B5;
23 : 00C2;
24 : 01FB;
25 : FE3C;
26 : FFD7;
27 : 011F;
28 : 0154;
29 : FE19;
30 : FE1B;
31 : FF57;
32 : 0065;
33 : FF34;
34 : FFE0;
35 : FE0D;
36 : FE98;
37 : 01C7;
38 : 0182;
39 : FF1A;
40 : FE4D;
41 : 01DA;
42 : 002E;
43 : 01F7;
44 : 0176;
45 : FE87;
46 : FF96;
47 : 0036;
48 : FE76;
49 : 0021;
50 : 0087;
51 : 017B;
52 : FFDC;
53 : 01E5;
54 : 007E;
55 : 0197;
56 : FF27;
57 : 0020;
58 : 00F1;
59 : FE7B;
60 : FEEC;
61 : FF30;
62 : 0195;
63 : 018B;
64 : 0054;
65 : 0068;
66 : FFE9;
67 : FE9B;
68 : FECB;
69 : FF13;
70 : FEB9;
71 : 004A;
72 : 019F;
73 : 0181;
74 : FF82;
75 : FFAB;
76 : 00AB;
77 : FEC5;
78 : 005E;
79 : 010D;
80 : FE1C;
81 : FFB7;
82 : 006C;
83 : FFDF;
84 : 00D7;
85 : 0157;
86 : 0071;
87 : 01C6;
88 : 01F2;
89 : FEAB;
90 : FFAA;
91 : 0085;
92 : FF56;
93 : FFF2;
94 : 012D;
95 : FEF4;
96 : FF70;
97 : 002F;
98 : 000A;
99 : 0079;
100 : 0047;
101 : FF7B;
102 : FF15;
103 : 01AE;
104 : FEA0;
105 : 019E;
106 : 01AD;
107 : 000C;
108 : 01B1;
109 : FE5D;
110 : FE58;
111 : FF3D;
112 : FFE2;
113 : FFD2;
114 : FF12;
115 : 000D;
116 : 019E;
117 : 0052;
118 : FEB5;
119 : 00AC;
120 : FEC9;
121 : FE8C;
122 : FEED;
123 : FFA4;
124 : FF1F;
125 : FFA2;
126 : 00A7;
127 : 01E5;
128 : FFC0;
129 : FEA0;
130 : FE74;
131 : 0079;
132 : 0173;
133 : FF1C;
134 : 006B;
135 : FE15;
136 : FF47;
137 : FE23;
138 : FFC6;
139 : 0057;
140 : 0078;
141 : FFED;
142 : FF4B;
143 : 00A5;
144 : FE08;
145 : FF83;
146 : 00E8;
147 : FEF1;
148 : FEA6;
149 : FF26;
150 : FECD;
151 : 005C;
152 : FE00;
153 : 0161;
154 : FF91;
155 : 01AB;
156 : FF91;
157 : FFE6;
158 : 0077;
159 : 0037;
160 : 003D;
161 : FFAC;
162 : FE54;
163 : 00CB;
164 : 0116;
165 : FE0E;
166 : FEBA;
167 : FED2;
168 : FF7C;
169 : 0174;
170 : 017E;
171 : 004F;
172 : 00AB;
173 : FE5D;
174 : 01F6;
175 : 00AF;
176 : FFC7;
177 : FEE5;
178 : 002E;
179 : FF2F;
180 : FE5C;
181 : 019B;
182 : 01B5;
183 : FFDB;
184 : 0163;
185 : 0154;
186 : 00C7;
187 : FE32;
188 : 0009;
189 : 0078;
190 : FEEE;
191 : FF68;
192 : FE8C;
193 : FEDF;
194 : FEFB;
195 : FF2F;
196 : 01A1;
197 : 019D;
198 : FE57;
199 : 003E;
200 : 00E9;
201 : FEAC;
202 : FE24;
203 : FE40;
204 : 01BB;
205 : 00B4;
206 : FE19;
207 : 014F;
208 : FEAB;
209 : 016D;
210 : FFC0;
211 : FEF3;
212 : 00B7;
213 : 01F9;
214 : FF47;
215 : FE61;
216 : FFF3;
217 : 009C;
218 : FE5C;
219 : FE4B;
220 : FE54;
221 : FE9B;
222 : 01CD;
223 : FF31;
224 : FEAE;
225 : FF94;
226 : FEED;
227 : FE6A;
228 : 0179;
229 : 0170;
230 : FE43;
231 : FECC;
232 : 009E;
233 : FF38;
234 : 0186;
235 : FE66;
236 : FFCC;
237 : 01AE;
238 : 0164;
239 : 01BF;
240 : 0063;
241 : 0024;
242 : 009E;
243 : FF23;
244 : FED8;
245 : FEA1;
246 : 013E;
247 : FECD;
248 : 001A;
249 : 0108;
250 : 010F;
251 : 0045;
252 : FE99;
253 : FF2D;
254 : 005D;
255 : 008A;
256 : 0400;
END;
