DEPTH = 257;
WIDTH = 16;
ADDRESS_RADIX = DEC;
DATA_RADIX = HEX;
CONTENT BEGIN
0 : FF4D;
1 : FE2E;
2 : FEC9;
3 : FE5B;
4 : 00C9;
5 : 0158;
6 : 01DA;
7 : FE1A;
8 : 0122;
9 : 000E;
10 : FF65;
11 : 019E;
12 : FF63;
13 : FF63;
14 : 01AE;
15 : 0026;
16 : 0184;
17 : FFAC;
18 : FE5C;
19 : 0125;
20 : FE1F;
21 : FE4A;
22 : 00B9;
23 : FECC;
24 : 0050;
25 : 00E6;
26 : FE6B;
27 : FE83;
28 : 0144;
29 : FF25;
30 : 0095;
31 : 018C;
32 : 01A0;
33 : 016E;
34 : FF44;
35 : 012C;
36 : FFF2;
37 : FF2E;
38 : FFB0;
39 : FE0C;
40 : FF41;
41 : 015F;
42 : FF15;
43 : FF71;
44 : FFE8;
45 : 011F;
46 : FFAE;
47 : 0192;
48 : 014B;
49 : 0138;
50 : 015B;
51 : 01CE;
52 : 003B;
53 : FEF9;
54 : 0184;
55 : FE22;
56 : FFDD;
57 : FFDF;
58 : 01A2;
59 : FEF4;
60 : 0161;
61 : 0029;
62 : 0155;
63 : FE96;
64 : FE0D;
65 : FF05;
66 : FF6D;
67 : 00D9;
68 : FE04;
69 : FE4F;
70 : 0038;
71 : FF87;
72 : 015B;
73 : FE6C;
74 : 00D6;
75 : 0151;
76 : 0186;
77 : 0064;
78 : 00F4;
79 : 01CF;
80 : 01A7;
81 : 0027;
82 : FE59;
83 : 018A;
84 : 00F5;
85 : 0062;
86 : FE42;
87 : 00B5;
88 : FEA1;
89 : FEEE;
90 : 0095;
91 : FE96;
92 : FE07;
93 : FF5B;
94 : FF5E;
95 : 01DD;
96 : 009A;
97 : 01AE;
98 : FF9C;
99 : 00D0;
100 : FF64;
101 : FE2A;
102 : FF9F;
103 : 0076;
104 : FFA9;
105 : 016E;
106 : 014C;
107 : 00D6;
108 : 0068;
109 : FECC;
110 : FFE2;
111 : 00A4;
112 : FE71;
113 : 0170;
114 : 01E3;
115 : 0195;
116 : FFFC;
117 : FFC2;
118 : FE8E;
119 : FF5F;
120 : FE51;
121 : 00A9;
122 : FED6;
123 : 01A9;
124 : FF18;
125 : FE78;
126 : FF42;
127 : FF19;
128 : 01EA;
129 : 01B0;
130 : 0131;
131 : 01A7;
132 : 0062;
133 : FE00;
134 : 00EF;
135 : FE9D;
136 : 0198;
137 : 0018;
138 : 00AF;
139 : FE14;
140 : 00A3;
141 : FE28;
142 : 0140;
143 : FE6A;
144 : FF58;
145 : 00E1;
146 : FF86;
147 : 00A8;
148 : 01BC;
149 : FE50;
150 : 01CC;
151 : 01F5;
152 : FED8;
153 : FE5B;
154 : 0113;
155 : 002B;
156 : 003C;
157 : FEE6;
158 : FE90;
159 : 01B0;
160 : 0162;
161 : FE2F;
162 : FF70;
163 : 017F;
164 : 000A;
165 : 0100;
166 : 0055;
167 : 004E;
168 : 0108;
169 : 0094;
170 : 0062;
171 : 011B;
172 : FF57;
173 : FE32;
174 : FE5D;
175 : FE22;
176 : FE30;
177 : FEED;
178 : 0051;
179 : 0069;
180 : 013E;
181 : 00B8;
182 : 01AB;
183 : 0097;
184 : FE66;
185 : 0022;
186 : 01AE;
187 : 0116;
188 : FEFA;
189 : FF18;
190 : 0032;
191 : 0073;
192 : 0129;
193 : FEA0;
194 : 0140;
195 : FFDE;
196 : FF8E;
197 : FFE2;
198 : FFE7;
199 : FF1C;
200 : FEDF;
201 : FFDF;
202 : 0080;
203 : 0134;
204 : 0017;
205 : 0054;
206 : FFBF;
207 : FE5D;
208 : FEFD;
209 : 0169;
210 : FFE8;
211 : 0140;
212 : FE29;
213 : FFFD;
214 : FFA2;
215 : FFD1;
216 : FE6A;
217 : 009E;
218 : FFDD;
219 : FFF1;
220 : 0045;
221 : 00BF;
222 : FE3E;
223 : FF43;
224 : 001B;
225 : 0004;
226 : 0086;
227 : FE5A;
228 : 002B;
229 : FEE0;
230 : 002F;
231 : 014A;
232 : 0007;
233 : FFCF;
234 : 013C;
235 : 00DD;
236 : FFF9;
237 : FFCC;
238 : 001E;
239 : FFC4;
240 : FF6C;
241 : FFEE;
242 : FF9A;
243 : FE9B;
244 : 0141;
245 : 01A5;
246 : 0147;
247 : FECB;
248 : FF4F;
249 : FE28;
250 : FF79;
251 : FF51;
252 : 01A3;
253 : FF40;
254 : 00BC;
255 : FE90;
256 : 0400;
END;
