0171
0146
FFB5
FEE9
0183
0084
00C9
FE79
FF82
FF14
FEF8
0021
FED2
00AC
FF97
0152
0159
00D5
0178
0167
0139
0160
FFE6
00A8
FFFD
01AD
0010
0067
FFA7
FF91
005F
018B
0159
FEE9
016C
FEB3
014F
0069
018E
FF42
FFA8
FE7F
FE14
FF59
00DC
FF30
0068
FF10
FF92
FE69
0181
01C4
FEAB
01C4
FF7E
00B6
00DD
FE0B
01DA
FF20
FE29
FF3A
0126
FE0C
013D
0197
0074
FF3B
004D
0060
FF6E
FFAC
FE7A
FFB9
01B7
00E5
004B
01E7
0114
00ED
0175
0131
0054
00DE
FFF8
FEEE
FE34
0013
FF3E
FFC0
FFB8
0086
0104
FFD2
0002
01EA
01B7
FF66
008E
FF36
0157
FE19
01FF
FE44
FF44
0003
FFED
FF6C
00A8
0027
FFCB
FF0F
01EA
FEA5
FFF9
FE6D
FFA3
01C8
00D1
0152
016B
00E1
FE6E
FE76
FEAE
01CB
FF07
0087
FFFB
016E
00FD
0178
FE48
0172
FF13
FF26
FFA5
FF5F
FF0C
FF91
01EB
FF99
FE8E
FF51
010C
0160
002B
00B2
FF98
FEF8
FF5F
FFFE
FFED
0174
004C
FE39
FE25
FF0D
FEAC
FF47
FF77
0146
FF85
FE02
019C
0076
FF2A
FF6E
01BB
FE67
002D
FFCD
FEA6
0041
00B7
FF4C
FEAE
FE0B
FFA1
01F6
FF9D
FF69
FE67
FF14
FFAB
00BA
01E6
FE43
FE9E
FF91
FE50
FE0E
FE68
FE92
01E3
FEDB
FE61
FE4A
FE69
FF49
0014
FFC3
FF6F
FFB7
FEC0
FE72
FE2F
FE5F
FFBE
016C
011D
FF57
FE58
0087
FEAD
010D
0103
01FE
0198
0021
0175
FFD5
0092
0141
FE29
FEF9
0118
01E0
FF60
FEC3
0194
01BB
003C
FE2B
FEA7
FED5
007B
FEBF
0192
0152
FE4F
016A
0143
00E4
00AB
01AC
00DA
FF9D
019F
00FB
00DE
004A
01FC
FE35
FEF2
FE63
0400
