DEPTH = 257;
WIDTH = 16;
ADDRESS_RADIX = DEC;
DATA_RADIX = HEX;
CONTENT BEGIN
0 : 00EA;
1 : FEF3;
2 : 010C;
3 : 00B0;
4 : FFCB;
5 : 0087;
6 : 004B;
7 : 01CD;
8 : 0196;
9 : FEB2;
10 : FF24;
11 : FEBF;
12 : 002B;
13 : FF13;
14 : FE17;
15 : FFB3;
16 : 01BA;
17 : 0088;
18 : FF5E;
19 : 01DA;
20 : 00B2;
21 : FECF;
22 : 00D2;
23 : FF3B;
24 : FE46;
25 : FF78;
26 : FE96;
27 : FF98;
28 : FEE2;
29 : FE5B;
30 : FFBC;
31 : FF50;
32 : 016F;
33 : FF1F;
34 : 01AC;
35 : 00F6;
36 : 0047;
37 : 007E;
38 : 0185;
39 : 01FA;
40 : FE18;
41 : 0163;
42 : 01E6;
43 : 0096;
44 : FE1A;
45 : FF8A;
46 : 00F0;
47 : 0125;
48 : 006E;
49 : 0014;
50 : FEE4;
51 : FE6C;
52 : FE35;
53 : FF6B;
54 : 005F;
55 : 0055;
56 : FE39;
57 : 0107;
58 : 0145;
59 : 019E;
60 : FEA5;
61 : 001F;
62 : FF94;
63 : FF56;
64 : 00A2;
65 : FEA6;
66 : 0006;
67 : FF5B;
68 : FFE3;
69 : FEB3;
70 : 01C4;
71 : 0057;
72 : FE64;
73 : 016E;
74 : 01F8;
75 : 0027;
76 : 00E1;
77 : 01D0;
78 : FFBE;
79 : 00AB;
80 : FF5F;
81 : 01C2;
82 : FF55;
83 : FEAA;
84 : FE6B;
85 : FEA7;
86 : 012E;
87 : 00C4;
88 : 00A7;
89 : FF10;
90 : FED9;
91 : 01FF;
92 : 0006;
93 : FE6C;
94 : 0109;
95 : 00CD;
96 : 011D;
97 : FFF1;
98 : FFC5;
99 : 0122;
100 : 01D2;
101 : 0105;
102 : FE36;
103 : FF77;
104 : FE86;
105 : FFE9;
106 : 012F;
107 : FE0D;
108 : FFBB;
109 : FF76;
110 : FEBB;
111 : FE9F;
112 : 00F4;
113 : FEDC;
114 : FEC6;
115 : FE46;
116 : FE7B;
117 : FE01;
118 : FF94;
119 : 00B0;
120 : 017A;
121 : FF88;
122 : 00C4;
123 : 006C;
124 : 019F;
125 : 0021;
126 : 01E8;
127 : 0058;
128 : FE32;
129 : 0152;
130 : 0096;
131 : FFDF;
132 : FF00;
133 : 00C0;
134 : FFA2;
135 : FFCE;
136 : 0076;
137 : 0172;
138 : 0145;
139 : 0006;
140 : 0173;
141 : 01C0;
142 : 01F2;
143 : 0069;
144 : FEFD;
145 : FE4D;
146 : 017F;
147 : FE33;
148 : 00C8;
149 : FEA2;
150 : FF8B;
151 : FE31;
152 : 0137;
153 : 0191;
154 : 00B2;
155 : FE38;
156 : FF97;
157 : 01B3;
158 : FFE1;
159 : FE21;
160 : FFF8;
161 : 0003;
162 : 0097;
163 : 0005;
164 : 01BD;
165 : FF88;
166 : 0047;
167 : 0161;
168 : 009B;
169 : FE06;
170 : FEEC;
171 : 015E;
172 : FED6;
173 : FE3F;
174 : 0023;
175 : FF51;
176 : 001F;
177 : 01C5;
178 : FF0A;
179 : 00D1;
180 : FEE0;
181 : 0023;
182 : 0078;
183 : FF3D;
184 : FEBE;
185 : FF8D;
186 : FEA7;
187 : FE4F;
188 : FEEF;
189 : 0060;
190 : FFBC;
191 : 000B;
192 : 01FE;
193 : 0008;
194 : FE06;
195 : FE7C;
196 : 00E3;
197 : 0105;
198 : FF09;
199 : FFF4;
200 : 01FE;
201 : FF5F;
202 : 0193;
203 : 01E5;
204 : FFDA;
205 : FE21;
206 : 01B5;
207 : FEC2;
208 : 0062;
209 : FE9F;
210 : FFC5;
211 : FEF1;
212 : 013B;
213 : 01F6;
214 : 01D1;
215 : 01CA;
216 : FF24;
217 : FF09;
218 : 015F;
219 : FE74;
220 : FEB4;
221 : 000A;
222 : FF16;
223 : 01C2;
224 : FF90;
225 : 00DD;
226 : FE4A;
227 : FEE0;
228 : FECB;
229 : FEFA;
230 : 01F7;
231 : FE6C;
232 : 0043;
233 : FF08;
234 : FEE1;
235 : FEBE;
236 : FFDD;
237 : 004C;
238 : 0154;
239 : 00AD;
240 : 0070;
241 : FFDB;
242 : FF7F;
243 : FE3A;
244 : 0097;
245 : 01EB;
246 : 0197;
247 : FEE8;
248 : FED7;
249 : FFD7;
250 : 0181;
251 : FF04;
252 : 007E;
253 : 01F9;
254 : 0096;
255 : FEB9;
256 : 0400;
END;
