DEPTH = 257;
WIDTH = 16;
ADDRESS_RADIX = DEC;
DATA_RADIX = HEX;
CONTENT BEGIN
0 : FECB;
1 : 0117;
2 : 01F3;
3 : FE4C;
4 : 0072;
5 : 0038;
6 : 00F4;
7 : 01D2;
8 : FF51;
9 : FFF8;
10 : 01EC;
11 : FFD6;
12 : 0087;
13 : 0053;
14 : FF73;
15 : 01A9;
16 : FEB5;
17 : FEEC;
18 : 000D;
19 : 006E;
20 : 0051;
21 : 0178;
22 : FE29;
23 : 01F3;
24 : 0134;
25 : FE45;
26 : 0014;
27 : FE47;
28 : 002E;
29 : FEB6;
30 : 00A0;
31 : 011B;
32 : 0188;
33 : FE55;
34 : 0076;
35 : FFC3;
36 : FF1A;
37 : 00B1;
38 : FFB8;
39 : 00C5;
40 : 00D1;
41 : 0088;
42 : FF8D;
43 : FFFA;
44 : FFA3;
45 : 0007;
46 : 01C3;
47 : FE47;
48 : 0027;
49 : 0056;
50 : 01AF;
51 : FF7C;
52 : 004F;
53 : FEFF;
54 : 0161;
55 : 014D;
56 : FED1;
57 : FE1F;
58 : FEAF;
59 : 014F;
60 : FF17;
61 : FE28;
62 : FF4D;
63 : 004B;
64 : FE61;
65 : FEF6;
66 : FF8E;
67 : 006E;
68 : 00EA;
69 : 0066;
70 : 01D4;
71 : FE65;
72 : 0087;
73 : 00B7;
74 : 01D8;
75 : FE30;
76 : FF68;
77 : FFF5;
78 : FFC8;
79 : 01D9;
80 : 00CE;
81 : FF54;
82 : FF1A;
83 : 01C1;
84 : 007B;
85 : FF64;
86 : FECC;
87 : FE4A;
88 : FF02;
89 : 0042;
90 : FF6B;
91 : FF2E;
92 : 013E;
93 : 0114;
94 : FF7A;
95 : FF3C;
96 : 0136;
97 : 0117;
98 : FF67;
99 : FF9B;
100 : 014C;
101 : 00A2;
102 : 0111;
103 : 01BC;
104 : FE5C;
105 : FF59;
106 : FE5C;
107 : 0062;
108 : 0157;
109 : 01BD;
110 : 0025;
111 : FEC7;
112 : FFBC;
113 : 00A6;
114 : 017A;
115 : 0074;
116 : FE50;
117 : 0172;
118 : 0047;
119 : FF59;
120 : 00C1;
121 : FEA2;
122 : 00A6;
123 : FF36;
124 : FF08;
125 : 0107;
126 : FF74;
127 : 0046;
128 : FE17;
129 : 0109;
130 : FEBC;
131 : FE58;
132 : 0163;
133 : FFD4;
134 : 01B1;
135 : 01D3;
136 : FE81;
137 : 01CA;
138 : FFA5;
139 : 003A;
140 : 00D7;
141 : FF65;
142 : FFB4;
143 : 01FD;
144 : 0148;
145 : 0072;
146 : 00EE;
147 : 0163;
148 : FFE0;
149 : FF64;
150 : FF62;
151 : FEBF;
152 : 01B9;
153 : FFA9;
154 : 0095;
155 : 01B4;
156 : FFE9;
157 : 001A;
158 : FFA4;
159 : 019D;
160 : FF20;
161 : 01E8;
162 : FF3D;
163 : 01A2;
164 : FFBC;
165 : 0167;
166 : 00D2;
167 : FE30;
168 : FE84;
169 : 01D2;
170 : FE39;
171 : FFFA;
172 : 0147;
173 : FE86;
174 : FF18;
175 : FFA2;
176 : 0043;
177 : FEA9;
178 : 00EB;
179 : 018C;
180 : 0199;
181 : FFE4;
182 : 00B7;
183 : 0123;
184 : 0142;
185 : 019D;
186 : FE41;
187 : 01EE;
188 : 0130;
189 : 01EB;
190 : FF0C;
191 : FFA1;
192 : FFDB;
193 : FE95;
194 : 0118;
195 : 013F;
196 : 0099;
197 : 01A3;
198 : FF1D;
199 : FF0B;
200 : 0187;
201 : 00DA;
202 : 00A9;
203 : 0057;
204 : 0042;
205 : FEB0;
206 : FE17;
207 : FE6B;
208 : FFBA;
209 : 00EF;
210 : FEA5;
211 : FE56;
212 : 00C1;
213 : 0074;
214 : FFCC;
215 : 0102;
216 : 00C9;
217 : 0036;
218 : 01B9;
219 : FF2B;
220 : 017E;
221 : 008F;
222 : FEA0;
223 : FE90;
224 : 0073;
225 : FE29;
226 : FE1E;
227 : 001E;
228 : 0024;
229 : FF52;
230 : 0128;
231 : 015E;
232 : 000D;
233 : 00F2;
234 : FF75;
235 : 0120;
236 : 00DB;
237 : 01CE;
238 : FF38;
239 : 00FF;
240 : 01EB;
241 : 0076;
242 : FF24;
243 : 0175;
244 : FE79;
245 : 01B8;
246 : 0128;
247 : 010C;
248 : FE92;
249 : 005B;
250 : FF18;
251 : FFBF;
252 : 010F;
253 : 0087;
254 : FE3A;
255 : 00D7;
256 : 0400;
END;
