0039
0145
00A4
FF08
FF7C
FF7F
01F2
FE57
FFED
FE9E
0053
FF28
FF88
FFAD
01A8
FEB4
FFCE
FFB4
01FD
FF18
FFA1
01E9
FE31
01FF
FE67
FF37
FE7C
FE92
015E
017E
FFB8
FF0A
005F
00AC
0169
019D
FED0
FF25
FF80
005B
FE96
0050
0120
007D
0080
FF00
0130
00B1
0195
FF91
FED3
00C5
01C0
0169
0145
01E7
019C
0030
FE77
FEA8
FEA0
FF97
014C
00B1
FE3C
FED6
00F0
FEA7
FE5A
FE54
0076
FFB5
FF48
FF31
FF31
FE3E
0138
FECA
0014
FF56
FF8F
FFE8
0024
FFBB
FF1E
FF0E
01FE
FF5D
FFFD
01B7
0053
FE7B
FE24
FF3A
FFD8
FEAD
00DE
FE26
FE36
FFDE
FE32
FFE2
FFA4
00AD
FE57
FE7C
FEAB
01A9
018F
FEF2
FE2D
0158
010B
FEAC
002E
FFFC
FEB7
FF41
FED8
FF59
FF62
FEC6
01E5
FF44
009F
FE79
0084
FF29
FFB2
004D
FEE8
FEAF
013C
FF28
FFA3
FE24
0154
FF17
FE66
FF3E
FFA1
FF6C
FFA5
00F0
FF34
003D
FF2D
00BF
0145
0091
FEC8
01C8
01C1
FFCE
006D
FE63
FE8F
0013
FFD5
FFFE
015B
FF4B
015D
0120
00ED
FEFD
01D1
FFE7
FE15
FE1A
FECB
019E
FF10
FE83
007D
FED4
007D
FEB2
0172
FE12
01FD
01CC
008B
FE98
FEC9
FF3D
0163
01DF
FF50
FE68
00BB
FFF7
FF66
00BA
FF52
FF2B
FF4F
FEDF
FF39
0047
FE06
01C8
01A2
FF60
00CF
FE98
FE67
FEF1
00D6
FF7C
FE61
01B6
004D
FEC5
FEF0
FEFF
01A6
0153
01ED
0001
FE3E
01CC
FED6
00EB
FED6
0182
01C5
0124
0170
FFEB
FE11
FF10
013B
0070
01AD
FE2A
0155
FF65
01FE
00DE
FEFA
0093
00AF
00FC
FFCE
0046
FF1B
FFFA
FE19
FFBD
01FD
FF6B
0002
FEC6
FEFA
FE25
0400
