DEPTH = 257;
WIDTH = 16;
ADDRESS_RADIX = DEC;
DATA_RADIX = HEX;
CONTENT BEGIN
0 : FF34;
1 : FFFD;
2 : FF02;
3 : 01DA;
4 : 0105;
5 : 0101;
6 : FFB7;
7 : 016F;
8 : FE83;
9 : FFBA;
10 : 00FB;
11 : 0059;
12 : FF12;
13 : 005C;
14 : FF85;
15 : FF0A;
16 : 0008;
17 : 0154;
18 : 0146;
19 : FEA5;
20 : FE98;
21 : FE2B;
22 : 0007;
23 : FF44;
24 : 00C8;
25 : FEB2;
26 : FF9D;
27 : FE53;
28 : 0138;
29 : 00B5;
30 : 006A;
31 : 003E;
32 : 01A1;
33 : FF0B;
34 : 00A9;
35 : 0127;
36 : FEC7;
37 : FF0A;
38 : FF36;
39 : FFC3;
40 : FE11;
41 : FE81;
42 : 01E7;
43 : 0016;
44 : 013A;
45 : FF19;
46 : 0172;
47 : 00EA;
48 : FE78;
49 : FEEB;
50 : 00C7;
51 : FEB8;
52 : 011E;
53 : FE14;
54 : FEAE;
55 : 0159;
56 : FE5F;
57 : FE3F;
58 : 01B7;
59 : FF7D;
60 : FEE8;
61 : FEE6;
62 : 0139;
63 : 0154;
64 : FF53;
65 : 00CF;
66 : 0111;
67 : FE3A;
68 : 0071;
69 : 00F1;
70 : 012F;
71 : 0045;
72 : FFC7;
73 : FF5D;
74 : 0136;
75 : FF91;
76 : 0164;
77 : 011B;
78 : FE5A;
79 : 017B;
80 : FE38;
81 : 003B;
82 : 014E;
83 : FED1;
84 : 0093;
85 : FE75;
86 : 0112;
87 : 013B;
88 : FF80;
89 : FE1D;
90 : 00E1;
91 : FF07;
92 : FF6D;
93 : 007E;
94 : FE68;
95 : 00E1;
96 : FFBA;
97 : 0179;
98 : 0046;
99 : FED4;
100 : FF13;
101 : 01DF;
102 : 0138;
103 : FEC1;
104 : 001B;
105 : FE64;
106 : FF40;
107 : 01D9;
108 : FE7B;
109 : FFF6;
110 : FFEF;
111 : 01B8;
112 : 001B;
113 : 01DE;
114 : FE20;
115 : 0128;
116 : FE38;
117 : 01AE;
118 : 0194;
119 : 0000;
120 : 00E9;
121 : FFA6;
122 : FF86;
123 : FF6B;
124 : FFF2;
125 : FF7B;
126 : 0057;
127 : 0070;
128 : FFDA;
129 : 0125;
130 : FFBA;
131 : 0136;
132 : FE0A;
133 : 0164;
134 : 00AF;
135 : 000D;
136 : 00A1;
137 : 01BC;
138 : 00EE;
139 : FE14;
140 : 00DD;
141 : FF4C;
142 : 012B;
143 : 004E;
144 : 00BF;
145 : 016B;
146 : FEA7;
147 : 0158;
148 : 0171;
149 : 01EE;
150 : FE6B;
151 : 019D;
152 : 0011;
153 : FF25;
154 : FEB3;
155 : 01A5;
156 : 0163;
157 : FFF9;
158 : 0149;
159 : FE4B;
160 : 0173;
161 : FF04;
162 : 00D5;
163 : 0128;
164 : FF10;
165 : 0101;
166 : 0105;
167 : FFC7;
168 : FE9D;
169 : 0073;
170 : FF71;
171 : 0156;
172 : 0070;
173 : FE17;
174 : 016B;
175 : 0173;
176 : 0053;
177 : FEC4;
178 : 005C;
179 : 015C;
180 : 012E;
181 : 0085;
182 : 01FF;
183 : 016F;
184 : 015E;
185 : FEFB;
186 : 01FE;
187 : 017F;
188 : 00B9;
189 : 00A8;
190 : 01F4;
191 : FE28;
192 : FE32;
193 : 01F2;
194 : 0095;
195 : FF12;
196 : FEB1;
197 : 008F;
198 : 01B0;
199 : 0016;
200 : 0106;
201 : FE13;
202 : 00B2;
203 : FF21;
204 : FEBE;
205 : FF61;
206 : 0008;
207 : 01FC;
208 : 0155;
209 : FFAF;
210 : FEB0;
211 : 0193;
212 : FE9B;
213 : FFA7;
214 : 0130;
215 : 01E9;
216 : 01B9;
217 : 01DB;
218 : 00E4;
219 : 0114;
220 : 0013;
221 : FFC4;
222 : 01F2;
223 : 00CE;
224 : FEDA;
225 : FF0C;
226 : 01E5;
227 : 01A9;
228 : FE13;
229 : 002A;
230 : 00B5;
231 : FEA4;
232 : 0052;
233 : 01C2;
234 : 016B;
235 : 00AC;
236 : FF0B;
237 : 013B;
238 : FEC2;
239 : FEA0;
240 : 01C1;
241 : FF75;
242 : 00C1;
243 : 01D8;
244 : FE10;
245 : FE78;
246 : FF11;
247 : 00A9;
248 : 002E;
249 : FED5;
250 : 01F6;
251 : FF91;
252 : 00F0;
253 : FF87;
254 : FF5A;
255 : 00BA;
256 : 0400;
END;
