FF79
FE60
0046
00A1
0018
01E1
0037
FE4C
0182
FF6F
0018
00A9
00C7
0133
0147
FEFC
FE21
FE86
0081
010B
FF5D
FE1A
FFEB
0014
0031
FE70
FFF4
01D7
FFA5
0021
FE8F
01A0
FF8A
FE6B
000D
FEF3
01D4
FED8
FF1D
0138
012C
01ED
0160
FE33
0013
FE45
01EC
FFBA
FE44
01DF
002B
FF8F
FE8C
0137
0041
FF36
FF64
FFBA
01E1
FF0A
FF03
0110
FED7
FF2D
0011
FF9F
FE29
00E3
FF40
010A
0108
FEF5
00F5
0130
0003
FF3E
FE3F
0113
0005
FEC8
FEA5
FE5E
01CB
013E
00DC
00A6
00BB
FF6C
010D
FFA1
0175
0168
FF81
01E8
01C6
FEC9
FEA8
FF6D
0054
FFD2
002A
FFF1
FFA0
FE74
FF10
0113
FEC4
FEC5
00F4
FFF2
FEA6
00AF
FE19
0099
FFB2
FF25
FECD
000F
00C2
FEA9
0136
FF14
FEE2
004F
0122
FF9C
FF8A
00D9
FE31
FE89
FFCF
FF67
FE8B
01CA
013E
FF02
FEA8
0060
0061
FEA1
00B4
FE75
FFA2
FFB8
00DC
FE01
FEEB
00E7
0035
FFB5
0163
FF93
00B1
000D
FFC3
000C
FEAB
0127
FED2
FEA3
01A5
01E5
001A
0005
FEF8
FE0B
FEC8
FF24
FFCB
00F6
00AC
FEFD
0070
012F
FFC3
FF11
FF9B
FF60
FF9C
FEAA
01F1
FF3B
FFC1
FF4A
FF45
01C1
FF3B
017F
0062
0131
0024
011B
01F5
FF49
0175
FECE
01BE
0083
002F
010C
00B4
01D0
0178
0054
016B
FFAF
00C4
0028
FF02
FFD8
FF36
FF93
FF03
FF01
00C6
00F7
FEC4
FE50
FF5A
FEC2
FEBA
FE56
0099
FE9F
FE2B
00A3
0022
FFFF
FFC6
005C
FEF5
0001
FEE7
01BB
01C8
FE90
FEAD
0094
0037
FEE8
0034
FED3
FF98
01C5
0191
01C4
FFFB
019B
01EB
0185
FF92
00C3
0106
FE52
FE7F
0040
0400
