FEF3
00D9
FEE6
009C
01E1
FE0C
01DA
FEE5
012E
FE8F
015E
004C
FE4D
FE6D
0115
FF56
FEBE
01DF
FFE5
0175
00AC
006A
FE4B
FEE9
FEDC
0024
FE8C
010B
011B
FFCD
010A
FF16
FFC6
0192
0068
0118
00E4
00C0
FFE8
FE14
FFBB
0030
FFD7
013A
FFAC
FECC
0087
00B0
0137
FF8D
FE4E
FFDE
FF5F
FE96
013C
FED8
0046
FEB1
FE6A
0021
FE11
011E
003A
014B
01C3
FF1C
0122
0151
FEE2
FF06
0197
FEED
FF93
FF82
FF28
FF23
FFB7
FFEF
FEF2
0075
01C7
01DE
FF36
FE59
001A
FF3F
0090
01B7
00F2
FED9
FEF2
017E
01A0
FF47
00E4
FF69
00B2
01C8
FFD5
002A
00EA
FE68
FE25
FEFE
FE55
0003
01D5
0050
FF1D
FE48
FFEE
FFA4
003F
01F3
FEB3
FFB9
FE18
FE3A
007E
FF4E
0165
FFF6
FFC4
0135
014C
0023
FF02
FF49
FEF7
FE04
FED6
FFD1
FFFE
FE24
FFA6
FFBC
0049
FFC6
0151
000E
FECD
FF18
FE4E
FE21
FEC1
014B
0151
FFBB
FF31
FF24
FFCD
0037
00A5
FE0C
FE37
01C1
FEF0
FECE
010D
00DF
FFD6
0142
019D
0157
FF26
0038
FE77
00A6
004F
FE99
FEAA
0191
01A9
010F
FF9B
FE43
0151
FF42
00E8
0071
00D6
FFCC
FFE7
FF3A
FE9F
FE67
01CA
0119
FE6B
FE22
FE74
FE5D
009F
FEBF
FE11
013A
FF4D
FEDA
0180
FF7E
008E
01D6
FEB9
00F5
FF4F
FEAC
0173
01D6
FF21
0153
0172
003C
FF20
FF6C
FE0E
01FB
FE8A
0019
FFA3
FF28
0106
011F
FE43
FEDE
FE81
FF3B
009E
0044
0150
FF29
003B
FE49
FEF5
FE5E
FE9B
FE11
0058
0107
FEEF
FE16
004D
FEAB
FEC9
0183
FF32
00EC
FE4B
FF08
017C
004A
0159
0107
00FD
0102
00ED
FE01
0400
