0025
0089
0087
FF79
0102
00B1
FF51
FF2C
01EE
FFA4
0019
FE52
0157
FE8F
FF08
0089
FE45
00C0
01C0
FE69
FFC6
00B1
FE60
01E1
0033
01DA
FE8A
FE1A
01BC
01FE
00F1
0065
0138
0104
01A5
FF2B
FE28
FF95
FECE
007C
FFD5
011F
0122
0198
01E2
00D1
FE0C
015B
FEF0
FF90
FE3B
FEFB
006D
FE57
FFB1
FE21
FFA5
00A7
FEDA
FE07
FE9E
010A
0139
004A
FF9A
FF6B
FFCF
01FE
FFA1
0034
0081
FE5E
FF9D
FE07
FF62
00D3
FE36
FF09
001C
01B8
0191
FEB7
FFF1
01F4
FFDE
001D
0182
FE95
012E
0003
01AA
01DD
01CD
000E
01BF
0142
FF78
FF81
FFC6
FF88
004F
FEBC
FF4B
FEF6
00D7
0170
01BB
FEF1
FEBB
0004
FE4C
007E
0172
FEDC
004B
FEC2
00EC
FFAB
00B3
0023
FFDC
FE45
FFC2
0046
0057
FFC3
FEC4
FE55
FF45
FECA
0032
0169
01A5
FFAC
0183
0090
0043
FFAC
00C8
FE0D
0195
00A1
FFDF
018E
FF31
0181
FFA3
00C8
FECC
FF25
00A9
FE6C
FE56
00DE
FF2F
FEBC
0014
0123
011F
0080
FEC8
FEA3
FF1D
FEB0
0042
FFC9
0028
FFBA
FE4F
0170
018F
FECF
00DF
0160
FE58
FFF1
00B2
FE67
FF76
0153
FF16
0003
FEF2
FEA8
FFF0
FE60
FFAA
012B
FFCC
FF3F
005B
01C4
0120
0182
FF3C
00C8
0130
FEB9
0182
FE90
FECC
014C
FE1C
FE04
FF71
015C
00A9
FF41
FE1B
FFE3
FF56
FF01
FF46
FF5C
FED9
FEC1
FF23
FE0A
FF84
01D7
FFBC
0168
018E
013A
FFCE
FF62
FFC8
0110
0116
FFC2
0026
001B
FEB0
FE45
FED0
0004
0077
FEBB
FF31
008C
0164
FF75
01F5
FE07
01FD
FE22
0092
01AB
0031
0100
FFAC
0176
FEC8
FF48
FE12
FE25
0400
