0106
FFA4
FEFF
01A1
002F
FFD5
0093
FF8D
00FE
013A
FF1C
FE3F
FEA0
FE1A
FFA3
0093
FFFC
00E5
FF0A
FF7E
FE86
0118
FF4D
00A0
007F
0015
015E
0029
0123
FF6C
FEC1
0077
FEF6
FE67
014E
00D9
FE90
00C1
FFD1
01F4
009B
FE8C
FF2E
006E
FEBA
0144
00DA
FF4D
00BE
0142
0187
00A8
FF8F
00D4
FFC5
0107
0019
014F
FE14
FE44
0069
00A6
FE11
FE67
01DB
FE81
FEC9
0166
0032
FFAA
FE8F
00C5
FF49
000D
0102
FF07
0198
FFE7
FFB5
01D4
018A
0055
FE3B
FF9A
00E8
FFC9
FF2D
013F
FFD3
FE28
FF10
0084
00BD
FE4A
FFFF
FFD7
FEB2
FFDB
FE58
00E1
01A9
0116
013B
FE57
FF24
FEA8
FEA4
FF1F
00FE
FF6D
FE50
FEF7
0180
FFB9
FE18
0091
FE7A
FE57
FF0A
0090
01B2
FF5E
FFF5
01C7
00D2
FE2A
FF13
01EB
0150
FE1D
0094
0079
00B8
FF9F
FFA7
0098
FF9C
FED0
FE7E
FE29
0005
FF03
FFDB
0004
FFB7
0077
018A
FED7
FEE2
FE34
00F9
00DF
FE0F
FE7A
01FB
FEA6
FEA5
FEE3
FEE8
0107
01B6
FFF4
FFBD
019F
01A5
00A5
FED5
FEC6
006D
0142
FE8A
00D6
0182
0047
FFBC
FE1F
FEF8
01BB
01B0
FF66
FFF1
010B
FE49
FE76
FE00
FEAE
FEDE
FFF6
0169
FE69
006F
010D
FF71
014F
017C
00A7
FEB8
FF94
01AB
00C6
0141
004C
0063
0175
FE65
002D
005F
0027
0105
0184
01D7
FE50
003C
01E4
FF25
FE5C
0194
FF6F
005E
0154
01E1
FFD6
FFBC
003F
0153
FE95
FFB3
FF4A
0093
FED1
FF88
FE87
00DD
005E
FF54
0123
0024
01A2
FE5B
FE89
0085
0198
008E
0150
FE49
0112
FE49
FF9B
FEA3
FEB6
0157
FFDE
0038
00DC
FF1F
00E1
0400
