FE77
FF6F
FE4C
0116
FE2A
FE2F
FE77
FE0F
0090
FE8E
FE9C
FE83
01FD
FE57
FFA9
FE98
01B6
0189
01E0
FE3B
005F
FF1B
FFB0
019A
00AE
FF55
FF4C
0022
FEDB
0145
00E7
FE87
FEAA
008A
00AC
01F0
FFB9
01AB
016E
014A
00CF
01CE
010B
01DD
0181
FE9B
009E
0116
FEFE
0085
FFD1
0126
01FE
016F
013A
00FE
FE24
FE33
0001
000A
0139
00AF
FF62
00EA
01FB
017F
0021
FFC7
0030
00B6
0131
FEB7
FE0B
FE8F
FF93
011A
FF74
0165
FFBC
FF5E
FF22
FF8D
FE41
00F4
FEDF
00D1
FFA5
FEDB
01E0
FEAD
01A1
00A0
FE5A
01A2
0197
FFEF
FF78
FEC3
00D4
0132
FE82
001D
FE78
0012
0041
FEA5
FF61
01BC
FEF6
01CA
FE20
FEA1
0173
00AD
FE30
FF23
FE85
FE80
0155
002C
FEC9
0191
0187
FF0C
0117
00B5
FEE3
008C
FE6F
FF5F
00C9
0072
0120
FFC7
FE17
0026
00A3
FF3C
016E
FE93
FED9
00F1
0162
FE6E
019C
01CB
0043
0027
01C9
FE76
01D1
FFE2
0080
00F5
0129
003D
FEEB
0055
FE27
FF08
FEC3
00D3
FEE5
FFE9
019B
01A0
FF6B
FF30
FE7D
FEEA
0019
0168
003D
019F
FF91
00E0
017D
FF88
FEAE
FF98
00A0
FEDC
FE86
000F
FE7B
0041
0108
0186
00E4
FE72
FEBE
FFB5
FF6C
0153
FE9C
006F
FECF
01C3
0170
00F1
FED2
0030
00AA
007E
01FB
009D
FFA6
0074
FF52
FE41
FEB2
0082
0092
00E0
0074
0093
015A
0079
0141
FF05
FE10
0171
006D
0186
0083
0074
FEE6
0071
0181
FFFF
FF90
0098
FFD5
01BE
FF10
000C
000E
0119
FEB4
FE79
FE17
00CD
FE24
0131
0015
FF24
FE55
001F
FE77
01CB
0117
FFF7
FF28
01BF
FE4D
01FB
0400
