DEPTH = 257;
WIDTH = 16;
ADDRESS_RADIX = DEC;
DATA_RADIX = HEX;
CONTENT BEGIN
0 : FE11;
1 : 00B6;
2 : 005D;
3 : FE2A;
4 : 018D;
5 : FFC4;
6 : 0033;
7 : FE3B;
8 : 00AD;
9 : FEAF;
10 : FF08;
11 : 0145;
12 : 004E;
13 : FE79;
14 : 01A8;
15 : FE13;
16 : 017C;
17 : FE2F;
18 : 007C;
19 : FF62;
20 : 0079;
21 : FFFD;
22 : 00BC;
23 : 01C7;
24 : FEDD;
25 : 0090;
26 : FE6C;
27 : FFC2;
28 : FF89;
29 : 015C;
30 : FFA4;
31 : FE79;
32 : FE73;
33 : 017E;
34 : FF20;
35 : 0151;
36 : 017B;
37 : 0022;
38 : 00E3;
39 : 01A3;
40 : FFE5;
41 : 00FD;
42 : FFF0;
43 : FEFD;
44 : 0005;
45 : FE35;
46 : 01DE;
47 : 0030;
48 : 00C9;
49 : 002A;
50 : FFB7;
51 : FFAA;
52 : 00F3;
53 : FEC9;
54 : 018B;
55 : 0174;
56 : FEC3;
57 : FF16;
58 : 00C4;
59 : FF41;
60 : FF91;
61 : FE24;
62 : FE3A;
63 : 00B8;
64 : FE3F;
65 : 0098;
66 : FFC5;
67 : 00A4;
68 : 0063;
69 : 0190;
70 : 004F;
71 : 0172;
72 : FEEF;
73 : FEF7;
74 : FF3B;
75 : FE01;
76 : FF85;
77 : FEAA;
78 : 0067;
79 : 0042;
80 : FEBD;
81 : FF21;
82 : 00E2;
83 : FE63;
84 : FE32;
85 : FE73;
86 : FE4D;
87 : 0081;
88 : 0144;
89 : FF16;
90 : FE67;
91 : FF33;
92 : 0154;
93 : 0163;
94 : FFF6;
95 : FFE3;
96 : 01BC;
97 : FF1C;
98 : FF14;
99 : 00AF;
100 : FE06;
101 : 0040;
102 : FFAE;
103 : FF8C;
104 : FEDB;
105 : FECA;
106 : 013F;
107 : FEDC;
108 : FFF0;
109 : FFBB;
110 : 010F;
111 : FF58;
112 : 0022;
113 : 009E;
114 : FF13;
115 : FE33;
116 : 01F6;
117 : FE78;
118 : 0194;
119 : 00E6;
120 : 00CB;
121 : FF36;
122 : FE0E;
123 : FE79;
124 : FFFB;
125 : FECB;
126 : 006B;
127 : 0134;
128 : FFD0;
129 : FEEF;
130 : FE88;
131 : 0140;
132 : FEA5;
133 : FE0F;
134 : FE64;
135 : 01D5;
136 : FE73;
137 : 01B3;
138 : FE04;
139 : 00B0;
140 : 00FC;
141 : FEFA;
142 : 01CD;
143 : 00D7;
144 : FF10;
145 : 01A6;
146 : 0182;
147 : 0024;
148 : FE87;
149 : FF49;
150 : 0001;
151 : FFEF;
152 : FE2B;
153 : 0153;
154 : 00B8;
155 : 00DF;
156 : FFAB;
157 : 012F;
158 : FE36;
159 : FF1F;
160 : 0124;
161 : 012D;
162 : FE9E;
163 : 0071;
164 : FEFB;
165 : FE03;
166 : FE8F;
167 : 005B;
168 : FE1A;
169 : FF4D;
170 : 0061;
171 : 00DE;
172 : FE20;
173 : 0092;
174 : 01E8;
175 : 0067;
176 : 0008;
177 : 0145;
178 : FFDC;
179 : 01EB;
180 : 0048;
181 : FF1E;
182 : 009D;
183 : FF51;
184 : FF17;
185 : FF56;
186 : 014E;
187 : 01B3;
188 : 010D;
189 : FE86;
190 : 012C;
191 : FF43;
192 : FF28;
193 : FFB3;
194 : FFE0;
195 : FEE8;
196 : FE73;
197 : FE7D;
198 : 0034;
199 : 00A6;
200 : 01B4;
201 : 0003;
202 : FEF3;
203 : 007F;
204 : 00DD;
205 : FFA6;
206 : FEF0;
207 : FFC1;
208 : FE60;
209 : 0078;
210 : FE08;
211 : 00C7;
212 : 017C;
213 : FEA8;
214 : 0150;
215 : 01A3;
216 : FFB3;
217 : 0173;
218 : FF72;
219 : FEC2;
220 : 016C;
221 : FE64;
222 : 01FB;
223 : FFB4;
224 : FF72;
225 : 018B;
226 : FFE0;
227 : FE22;
228 : FF9F;
229 : FE12;
230 : 0189;
231 : 0048;
232 : 00C1;
233 : FEC5;
234 : 00D4;
235 : 000C;
236 : FFF2;
237 : FF80;
238 : 0102;
239 : FF73;
240 : 00A0;
241 : FE5A;
242 : 000F;
243 : 001C;
244 : FF56;
245 : FF01;
246 : FFBF;
247 : 0095;
248 : 0174;
249 : FE24;
250 : 0195;
251 : FE70;
252 : 00A0;
253 : 0003;
254 : 01A2;
255 : FEF2;
256 : 0400;
END;
