DEPTH = 257;
WIDTH = 16;
ADDRESS_RADIX = DEC;
DATA_RADIX = HEX;
CONTENT BEGIN
0 : FF4B;
1 : 01C6;
2 : FF5A;
3 : FE7B;
4 : FFA7;
5 : 01F6;
6 : 013A;
7 : 0101;
8 : 00B7;
9 : 0060;
10 : 0190;
11 : FE7B;
12 : 0055;
13 : FEBA;
14 : FE1B;
15 : FED5;
16 : FE1E;
17 : 017D;
18 : 0186;
19 : FEA2;
20 : 01BF;
21 : 0020;
22 : FE3A;
23 : FF14;
24 : 0183;
25 : FF86;
26 : 0145;
27 : FE77;
28 : FFED;
29 : 005A;
30 : FE5F;
31 : 012D;
32 : FF37;
33 : FE22;
34 : FEDA;
35 : FF39;
36 : FE9E;
37 : 002A;
38 : FF5D;
39 : FF8B;
40 : 0013;
41 : 01DB;
42 : FFDB;
43 : FE0A;
44 : 00CA;
45 : 014F;
46 : 01BB;
47 : FF7A;
48 : 00FE;
49 : 016F;
50 : 015A;
51 : 00B5;
52 : 0066;
53 : 008B;
54 : FEA0;
55 : FF1A;
56 : FF0B;
57 : FFC5;
58 : FE51;
59 : FF5C;
60 : 019E;
61 : FF16;
62 : 00D6;
63 : FF1A;
64 : 003A;
65 : 00CF;
66 : FEC2;
67 : FFDD;
68 : FF6B;
69 : FE1A;
70 : 00F8;
71 : FED7;
72 : 01FA;
73 : FE24;
74 : FE71;
75 : 00E0;
76 : 0064;
77 : 0143;
78 : FF50;
79 : FE7A;
80 : FFEC;
81 : 0174;
82 : FE55;
83 : 00CA;
84 : 01B6;
85 : FE88;
86 : FFDB;
87 : FF08;
88 : FE45;
89 : FF03;
90 : 00F3;
91 : 0180;
92 : FE66;
93 : 016D;
94 : 016A;
95 : FFAC;
96 : FEC8;
97 : 0160;
98 : FF75;
99 : FF06;
100 : FF00;
101 : FE4D;
102 : FE09;
103 : 01B4;
104 : FF37;
105 : 014E;
106 : 0034;
107 : 0167;
108 : FE15;
109 : 00EB;
110 : FF88;
111 : 01BB;
112 : 018D;
113 : FF19;
114 : FFB9;
115 : FE84;
116 : 013E;
117 : 001D;
118 : 0008;
119 : FEC1;
120 : 0010;
121 : FEEB;
122 : FFBA;
123 : FE6A;
124 : FFA9;
125 : FFBE;
126 : 0048;
127 : FFCC;
128 : 019D;
129 : FE81;
130 : 014D;
131 : FE43;
132 : FEE3;
133 : 018A;
134 : 0113;
135 : FF14;
136 : FE32;
137 : 01AE;
138 : 0056;
139 : 0003;
140 : 017D;
141 : 000E;
142 : 00CF;
143 : FFF4;
144 : FF64;
145 : FE73;
146 : 016D;
147 : 009B;
148 : FFF9;
149 : 0141;
150 : 0119;
151 : 009D;
152 : 0139;
153 : 01BC;
154 : 0016;
155 : 0165;
156 : 0104;
157 : FE60;
158 : 0073;
159 : FE69;
160 : FFF9;
161 : 01FD;
162 : FFDC;
163 : 0003;
164 : 00F8;
165 : 0038;
166 : 0019;
167 : FED5;
168 : FF23;
169 : FE39;
170 : 00C7;
171 : 000E;
172 : 0116;
173 : FEDD;
174 : 01C5;
175 : 0111;
176 : 002F;
177 : FF4B;
178 : 00C0;
179 : 010E;
180 : 006F;
181 : 018F;
182 : FEB3;
183 : FE4C;
184 : 006A;
185 : 01B5;
186 : FE0B;
187 : FFB8;
188 : 0103;
189 : 0172;
190 : 0075;
191 : FF60;
192 : FFDD;
193 : FE9A;
194 : FFBD;
195 : 01E9;
196 : FEFC;
197 : 00FB;
198 : 010E;
199 : FF2D;
200 : 00DF;
201 : 00A2;
202 : FF5B;
203 : 0023;
204 : FF75;
205 : 015A;
206 : 01D6;
207 : 01D2;
208 : 004E;
209 : FF8D;
210 : 018E;
211 : FEE9;
212 : FFFF;
213 : 00F7;
214 : 00D9;
215 : 01C9;
216 : FF67;
217 : 0096;
218 : FF9C;
219 : FE52;
220 : FE7A;
221 : FF8E;
222 : 017E;
223 : FF1C;
224 : 01F9;
225 : 018E;
226 : FEDC;
227 : 0057;
228 : 0015;
229 : 0052;
230 : 0169;
231 : 01A9;
232 : FF7F;
233 : 01F6;
234 : FF60;
235 : FF09;
236 : FE12;
237 : FFC1;
238 : 0050;
239 : FF81;
240 : 013D;
241 : FF8F;
242 : FFA1;
243 : 0036;
244 : 014E;
245 : FFD4;
246 : FE27;
247 : FE62;
248 : FE3F;
249 : FFE4;
250 : FEE3;
251 : 01E6;
252 : 0066;
253 : 01B2;
254 : 0126;
255 : FFC2;
256 : 0400;
END;
