DEPTH = 257;
WIDTH = 16;
ADDRESS_RADIX = DEC;
DATA_RADIX = HEX;
CONTENT BEGIN
0 : FEA5;
1 : FF29;
2 : FE4F;
3 : FEEA;
4 : 019F;
5 : 01D8;
6 : FF8B;
7 : 01C4;
8 : FFF0;
9 : FF7B;
10 : FED6;
11 : FEBD;
12 : FEE3;
13 : FE1C;
14 : 00A3;
15 : 00DD;
16 : FE4E;
17 : 00BC;
18 : FEE1;
19 : FE53;
20 : FE4B;
21 : FEF2;
22 : FFD1;
23 : 01E1;
24 : 014E;
25 : FE83;
26 : 0105;
27 : FE5B;
28 : FE24;
29 : 010B;
30 : FE05;
31 : 0038;
32 : 00FF;
33 : FFCD;
34 : FF64;
35 : FE91;
36 : 01DB;
37 : 0006;
38 : FE1C;
39 : FFF1;
40 : FF95;
41 : 0094;
42 : FF43;
43 : 00F4;
44 : 01F0;
45 : 013A;
46 : 019C;
47 : FF7C;
48 : FF00;
49 : FF3D;
50 : FF28;
51 : FE71;
52 : 01B7;
53 : 01B6;
54 : 0063;
55 : FEEA;
56 : FE1F;
57 : FF61;
58 : FEF0;
59 : 011A;
60 : 0157;
61 : FE18;
62 : FEEF;
63 : FEA7;
64 : 002A;
65 : 0058;
66 : FFEA;
67 : FE6F;
68 : FE8A;
69 : 01FC;
70 : 0014;
71 : FF9C;
72 : 01AF;
73 : FFBE;
74 : 01FC;
75 : 0062;
76 : FFC9;
77 : FF02;
78 : 00D4;
79 : 001A;
80 : FFAD;
81 : 00A9;
82 : 0064;
83 : FE9B;
84 : 00A6;
85 : FEE7;
86 : 01F3;
87 : 00C6;
88 : 01F7;
89 : 0154;
90 : 0047;
91 : 0190;
92 : FE99;
93 : FFF1;
94 : 0110;
95 : 0003;
96 : 0033;
97 : FF9A;
98 : FE13;
99 : FF5A;
100 : 0122;
101 : FE36;
102 : 00BC;
103 : 016B;
104 : FEEE;
105 : 01E6;
106 : 019F;
107 : 012C;
108 : 012C;
109 : 01D7;
110 : 0144;
111 : 0034;
112 : 006D;
113 : 0109;
114 : FE61;
115 : FF35;
116 : 00CE;
117 : 015D;
118 : 0000;
119 : FEE6;
120 : FEE1;
121 : 0032;
122 : 0053;
123 : FE19;
124 : FE20;
125 : 00D5;
126 : FE67;
127 : FFCE;
128 : FEDC;
129 : 00D6;
130 : FF09;
131 : 0127;
132 : 0150;
133 : 0117;
134 : 0060;
135 : FE45;
136 : 00D6;
137 : 009E;
138 : FF63;
139 : 0162;
140 : 0102;
141 : 018C;
142 : FE87;
143 : FE1F;
144 : FED5;
145 : 0105;
146 : 01C5;
147 : FEBB;
148 : FE89;
149 : FE94;
150 : 0031;
151 : FF19;
152 : 013E;
153 : 00EB;
154 : FEFB;
155 : 018F;
156 : FF88;
157 : 0150;
158 : 0163;
159 : FF7D;
160 : 00C2;
161 : 0050;
162 : FFF3;
163 : 0015;
164 : 017C;
165 : 0098;
166 : FED5;
167 : FF9D;
168 : 0007;
169 : FE6F;
170 : FF5C;
171 : 01CC;
172 : FFC2;
173 : 0104;
174 : 001D;
175 : 01B6;
176 : FFCD;
177 : 01AC;
178 : FFBB;
179 : 0131;
180 : 01A5;
181 : 01B7;
182 : FFAC;
183 : FF5F;
184 : FF31;
185 : FEFA;
186 : FE72;
187 : 00DF;
188 : FEB3;
189 : 00AE;
190 : 01D8;
191 : 0068;
192 : FEEC;
193 : 0024;
194 : FEA0;
195 : 0067;
196 : FEEF;
197 : FF2A;
198 : FFD2;
199 : FF24;
200 : 01DF;
201 : 0036;
202 : 018F;
203 : 0125;
204 : FEC1;
205 : FF95;
206 : FE35;
207 : FF46;
208 : 00C3;
209 : 0158;
210 : FEE1;
211 : 01BC;
212 : FF43;
213 : FFD0;
214 : 018E;
215 : FF7E;
216 : FEBC;
217 : 0077;
218 : 01EC;
219 : FE48;
220 : FE3F;
221 : FFAE;
222 : 0082;
223 : FF2F;
224 : FFFD;
225 : 0194;
226 : FF9A;
227 : FF65;
228 : 004B;
229 : 002A;
230 : FE0C;
231 : 01FA;
232 : FF8E;
233 : 006F;
234 : 0158;
235 : 018E;
236 : 0028;
237 : 001B;
238 : FE3C;
239 : 016E;
240 : 011B;
241 : FE38;
242 : 0159;
243 : 00F7;
244 : 00E4;
245 : FFEB;
246 : FE34;
247 : 01B0;
248 : 0093;
249 : 0192;
250 : 017B;
251 : 00A1;
252 : 00F0;
253 : FFCF;
254 : 01BB;
255 : FE6F;
256 : 0400;
END;
