00EA
FEF3
010C
00B0
FFCB
0087
004B
01CD
0196
FEB2
FF24
FEBF
002B
FF13
FE17
FFB3
01BA
0088
FF5E
01DA
00B2
FECF
00D2
FF3B
FE46
FF78
FE96
FF98
FEE2
FE5B
FFBC
FF50
016F
FF1F
01AC
00F6
0047
007E
0185
01FA
FE18
0163
01E6
0096
FE1A
FF8A
00F0
0125
006E
0014
FEE4
FE6C
FE35
FF6B
005F
0055
FE39
0107
0145
019E
FEA5
001F
FF94
FF56
00A2
FEA6
0006
FF5B
FFE3
FEB3
01C4
0057
FE64
016E
01F8
0027
00E1
01D0
FFBE
00AB
FF5F
01C2
FF55
FEAA
FE6B
FEA7
012E
00C4
00A7
FF10
FED9
01FF
0006
FE6C
0109
00CD
011D
FFF1
FFC5
0122
01D2
0105
FE36
FF77
FE86
FFE9
012F
FE0D
FFBB
FF76
FEBB
FE9F
00F4
FEDC
FEC6
FE46
FE7B
FE01
FF94
00B0
017A
FF88
00C4
006C
019F
0021
01E8
0058
FE32
0152
0096
FFDF
FF00
00C0
FFA2
FFCE
0076
0172
0145
0006
0173
01C0
01F2
0069
FEFD
FE4D
017F
FE33
00C8
FEA2
FF8B
FE31
0137
0191
00B2
FE38
FF97
01B3
FFE1
FE21
FFF8
0003
0097
0005
01BD
FF88
0047
0161
009B
FE06
FEEC
015E
FED6
FE3F
0023
FF51
001F
01C5
FF0A
00D1
FEE0
0023
0078
FF3D
FEBE
FF8D
FEA7
FE4F
FEEF
0060
FFBC
000B
01FE
0008
FE06
FE7C
00E3
0105
FF09
FFF4
01FE
FF5F
0193
01E5
FFDA
FE21
01B5
FEC2
0062
FE9F
FFC5
FEF1
013B
01F6
01D1
01CA
FF24
FF09
015F
FE74
FEB4
000A
FF16
01C2
FF90
00DD
FE4A
FEE0
FECB
FEFA
01F7
FE6C
0043
FF08
FEE1
FEBE
FFDD
004C
0154
00AD
0070
FFDB
FF7F
FE3A
0097
01EB
0197
FEE8
FED7
FFD7
0181
FF04
007E
01F9
0096
FEB9
0400
