0166
0099
00FC
FF4D
01F9
001C
0191
FE2C
0142
FEA8
FEA8
FECE
FFBD
00C1
FFFB
00EA
0161
0115
011B
0179
0174
FF85
FFDB
007A
0135
01E7
FEF7
FE0C
FE40
FE22
FFF3
FE43
00CF
005E
0086
006E
FF6F
FF33
FE8A
00C5
FED6
FFC8
FEAA
FE2D
FF1B
FF1D
FE68
0101
0182
FE45
FED0
019B
FFF0
FE55
FE9F
0175
01EF
0146
01C1
FF2F
01F8
018F
FE29
0146
FEB5
01E2
0180
FE7F
00B3
0000
0170
FE8D
FEAC
00C4
FEA4
002E
FEF6
015A
FE6D
FE4D
FE06
01A3
0049
FF57
FFE9
FF71
01E4
FE44
01D7
FEA6
0006
FF48
FE54
FFF9
FEB7
FE82
FFE1
FEF6
FFDD
FE42
00E7
0002
FF7C
FECC
FFBD
016C
FF5C
007B
FFD8
FF21
01C8
FF4C
01E7
FE61
FF4D
00C0
FF0D
FFC1
FF55
FFCD
018A
FF08
FFF6
00D3
FEBA
012E
01C6
FE6A
01EC
FFCB
FF85
000A
FEB6
00D4
003C
0037
0150
0076
FE27
001C
FE06
0041
0131
FEED
FF2F
FF31
FF2A
00CE
FFC1
01DE
0158
FF88
FF14
FF53
FF04
FF28
FF49
FF39
FEB0
0016
0019
FE15
FF7B
FF02
FE26
01E4
010C
01C3
01C9
FF90
FEC7
00A1
01C5
00CF
FFB2
FFA7
004F
003B
FF8E
006A
FF2C
00DB
0094
007E
FE05
01E9
FE27
01D7
011D
00AC
01E1
FED6
01D4
00A9
01EE
FF81
0074
FFAE
007B
FE9A
01E9
FFA8
0029
0163
FF45
00D9
0068
FEB1
FF9E
01A9
FE55
0031
FE57
00D6
FEE4
FF0D
FE4B
0082
FE9C
FE1B
00D2
0001
FE05
0141
FFA1
FF07
0167
010B
FFF1
FF05
01E2
00B0
0079
FE1E
00C5
FE66
0192
FE34
00FC
0122
0101
012E
00A4
FFDA
0043
0136
FE83
FFCF
0062
FF20
01C9
0095
FE10
FF71
0017
FF61
0400
