01B0
0064
0194
01C2
FE50
FFC2
FF15
012E
FFC0
FF92
005C
FF67
FF98
FF56
FE05
0136
01CD
FEDF
00B8
FF8A
009A
01E6
01FC
FEEA
01F7
00C5
00DF
FFB6
FECA
FE7C
FEF6
01C6
00C9
FEA2
0022
01A9
FE92
0023
FE44
019C
FE68
FF44
00F7
FEFD
01C9
0194
FF6A
FF21
FE53
00B1
006D
00EE
FF0A
FE20
FFBB
FF79
FED5
FF2A
FE29
01AF
014C
00ED
FFB7
00B6
FE00
FE79
011F
00EA
FE92
01CC
00BD
01F5
0151
FFD8
006B
000B
FF5B
010A
FF7D
FF50
0144
FFC9
FE23
FE16
FE5B
006E
00DD
00BA
01A6
0001
0109
FE94
0184
FE14
FEF0
FFA5
FE4A
FED6
015E
FEF9
FEC4
01A0
FF48
FFB9
FEEE
FE65
019D
00A5
FF73
015F
FE81
FF31
FF36
FE87
FEFB
01C9
FFC9
017C
FE0D
00AB
0089
FE5A
013E
FE01
FEEA
009E
015B
012B
005D
FEDD
00AD
FF55
01E4
FF1F
FF3D
FFB3
FFF8
FED7
FF4F
FEEC
FE4C
FF04
FE36
FE56
0016
FF3D
FF28
FE96
FE61
0190
FFD8
FE4D
01C0
00C8
FF92
FF76
FE66
0040
FF2B
0193
01EA
FFF0
00B5
FF44
FF9C
FFBE
FEA3
FF30
FF7D
FF2A
FE5B
01F2
0141
0172
FE5B
0105
01CA
FF6D
FFD2
0069
FE9B
0120
FF26
FE59
0134
FFD1
FE2B
FEA9
0044
0082
FF28
FE4C
00A6
FF5D
FF4B
00A4
003B
0035
FFC1
00C8
FED5
FF56
001C
0182
001A
FEE4
FEB2
01E1
0162
FEA8
007C
FF46
0069
0161
FF31
FFEF
01CE
00B0
FF62
0010
FF3C
00D2
FFDE
FFBC
0156
FE09
FF37
FF77
0076
0186
FF56
0126
FED2
FE4F
FEA4
FE8D
FF55
FF08
0067
FEFD
0103
00C5
FF3B
0188
00BD
0077
FE39
007A
0172
FE9E
0184
FE0F
FF1F
FFCC
01A3
016D
0400
