DEPTH = 257;
WIDTH = 16;
ADDRESS_RADIX = DEC;
DATA_RADIX = HEX;
CONTENT BEGIN
0 : FF7B;
1 : 01A9;
2 : 01D1;
3 : 01C3;
4 : 01F2;
5 : 01E6;
6 : FE50;
7 : 0056;
8 : 012D;
9 : FE8F;
10 : FF57;
11 : 0083;
12 : 01F3;
13 : FEE3;
14 : FFF5;
15 : FF00;
16 : FFEB;
17 : FF92;
18 : FE4A;
19 : FE0C;
20 : FE68;
21 : FF68;
22 : 01BD;
23 : FE3E;
24 : 015D;
25 : FF05;
26 : FFC0;
27 : 00C1;
28 : FF66;
29 : 006F;
30 : 01E3;
31 : FFDB;
32 : FF1F;
33 : 0071;
34 : FEC9;
35 : FFEE;
36 : FFA1;
37 : FE50;
38 : FFF3;
39 : FE5B;
40 : 01D7;
41 : 01C6;
42 : 01A2;
43 : 012C;
44 : 01CE;
45 : FE4D;
46 : FE4F;
47 : 006A;
48 : 00A6;
49 : FEDF;
50 : FE09;
51 : 00D6;
52 : 0027;
53 : FF41;
54 : 0173;
55 : 011C;
56 : FFEE;
57 : FFDE;
58 : FE57;
59 : FED6;
60 : 00FD;
61 : 0080;
62 : FEEF;
63 : 00C5;
64 : FEDE;
65 : FF88;
66 : 019C;
67 : 0066;
68 : 0095;
69 : FFB6;
70 : FF40;
71 : 0005;
72 : FF87;
73 : 01ED;
74 : FE6F;
75 : 010E;
76 : FE66;
77 : FF78;
78 : FE6D;
79 : FF43;
80 : 00C8;
81 : 002D;
82 : FEE9;
83 : 006A;
84 : FEC5;
85 : 0034;
86 : FEF9;
87 : 0182;
88 : FF08;
89 : FFAA;
90 : 0152;
91 : 0083;
92 : 0106;
93 : FF81;
94 : FF24;
95 : FE9B;
96 : 00F8;
97 : 003B;
98 : 0084;
99 : FFD7;
100 : 0194;
101 : FFFA;
102 : 012D;
103 : 0107;
104 : FFB0;
105 : FF48;
106 : FE04;
107 : 013A;
108 : 014B;
109 : FF15;
110 : 0190;
111 : 01D9;
112 : FFC9;
113 : FFB2;
114 : 0063;
115 : FEB4;
116 : 00C5;
117 : 0092;
118 : FF1C;
119 : FF6E;
120 : FE51;
121 : FEB7;
122 : 00D9;
123 : 0097;
124 : FE61;
125 : FE29;
126 : 00EC;
127 : FEF2;
128 : FEFD;
129 : 01D9;
130 : 0173;
131 : FE42;
132 : 00A2;
133 : FFB6;
134 : FEC1;
135 : FEE4;
136 : 01B9;
137 : 0120;
138 : 0175;
139 : FF37;
140 : FFE8;
141 : 0066;
142 : FFC6;
143 : 01C8;
144 : FF5E;
145 : 00A7;
146 : 017C;
147 : FF85;
148 : FFFF;
149 : FFEC;
150 : FEE8;
151 : FF08;
152 : 01E8;
153 : FE44;
154 : FE8B;
155 : 0100;
156 : 0129;
157 : 00D4;
158 : 002F;
159 : FE13;
160 : FEFB;
161 : 0114;
162 : 00C7;
163 : FF02;
164 : FEC8;
165 : FEE6;
166 : FFF2;
167 : 011B;
168 : FF70;
169 : 017B;
170 : FFEC;
171 : 0166;
172 : 00DF;
173 : 0037;
174 : 0169;
175 : FF72;
176 : FEA4;
177 : 0189;
178 : 015D;
179 : 002D;
180 : FEFF;
181 : 0043;
182 : FE72;
183 : 00C7;
184 : FE49;
185 : FEB3;
186 : 0159;
187 : FE4A;
188 : FF90;
189 : FF52;
190 : 00D4;
191 : 01B8;
192 : 009D;
193 : FEC4;
194 : FEC2;
195 : 0077;
196 : 01F0;
197 : FE25;
198 : 0132;
199 : 002C;
200 : 015C;
201 : 01D0;
202 : 0091;
203 : FFB6;
204 : FE5F;
205 : FF66;
206 : 00E9;
207 : 01E3;
208 : FF99;
209 : 0136;
210 : FEDE;
211 : 013F;
212 : FE09;
213 : 0139;
214 : FE7E;
215 : FF2B;
216 : FF4C;
217 : 01DB;
218 : 0185;
219 : 0106;
220 : 0054;
221 : 0083;
222 : FE17;
223 : FE98;
224 : FEE1;
225 : FE90;
226 : 0016;
227 : 01F1;
228 : FFBD;
229 : 00CE;
230 : FFB6;
231 : 013E;
232 : 008F;
233 : FEE7;
234 : FF5F;
235 : 0062;
236 : 0042;
237 : FF95;
238 : 0156;
239 : 00E1;
240 : 0134;
241 : 0060;
242 : 01DE;
243 : FF5E;
244 : FFFA;
245 : FE19;
246 : FFD5;
247 : 0167;
248 : 0189;
249 : 014D;
250 : 01FE;
251 : FF5A;
252 : 0106;
253 : 005A;
254 : FE3A;
255 : FFBA;
256 : 0400;
END;
