DEPTH = 257;
WIDTH = 16;
ADDRESS_RADIX = DEC;
DATA_RADIX = HEX;
CONTENT BEGIN
0 : FEE3;
1 : FFAB;
2 : 000B;
3 : FE07;
4 : FEB6;
5 : FF21;
6 : 0137;
7 : 00F1;
8 : FF4F;
9 : FED9;
10 : FF4A;
11 : FE15;
12 : FE58;
13 : FE0D;
14 : 0196;
15 : FF2C;
16 : 0103;
17 : 0079;
18 : 00B8;
19 : 00CA;
20 : FE73;
21 : FED3;
22 : 0179;
23 : 0057;
24 : 01B9;
25 : FED6;
26 : 0168;
27 : 01F8;
28 : FF6C;
29 : 007A;
30 : FE03;
31 : 00C8;
32 : 000D;
33 : 00C7;
34 : 0092;
35 : FF1E;
36 : FF8F;
37 : 01D8;
38 : FF27;
39 : 01F0;
40 : 0061;
41 : 0020;
42 : FF9E;
43 : FFF9;
44 : 0009;
45 : 000E;
46 : FE69;
47 : 0109;
48 : 016F;
49 : FEC7;
50 : 0003;
51 : 0037;
52 : 0098;
53 : 00CA;
54 : 00C3;
55 : 0000;
56 : FF3F;
57 : 01F6;
58 : 007E;
59 : 00D3;
60 : 002D;
61 : 01E5;
62 : FF97;
63 : 005A;
64 : 0090;
65 : FF76;
66 : 00EC;
67 : 0055;
68 : 0048;
69 : 0037;
70 : FFE3;
71 : FEA5;
72 : 007C;
73 : FF80;
74 : FF65;
75 : 000D;
76 : 0197;
77 : FE46;
78 : 0098;
79 : FF5E;
80 : 01DE;
81 : FF8B;
82 : FFE7;
83 : FFD4;
84 : FF4B;
85 : 0004;
86 : FEBA;
87 : FF3E;
88 : FEB3;
89 : 01C3;
90 : 01BF;
91 : 010C;
92 : FE5C;
93 : 002F;
94 : 0030;
95 : FE88;
96 : 009C;
97 : 005D;
98 : 0033;
99 : FE43;
100 : 019B;
101 : 0038;
102 : 015E;
103 : FF76;
104 : 0138;
105 : 01C1;
106 : 0180;
107 : 00EB;
108 : FE9A;
109 : 0096;
110 : FF94;
111 : 0123;
112 : 008F;
113 : FF75;
114 : FFF3;
115 : FEA2;
116 : FFCC;
117 : 0086;
118 : FFDC;
119 : 00A6;
120 : FE3A;
121 : FEE4;
122 : FE15;
123 : FF07;
124 : FF55;
125 : FFED;
126 : FE0F;
127 : 01DD;
128 : FFC4;
129 : FED3;
130 : 00C9;
131 : FE86;
132 : FE3F;
133 : FF61;
134 : FEB1;
135 : 00B6;
136 : FE2B;
137 : 01C6;
138 : 000C;
139 : 00E2;
140 : FE49;
141 : FFBB;
142 : 0073;
143 : FEE7;
144 : 0175;
145 : 0102;
146 : 01FE;
147 : FE3C;
148 : FE2D;
149 : FEAF;
150 : 0117;
151 : FE14;
152 : FE9F;
153 : FF54;
154 : 003E;
155 : FE50;
156 : FEB0;
157 : FE61;
158 : FFF8;
159 : 00D1;
160 : 019E;
161 : FF76;
162 : 006D;
163 : 0068;
164 : 001A;
165 : 015A;
166 : 009D;
167 : 01D9;
168 : 0067;
169 : FF8D;
170 : FE53;
171 : FF80;
172 : 01F2;
173 : 00C1;
174 : 019A;
175 : FF3D;
176 : FF04;
177 : 0127;
178 : 0073;
179 : 009C;
180 : 0052;
181 : FF70;
182 : 0142;
183 : FE11;
184 : FFE9;
185 : 011F;
186 : 0106;
187 : 00CF;
188 : FEED;
189 : 0030;
190 : 0083;
191 : FF82;
192 : FF77;
193 : 0120;
194 : 004B;
195 : FE73;
196 : 0103;
197 : FF59;
198 : FE35;
199 : 0055;
200 : 0145;
201 : FFCF;
202 : 0134;
203 : 0087;
204 : 01BE;
205 : FEF1;
206 : 0166;
207 : 0004;
208 : 0105;
209 : 01A7;
210 : 00FE;
211 : FF83;
212 : FE84;
213 : FEE8;
214 : FF2B;
215 : 01CA;
216 : 00D4;
217 : 01DA;
218 : 0126;
219 : 01E2;
220 : 01D6;
221 : FE35;
222 : FE18;
223 : 01B4;
224 : 01A0;
225 : FF3F;
226 : FF5D;
227 : 01F1;
228 : FF01;
229 : FF6B;
230 : FE62;
231 : 0074;
232 : 00F7;
233 : 00C8;
234 : FED2;
235 : 002E;
236 : FFD5;
237 : FE6A;
238 : FFDB;
239 : 01AB;
240 : FEC3;
241 : FFFF;
242 : 00C0;
243 : FF60;
244 : FE3E;
245 : 0090;
246 : 011E;
247 : FFE3;
248 : FE1E;
249 : FFE4;
250 : FE00;
251 : FE05;
252 : 00E1;
253 : FE15;
254 : FE5A;
255 : 00F2;
256 : 0400;
END;
