011F
018C
0197
00E7
FFF8
FE72
01A0
FFB2
0062
010A
00BA
FF05
FF30
00E0
FF6C
FF28
01C6
FFBB
FE9B
01CE
FFBE
0131
010D
013B
018C
FE86
FFB4
001C
FEA3
0110
00EB
FFBF
0153
FE41
0016
016C
01D3
004B
010F
014F
FE40
00D5
0190
FFE1
FF56
007C
FF69
FF3A
FE0A
FF03
00C1
0084
010A
01E4
FE97
FEAC
014E
FE0B
FF4F
FF99
0050
00A3
012D
01E9
FF2F
FF96
01A2
0043
FE15
01BB
0132
00AD
01D2
FE50
002E
0149
FF50
0002
01B1
01BB
0052
FE92
01D6
FF1D
FE83
0097
0096
014A
FFE6
01FC
0024
FF72
FED3
010A
FFD5
FEF9
014C
009B
0095
FEFD
0054
01AF
FF02
FE78
FF4F
FE14
0120
01A2
01AC
00E2
FFAA
0187
0051
FFF9
FF7E
FFEC
00C3
FEA1
0043
0172
FE2E
0097
FF8C
009D
FE41
00BA
FF7F
01E2
FE5C
006D
FE5C
0061
FE5D
FFC3
FFCC
0025
0106
011F
01A6
FF76
FF9B
00A3
006B
01BB
FE49
FFDF
FE71
0104
00CB
FFD2
0121
00D3
01FF
FFC8
FE5E
0021
FF81
FF8D
FFE2
00B8
FF61
FFD3
0001
FF26
013D
0188
FEC6
01D2
0116
FEB0
0200
FEE4
FEEA
011B
01A9
019B
FF58
0082
FE53
FEF3
FF3F
FF03
00C8
FE4E
0171
FEA2
007E
FF8C
01E9
0076
FF16
0034
FE42
FF93
FED9
00F5
FEBF
FFF4
0055
00AA
FE2C
FF77
0178
00C6
FF10
FED9
FF2D
FF5B
01C8
FFFB
005F
FF55
005F
FE59
FFF6
012A
FEDE
FF67
FF1B
0147
0047
0131
FFF5
FEC0
FE9B
0119
FFF4
FE3D
FF74
FFD3
01B4
FE59
FFC8
FE93
0055
00DE
FF87
FEEA
FFEA
01F5
01A2
01AE
0196
01AD
00B8
FF7E
00DD
006F
004A
FF12
FE41
FE5F
FE07
FECA
FEF0
01A0
0400
