DEPTH = 257;
WIDTH = 16;
ADDRESS_RADIX = DEC;
DATA_RADIX = HEX;
CONTENT BEGIN
0 : 01E3;
1 : FF74;
2 : 00D0;
3 : 0013;
4 : 01B9;
5 : FF5D;
6 : 011B;
7 : FF7D;
8 : 0026;
9 : FE59;
10 : FFFE;
11 : 0128;
12 : FF5E;
13 : 0145;
14 : 0192;
15 : FFB0;
16 : 00F9;
17 : FF57;
18 : FE84;
19 : 014E;
20 : 01BC;
21 : FFCF;
22 : FE7D;
23 : FE28;
24 : FF38;
25 : 0129;
26 : 0139;
27 : 0179;
28 : 003F;
29 : 0052;
30 : FE42;
31 : 0092;
32 : 0110;
33 : 017C;
34 : 01C1;
35 : 009D;
36 : 0156;
37 : 010C;
38 : 002B;
39 : 0037;
40 : 0117;
41 : 0119;
42 : FF3F;
43 : 00B6;
44 : 00C7;
45 : 01AF;
46 : FFD9;
47 : 00DB;
48 : 00B2;
49 : FEA4;
50 : 0071;
51 : FFC2;
52 : 00AC;
53 : FFD2;
54 : 00D2;
55 : FEB8;
56 : FEBE;
57 : 01BE;
58 : 0157;
59 : FF60;
60 : FFB4;
61 : FE34;
62 : 0033;
63 : FF80;
64 : FF43;
65 : FE15;
66 : 01A5;
67 : FF6F;
68 : 00C8;
69 : FF0B;
70 : 0041;
71 : 011F;
72 : FE28;
73 : FEC2;
74 : FE37;
75 : FEEE;
76 : FF5C;
77 : 016B;
78 : FFE5;
79 : FF93;
80 : 0183;
81 : FFAB;
82 : 0033;
83 : FE46;
84 : 011A;
85 : FE6D;
86 : 00D5;
87 : 0179;
88 : 00E2;
89 : 0088;
90 : 01A6;
91 : FF12;
92 : FE84;
93 : 0180;
94 : FF0D;
95 : FE5D;
96 : 00DB;
97 : 010C;
98 : 0040;
99 : 014F;
100 : 006E;
101 : FFD7;
102 : 018E;
103 : 00AD;
104 : FF24;
105 : FFDF;
106 : FF45;
107 : FF98;
108 : 001C;
109 : 0183;
110 : FFF3;
111 : FED2;
112 : FF31;
113 : 0155;
114 : 01A8;
115 : FE2A;
116 : 00E2;
117 : FE74;
118 : 00A8;
119 : 00F1;
120 : 0044;
121 : 01A0;
122 : 01C3;
123 : FF04;
124 : FF00;
125 : 0155;
126 : 00BE;
127 : 00EE;
128 : 007A;
129 : 00FA;
130 : FFDC;
131 : 0175;
132 : 010D;
133 : 017F;
134 : FFE2;
135 : FFDB;
136 : 0181;
137 : FEF8;
138 : 016A;
139 : 004B;
140 : FF83;
141 : 01BF;
142 : FE58;
143 : FF28;
144 : 0127;
145 : FE50;
146 : FECE;
147 : 0181;
148 : FEFC;
149 : 00CD;
150 : 00F3;
151 : FED2;
152 : FECA;
153 : FFB6;
154 : FE05;
155 : 00C6;
156 : 00E0;
157 : 0190;
158 : FEFF;
159 : FE15;
160 : 011C;
161 : 0142;
162 : 000D;
163 : FEB7;
164 : 01D6;
165 : FF75;
166 : FF79;
167 : FEE1;
168 : FE5E;
169 : 016C;
170 : FE52;
171 : 0147;
172 : FF63;
173 : FFE1;
174 : 00AF;
175 : FE15;
176 : FFAF;
177 : 0186;
178 : FFCF;
179 : FE97;
180 : FF32;
181 : FF7D;
182 : 01FF;
183 : 01CD;
184 : 01F5;
185 : 01A9;
186 : 01AE;
187 : FED0;
188 : 0185;
189 : FF76;
190 : FF73;
191 : 0037;
192 : 0060;
193 : FFD6;
194 : 0154;
195 : 00B7;
196 : FED7;
197 : FF97;
198 : 00FE;
199 : 00EA;
200 : FF24;
201 : FEAE;
202 : FE3A;
203 : 003B;
204 : 0166;
205 : 003C;
206 : 0046;
207 : FE4A;
208 : 0062;
209 : 0123;
210 : FEC1;
211 : 0153;
212 : FEFD;
213 : 003D;
214 : FE71;
215 : FFE6;
216 : FE24;
217 : 01BC;
218 : 004F;
219 : FF18;
220 : FFF4;
221 : FF00;
222 : FEA0;
223 : FE52;
224 : 0019;
225 : FF90;
226 : 0173;
227 : FE59;
228 : FE80;
229 : 01E1;
230 : 01BB;
231 : 01B9;
232 : 0113;
233 : 012C;
234 : FFD0;
235 : 010B;
236 : 01D2;
237 : FFE5;
238 : 002D;
239 : 01FA;
240 : 016D;
241 : FE3B;
242 : FE1B;
243 : FFA1;
244 : 0159;
245 : 01A3;
246 : FF89;
247 : FF41;
248 : FF57;
249 : FE2E;
250 : FF85;
251 : 0017;
252 : 0052;
253 : 01D3;
254 : 0121;
255 : FEC0;
256 : 0400;
END;
