0182
01B3
FE74
FF5D
FE53
00D3
014A
FE4B
0071
FE76
FEF8
0008
00A9
0067
0064
017F
FFC9
00BC
0115
FFF4
00A2
FE6D
009B
FF93
FEF5
01EF
00C8
FE3B
01C3
FF32
0013
FF18
FE31
00F9
FF33
FF30
0174
FFEF
01ED
FFDA
FE90
FEC9
FEE7
FF76
017C
FF29
FF3D
FEA1
FE92
FF59
FE78
006C
FE45
FF57
FE40
0164
FFBC
0062
FF33
FFF9
014E
00B1
FEF6
FFA5
FF91
FE82
FF5A
FF9B
005A
0038
FF3A
FEFD
01D0
FE6D
FF52
FFF9
001D
FFF6
0069
007E
0193
010C
FE0B
0122
008E
FF1A
00F2
FE73
FE3A
FE48
FF20
0149
FF38
01CC
FEF5
FE6D
FFA3
01CE
FEC6
FE53
FE59
00F5
01C5
0187
01DF
FEA3
007A
FF77
005F
FF6D
FE82
00C2
FE2B
FF51
01C3
00D4
0080
FEC0
00AE
FF48
0082
FE09
FECB
FE39
001F
FEB0
FEF8
00ED
FF8D
0053
00F9
FF96
FEE3
00B2
00BF
FF22
00CB
00E6
00C2
013E
000C
01D9
FECB
FF9F
FE17
FFF4
FFD8
FE09
0040
0014
FEE6
FEFF
01A2
FF50
FE1F
FEAD
FF61
FFAC
FE81
01A9
FF4F
0067
FFCB
FEC0
FF24
FEC1
0075
0180
FEC5
FFBB
011A
FED6
FE9D
006E
008F
FF22
FFA9
0196
0154
FFF0
FF62
FE6D
FFFB
FE87
01A8
000B
01D1
00B7
FFC5
008A
01EF
01F7
00B9
00D2
006C
0035
0150
013F
01B4
00CB
01AF
FE5F
000C
FEBC
01D9
01E7
00C6
FEF3
FF81
00D9
FFC8
FF10
FF1C
FE51
FEDA
00EC
0063
FF8E
01AA
0129
0151
FFE5
0150
FFBA
FFBC
01D3
FFE3
FFFB
00F4
0158
000F
FFE3
01CA
0095
FF77
FFF3
0190
00C9
00F8
0025
00FA
FE32
FF33
FFAA
FE7D
FE87
0185
FF77
010C
015D
0108
0080
01A8
0084
FFA9
FF79
0400
