FEF5
01A2
FF1D
FE35
FE0B
FF8F
0195
FF48
FEF3
006C
01F2
FF6D
FE8F
010E
01CB
FF2E
0029
0089
FF0A
0087
0010
FFD2
0179
008E
FFF3
01B1
0173
FE88
00D5
0124
FF56
FE3C
FF86
0030
0175
FFD7
FE8F
0052
FF64
003B
0012
0118
FF2C
FE12
0040
00E9
00CE
016D
FE14
FE56
FEA5
000F
FF9C
FFF4
0025
01D8
FFE2
FEFD
0002
FFC9
FED8
FE56
017C
FF5A
FE7B
FF01
01BD
FFA6
FE07
FF27
000E
0066
01F5
FFD8
011D
FE0A
FED9
FEC9
008B
0024
FE84
FEC5
FF38
016E
FE53
008E
FE23
001D
FE6E
0062
FF9F
009C
0177
FE82
017F
00DB
0186
0179
FF47
01CF
0016
FF56
FFC5
FE94
FFB5
00F5
0133
FFBC
011D
00B5
0015
01C6
01CC
FFC5
009F
FE28
FEAD
FE09
00FC
FE98
FFA7
FECD
FE61
003E
00EB
01CD
00A5
00BB
FFDF
FEB8
0038
0149
009F
0015
FF64
001E
FE7F
FFED
00C2
FE1E
001C
01C6
00DF
FEE4
0139
0020
0005
FF24
00F7
FF8F
FE49
FFC5
0038
00E2
FF7D
FE3C
FE0F
FE28
FFD7
007F
002B
018C
0193
0179
0164
0191
FE4C
FEDC
00A0
0129
005B
000F
00B0
00A7
FEB8
01C6
FF39
FFAA
FE65
FE4B
FE94
FF59
FE16
00C1
FE16
FE04
017C
FF2F
FFA7
0033
0190
FF1D
FEFA
FEBA
FF54
FFEF
0076
00E3
0142
000F
0166
FFC7
FE57
018A
015D
0083
01AA
0005
0103
FF72
FEBB
01E7
FE57
FF42
0126
003A
FEC8
0129
0195
0110
00D2
FE68
FE64
FE02
0157
FE29
FF9F
FE4B
FFB6
0139
0060
0190
FF01
00BB
FE34
FEB6
01B2
0091
0108
FEC9
011D
FF2B
FEBF
FFEA
0077
0087
FEB9
FE8B
FFC4
FE71
00C9
FFF5
008A
FEB5
0021
FED9
0400
