FF2A
FFBA
0019
FF38
0002
000C
01A7
0178
0200
0140
0175
FE3A
FF9A
0055
01A2
FEBA
0081
FF46
012A
0028
00D3
008C
FE6B
FEAC
FED9
FEEA
0189
0147
010F
00A4
FE65
FEB2
FF09
FECE
0125
FE35
FF3D
006E
00DB
01A1
0097
FF6E
006A
01EA
01AE
FF97
FF28
FE79
01D5
FFCD
FF03
0055
FECF
FF15
00DE
FFE5
FF1D
FEBE
0049
FE91
0156
FF9D
0034
FF6B
FF5D
0067
FE5C
FE47
FF8C
FECF
FEBD
FEA7
0001
FF54
00BB
01C8
FEB8
0134
FFE0
FED1
01BB
00BC
FE52
006A
FF7D
00DF
0055
0179
00B3
00F7
0053
0081
011D
FFCA
007E
FE66
FF7D
FEFF
FF34
FE9F
0005
010C
01A9
FF8B
016F
FE87
FE41
FEFC
FE60
FF48
008D
00CB
FF85
005F
01B0
FEEA
0094
FE89
FE4D
008F
FF1C
FF60
00C2
FFA8
001F
0193
FE3B
0069
010B
FEB2
FEA1
FF39
0015
FFBF
FF03
01FB
FF8E
FEE1
0104
FF41
FF55
0093
00E2
FF51
FF78
00F0
FFD1
01B6
FE2C
0001
FF74
FE66
FF3A
012B
00C0
FF10
006E
FEB4
FF55
FF7F
FE56
017E
0001
005A
FFFA
0096
FFC5
FF4F
00CB
FFE4
0064
FFEE
FFE0
FE99
0044
FFD7
FE08
01DD
FEFB
FF0D
00D5
0060
0007
01A0
017D
FFE2
FEBB
01F8
FF52
FF1C
FEA4
013C
01D6
0005
FF19
01A4
019C
00B6
FEFF
011D
000D
FFB5
01D9
012B
0080
01CD
002D
FEB9
FF3F
FEBB
01D8
FF4E
FEAE
01C7
FE16
FF2E
FEA5
FF1E
000C
FE83
0195
00C1
01E6
0040
FFB6
FE61
FF68
FF16
015D
FF90
00D6
000E
FFA9
00B4
FE2C
00EE
0070
000E
FE25
0047
FECD
0152
00E2
015E
FE1B
FFA1
00B6
01E9
0000
FE26
01BC
000C
00CA
0124
FE6B
FFEA
0400
