017C
0089
013C
01B8
FE13
FE67
FE47
FEC8
00FD
FFDA
FF7A
0079
FE6B
FE14
00B0
FEED
005F
FFEC
FFFB
0168
0151
FF59
0014
FEAE
FF36
FE25
00D6
0121
FF79
01D5
FECF
00FC
015E
FF69
007C
009B
FF8D
FE20
FE28
FF89
FF26
0190
FECC
00DA
00A5
005D
FF93
0104
FF6A
FF6D
0024
000F
01FC
FED9
001C
FF5E
FF10
01BC
00AC
01D9
0179
FEED
FE8B
01E6
0058
FE6C
FE3A
FE58
FEA3
FE88
FF96
00B4
FFAD
FED1
FE38
FF61
FE28
FE01
FED3
FE7E
FE08
0005
FFA5
00CE
0102
FEA0
01A9
0070
01EB
00B2
00C4
FEA8
0074
017D
FEB1
0098
FEDD
0158
00A7
007A
FEEE
0009
0132
0162
017B
FE74
FF50
0186
01F0
FE29
FFF9
006A
007D
FE90
FE37
0048
FF93
FF9E
FF67
0128
FE01
00E9
009C
FFB7
FEB4
FE82
FE8E
017B
FF5A
FEB7
FECE
FE29
0187
00A0
0197
FEAF
FF5E
004F
FF6E
0058
00F7
FF7B
0012
FFB1
0110
00C8
013D
FF5A
FFA0
FEB9
0138
01C6
00D7
FF2D
01F7
0170
FEAC
FEF7
00E2
005B
FE4A
FFBE
0149
FE6D
0102
0025
017A
00FE
0104
FE28
01E1
FE58
0089
FF7C
FED2
00FC
FECC
FEE9
FFDE
00FA
FF86
FF47
018A
00DD
FE39
00B3
FF98
003E
FE0F
FE1D
0098
FFE5
FF13
FFA5
001D
00FA
012D
0028
FE08
00F2
0000
0166
FE77
01FC
FFBD
0021
00C5
003F
0119
FF63
0130
017B
000D
0160
0166
01C4
0172
FFB8
010E
00B7
FE47
FE65
0141
FFF5
FEAE
018C
01D3
002D
FFE3
002D
0006
01A8
FE6A
0183
0113
0003
FFA0
FEF6
FE64
0171
FE54
0009
FE47
0074
0123
0109
FEDE
FF93
FF47
01EC
FF53
001A
FECD
FF36
006B
0001
0400
